{
  "version": "1.0",
  "truncation": null,
  "padding": null,
  "added_tokens": [
    {
      "id": 0,
      "content": "[UNK]",
      "single_word": false,
      "lstrip": false,
      "rstrip": false,
      "normalized": false,
      "special": true
    },
    {
      "id": 1,
      "content": "[PAD]",
      "single_word": false,
      "lstrip": false,
      "rstrip": false,
      "normalized": false,
      "special": true
    },
    {
      "id": 2,
      "content": "[SOS]",
      "single_word": false,
      "lstrip": false,
      "rstrip": false,
      "normalized": false,
      "special": true
    },
    {
      "id": 3,
      "content": "[EOS]",
      "single_word": false,
      "lstrip": false,
      "rstrip": false,
      "normalized": false,
      "special": true
    }
  ],
  "normalizer": null,
  "pre_tokenizer": {
    "type": "Whitespace"
  },
  "post_processor": null,
  "decoder": null,
  "model": {
    "type": "BPE",
    "dropout": null,
    "unk_token": "[UNK]",
    "continuing_subword_prefix": null,
    "end_of_word_suffix": null,
    "fuse_unk": false,
    "byte_fallback": false,
    "ignore_merges": false,
    "vocab": {
      "[UNK]": 0,
      "[PAD]": 1,
      "[SOS]": 2,
      "[EOS]": 3,
      "!": 4,
      "%": 5,
      "&": 6,
      "'": 7,
      "(": 8,
      ")": 9,
      "*": 10,
      ",": 11,
      "-": 12,
      ".": 13,
      "/": 14,
      "0": 15,
      "1": 16,
      "2": 17,
      "3": 18,
      "4": 19,
      "5": 20,
      "6": 21,
      "7": 22,
      "8": 23,
      "9": 24,
      ":": 25,
      ";": 26,
      ">": 27,
      "?": 28,
      "A": 29,
      "B": 30,
      "C": 31,
      "D": 32,
      "E": 33,
      "F": 34,
      "G": 35,
      "H": 36,
      "I": 37,
      "J": 38,
      "K": 39,
      "L": 40,
      "M": 41,
      "N": 42,
      "O": 43,
      "P": 44,
      "Q": 45,
      "R": 46,
      "S": 47,
      "T": 48,
      "U": 49,
      "V": 50,
      "W": 51,
      "X": 52,
      "Y": 53,
      "Z": 54,
      "[": 55,
      "]": 56,
      "a": 57,
      "b": 58,
      "c": 59,
      "d": 60,
      "e": 61,
      "f": 62,
      "g": 63,
      "h": 64,
      "i": 65,
      "j": 66,
      "k": 67,
      "l": 68,
      "m": 69,
      "n": 70,
      "o": 71,
      "p": 72,
      "q": 73,
      "r": 74,
      "s": 75,
      "t": 76,
      "u": 77,
      "v": 78,
      "w": 79,
      "x": 80,
      "y": 81,
      "z": 82,
      "|": 83,
      "¡": 84,
      "©": 85,
      "­": 86,
      "°": 87,
      "·": 88,
      "¿": 89,
      "Á": 90,
      "É": 91,
      "Í": 92,
      "Ñ": 93,
      "Ó": 94,
      "à": 95,
      "á": 96,
      "ã": 97,
      "ä": 98,
      "å": 99,
      "æ": 100,
      "ç": 101,
      "è": 102,
      "é": 103,
      "ë": 104,
      "í": 105,
      "ï": 106,
      "ñ": 107,
      "ó": 108,
      "ö": 109,
      "ú": 110,
      "ü": 111,
      "ý": 112,
      "ē": 113,
      "ł": 114,
      "ō": 115,
      "Š": 116,
      "ů": 117,
      "ż": 118,
      "ʼ": 119,
      "ׁ": 120,
      "ה": 121,
      "ו": 122,
      "י": 123,
      "נ": 124,
      "פ": 125,
      "ש": 126,
      "​": 127,
      "–": 128,
      "—": 129,
      "‘": 130,
      "’": 131,
      "“": 132,
      "”": 133,
      "•": 134,
      "…": 135,
      "⁠": 136,
      "□": 137,
      "▪": 138,
      "▸": 139,
      "◇": 140,
      "○": 141,
      "●": 142,
      "☞": 143,
      "an": 144,
      "ku": 145,
      "ch": 146,
      "ta": 147,
      "pa": 148,
      "qa": 149,
      "na": 150,
      "ay": 151,
      "man": 152,
      "in": 153,
      "as": 154,
      "ll": 155,
      "chi": 156,
      "kuna": 157,
      "pi": 158,
      "qan": 159,
      "ka": 160,
      "mi": 161,
      "chik": 162,
      "cha": 163,
      "spa": 164,
      "io": 165,
      "ru": 166,
      "wan": 167,
      "pas": 168,
      "ri": 169,
      "manta": 170,
      "ma": 171,
      "paq": 172,
      "rqa": 173,
      "lla": 174,
      "wa": 175,
      "Dio": 176,
      "ni": 177,
      "ina": 178,
      "kuy": 179,
      "ti": 180,
      "ya": 181,
      "hina": 182,
      "mana": 183,
      "un": 184,
      "ki": 185,
      "pan": 186,
      "nin": 187,
      "chu": 188,
      "asqan": 189,
      "chay": 190,
      "es": 191,
      "ana": 192,
      "Dios": 193,
      "sqan": 194,
      "ña": 195,
      "ra": 196,
      "en": 197,
      "on": 198,
      "taq": 199,
      "kunata": 200,
      "all": 201,
      "hay": 202,
      "kan": 203,
      "allin": 204,
      "Chay": 205,
      "kun": 206,
      "sa": 207,
      "tin": 208,
      "pay": 209,
      "li": 210,
      "tam": 211,
      "hinaspa": 212,
      "may": 213,
      "anku": 214,
      "mu": 215,
      "runa": 216,
      "tu": 217,
      "ov": 218,
      "kay": 219,
      "Je": 220,
      "hu": 221,
      "er": 222,
      "hov": 223,
      "Jehov": 224,
      "ptin": 225,
      "anchik": 226,
      "Diospa": 227,
      "asqa": 228,
      "ima": 229,
      "si": 230,
      "re": 231,
      "yana": 232,
      "sqa": 233,
      "kasqan": 234,
      "wi": 235,
      "ray": 236,
      "su": 237,
      "yacha": 238,
      "Jes": 239,
      "Jesu": 240,
      "mayna": 241,
      "kunaqa": 242,
      "pu": 243,
      "vi": 244,
      "qo": 245,
      "tan": 246,
      "mp": 247,
      "rqaku": 248,
      "ha": 249,
      "lia": 250,
      "kas": 251,
      "muna": 252,
      "nispa": 253,
      "ib": 254,
      ").": 255,
      "kaq": 256,
      "Jehova": 257,
      "yu": 258,
      "huk": 259,
      "iblia": 260,
      "te": 261,
      "ñu": 262,
      "kuq": 263,
      "pim": 264,
      "mas": 265,
      "oq": 266,
      "ankupaq": 267,
      "la": 268,
      "to": 269,
      "anpaq": 270,
      "ion": 271,
      "runakuna": 272,
      "ñi": 273,
      "span": 274,
      "emp": 275,
      "asa": 276,
      "manam": 277,
      "chin": 278,
      "kusqan": 279,
      "chayna": 280,
      "kama": 281,
      "kaw": 282,
      "chaqa": 283,
      "iñi": 284,
      "kin": 285,
      "karqa": 286,
      "yanapa": 287,
      "taqa": 288,
      "willa": 289,
      "yachachi": 290,
      "ran": 291,
      "”,": 292,
      "Biblia": 293,
      "taqmi": 294,
      "was": 295,
      "lo": 296,
      "qawa": 297,
      "kum": 298,
      "yki": 299,
      "Ima": 300,
      "tapas": 301,
      "tiemp": 302,
      "cion": 303,
      "qe": 304,
      "ro": 305,
      "chan": 306,
      "kall": 307,
      "ris": 308,
      "raq": 309,
      "Sa": 310,
      "pacha": 311,
      "rqan": 312,
      "chka": 313,
      "ci": 314,
      "Diosta": 315,
      "di": 316,
      "yta": 317,
      "chkan": 318,
      "Jehová": 319,
      "qu": 320,
      "yoq": 321,
      "imayna": 322,
      "con": 323,
      "os": 324,
      "ser": 325,
      "tari": 326,
      "pun": 327,
      "Chayna": 328,
      "rin": 329,
      "nisqan": 330,
      "kallpan": 331,
      "wanchik": 332,
      "tiempo": 333,
      "le": 334,
      "cu": 335,
      "tukuy": 336,
      "masin": 337,
      "llaq": 338,
      "wata": 339,
      "de": 340,
      "is": 341,
      "Diosqa": 342,
      "Pa": 343,
      "qnin": 344,
      "nirqa": 345,
      "ancha": 346,
      "iñiq": 347,
      "tawan": 348,
      "asqanchik": 349,
      "kurqa": 350,
      "servi": 351,
      "kuta": 352,
      "kuynin": 353,
      "rqani": 354,
      "chas": 355,
      "ati": 356,
      "ano": 357,
      "llam": 358,
      "sun": 359,
      "ca": 360,
      "kusi": 361,
      "mantapas": 362,
      "sasa": 363,
      "kunapa": 364,
      "wañu": 365,
      "chwan": 366,
      "pipas": 367,
      "kamachi": 368,
      "llan": 369,
      "pien": 370,
      "Imayna": 371,
      "Pay": 372,
      "cris": 373,
      "war": 374,
      "el": 375,
      "llu": 376,
      "kawsa": 377,
      "way": 378,
      "kasu": 379,
      "kuspa": 380,
      "manasqa": 381,
      "kunamanta": 382,
      "kallpancha": 383,
      "Mana": 384,
      "ey": 385,
      "kunawan": 386,
      "iñiqmasin": 387,
      "rur": 388,
      "Ichaqa": 389,
      "kasqanta": 390,
      "allinta": 391,
      "kunam": 392,
      "kunapi": 393,
      "unan": 394,
      "Kay": 395,
      "ami": 396,
      "yay": 397,
      "or": 398,
      "otaq": 399,
      "kuti": 400,
      "Jesus": 401,
      "aswan": 402,
      "Chaymi": 403,
      "son": 404,
      "sasacha": 405,
      "ynin": 406,
      "Wa": 407,
      "nacion": 408,
      "qati": 409,
      "kunapaq": 410,
      "Diosmanta": 411,
      "chaw": 412,
      "llqa": 413,
      "piqa": 414,
      "qi": 415,
      "achka": 416,
      "kaptin": 417,
      "anapaq": 418,
      "rayku": 419,
      "piens": 420,
      "ichaqa": 421,
      "chikqa": 422,
      "niyoq": 423,
      "astawan": 424,
      "tun": 425,
      "punchaw": 426,
      "run": 427,
      "lli": 428,
      "kaws": 429,
      "ga": 430,
      "chikta": 431,
      "yari": 432,
      "Jesuspa": 433,
      "Imaynatam": 434,
      "maña": 435,
      "anchikpaq": 436,
      "sapa": 437,
      "blo": 438,
      "kuspan": 439,
      "iñiqmasinchik": 440,
      "raykum": 441,
      "llay": 442,
      "pre": 443,
      "wakin": 444,
      "kuya": 445,
      "suti": 446,
      "cristi": 447,
      "waq": 448,
      "sta": 449,
      "tante": 450,
      "da": 451,
      "kuyta": 452,
      "qawachi": 453,
      "hinam": 454,
      "do": 455,
      "maq": 456,
      "mantam": 457,
      "ño": 458,
      "qon": 459,
      "llaqta": 460,
      "aspa": 461,
      "tapu": 462,
      "Imanasqa": 463,
      "ob": 464,
      "mo": 465,
      "kunaman": 466,
      "kaspan": 467,
      "ayta": 468,
      "se": 469,
      "cristiano": 470,
      "yku": 471,
      "wanmi": 472,
      "kunan": 473,
      "chá": 474,
      "wasun": 475,
      "wasqanchik": 476,
      "iskay": 477,
      "mpay": 478,
      "Sal": 479,
      "Pablo": 480,
      "yach": 481,
      "mantaqa": 482,
      "yachay": 483,
      "Hu": 484,
      "estu": 485,
      "kunatam": 486,
      "Ya": 487,
      "kunapas": 488,
      "ñam": 489,
      "asqanku": 490,
      "stad": 491,
      "rimay": 492,
      "yan": 493,
      "ruwan": 494,
      "yanapan": 495,
      "qanchik": 496,
      "enti": 497,
      "chaynataq": 498,
      "yá": 499,
      "tes": 500,
      "piri": 501,
      "ayki": 502,
      "sumaq": 503,
      "yuq": 504,
      "kayna": 505,
      "sasachakuy": 506,
      "pachapi": 507,
      "Jesusqa": 508,
      "munasqan": 509,
      "kuru": 510,
      "chaymi": 511,
      "kunanchik": 512,
      "llumpay": 513,
      "pe": 514,
      "Qa": 515,
      "vid": 516,
      "Imatam": 517,
      "ptinmi": 518,
      "qsi": 519,
      "kunku": 520,
      "sonqo": 521,
      "espiri": 522,
      "una": 523,
      "tayta": 524,
      "lib": 525,
      "Ma": 526,
      "huñu": 527,
      "ñaw": 528,
      "aypaq": 529,
      "ñataqmi": 530,
      "..": 531,
      "estudi": 532,
      "uyari": 533,
      "hatun": 534,
      "qay": 535,
      "amistad": 536,
      "entien": 537,
      "kachkan": 538,
      "runakunata": 539,
      "riy": 540,
      "yachan": 541,
      "anaq": 542,
      "ptinqa": 543,
      "ruray": 544,
      "llaqtan": 545,
      "law": 546,
      "19": 547,
      "ñaka": 548,
      "yuyay": 549,
      "qellqa": 550,
      "llaki": 551,
      "qap": 552,
      "che": 553,
      "manku": 554,
      "ruran": 555,
      "Hina": 556,
      "qawachin": 557,
      "Is": 558,
      "kuqa": 559,
      "tig": 560,
      "yupay": 561,
      "kasqanmanta": 562,
      "kusisqa": 563,
      "kurqaku": 564,
      "punta": 565,
      "leey": 566,
      "ruwa": 567,
      "anta": 568,
      "mpa": 569,
      "qaku": 570,
      "ce": 571,
      "wiñ": 572,
      "pti": 573,
      "tiempopi": 574,
      "rima": 575,
      "hucha": 576,
      "Wakin": 577,
      "res": 578,
      "imapas": 579,
      "Chaymantapas": 580,
      "chaski": 581,
      "Huk": 582,
      "kichik": 583,
      "rura": 584,
      "llapa": 585,
      "warmi": 586,
      "fi": 587,
      "huñuna": 588,
      "ruw": 589,
      "predi": 590,
      "lliw": 591,
      "hinalla": 592,
      "ter": 593,
      "Pi": 594,
      "lab": 595,
      "ag": 596,
      "rega": 597,
      "chasqa": 598,
      "cont": 599,
      "casa": 600,
      "biblia": 601,
      "mun": 602,
      "yachachikuy": 603,
      "kunankupaq": 604,
      "ninchik": 605,
      "Diosman": 606,
      "za": 607,
      "hanaq": 608,
      "rik": 609,
      "pasa": 610,
      "10": 611,
      "12": 612,
      "ruway": 613,
      "14": 614,
      "mb": 615,
      "qatiqnin": 616,
      "’,": 617,
      "anmanta": 618,
      "imatapas": 619,
      "kumanta": 620,
      "sqayki": 621,
      "munan": 622,
      "piña": 623,
      "sqanta": 624,
      "Manam": 625,
      "yaqa": 626,
      "va": 627,
      "grega": 628,
      "aspan": 629,
      "gregacion": 630,
      "servichi": 631,
      "15": 632,
      "cia": 633,
      "saq": 634,
      "hayka": 635,
      "qallay": 636,
      "osto": 637,
      "riku": 638,
      "chuya": 639,
      "Bibliapa": 640,
      "payqa": 641,
      "apaq": 642,
      "hukman": 643,
      "kananpaq": 644,
      "hinaspam": 645,
      "11": 646,
      "qam": 647,
      "posto": 648,
      "postol": 649,
      "ne": 650,
      "llaña": 651,
      "esi": 652,
      "kunanpaq": 653,
      "Ju": 654,
      "kupas": 655,
      "apa": 656,
      "rurqa": 657,
      "haw": 658,
      "wasi": 659,
      "hapi": 660,
      "runakunapa": 661,
      "cheqap": 662,
      "’.": 663,
      "All": 664,
      "ciano": 665,
      "nisqanman": 666,
      "asqanta": 667,
      "yanapas": 668,
      "runakunaqa": 669,
      "Diosmi": 670,
      "ba": 671,
      "puni": 672,
      "ier": 673,
      "Imanasqataq": 674,
      "wanqa": 675,
      "kanqa": 676,
      "dio": 677,
      "kunchik": 678,
      "reqsi": 679,
      "kaynata": 680,
      "ak": 681,
      "obier": 682,
      "entiende": 683,
      "congregacion": 684,
      "Payqa": 685,
      "llata": 686,
      "churin": 687,
      "ninku": 688,
      "ycha": 689,
      "kanman": 690,
      "20": 691,
      "cristo": 692,
      "kaptinpas": 693,
      "qawan": 694,
      "13": 695,
      "zo": 696,
      "kuptin": 697,
      "hamu": 698,
      "espiritu": 699,
      "kusun": 700,
      "kurqani": 701,
      "unchik": 702,
      "kunatapas": 703,
      "Jesucristo": 704,
      "imanasqa": 705,
      "asqayki": 706,
      "kanankupaq": 707,
      "ej": 708,
      "gu": 709,
      "kunataqa": 710,
      "sal": 711,
      "napaq": 712,
      "lig": 713,
      "raqmi": 714,
      "anciano": 715,
      "kaspa": 716,
      "predic": 717,
      "Isra": 718,
      "yqa": 719,
      "testig": 720,
      "uy": 721,
      "sonqon": 722,
      "ar": 723,
      "respe": 724,
      "qillqa": 725,
      "Ar": 726,
      "tantea": 727,
      "Kunan": 728,
      "Lla": 729,
      "chaylla": 730,
      "Pacha": 731,
      "ñawpaq": 732,
      "enta": 733,
      "ju": 734,
      "mancha": 735,
      "no": 736,
      "chinka": 737,
      "iñiynin": 738,
      "manaña": 739,
      "sunqu": 740,
      "panta": 741,
      "”.": 742,
      "suya": 743,
      "Israel": 744,
      "niyuq": 745,
      "ente": 746,
      "kuyqa": 747,
      "Satan": 748,
      "Tayta": 749,
      "manmi": 750,
      "fami": 751,
      "sqanchik": 752,
      "car": 753,
      "yanqa": 754,
      "qatipa": 755,
      "hinaqa": 756,
      "rom": 757,
      "17": 758,
      "waspan": 759,
      "Yaqa": 760,
      "ñakari": 761,
      "rachi": 762,
      "kanku": 763,
      "paqmi": 764,
      "karqaku": 765,
      "kayta": 766,
      "yachas": 767,
      "Imanasqam": 768,
      "sutiyoq": 769,
      "cump": 770,
      "unta": 771,
      "iskayray": 772,
      "paya": 773,
      "asqanmanta": 774,
      "18": 775,
      "Mo": 776,
      "niy": 777,
      "yanapawanchik": 778,
      "utaq": 779,
      "An": 780,
      "chiy": 781,
      "kunanku": 782,
      "uti": 783,
      "ed": 784,
      "qalla": 785,
      "runakunam": 786,
      "Isa": 787,
      "Tu": 788,
      "cas": 789,
      "kusqanta": 790,
      "chapas": 791,
      "llapallan": 792,
      "chiq": 793,
      "co": 794,
      "rim": 795,
      "Arí": 796,
      "rqam": 797,
      "Da": 798,
      "Chaynaqa": 799,
      "ama": 800,
      "mama": 801,
      "rqachu": 802,
      "kim": 803,
      "ligion": 804,
      "ninta": 805,
      "As": 806,
      "sipas": 807,
      "huñunakuy": 808,
      "chaq": 809,
      "nisqanta": 810,
      "confi": 811,
      "kupi": 812,
      "haykapipas": 813,
      "Allin": 814,
      "Gen": 815,
      "David": 816,
      "libro": 817,
      "rikuri": 818,
      "wanpas": 819,
      "rasqa": 820,
      "testigon": 821,
      "tiempon": 822,
      "ia": 823,
      "...": 824,
      "Chu": 825,
      "kus": 826,
      "labran": 827,
      "chun": 828,
      "ios": 829,
      "niki": 830,
      "qari": 831,
      "chikmi": 832,
      "kani": 833,
      "anchata": 834,
      "chayta": 835,
      "watapi": 836,
      "atin": 837,
      "saqe": 838,
      "munaycha": 839,
      "Cris": 840,
      "qoll": 841,
      "willakuy": 842,
      "religion": 843,
      "chikpi": 844,
      "sqanmanta": 845,
      "manaraq": 846,
      "wiñaypaq": 847,
      "hi": 848,
      "asqay": 849,
      "yuya": 850,
      "chaynapi": 851,
      "alli": 852,
      "mozo": 853,
      "kuni": 854,
      "Ab": 855,
      "nitaq": 856,
      "spanmi": 857,
      "rov": 858,
      "[...": 859,
      "[...]": 860,
      "00": 861,
      "yanapay": 862,
      "Prov": 863,
      "yuyayman": 864,
      "agra": 865,
      "Salmo": 866,
      "sutin": 867,
      "uya": 868,
      "kawsari": 869,
      "Bibliaqa": 870,
      "kikin": 871,
      "wasin": 872,
      "16": 873,
      "Bibliam": 874,
      "aykipaq": 875,
      "warma": 876,
      "so": 877,
      "chana": 878,
      "paschá": 879,
      "apostol": 880,
      "chaya": 881,
      "par": 882,
      "sin": 883,
      "yanapawasun": 884,
      "rurasqan": 885,
      "aswanqa": 886,
      "spaqa": 887,
      "mus": 888,
      "nacionpi": 889,
      "hawka": 890,
      "warqa": 891,
      "niq": 892,
      "yachachin": 893,
      "serviqnin": 894,
      "kanapaq": 895,
      "munaynin": 896,
      "sqanku": 897,
      "hinaspapas": 898,
      "piensa": 899,
      "qawachirqa": 900,
      "anankupaq": 901,
      "ben": 902,
      "kaptinqa": 903,
      "ymi": 904,
      "ete": 905,
      "onqo": 906,
      "mos": 907,
      "kaqkunata": 908,
      "gel": 909,
      "go": 910,
      "kiki": 911,
      "chisqa": 912,
      "Ño": 913,
      "“¿": 914,
      "Runa": 915,
      "qollqe": 916,
      "llaqtapi": 917,
      "say": 918,
      "llumpayta": 919,
      "contran": 920,
      "ykipaq": 921,
      "ñoqanchik": 922,
      "Ped": 923,
      "llapan": 924,
      "rqaniku": 925,
      "al": 926,
      "kuywan": 927,
      "yuyari": 928,
      "ankuta": 929,
      "cumpli": 930,
      "utiza": 931,
      "huchalli": 932,
      "espiritun": 933,
      "Achka": 934,
      "ad": 935,
      "ankumanta": 936,
      "he": 937,
      "kuska": 938,
      "aq": 939,
      "manamá": 940,
      "llapi": 941,
      "chikpas": 942,
      "Diospi": 943,
      "teo": 944,
      "Pachapi": 945,
      "AN": 946,
      "paqqa": 947,
      "chkaspan": 948,
      "pampa": 949,
      "riman": 950,
      "kiqa": 951,
      "Mois": 952,
      "po": 953,
      "kunapim": 954,
      "gi": 955,
      "chirqa": 956,
      "aw": 957,
      "pisi": 958,
      "famili": 959,
      "kasqankuta": 960,
      "ab": 961,
      "yanaparqa": 962,
      "kusqanmanta": 963,
      "lon": 964,
      "May": 965,
      "cesi": 966,
      "obiern": 967,
      "sqay": 968,
      "rimas": 969,
      "ananchik": 970,
      "angel": 971,
      "kuchwan": 972,
      "spanku": 973,
      "ananpaq": 974,
      "necesi": 975,
      "Dioswan": 976,
      "contranpi": 977,
      "Ti": 978,
      "serv": 979,
      "teron": 980,
      "cien": 981,
      "kamachiq": 982,
      "Se": 983,
      "imatam": 984,
      "chanin": 985,
      "chkaptin": 986,
      "ypaq": 987,
      "ruwasqan": 988,
      "Paymi": 989,
      "Jesusmi": 990,
      "chayqa": 991,
      "runakunaman": 992,
      "casara": 993,
      "Tukuy": 994,
      "llanchik": 995,
      "ruraq": 996,
      "tak": 997,
      "chkarqa": 998,
      "wananchikpaq": 999,
      "Pedro": 1000,
      "ñataq": 1001,
      "ñoqa": 1002,
      "prom": 1003,
      "riq": 1004,
      "Punta": 1005,
      "emplo": 1006,
      "Ro": 1007,
      "llamkay": 1008,
      "agrade": 1009,
      "tay": 1010,
      "churi": 1011,
      "cur": 1012,
      "kasqanku": 1013,
      "dan": 1014,
      "rqanchik": 1015,
      "Cristo": 1016,
      "obiernon": 1017,
      "ñachu": 1018,
      "allinmi": 1019,
      "runaqa": 1020,
      "kusqanku": 1021,
      "den": 1022,
      "sqanman": 1023,
      "bautiza": 1024,
      "watu": 1025,
      "Bibliamanta": 1026,
      "ani": 1027,
      "nisqa": 1028,
      "Ni": 1029,
      "fa": 1030,
      "amistadnin": 1031,
      "Hinaptinqa": 1032,
      "waptin": 1033,
      "manchu": 1034,
      "chura": 1035,
      "imaynatam": 1036,
      "camb": 1037,
      "hamuq": 1038,
      "mayá": 1039,
      "qaway": 1040,
      "pachaman": 1041,
      "asun": 1042,
      "lee": 1043,
      "kuyninta": 1044,
      "kapu": 1045,
      "waw": 1046,
      "kananchik": 1047,
      "tupa": 1048,
      "cos": 1049,
      "waqay": 1050,
      "22": 1051,
      "KU": 1052,
      "Bibliata": 1053,
      "paymi": 1054,
      "Paykunaqa": 1055,
      "rvi": 1056,
      "mon": 1057,
      "ias": 1058,
      "san": 1059,
      "paykunaqa": 1060,
      "qun": 1061,
      "Job": 1062,
      "hapipa": 1063,
      "Si": 1064,
      "ria": 1065,
      "paypa": 1066,
      "serviq": 1067,
      "llanpi": 1068,
      "agradece": 1069,
      "kuchkan": 1070,
      "sirvi": 1071,
      "kawsay": 1072,
      "tapukuy": 1073,
      "qallari": 1074,
      "kuspaqa": 1075,
      "chaypi": 1076,
      "Tay": 1077,
      "lawpi": 1078,
      "willakuq": 1079,
      "musya": 1080,
      "ora": 1081,
      "yasqa": 1082,
      "ayll": 1083,
      "niwanchik": 1084,
      "Abra": 1085,
      "kuychik": 1086,
      "ninmi": 1087,
      "rurqaku": 1088,
      "har": 1089,
      "kichu": 1090,
      "kanan": 1091,
      "warqaku": 1092,
      "Jesusta": 1093,
      "24": 1094,
      "qepa": 1095,
      "Imataq": 1096,
      "Rey": 1097,
      "kunqa": 1098,
      "21": 1099,
      "Jo": 1100,
      "llachu": 1101,
      "imam": 1102,
      "min": 1103,
      "CH": 1104,
      "kasqanchik": 1105,
      "seño": 1106,
      "akll": 1107,
      "kayqa": 1108,
      "chinanpaq": 1109,
      "chkaq": 1110,
      "Ichapas": 1111,
      "karun": 1112,
      "anqa": 1113,
      "ero": 1114,
      "erb": 1115,
      "ela": 1116,
      "Chaymanta": 1117,
      "chaskin": 1118,
      "wawa": 1119,
      "ham": 1120,
      "erbios": 1121,
      "Jos": 1122,
      "qawasun": 1123,
      "imata": 1124,
      "masi": 1125,
      "cui": 1126,
      "Proverbios": 1127,
      "Co": 1128,
      "payta": 1129,
      "má": 1130,
      "ruwaq": 1131,
      "Palabran": 1132,
      "congregacionpi": 1133,
      "Gobiernon": 1134,
      "wananchik": 1135,
      "rey": 1136,
      "23": 1137,
      "kimsa": 1138,
      "des": 1139,
      "wasqanchikta": 1140,
      "allpa": 1141,
      "qninchik": 1142,
      "War": 1143,
      "yniyoq": 1144,
      "pag": 1145,
      "asuy": 1146,
      "lloq": 1147,
      "willakusqan": 1148,
      "miray": 1149,
      "kuchu": 1150,
      "ninpi": 1151,
      "muq": 1152,
      "kasukuq": 1153,
      "pin": 1154,
      "Sapa": 1155,
      "sutiyuq": 1156,
      "cuenta": 1157,
      "wiñay": 1158,
      "munaq": 1159,
      "mosoq": 1160,
      "Es": 1161,
      "imay": 1162,
      "manpas": 1163,
      "ruspan": 1164,
      "ven": 1165,
      "kuyana": 1166,
      "anchikchu": 1167,
      "Wi": 1168,
      "lu": 1169,
      "mira": 1170,
      "Juan": 1171,
      "Adan": 1172,
      "atipan": 1173,
      "Ancha": 1174,
      "yachachisqan": 1175,
      "eb": 1176,
      "yanapasqan": 1177,
      "25": 1178,
      "eli": 1179,
      "kasqa": 1180,
      "ac": 1181,
      "kaynin": 1182,
      "yachayta": 1183,
      "llqi": 1184,
      "puchu": 1185,
      "imakuna": 1186,
      "kuspanku": 1187,
      "rikcha": 1188,
      "hukmanya": 1189,
      "pantaq": 1190,
      "sirviente": 1191,
      "respeta": 1192,
      "hinachu": 1193,
      "chaynata": 1194,
      "Yacha": 1195,
      "kasqanchikta": 1196,
      "precur": 1197,
      "Pabloqa": 1198,
      "judio": 1199,
      "maman": 1200,
      "Apostol": 1201,
      "asta": 1202,
      "hinallam": 1203,
      "cristianokunaqa": 1204,
      "ranti": 1205,
      "pam": 1206,
      "mamay": 1207,
      "cre": 1208,
      "ñakariy": 1209,
      "Ha": 1210,
      "Isaias": 1211,
      "payakuq": 1212,
      "ñor": 1213,
      "Tes": 1214,
      "wañ": 1215,
      "llaqtanpi": 1216,
      "predica": 1217,
      "runamasin": 1218,
      "tina": 1219,
      "ruptin": 1220,
      "punim": 1221,
      "Moises": 1222,
      "runapa": 1223,
      "Iñi": 1224,
      "yachachiwanchik": 1225,
      "tarikun": 1226,
      "pancha": 1227,
      "ayqa": 1228,
      "Chayraykum": 1229,
      "anchatam": 1230,
      "Bibliapi": 1231,
      "karuncha": 1232,
      "tupan": 1233,
      "ymanta": 1234,
      "llanku": 1235,
      "asqankumanta": 1236,
      "munasqanman": 1237,
      "ur": 1238,
      "ten": 1239,
      "kuwan": 1240,
      "para": 1241,
      "asqanchikta": 1242,
      "rikchana": 1243,
      "hawkay": 1244,
      "cer": 1245,
      "chasqan": 1246,
      "spayki": 1247,
      "tuku": 1248,
      "Chaynata": 1249,
      "sej": 1250,
      "TA": 1251,
      "imamantapas": 1252,
      "kaspay": 1253,
      "NA": 1254,
      "alab": 1255,
      "uq": 1256,
      "Ñaw": 1257,
      "cuer": 1258,
      "allintam": 1259,
      "tarin": 1260,
      "munarqa": 1261,
      "QA": 1262,
      "unqu": 1263,
      "erra": 1264,
      "consej": 1265,
      "Mayna": 1266,
      "qen": 1267,
      "rusal": 1268,
      "Jerusal": 1269,
      "Pablom": 1270,
      "unay": 1271,
      "will": 1272,
      "kaqkuna": 1273,
      "yuyaq": 1274,
      "Imaynam": 1275,
      "llatam": 1276,
      "kananchikpaq": 1277,
      "risun": 1278,
      "necesita": 1279,
      "watapim": 1280,
      "sasachakuypi": 1281,
      "qawaspan": 1282,
      "esis": 1283,
      "kawsakuy": 1284,
      "casado": 1285,
      "Genesis": 1286,
      "tar": 1287,
      "kunanchikpaq": 1288,
      "ron": 1289,
      "bendi": 1290,
      "chisqan": 1291,
      "dad": 1292,
      "Qam": 1293,
      "cio": 1294,
      "spam": 1295,
      "ypi": 1296,
      "Pablopa": 1297,
      "Le": 1298,
      "Mi": 1299,
      "ramu": 1300,
      "enteron": 1301,
      "qullqi": 1302,
      "sapakama": 1303,
      "PA": 1304,
      "hawkalla": 1305,
      "etel": 1306,
      "Mateo": 1307,
      "gobier": 1308,
      "yachachikuynin": 1309,
      "agu": 1310,
      "sol": 1311,
      "chikchu": 1312,
      "tinpi": 1313,
      "kamachikuynin": 1314,
      "Hinaptinmi": 1315,
      "suyakuy": 1316,
      "vo": 1317,
      "Diostam": 1318,
      "kananmanta": 1319,
      "yanapasun": 1320,
      "servin": 1321,
      "Jerusalen": 1322,
      "bendicion": 1323,
      "ovej": 1324,
      "anchikmi": 1325,
      "tanpi": 1326,
      "ayku": 1327,
      "chaymanta": 1328,
      "elita": 1329,
      "anima": 1330,
      "qaw": 1331,
      "kaqta": 1332,
      "kunamantam": 1333,
      "hukmanyasqa": 1334,
      "Muna": 1335,
      "chanapaq": 1336,
      "kusqanchik": 1337,
      "ñawpa": 1338,
      "animal": 1339,
      "fo": 1340,
      "kacha": 1341,
      "tik": 1342,
      "saqi": 1343,
      "Taytan": 1344,
      "riqsi": 1345,
      "waran": 1346,
      "Ki": 1347,
      "lloqsi": 1348,
      "llamanta": 1349,
      "tuta": 1350,
      "Pien": 1351,
      "Churin": 1352,
      "nichwan": 1353,
      "kuypaq": 1354,
      "chaypim": 1355,
      "rqakuchu": 1356,
      "kururqa": 1357,
      "Qati": 1358,
      "asqankuta": 1359,
      "cl": 1360,
      "rato": 1361,
      "wawan": 1362,
      "kaqmanta": 1363,
      "waqninchik": 1364,
      "kanchik": 1365,
      "allinkunata": 1366,
      "capi": 1367,
      "aspaqa": 1368,
      "admira": 1369,
      "Eli": 1370,
      "Kama": 1371,
      "ayllu": 1372,
      "asu": 1373,
      "ticia": 1374,
      "ñuqanchik": 1375,
      "chkanku": 1376,
      "casarasqa": 1377,
      "qallaykurqa": 1378,
      "aklla": 1379,
      ".)": 1380,
      "27": 1381,
      "chiwanchik": 1382,
      "Chayta": 1383,
      "kawsan": 1384,
      "tukuq": 1385,
      "ayllun": 1386,
      "sor": 1387,
      "kamu": 1388,
      "watakuna": 1389,
      "llulla": 1390,
      "chunka": 1391,
      "apu": 1392,
      "kusqayki": 1393,
      "temp": 1394,
      "kusqankuta": 1395,
      "kamachirqa": 1396,
      "tex": 1397,
      "asqanman": 1398,
      "kasqanrayku": 1399,
      "llakisqa": 1400,
      "Josey": 1401,
      "ichapas": 1402,
      "hinaptinmi": 1403,
      "ninan": 1404,
      "kamachikuy": 1405,
      "kutipim": 1406,
      "cristianokuna": 1407,
      "cambi": 1408,
      "rimaspan": 1409,
      "Ku": 1410,
      "sqankuta": 1411,
      "atichwan": 1412,
      "karu": 1413,
      "Ecl": 1414,
      "pres": 1415,
      "ren": 1416,
      "llawan": 1417,
      "In": 1418,
      "ywan": 1419,
      "rurarqa": 1420,
      "kuyakuq": 1421,
      "28": 1422,
      "cor": 1423,
      "kusqa": 1424,
      "pachak": 1425,
      "suq": 1426,
      "hatari": 1427,
      "willakun": 1428,
      "qawachiwanchik": 1429,
      "huchapa": 1430,
      "cuentata": 1431,
      "ton": 1432,
      "kasqanraykum": 1433,
      "llamkaq": 1434,
      "warmay": 1435,
      "miraynin": 1436,
      "Dia": 1437,
      "qkuna": 1438,
      "rinankupaq": 1439,
      "kuspanmi": 1440,
      "Diablo": 1441,
      "ces": 1442,
      "Qatiqnin": 1443,
      "mill": 1444,
      "iñiqmasinchikkunata": 1445,
      "noticia": 1446,
      "Ama": 1447,
      "ene": 1448,
      "kasqankumanta": 1449,
      "willawanchik": 1450,
      "rimaypi": 1451,
      "ptikiqa": 1452,
      "No": 1453,
      "hora": 1454,
      "estudiaq": 1455,
      "Wakinpiqa": 1456,
      "30": 1457,
      "unancha": 1458,
      "palabran": 1459,
      "kallpanchan": 1460,
      "kuyninchik": 1461,
      "Qaway": 1462,
      "Ex": 1463,
      "KA": 1464,
      "rqataqmi": 1465,
      "wak": 1466,
      "paykunata": 1467,
      "erta": 1468,
      "Ej": 1469,
      "rqu": 1470,
      "kachi": 1471,
      "llataqmi": 1472,
      "munasqanta": 1473,
      "munayninta": 1474,
      "vida": 1475,
      "Chaynapim": 1476,
      "Mar": 1477,
      "esias": 1478,
      "Llapa": 1479,
      "Aswanqa": 1480,
      "Eva": 1481,
      "Ñu": 1482,
      "tapuni": 1483,
      "Satanaspa": 1484,
      "emplopaq": 1485,
      "fes": 1486,
      "isra": 1487,
      "yuyayniyoq": 1488,
      "paqa": 1489,
      "qonqa": 1490,
      "espa": 1491,
      "pachapaq": 1492,
      "entienden": 1493,
      "gon": 1494,
      "ver": 1495,
      "puñu": 1496,
      "ruwarqa": 1497,
      "bende": 1498,
      "Testig": 1499,
      "cerdo": 1500,
      "Con": 1501,
      "De": 1502,
      "chikpaq": 1503,
      "killa": 1504,
      "paykuna": 1505,
      "ankuchu": 1506,
      "runam": 1507,
      "yanapakuy": 1508,
      "Señor": 1509,
      "kasqayki": 1510,
      "nan": 1511,
      "warqanchik": 1512,
      "nina": 1513,
      "yupaychan": 1514,
      "nispan": 1515,
      "guerra": 1516,
      "ciencia": 1517,
      "israelita": 1518,
      "wiña": 1519,
      "iñiqmasinchikkuna": 1520,
      "wasqanchikmanta": 1521,
      "yachayniyoq": 1522,
      "Ñawpaq": 1523,
      "lea": 1524,
      "wañukusqan": 1525,
      "wasqanchikman": 1526,
      "Pro": 1527,
      "req": 1528,
      "yachachiq": 1529,
      "cheq": 1530,
      "kunapaqmi": 1531,
      "libra": 1532,
      "piensay": 1533,
      "kachkaspan": 1534,
      "lor": 1535,
      "ñawin": 1536,
      "qellqarqa": 1537,
      "kusisqam": 1538,
      "Ejemplopaq": 1539,
      "cerdote": 1540,
      "Kall": 1541,
      "humi": 1542,
      "siente": 1543,
      "munaspaqa": 1544,
      "nirqam": 1545,
      "Maria": 1546,
      "ze": 1547,
      "pitaq": 1548,
      "risqanman": 1549,
      "payman": 1550,
      "runakunawan": 1551,
      "orqo": 1552,
      "precursor": 1553,
      "pto": 1554,
      "chkaspa": 1555,
      "makin": 1556,
      "rimayta": 1557,
      "confian": 1558,
      "Ru": 1559,
      "sapaq": 1560,
      "cuela": 1561,
      "rurananchik": 1562,
      "hich": 1563,
      "cuida": 1564,
      "pitapas": 1565,
      "manañam": 1566,
      "chur": 1567,
      "allinpaq": 1568,
      "kunapiqa": 1569,
      "33": 1570,
      "tro": 1571,
      "qaqa": 1572,
      "kachka": 1573,
      "tor": 1574,
      "yanapachi": 1575,
      "wakinpiqa": 1576,
      "Amayá": 1577,
      "kanqaku": 1578,
      "yaqapaschá": 1579,
      "texto": 1580,
      "Egi": 1581,
      "runku": 1582,
      "Egipto": 1583,
      "pen": 1584,
      "tarikurqa": 1585,
      "kananku": 1586,
      "yachaq": 1587,
      "Eze": 1588,
      "wana": 1589,
      "nirqaku": 1590,
      "sqanchikta": 1591,
      "kunanmanta": 1592,
      "familia": 1593,
      "29": 1594,
      "Betel": 1595,
      "tanchik": 1596,
      "ptinchikqa": 1597,
      "kusqanchikta": 1598,
      "punchawmi": 1599,
      "ruspa": 1600,
      "rurqani": 1601,
      "ptinku": 1602,
      "yanapaq": 1603,
      "willakurqa": 1604,
      "kallpanchawanchik": 1605,
      "kutichi": 1606,
      "wañun": 1607,
      "tukupay": 1608,
      "31": 1609,
      "Ri": 1610,
      "asi": 1611,
      "llaraq": 1612,
      "kina": 1613,
      "ayka": 1614,
      "kamam": 1615,
      "piensan": 1616,
      "yachanchik": 1617,
      "huchay": 1618,
      "kunawanmi": 1619,
      "pasqan": 1620,
      "Corin": 1621,
      "rina": 1622,
      "rikuy": 1623,
      "kallpanchakunanchik": 1624,
      "llaqtanta": 1625,
      "munaychakusqan": 1626,
      "me": 1627,
      "aspay": 1628,
      "chapa": 1629,
      "rimaq": 1630,
      "promete": 1631,
      "Lu": 1632,
      "of": 1633,
      "ue": 1634,
      "masnin": 1635,
      "que": 1636,
      "hampi": 1637,
      "versi": 1638,
      "26": 1639,
      "ruwananchik": 1640,
      "rurayta": 1641,
      "paciencia": 1642,
      "kuyakuywan": 1643,
      "Che": 1644,
      "chanchik": 1645,
      "paywan": 1646,
      "yachaspan": 1647,
      "Sichu": 1648,
      "En": 1649,
      "llqanchik": 1650,
      "paqpas": 1651,
      "Diospaq": 1652,
      "atina": 1653,
      "tra": 1654,
      "kaqnin": 1655,
      "hukkunata": 1656,
      "kunamantaqa": 1657,
      "Kunanqa": 1658,
      "Willa": 1659,
      "ankum": 1660,
      "gobierno": 1661,
      "Deu": 1662,
      "kuyakuynin": 1663,
      "bibliapa": 1664,
      "preso": 1665,
      "pata": 1666,
      "kasqantam": 1667,
      "suy": 1668,
      "Salo": 1669,
      "chinkachin": 1670,
      "rimasqan": 1671,
      "000": 1672,
      "akllasqa": 1673,
      "millon": 1674,
      "Hayka": 1675,
      "kunatawan": 1676,
      "yupaychaq": 1677,
      "ul": 1678,
      "ypas": 1679,
      "kachkaptin": 1680,
      "dis": 1681,
      "corre": 1682,
      "enemi": 1683,
      "ota": 1684,
      "lawman": 1685,
      "Pipas": 1686,
      "capitu": 1687,
      "ychik": 1688,
      "paymanta": 1689,
      "sonqomanta": 1690,
      "puntata": 1691,
      "valor": 1692,
      "tarikunku": 1693,
      "Casa": 1694,
      "sacerdote": 1695,
      "anpaqmi": 1696,
      "ykupaq": 1697,
      "ACH": 1698,
      "tio": 1699,
      "sqankumanta": 1700,
      "paykunapa": 1701,
      "munaspan": 1702,
      "huklla": 1703,
      "yachachirqa": 1704,
      "kawsaq": 1705,
      "Salomon": 1706,
      "huerta": 1707,
      "kunapaqqa": 1708,
      "estudio": 1709,
      "cienci": 1710,
      "gl": 1711,
      "han": 1712,
      "salva": 1713,
      "asaq": 1714,
      "rurasqanku": 1715,
      "Yaqachu": 1716,
      "Tiemp": 1717,
      "us": 1718,
      "llapaq": 1719,
      "Qawasun": 1720,
      "contrato": 1721,
      "Yu": 1722,
      "kuymanta": 1723,
      "rqanki": 1724,
      "casta": 1725,
      "Testigo": 1726,
      "confianza": 1727,
      "Chaypim": 1728,
      "kunqaku": 1729,
      "Timo": 1730,
      "Heb": 1731,
      "ruwas": 1732,
      "wachwan": 1733,
      "llampu": 1734,
      "pantay": 1735,
      "Iñiq": 1736,
      "Timoteo": 1737,
      "Llu": 1738,
      "pasan": 1739,
      "tiempocha": 1740,
      "cristiana": 1741,
      "yachasqanchik": 1742,
      "taytan": 1743,
      "señoran": 1744,
      "Cheqap": 1745,
      "kurqachu": 1746,
      "ruraspa": 1747,
      "Satanas": 1748,
      "bendeci": 1749,
      "kamachisqanta": 1750,
      "Chuya": 1751,
      "Roma": 1752,
      "sion": 1753,
      "china": 1754,
      "allinchu": 1755,
      "kusqankumanta": 1756,
      "atiyniyoq": 1757,
      "warmin": 1758,
      "rikchan": 1759,
      "net": 1760,
      "ejemplo": 1761,
      "Satanasqa": 1762,
      "iskayraya": 1763,
      "San": 1764,
      "panin": 1765,
      "kawsayta": 1766,
      "qatiqninkunata": 1767,
      "Yaqapaschá": 1768,
      "Hanaq": 1769,
      "kuwaq": 1770,
      "taki": 1771,
      "qepan": 1772,
      "iñiyninkupi": 1773,
      "Tiempo": 1774,
      "32": 1775,
      "inter": 1776,
      "waway": 1777,
      "chaytaqa": 1778,
      "ento": 1779,
      "runata": 1780,
      "uyarin": 1781,
      "yanapasunki": 1782,
      "templo": 1783,
      "amayá": 1784,
      "kamachisqan": 1785,
      "ptiki": 1786,
      "warmacha": 1787,
      "vor": 1788,
      "chqa": 1789,
      "ruwaspan": 1790,
      "loni": 1791,
      "segu": 1792,
      "reqsisqa": 1793,
      "qmi": 1794,
      "pusa": 1795,
      "dia": 1796,
      "astawanmi": 1797,
      "Ñoqanchik": 1798,
      "Noey": 1799,
      "don": 1800,
      "waqa": 1801,
      "tukuru": 1802,
      "carta": 1803,
      "her": 1804,
      "ñan": 1805,
      "yanapakuynin": 1806,
      "uyariy": 1807,
      "hikuta": 1808,
      "PI": 1809,
      "kachkanku": 1810,
      "Fi": 1811,
      "Ne": 1812,
      "ech": 1813,
      "etes": 1814,
      "ón": 1815,
      "chikwan": 1816,
      "esa": 1817,
      "chkani": 1818,
      "kuspayki": 1819,
      "kurqaniku": 1820,
      "libropa": 1821,
      "kaniku": 1822,
      "servina": 1823,
      "LI": 1824,
      "pro": 1825,
      "chanku": 1826,
      "tachu": 1827,
      "nikichik": 1828,
      "chkanchik": 1829,
      "contro": 1830,
      "aykupaq": 1831,
      "Su": 1832,
      "Sasa": 1833,
      "kunayki": 1834,
      "kawsakuyta": 1835,
      "nacionmanta": 1836,
      "llaqtaman": 1837,
      "ruwasqanku": 1838,
      "Cu": 1839,
      "kasqay": 1840,
      "tiempopiqa": 1841,
      "amistadninchik": 1842,
      "yuyarin": 1843,
      "spaykiqa": 1844,
      "au": 1845,
      "cel": 1846,
      "nace": 1847,
      "rirqa": 1848,
      "yapa": 1849,
      "nisqanpi": 1850,
      "tiempopipas": 1851,
      "chayllaraq": 1852,
      "pon": 1853,
      "rispa": 1854,
      "runakunapas": 1855,
      "kuspam": 1856,
      "piensanku": 1857,
      "Iskay": 1858,
      "tiemponpi": 1859,
      "Ca": 1860,
      "mar": 1861,
      "kuqmi": 1862,
      "iñiy": 1863,
      "mbre": 1864,
      "Jesucristopa": 1865,
      "wawqe": 1866,
      "KUNA": 1867,
      "ctor": 1868,
      "anmi": 1869,
      "willan": 1870,
      "nisqanqa": 1871,
      "yachanapaq": 1872,
      "sonqolla": 1873,
      "llakipayakuq": 1874,
      "bibliata": 1875,
      "ruwayta": 1876,
      "oveja": 1877,
      "Kusi": 1878,
      "piñ": 1879,
      "kunmanku": 1880,
      "sunki": 1881,
      "kallpancharqa": 1882,
      "rimarqa": 1883,
      "kawsarimu": 1884,
      "37": 1885,
      "Ba": 1886,
      "nintin": 1887,
      "kunman": 1888,
      "espiritupa": 1889,
      "enemigon": 1890,
      "nana": 1891,
      "qta": 1892,
      "huknin": 1893,
      "mañakurqa": 1894,
      "Re": 1895,
      "Manataqmi": 1896,
      "achkallaña": 1897,
      "Qawasqanchikman": 1898,
      "Moisespa": 1899,
      "aguan": 1900,
      "Piensa": 1901,
      "qaya": 1902,
      "kunapipas": 1903,
      "kuyasqan": 1904,
      "Chaymantam": 1905,
      "willakuyta": 1906,
      "Imata": 1907,
      "qui": 1908,
      "parra": 1909,
      "kapuq": 1910,
      "Dani": 1911,
      "kuptinqa": 1912,
      "manqa": 1913,
      "remi": 1914,
      "sutinta": 1915,
      "hawkayay": 1916,
      "gro": 1917,
      "kunaypaq": 1918,
      "paykunawan": 1919,
      "lip": 1920,
      "musqanchik": 1921,
      "Chaynallataqmi": 1922,
      "Kayna": 1923,
      "sqaykita": 1924,
      "34": 1925,
      "áy": 1926,
      "naykipaq": 1927,
      "chiyta": 1928,
      "dado": 1929,
      "yupaycha": 1930,
      "munanku": 1931,
      "200": 1932,
      "ende": 1933,
      "Chaynataq": 1934,
      "Jeremi": 1935,
      "concienci": 1936,
      "aswanmi": 1937,
      "ruwanapaq": 1938,
      "Munaycha": 1939,
      "Hebre": 1940,
      "Nin": 1941,
      "inan": 1942,
      "qantin": 1943,
      "muel": 1944,
      "ptinkupas": 1945,
      "puk": 1946,
      "qawarqa": 1947,
      "kusikuy": 1948,
      "mamakunaqa": 1949,
      "Yana": 1950,
      "kuman": 1951,
      "kunaykipaq": 1952,
      "emplon": 1953,
      "Samuel": 1954,
      "imaynata": 1955,
      "ruranankupaq": 1956,
      "Manamá": 1957,
      "juz": 1958,
      "Anchatam": 1959,
      "Uni": 1960,
      "kita": 1961,
      "kanaypaq": 1962,
      "willarqa": 1963,
      "puntapi": 1964,
      "qatiqninkuna": 1965,
      "yachasunchik": 1966,
      "Jac": 1967,
      "revi": 1968,
      "kasqanpi": 1969,
      "pacham": 1970,
      "saqen": 1971,
      "Davidqa": 1972,
      "La": 1973,
      "yacharqa": 1974,
      "chinankupaq": 1975,
      "watapa": 1976,
      "familian": 1977,
      "Kallpancha": 1978,
      "Daniel": 1979,
      "tawa": 1980,
      "allinqa": 1981,
      "runakunatam": 1982,
      "lluqsi": 1983,
      "tero": 1984,
      "Allpa": 1985,
      "cumpl": 1986,
      "ñoqanchikpas": 1987,
      "parrafo": 1988,
      "puri": 1989,
      "kusikuywan": 1990,
      "bibliamanta": 1991,
      "ejemplon": 1992,
      "Exo": 1993,
      "huchayoq": 1994,
      "Apo": 1995,
      "rie": 1996,
      "ptinpas": 1997,
      "suwa": 1998,
      "Chaynatam": 1999,
      "entiendenapaq": 2000,
      "imanasqataq": 2001,
      "40": 2002,
      "qkunata": 2003,
      "smi": 2004,
      "karqani": 2005,
      "spapas": 2006,
      "rimana": 2007,
      "kaqkunaqa": 2008,
      "Manaraq": 2009,
      "entiendes": 2010,
      "aspanku": 2011,
      "confia": 2012,
      "reqsin": 2013,
      "gra": 2014,
      "mayqan": 2015,
      "kallpanchasqa": 2016,
      "kaspanpas": 2017,
      "allichan": 2018,
      "enga": 2019,
      "rqakum": 2020,
      "masinchik": 2021,
      "taytacha": 2022,
      "castig": 2023,
      "icha": 2024,
      "qkunaqa": 2025,
      "palla": 2026,
      "manos": 2027,
      "mikuy": 2028,
      "qorqa": 2029,
      "sto": 2030,
      "mila": 2031,
      "escuela": 2032,
      "allinkuna": 2033,
      "wichiy": 2034,
      "watukuq": 2035,
      "costu": 2036,
      "Jacob": 2037,
      "tana": 2038,
      "haypan": 2039,
      "Chaywanpas": 2040,
      "wataña": 2041,
      "kasukunanchik": 2042,
      "Un": 2043,
      "rata": 2044,
      "yacharqam": 2045,
      "tori": 2046,
      "mblea": 2047,
      "Astawan": 2048,
      "versicu": 2049,
      "corregi": 2050,
      "horqo": 2051,
      "lde": 2052,
      "niyku": 2053,
      "esta": 2054,
      "murqa": 2055,
      "sis": 2056,
      "qosan": 2057,
      "ñuna": 2058,
      "Sam": 2059,
      "tukuyta": 2060,
      "atiynin": 2061,
      "kuyakuy": 2062,
      "qku": 2063,
      "yachanankupaq": 2064,
      "toridad": 2065,
      "ampa": 2066,
      "mantawan": 2067,
      "enci": 2068,
      "tanta": 2069,
      "kuspankum": 2070,
      "yachachikuypim": 2071,
      "cambia": 2072,
      "soldado": 2073,
      "sina": 2074,
      "imapipas": 2075,
      "chaynam": 2076,
      "lees": 2077,
      "huñunakuykunaman": 2078,
      "huchallikuq": 2079,
      "per": 2080,
      "tenta": 2081,
      "anchikta": 2082,
      "allintapuni": 2083,
      "astawanraq": 2084,
      "sutillata": 2085,
      "tantean": 2086,
      "qayllanpi": 2087,
      "ptiy": 2088,
      "Romanos": 2089,
      "kunamantapas": 2090,
      "Chaypaqqa": 2091,
      "satan": 2092,
      "sapallan": 2093,
      "Huñuna": 2094,
      "sumaqta": 2095,
      "estudiayta": 2096,
      "yachachikuykunata": 2097,
      "yachasun": 2098,
      "tarpu": 2099,
      "Llapallan": 2100,
      "hukllawa": 2101,
      "milagro": 2102,
      "AS": 2103,
      "chis": 2104,
      "Chayqa": 2105,
      "chasun": 2106,
      "iñiqmasinchikmi": 2107,
      "salv": 2108,
      "harka": 2109,
      "kunataq": 2110,
      "ptinkuqa": 2111,
      "punchawpi": 2112,
      "semana": 2113,
      "chaskisqan": 2114,
      "pampacha": 2115,
      "cuerpon": 2116,
      "kupa": 2117,
      "qar": 2118,
      "llañam": 2119,
      "kanki": 2120,
      "paypi": 2121,
      "musuq": 2122,
      "pachata": 2123,
      "contes": 2124,
      "wañuy": 2125,
      "ruranapaq": 2126,
      "nacionniyoq": 2127,
      "saqes": 2128,
      "kuptinchikqa": 2129,
      "Cristi": 2130,
      "Ga": 2131,
      "Yuya": 2132,
      "chikmanta": 2133,
      "yachachwan": 2134,
      "kunawanqa": 2135,
      "llapallanchik": 2136,
      "Ati": 2137,
      "elo": 2138,
      "ñay": 2139,
      "’?": 2140,
      "lláy": 2141,
      "tarikunchik": 2142,
      "tiempopim": 2143,
      "estudia": 2144,
      "iñiyninchikpi": 2145,
      "waranqantin": 2146,
      "tios": 2147,
      "nayki": 2148,
      "chikuq": 2149,
      "chaytam": 2150,
      "kunki": 2151,
      "imapi": 2152,
      "sienti": 2153,
      "qos": 2154,
      "kasun": 2155,
      "pachamanta": 2156,
      "runan": 2157,
      "qonqay": 2158,
      "kusunchik": 2159,
      "yanqacha": 2160,
      "KUY": 2161,
      "Corintios": 2162,
      "autoridad": 2163,
      "yanapana": 2164,
      "favo": 2165,
      "Na": 2166,
      "iku": 2167,
      "kusqay": 2168,
      "rue": 2169,
      "sitio": 2170,
      "sunchik": 2171,
      "piñakuynin": 2172,
      "kaspaqa": 2173,
      "huñunakuyman": 2174,
      "Ñoqa": 2175,
      "favore": 2176,
      "Efes": 2177,
      "tron": 2178,
      "um": 2179,
      "kuyay": 2180,
      "chaynapim": 2181,
      "rantinpi": 2182,
      "Sara": 2183,
      "cab": 2184,
      "unanchasqan": 2185,
      "doctor": 2186,
      "kunankama": 2187,
      "sasachakuykunapi": 2188,
      "Qawa": 2189,
      "rikchanachiy": 2190,
      "liw": 2191,
      "munasqa": 2192,
      "chaspan": 2193,
      "sunqun": 2194,
      "nacionman": 2195,
      "waptinchikqa": 2196,
      "wawqen": 2197,
      "Abraham": 2198,
      "Llumpay": 2199,
      "ruspanmi": 2200,
      "manataqmi": 2201,
      "imaynam": 2202,
      "kunanqa": 2203,
      "sinchi": 2204,
      "pampachay": 2205,
      "ofren": 2206,
      "riego": 2207,
      "kurun": 2208,
      "ayoq": 2209,
      "ino": 2210,
      "kaypi": 2211,
      "ñuqa": 2212,
      "sunchu": 2213,
      "iñiqmasinchikkunaqa": 2214,
      "ruwarqaku": 2215,
      "ptiymi": 2216,
      "rachirqa": 2217,
      "Lliw": 2218,
      "NM": 2219,
      "dos": 2220,
      "gan": 2221,
      "je": 2222,
      "raki": 2223,
      "kananta": 2224,
      "nisqankunata": 2225,
      "chwanmi": 2226,
      "sasachakuykunata": 2227,
      "munanmi": 2228,
      "señoray": 2229,
      "wakcha": 2230,
      "versiculo": 2231,
      "Qo": 2232,
      "qawas": 2233,
      "yawar": 2234,
      "kasunchik": 2235,
      "munay": 2236,
      "atipa": 2237,
      "kawsanankupaq": 2238,
      "kunamanmi": 2239,
      "Pre": 2240,
      "af": 2241,
      "qachu": 2242,
      "chayman": 2243,
      "sasachakuynin": 2244,
      "iñiqmasinchikkunam": 2245,
      "ñawpaqta": 2246,
      "masiy": 2247,
      "Cristiano": 2248,
      "cen": 2249,
      "hukkuna": 2250,
      "runakunamanta": 2251,
      "willakunankupaq": 2252,
      "suyakuyniyoq": 2253,
      "revista": 2254,
      "Kuya": 2255,
      "“¡": 2256,
      "piwan": 2257,
      "kuyasqanchik": 2258,
      "ptinkum": 2259,
      "ruraspan": 2260,
      "iñiqmasinchikkunawan": 2261,
      "prometes": 2262,
      "pagina": 2263,
      "nichkan": 2264,
      "kuyan": 2265,
      "willay": 2266,
      "munapay": 2267,
      "calip": 2268,
      "org": 2269,
      "kuspanchikqa": 2270,
      "yachasqan": 2271,
      "yanapanqa": 2272,
      "qallaykurqaku": 2273,
      "abi": 2274,
      "waranqa": 2275,
      "Sasacha": 2276,
      "Apocalip": 2277,
      "Apocalipsis": 2278,
      "bre": 2279,
      "kaytaqa": 2280,
      "kuqku": 2281,
      "Wañu": 2282,
      "sasachakuykuna": 2283,
      "haykapi": 2284,
      "wasipi": 2285,
      "Warma": 2286,
      "puchuka": 2287,
      "tapunim": 2288,
      "hunta": 2289,
      "sano": 2290,
      "allinnin": 2291,
      "sichu": 2292,
      "wis": 2293,
      "rinanpaq": 2294,
      "ruwasqa": 2295,
      "respetan": 2296,
      "mamakuna": 2297,
      "testigonkunaqa": 2298,
      "Gobiernonmanta": 2299,
      "Eclesias": 2300,
      "warmayki": 2301,
      "Eclesiastes": 2302,
      "BLI": 2303,
      "chiqap": 2304,
      "qosqan": 2305,
      "wananchikta": 2306,
      "ruptinmi": 2307,
      "tiag": 2308,
      "Diostaqa": 2309,
      "hapin": 2310,
      "los": 2311,
      "Imakunatam": 2312,
      "qatika": 2313,
      "mañakuy": 2314,
      "qawachichwan": 2315,
      "yachayqa": 2316,
      "pele": 2317,
      "kikill": 2318,
      "Nirqataqmi": 2319,
      "Congregacion": 2320,
      "Estad": 2321,
      "uj": 2322,
      "rumi": 2323,
      "yanapakuyninta": 2324,
      "yachachikuyta": 2325,
      "rqanichu": 2326,
      "Paykunam": 2327,
      "kutipi": 2328,
      "nacionpa": 2329,
      "kawsanapaq": 2330,
      "kaspanku": 2331,
      "kunkuchu": 2332,
      "espiritunwan": 2333,
      "Inter": 2334,
      "Santiag": 2335,
      "qin": 2336,
      "tanku": 2337,
      "watanpi": 2338,
      "ibuj": 2339,
      "cristianokunata": 2340,
      "Kunanpas": 2341,
      "testigonkunapa": 2342,
      "Cristopa": 2343,
      "waptinchik": 2344,
      "Ezequi": 2345,
      "Car": 2346,
      "ho": 2347,
      "taña": 2348,
      "niwarqa": 2349,
      "paypas": 2350,
      "asamblea": 2351,
      "raqchu": 2352,
      "Chaynam": 2353,
      "warman": 2354,
      "Manachu": 2355,
      "cristianokunapa": 2356,
      "munanchik": 2357,
      "Mozo": 2358,
      "yanapayta": 2359,
      "Puntataqa": 2360,
      "Abrahan": 2361,
      "Estados": 2362,
      "anmantaqa": 2363,
      "llqan": 2364,
      "pasasqan": 2365,
      "niyta": 2366,
      "rurasqa": 2367,
      "qipa": 2368,
      "mañakunanchik": 2369,
      "kuyapayakuq": 2370,
      "Yachay": 2371,
      "ruwanankupaq": 2372,
      "Lucas": 2373,
      "Fami": 2374,
      "ez": 2375,
      "kana": 2376,
      "ocu": 2377,
      "mio": 2378,
      "ninchikqa": 2379,
      "Saul": 2380,
      "atiy": 2381,
      "qawachinchik": 2382,
      "Juda": 2383,
      "ñakarichi": 2384,
      "qallariy": 2385,
      "[...].": 2386,
      "waqaycha": 2387,
      "Josu": 2388,
      "Kamachi": 2389,
      "dibuj": 2390,
      "chikman": 2391,
      "sacha": 2392,
      "Imam": 2393,
      "rimachkan": 2394,
      "Aswanmi": 2395,
      "qawasunchik": 2396,
      "lonia": 2397,
      "ofrenda": 2398,
      "Babi": 2399,
      "ex": 2400,
      "ytaqa": 2401,
      "yaku": 2402,
      "llamkayta": 2403,
      "chwanchu": 2404,
      "kasukuy": 2405,
      "sonqoyoq": 2406,
      "ancianokunaqa": 2407,
      "Llam": 2408,
      "vence": 2409,
      "Santiago": 2410,
      "bo": 2411,
      "manachu": 2412,
      "Jer": 2413,
      "kaspanmi": 2414,
      "yachanku": 2415,
      "ruwananpaq": 2416,
      "yuyayniyuq": 2417,
      "sayapa": 2418,
      "espiritunta": 2419,
      "yanapasqanmanta": 2420,
      "cree": 2421,
      "tal": 2422,
      "palab": 2423,
      "munarqaku": 2424,
      "hukkunapa": 2425,
      "kururqaku": 2426,
      "Qalla": 2427,
      "rurananpaq": 2428,
      "Hinaspam": 2429,
      "mamacha": 2430,
      "apostolnin": 2431,
      "Rima": 2432,
      "papas": 2433,
      "qanchis": 2434,
      "anchikpi": 2435,
      "serviynin": 2436,
      "Jesuspas": 2437,
      "testigo": 2438,
      "interesa": 2439,
      "Internet": 2440,
      "Qu": 2441,
      "ja": 2442,
      "yachachisqanta": 2443,
      "kurqam": 2444,
      "qawachisun": 2445,
      "aspam": 2446,
      "Unidos": 2447,
      "Unancha": 2448,
      "im": 2449,
      "ichu": 2450,
      "toq": 2451,
      "wasqan": 2452,
      "invi": 2453,
      "pichqa": 2454,
      "imawanpas": 2455,
      "spankum": 2456,
      "kaspankupas": 2457,
      "hatuncha": 2458,
      "Ñoqanchikpas": 2459,
      "afana": 2460,
      "MA": 2461,
      "MAN": 2462,
      "OS": 2463,
      "uda": 2464,
      "chinapaq": 2465,
      "Chaytam": 2466,
      "lim": 2467,
      "kasqantapas": 2468,
      "tiempopa": 2469,
      "kutim": 2470,
      "imanasqam": 2471,
      "kuniku": 2472,
      "serviqninkunata": 2473,
      "consejo": 2474,
      "humilde": 2475,
      "Hebreos": 2476,
      "iñ": 2477,
      "Ña": 2478,
      "pasay": 2479,
      "muy": 2480,
      "simi": 2481,
      "vale": 2482,
      "entiendeq": 2483,
      "manchakuspa": 2484,
      "kamachikuyninkunata": 2485,
      "ec": 2486,
      "churan": 2487,
      "allinninchik": 2488,
      "yachachikuypi": 2489,
      "ñawpaqpi": 2490,
      "rikchakuq": 2491,
      "Diospas": 2492,
      "munarqachu": 2493,
      "kallpay": 2494,
      "vidanku": 2495,
      "ñakarin": 2496,
      "ancianokuna": 2497,
      "Babilonia": 2498,
      "Pu": 2499,
      "bu": 2500,
      "kasukuspa": 2501,
      "kunapaqpas": 2502,
      "kaptinmi": 2503,
      "qollqeta": 2504,
      "tikra": 2505,
      "Tiempopa": 2506,
      "riyta": 2507,
      "yanapawananchikpaq": 2508,
      "rqanim": 2509,
      "wayra": 2510,
      "rurasqanchik": 2511,
      "unanchasqa": 2512,
      "astawanraqmi": 2513,
      "sonqowan": 2514,
      "Iñiqmasinchik": 2515,
      "der": 2516,
      "chayraykum": 2517,
      "sqanpi": 2518,
      "rakina": 2519,
      "allinpuni": 2520,
      "suma": 2521,
      "serviyta": 2522,
      "nacionkunapi": 2523,
      "ykuqa": 2524,
      "sunqulla": 2525,
      "aguanta": 2526,
      "nanay": 2527,
      "Ka": 2528,
      "LL": 2529,
      "Mesias": 2530,
      "milla": 2531,
      "maqa": 2532,
      "qepancha": 2533,
      "yachanmi": 2534,
      "chinkachisqa": 2535,
      "glesi": 2536,
      "Ch": 2537,
      "Vi": 2538,
      "apan": 2539,
      "patron": 2540,
      "killan": 2541,
      "qowanchik": 2542,
      "consu": 2543,
      "watamanta": 2544,
      "Kaypi": 2545,
      "yuyaymana": 2546,
      "llakipay": 2547,
      "bibliapi": 2548,
      "Llapan": 2549,
      "valorniyoq": 2550,
      "Yuyay": 2551,
      "miku": 2552,
      "mision": 2553,
      "rachin": 2554,
      "Bibliapim": 2555,
      "nisqanku": 2556,
      "ruranku": 2557,
      "Jesuswan": 2558,
      "kapuqnin": 2559,
      "ninantaq": 2560,
      "paninchik": 2561,
      "controla": 2562,
      "35": 2563,
      "lan": 2564,
      "kunachu": 2565,
      "michiq": 2566,
      "chak": 2567,
      "paykunam": 2568,
      "tele": 2569,
      "lamar": 2570,
      "spanqa": 2571,
      "tarikurqaku": 2572,
      "wañuq": 2573,
      "yachaysapa": 2574,
      "1914": 2575,
      "yuyaymanay": 2576,
      "cesqan": 2577,
      "capitulon": 2578,
      "seguro": 2579,
      "pichu": 2580,
      "niwaq": 2581,
      "chayllam": 2582,
      "maypi": 2583,
      "kasqantaqa": 2584,
      "maskay": 2585,
      "kallpanchay": 2586,
      "rurasqanmanta": 2587,
      "qonqan": 2588,
      "kunanta": 2589,
      "rimapaya": 2590,
      "kunankuta": 2591,
      "munaychakuynin": 2592,
      "chayamu": 2593,
      "kasqankurayku": 2594,
      "ayllunchik": 2595,
      "SA": 2596,
      "pasqa": 2597,
      "kusirikuy": 2598,
      "llumpa": 2599,
      "saya": 2600,
      "wischu": 2601,
      "kuptinmi": 2602,
      "kachun": 2603,
      "spay": 2604,
      "nichkarqa": 2605,
      "hinaña": 2606,
      "kunmi": 2607,
      "muyu": 2608,
      "sqam": 2609,
      "ankupaqmi": 2610,
      "tarikuspa": 2611,
      "warmanku": 2612,
      "rurana": 2613,
      "rimayqa": 2614,
      "sumaqllata": 2615,
      "vidan": 2616,
      "ninkupi": 2617,
      "carcel": 2618,
      "parten": 2619,
      "Kamachiq": 2620,
      "Josuey": 2621,
      "EN": 2622,
      "chaykunata": 2623,
      "kanchu": 2624,
      "kanankumanta": 2625,
      "qoy": 2626,
      "kuqqa": 2627,
      "chaynatam": 2628,
      "yanapananpaq": 2629,
      "rikchaq": 2630,
      "favor": 2631,
      "musqanchikman": 2632,
      "Yanapa": 2633,
      "Ale": 2634,
      "So": 2635,
      "WA": 2636,
      "ypa": 2637,
      "kipa": 2638,
      "Chaytaqa": 2639,
      "willakunapaq": 2640,
      "nacionta": 2641,
      "kusunchu": 2642,
      "cuid": 2643,
      "Palabranta": 2644,
      "Warmay": 2645,
      "humilla": 2646,
      "Chaypi": 2647,
      "listo": 2648,
      "iñiyniyoq": 2649,
      "sunq": 2650,
      "ruwachwan": 2651,
      "kichikchu": 2652,
      "kuptinku": 2653,
      "kaspapas": 2654,
      "chayamunan": 2655,
      "rurun": 2656,
      "mantachu": 2657,
      "hinayá": 2658,
      "onta": 2659,
      "chaskina": 2660,
      "Imaynataq": 2661,
      "iñiqmasinkunata": 2662,
      "qillqanchik": 2663,
      "uywan": 2664,
      "carro": 2665,
      "Allinta": 2666,
      "Churi": 2667,
      "allicha": 2668,
      "atipanapaq": 2669,
      "Ñuqanchik": 2670,
      "Munaychakuynin": 2671,
      "Num": 2672,
      "fe": 2673,
      "llaman": 2674,
      "ninqa": 2675,
      "tupasqan": 2676,
      "kuqkuna": 2677,
      "Imapas": 2678,
      "chkaptinmi": 2679,
      "tarikuspan": 2680,
      "preocu": 2681,
      "yanapanman": 2682,
      "aykichikpaq": 2683,
      "yachanaykipaq": 2684,
      "qatiqninkunaqa": 2685,
      "nego": 2686,
      "sora": 2687,
      "takya": 2688,
      "paginan": 2689,
      "imayoq": 2690,
      "piñasqa": 2691,
      "tri": 2692,
      "qarin": 2693,
      "chaykuna": 2694,
      "kaymi": 2695,
      "defi": 2696,
      "Jesusmanta": 2697,
      "piensasqanta": 2698,
      "kunanpas": 2699,
      "huñulla": 2700,
      "munankupaq": 2701,
      "dios": 2702,
      "huñunakuypi": 2703,
      "admirakuypaq": 2704,
      "kuspaykiqa": 2705,
      "ES": 2706,
      "qawanchik": 2707,
      "mamanku": 2708,
      "ción": 2709,
      "nisqanmanta": 2710,
      "del": 2711,
      "demon": 2712,
      "serviy": 2713,
      "Paypa": 2714,
      "llayki": 2715,
      "Wakinkuqa": 2716,
      "Pitaq": 2717,
      "servichikurqa": 2718,
      "qamqa": 2719,
      "churinkuna": 2720,
      "nanachi": 2721,
      "juzg": 2722,
      "qarqo": 2723,
      "limpi": 2724,
      "niwasqanchik": 2725,
      "ninchikta": 2726,
      "huch": 2727,
      "yacharqaku": 2728,
      "yanapawan": 2729,
      "willakuyqa": 2730,
      "cipu": 2731,
      "tarikuq": 2732,
      "kutita": 2733,
      "ykumanta": 2734,
      "qellqasqa": 2735,
      "kurqakuchu": 2736,
      "Davidpa": 2737,
      "chayaramu": 2738,
      "cose": 2739,
      "50": 2740,
      "Ana": 2741,
      "Hech": 2742,
      "kachwan": 2743,
      "Diosninchik": 2744,
      "imataq": 2745,
      "pus": 2746,
      "nisqanmi": 2747,
      "sumaqllaña": 2748,
      "Maña": 2749,
      "yanqapaq": 2750,
      "Isaac": 2751,
      "abu": 2752,
      "chaninchan": 2753,
      "tupachi": 2754,
      "qallariynin": 2755,
      "cuerpo": 2756,
      "millonnintin": 2757,
      "palabra": 2758,
      "chiri": 2759,
      "qanchikqa": 2760,
      "kuytaqa": 2761,
      "sqanrayku": 2762,
      "Imamantam": 2763,
      "wañuymanta": 2764,
      "kawsakuynin": 2765,
      "kunawanpas": 2766,
      "rurasqanta": 2767,
      "Kayqa": 2768,
      "orta": 2769,
      "llayá": 2770,
      "yachasqanku": 2771,
      "serviqninkuna": 2772,
      "precursora": 2773,
      "iñin": 2774,
      "IN": 2775,
      "qaq": 2776,
      "chinqa": 2777,
      "willakuynin": 2778,
      "kusichi": 2779,
      "kusiri": 2780,
      "wañukusqanta": 2781,
      "punchawkunapi": 2782,
      "yachananchik": 2783,
      "llakipaya": 2784,
      "llapallanku": 2785,
      "rimasqanchik": 2786,
      "religionpi": 2787,
      "kuychikchu": 2788,
      "Chaymantañataqmi": 2789,
      "Hatun": 2790,
      "capitulo": 2791,
      "Qallariy": 2792,
      "41": 2793,
      "DI": 2794,
      "omio": 2795,
      "ses": 2796,
      "ruchwan": 2797,
      "kuyman": 2798,
      "kiwan": 2799,
      "kaymanta": 2800,
      "karqachu": 2801,
      "qellqanchik": 2802,
      "waqchu": 2803,
      "tapukunanchik": 2804,
      "llaqtanmanta": 2805,
      "yachachikuykuna": 2806,
      "kunchikchu": 2807,
      "Jesucristoqa": 2808,
      "teronomio": 2809,
      "Kikin": 2810,
      "Deuteronomio": 2811,
      "prometesqan": 2812,
      "Ley": 2813,
      "qqa": 2814,
      "rirqaku": 2815,
      "ninwan": 2816,
      "sqanqa": 2817,
      "enten": 2818,
      "viuda": 2819,
      "yanapawarqa": 2820,
      "cielo": 2821,
      "watayoq": 2822,
      "kallpanchakunku": 2823,
      "iñiqmasinchikkunapa": 2824,
      "waqmi": 2825,
      "yanapanankupaq": 2826,
      "rimapay": 2827,
      "fiesta": 2828,
      "Jesucristota": 2829,
      "predican": 2830,
      "sunqumanta": 2831,
      "hemi": 2832,
      "Warmi": 2833,
      "tarikunki": 2834,
      "Sichum": 2835,
      "Nehemi": 2836,
      "Jeremias": 2837,
      "engaña": 2838,
      "Ta": 2839,
      "qes": 2840,
      "uma": 2841,
      "llapim": 2842,
      "yarqa": 2843,
      "imakunata": 2844,
      "suyan": 2845,
      "vide": 2846,
      "leen": 2847,
      "kallpanchakuy": 2848,
      "aspanmi": 2849,
      "hukmany": 2850,
      "kanapaqqa": 2851,
      "Runakunaqa": 2852,
      "hebre": 2853,
      "Adanpa": 2854,
      "KAQ": 2855,
      "invita": 2856,
      "hebreo": 2857,
      "Ra": 2858,
      "aya": 2859,
      "kunañataqmi": 2860,
      "chuyan": 2861,
      "kunchu": 2862,
      "kaqkunamanta": 2863,
      "kallpa": 2864,
      "chawpin": 2865,
      "kawsasqanchik": 2866,
      "mañakusqan": 2867,
      "Salmos": 2868,
      "munasqankuta": 2869,
      "librasqa": 2870,
      "estudiay": 2871,
      "chaskirqa": 2872,
      "Isai": 2873,
      "ampara": 2874,
      "Sasachakuy": 2875,
      "BI": 2876,
      "Nue": 2877,
      "Qe": 2878,
      "ykuna": 2879,
      "chasqanmanta": 2880,
      "chall": 2881,
      "wañuchi": 2882,
      "kamachikuq": 2883,
      "runman": 2884,
      "yaqachu": 2885,
      "sonqonpi": 2886,
      "Adanwan": 2887,
      "predicaq": 2888,
      "cumplin": 2889,
      "chasqanchik": 2890,
      "asunchik": 2891,
      "ruq": 2892,
      "runi": 2893,
      "rispan": 2894,
      "pani": 2895,
      "ninman": 2896,
      "alle": 2897,
      "kallpata": 2898,
      "wanchikmi": 2899,
      "sutichasqa": 2900,
      "Pisi": 2901,
      "munanpaq": 2902,
      "chinkachinqa": 2903,
      "misionero": 2904,
      "ut": 2905,
      "intu": 2906,
      "rapi": 2907,
      "encia": 2908,
      "kanaykipaq": 2909,
      "rantin": 2910,
      "kichikmi": 2911,
      "llatachu": 2912,
      "Anciano": 2913,
      "penqay": 2914,
      "discipu": 2915,
      "buque": 2916,
      "demonio": 2917,
      "anchu": 2918,
      "niwarqaku": 2919,
      "pantinpi": 2920,
      "raon": 2921,
      "reg": 2922,
      "kuspanqa": 2923,
      "kaspanchikqa": 2924,
      "asqankuman": 2925,
      "runakunataqa": 2926,
      "kunankumanta": 2927,
      "nintakama": 2928,
      "akllasqan": 2929,
      "Moisesqa": 2930,
      "ovejan": 2931,
      "qatikachasqa": 2932,
      "millakuypaq": 2933,
      "45": 2934,
      "65": 2935,
      "Tapu": 2936,
      "YACH": 2937,
      "embre": 2938,
      "men": 2939,
      "nov": 2940,
      "ninkuta": 2941,
      "kunkum": 2942,
      "huchan": 2943,
      "kasqanmi": 2944,
      "chinku": 2945,
      "ykita": 2946,
      "raykuchu": 2947,
      "rurarqaku": 2948,
      "qallaykurqani": 2949,
      "Llaq": 2950,
      "kikillan": 2951,
      "Pedroqa": 2952,
      "Kim": 2953,
      "hichpa": 2954,
      "can": 2955,
      "kuychu": 2956,
      "manachá": 2957,
      "munarqani": 2958,
      "chaynachu": 2959,
      "chkanmi": 2960,
      "wañusqa": 2961,
      "wañukuptin": 2962,
      "kasukunapaq": 2963,
      "yanapanapaq": 2964,
      "qallarin": 2965,
      "waqaychan": 2966,
      "Levi": 2967,
      "nispanqa": 2968,
      "Willakuq": 2969,
      "Fili": 2970,
      "paginapi": 2971,
      "sunqunchik": 2972,
      "39": 2973,
      "opi": 2974,
      "antaqa": 2975,
      "nay": 2976,
      "enden": 2977,
      "Chaypaqmi": 2978,
      "pusaq": 2979,
      "hatu": 2980,
      "runakunapaq": 2981,
      "astawanqa": 2982,
      "ruwanku": 2983,
      "libran": 2984,
      "estudian": 2985,
      "qawachinku": 2986,
      "respeto": 2987,
      "iñiyninpi": 2988,
      "kikinku": 2989,
      "serviqninkunaqa": 2990,
      "tapukuykunata": 2991,
      "Taytanpa": 2992,
      "kapuqniyoq": 2993,
      "Exodo": 2994,
      "valeq": 2995,
      "du": 2996,
      "iman": 2997,
      "pimanpas": 2998,
      "ripu": 2999,
      "kuyasqanchikta": 3000,
      "kasqanmantam": 3001,
      "huklaw": 3002,
      "kuqkunata": 3003,
      "lar": 3004,
      "chkarqaku": 3005,
      "nirqataqmi": 3006,
      "wañuchisqa": 3007,
      "punchawta": 3008,
      "ruwasqanmanta": 3009,
      "bibliaqa": 3010,
      "servichikun": 3011,
      "churinta": 3012,
      "nikita": 3013,
      "takyasqa": 3014,
      "churarqa": 3015,
      "Estu": 3016,
      "imaymana": 3017,
      "Joseyqa": 3018,
      "vidapi": 3019,
      "ptikichikqa": 3020,
      "griego": 3021,
      "idio": 3022,
      "usu": 3023,
      "paka": 3024,
      "rica": 3025,
      "llapas": 3026,
      "tiy": 3027,
      "qosa": 3028,
      "ykichik": 3029,
      "cua": 3030,
      "kuruspan": 3031,
      "llaqtanqa": 3032,
      "munqa": 3033,
      "pasakusqan": 3034,
      "wasinpi": 3035,
      "yanapawasunmi": 3036,
      "takyan": 3037,
      "kasqankuraykum": 3038,
      "alaba": 3039,
      "QAR": 3040,
      "soltero": 3041,
      "servinankupaq": 3042,
      "atichwanmi": 3043,
      "unancharqa": 3044,
      "Mariaqa": 3045,
      "Gala": 3046,
      "Mos": 3047,
      "RE": 3048,
      "mikuyta": 3049,
      "chata": 3050,
      "allinpi": 3051,
      "paykunamanta": 3052,
      "huchanchik": 3053,
      "ptinchik": 3054,
      "wik": 3055,
      "chaynallachu": 3056,
      "yachachikuyninta": 3057,
      "Kaymi": 3058,
      "sutillatam": 3059,
      "llaqtapim": 3060,
      "kunanchikchu": 3061,
      "199": 3062,
      "kusisqallaña": 3063,
      "aspanchikqa": 3064,
      "qawanku": 3065,
      "ñawpaqmanta": 3066,
      "sqanchikmanta": 3067,
      "qatipakuchwan": 3068,
      "niqpi": 3069,
      "Yachachi": 3070,
      "ñuqanchikpas": 3071,
      "yupaychanankupaq": 3072,
      "Casado": 3073,
      "Sumaq": 3074,
      "55": 3075,
      "70": 3076,
      "das": 3077,
      "eyta": 3078,
      "fen": 3079,
      "ida": 3080,
      "jw": 3081,
      "tanapaq": 3082,
      "kunay": 3083,
      "pier": 3084,
      "chiktam": 3085,
      "rimanku": 3086,
      "nirqani": 3087,
      "kuykuq": 3088,
      "killanpi": 3089,
      "chaykunamanta": 3090,
      "paykunapas": 3091,
      "qowasqanchik": 3092,
      "kamaqa": 3093,
      "willakurqaku": 3094,
      "gar": 3095,
      "suticha": 3096,
      "rurayqa": 3097,
      "pasaq": 3098,
      "reqsichi": 3099,
      "akllan": 3100,
      "testigonkuna": 3101,
      "Seño": 3102,
      "ruwasqanmi": 3103,
      "ñoqaqa": 3104,
      "Enteron": 3105,
      "profes": 3106,
      "rueba": 3107,
      "BIBLI": 3108,
      "Kaw": 3109,
      "qapa": 3110,
      "llatapas": 3111,
      "llamantam": 3112,
      "kuymi": 3113,
      "Chaywanmi": 3114,
      "hampa": 3115,
      "oqta": 3116,
      "chaspa": 3117,
      "qipan": 3118,
      "llaqtapa": 3119,
      "kachkanchik": 3120,
      "suyaq": 3121,
      "sipasqa": 3122,
      "ANPI": 3123,
      "Nirqam": 3124,
      "serviqkunaqa": 3125,
      "kuchkanku": 3126,
      "Marcos": 3127,
      "aguantan": 3128,
      "Predi": 3129,
      "BIBLIA": 3130,
      "38": 3131,
      "Gu": 3132,
      "Lo": 3133,
      "iglesi": 3134,
      "uman": 3135,
      "qala": 3136,
      "ninpim": 3137,
      "kuqkunaqa": 3138,
      "yanapachwan": 3139,
      "tarikusqan": 3140,
      "atiende": 3141,
      "wañurachi": 3142,
      "kasukunankupaq": 3143,
      "señor": 3144,
      "vidayki": 3145,
      "rimachkarqa": 3146,
      "fier": 3147,
      "espirituman": 3148,
      "Llaki": 3149,
      "chinkarachi": 3150,
      "atinmanku": 3151,
      "Abrahampa": 3152,
      "wananchikmanta": 3153,
      "Piens": 3154,
      "asuyku": 3155,
      "atichwanchu": 3156,
      "rikchanlla": 3157,
      "Ezequiel": 3158,
      "QARANPI": 3159,
      "42": 3160,
      "Cana": 3161,
      "RI": 3162,
      "Wasi": 3163,
      "et": 3164,
      "tachá": 3165,
      "ruwasqanchik": 3166,
      "sqanraykum": 3167,
      "allinyana": 3168,
      "susqayki": 3169,
      "quy": 3170,
      "kuspay": 3171,
      "tapurqa": 3172,
      "rimaypiqa": 3173,
      "munasqanchikta": 3174,
      "Hinaspapas": 3175,
      "rikurirurqa": 3176,
      "poli": 3177,
      "kusqankurayku": 3178,
      "Hamuq": 3179,
      "kaspaykiqa": 3180,
      "rimaspanmi": 3181,
      "preocupa": 3182,
      "Hechos": 3183,
      "Kimsa": 3184,
      "Asa": 3185,
      "ach": 3186,
      "“[": 3187,
      "naypaq": 3188,
      "inti": 3189,
      "kunaykupaq": 3190,
      "spaymi": 3191,
      "hinaptinqa": 3192,
      "anpaqqa": 3193,
      "cuad": 3194,
      "llaqtata": 3195,
      "rurachwan": 3196,
      "pasarqa": 3197,
      "yanapawanchikmi": 3198,
      "agradon": 3199,
      "cambian": 3200,
      "Rut": 3201,
      "yupaychaqnin": 3202,
      "costumbre": 3203,
      "Ad": 3204,
      "gobiernon": 3205,
      "porta": 3206,
      "ruptinqa": 3207,
      "wanchu": 3208,
      "vision": 3209,
      "qawakun": 3210,
      "chkanki": 3211,
      "watakunapi": 3212,
      "wañukurqa": 3213,
      "kuspalla": 3214,
      "kutimu": 3215,
      "nacionpim": 3216,
      "kuyarqa": 3217,
      "iskaynin": 3218,
      "Salon": 3219,
      "peri": 3220,
      "qellqaq": 3221,
      "yupaychanapaq": 3222,
      "rikurin": 3223,
      "qatipakunapaq": 3224,
      "ananchikchu": 3225,
      "kachamu": 3226,
      "Churinta": 3227,
      "KAY": 3228,
      "makinpi": 3229,
      "idioma": 3230,
      "60": 3231,
      "Pas": 3232,
      "prueba": 3233,
      "asin": 3234,
      "riki": 3235,
      "watam": 3236,
      "killapi": 3237,
      "raz": 3238,
      "sama": 3239,
      "paykunapaq": 3240,
      "pura": 3241,
      "kaqpaqpas": 3242,
      "yanapawachwan": 3243,
      "yachachiy": 3244,
      "yachachisqanman": 3245,
      "tiempomanta": 3246,
      "wayta": 3247,
      "kasukuyqa": 3248,
      "llaqtayoq": 3249,
      "wasunchik": 3250,
      "hatunchan": 3251,
      "rimasqanku": 3252,
      "gobierna": 3253,
      "tropa": 3254,
      "contesta": 3255,
      "IMA": 3256,
      "hon": 3257,
      "nintaqmi": 3258,
      "chaymantapas": 3259,
      "kankichik": 3260,
      "kunkichu": 3261,
      "kaytam": 3262,
      "wichi": 3263,
      "hawan": 3264,
      "kaqkunapi": 3265,
      "yanapakuyta": 3266,
      "atiq": 3267,
      "piensasqan": 3268,
      "kuyawasqanchik": 3269,
      "cristianokunam": 3270,
      "kunanchikmi": 3271,
      "llaqtanman": 3272,
      "qellqasqan": 3273,
      "waspanchik": 3274,
      "atinman": 3275,
      "sqankurayku": 3276,
      "atipana": 3277,
      "ACHI": 3278,
      "costumb": 3279,
      "las": 3280,
      "oyoq": 3281,
      "yman": 3282,
      "ante": 3283,
      "espe": 3284,
      "kancha": 3285,
      "qori": 3286,
      "chaynalla": 3287,
      "Imatapunim": 3288,
      "rota": 3289,
      "kallpanchakurqa": 3290,
      "Wata": 3291,
      "cristianokunaman": 3292,
      "hukmanyan": 3293,
      "kuptinkuqa": 3294,
      "Kunanmi": 3295,
      "chaqru": 3296,
      "Ñoqam": 3297,
      "chkaspanmi": 3298,
      "asunchu": 3299,
      "kasqanchikraykum": 3300,
      "predicacion": 3301,
      "yuyaqña": 3302,
      "reqsina": 3303,
      "cheqni": 3304,
      "Qawasunchik": 3305,
      "Piensariy": 3306,
      "sanoya": 3307,
      "allinninchikpaq": 3308,
      "pierde": 3309,
      "qalalla": 3310,
      "Ami": 3311,
      "Dan": 3312,
      "nero": 3313,
      "ww": 3314,
      "hinas": 3315,
      "kicha": 3316,
      "runapas": 3317,
      "tiempokunapi": 3318,
      "kaptinkupas": 3319,
      "cristianokunapas": 3320,
      "uyariq": 3321,
      "qellqakunata": 3322,
      "yupaychay": 3323,
      "Israelpa": 3324,
      "runamasinchik": 3325,
      "riqsisqa": 3326,
      "ejemplonta": 3327,
      "Aar": 3328,
      "icio": 3329,
      "aypi": 3330,
      "pasasqanman": 3331,
      "tamá": 3332,
      "muhu": 3333,
      "munaspaykiqa": 3334,
      "tomay": 3335,
      "yachachisqa": 3336,
      "quias": 3337,
      "llanta": 3338,
      "llanmi": 3339,
      "piensaq": 3340,
      "waqniy": 3341,
      "kunamanpas": 3342,
      "Pablopas": 3343,
      "puntataqa": 3344,
      "warmiqa": 3345,
      "qillqapa": 3346,
      "rimasqanta": 3347,
      "yuyarichi": 3348,
      "Taytanchik": 3349,
      "Escuela": 3350,
      "wañunanpaq": 3351,
      "presochasqa": 3352,
      "utqay": 3353,
      "Ge": 3354,
      "Ja": 3355,
      "karqaniku": 3356,
      "qusan": 3357,
      "kuspankuqa": 3358,
      "llaqtacha": 3359,
      "Yachan": 3360,
      "ruwananku": 3361,
      "munasqanku": 3362,
      "sonqoyki": 3363,
      "amistadniy": 3364,
      "yupaychayta": 3365,
      "munanmanta": 3366,
      "saqin": 3367,
      "asqaykita": 3368,
      "llapanpim": 3369,
      "angelkuna": 3370,
      "PAQ": 3371,
      "Jerusalenpi": 3372,
      "Bautiza": 3373,
      "Familia": 3374,
      "YACHACHI": 3375,
      "Ay": 3376,
      "UN": 3377,
      "bur": 3378,
      "vino": 3379,
      "nas": 3380,
      "aslla": 3381,
      "risqa": 3382,
      "ninmanta": 3383,
      "kanankuta": 3384,
      "repa": 3385,
      "kamachin": 3386,
      "tiempota": 3387,
      "kallpanchakusun": 3388,
      "iñiqmasinchikqa": 3389,
      "wakinqa": 3390,
      "wakinkuqa": 3391,
      "kuyapaya": 3392,
      "llaqtamanta": 3393,
      "seña": 3394,
      "kunanmi": 3395,
      "vidanta": 3396,
      "qayllan": 3397,
      "rurayniyoq": 3398,
      "cei": 3399,
      "contr": 3400,
      "ninchikpi": 3401,
      "predicanapaq": 3402,
      "Ñoqaqa": 3403,
      "Espiri": 3404,
      "Corinto": 3405,
      "atiyniyuq": 3406,
      "DIOS": 3407,
      "Pan": 3408,
      "ukupi": 3409,
      "mania": 3410,
      "tiyay": 3411,
      "panku": 3412,
      "chulla": 3413,
      "chaywanmi": 3414,
      "kasqanqa": 3415,
      "nispaqa": 3416,
      "kasukurqa": 3417,
      "kuspayá": 3418,
      "allintachu": 3419,
      "qawachirqaku": 3420,
      "regalo": 3421,
      "sonqonkuwan": 3422,
      "sipaskuna": 3423,
      "librota": 3424,
      "libropi": 3425,
      "rurasqankuta": 3426,
      "leeyta": 3427,
      "ruspankum": 3428,
      "ñawpari": 3429,
      "kasqaykita": 3430,
      "piñana": 3431,
      "experi": 3432,
      "limpio": 3433,
      "36": 3434,
      "Al": 3435,
      "Asi": 3436,
      "ñun": 3437,
      "mis": 3438,
      "miento": 3439,
      "chaki": 3440,
      "mayu": 3441,
      "kaqlla": 3442,
      "Imapim": 3443,
      "qus": 3444,
      "nisqantam": 3445,
      "tawanmi": 3446,
      "sasam": 3447,
      "iñiqmasinchikta": 3448,
      "qatiqninpi": 3449,
      "kananpaqqa": 3450,
      "Diabloqa": 3451,
      "Cuida": 3452,
      "jefen": 3453,
      "Mun": 3454,
      "hor": 3455,
      "wasqa": 3456,
      "qanmanta": 3457,
      "chakuq": 3458,
      "wananpaq": 3459,
      "yakuta": 3460,
      "allinpunim": 3461,
      "maypipas": 3462,
      "repar": 3463,
      "kasqanman": 3464,
      "kamachinanpaq": 3465,
      "iñiqmasi": 3466,
      "kamachisqa": 3467,
      "Diosmantam": 3468,
      "piensasqanchik": 3469,
      "kunamanqa": 3470,
      "amistadniki": 3471,
      "rurananku": 3472,
      "warmipa": 3473,
      "bauti": 3474,
      "chayllachu": 3475,
      "entecos": 3476,
      "Aswan": 3477,
      "tiemponmanta": 3478,
      "wasinman": 3479,
      "piensarqa": 3480,
      "kasqayta": 3481,
      "judiokuna": 3482,
      "rikchanachi": 3483,
      "Señorninchik": 3484,
      "Noeypa": 3485,
      "iñiyniyuq": 3486,
      "entecostes": 3487,
      "Ser": 3488,
      "bi": 3489,
      "eo": 3490,
      "kusaq": 3491,
      "rusqanmanta": 3492,
      "kuypi": 3493,
      "samay": 3494,
      "kaychik": 3495,
      "kaspaymi": 3496,
      "toman": 3497,
      "kamachisqanman": 3498,
      "yayku": 3499,
      "kaspanqa": 3500,
      "kachkani": 3501,
      "wasiman": 3502,
      "qawananchik": 3503,
      "espirituta": 3504,
      "juez": 3505,
      "manchakuq": 3506,
      "yachachinankupaq": 3507,
      "discur": 3508,
      "lta": 3509,
      "ruspaqa": 3510,
      "ninkunata": 3511,
      "imawan": 3512,
      "suptikiqa": 3513,
      "qawarqaku": 3514,
      "chanqa": 3515,
      "kusikunchik": 3516,
      "kamachiqnin": 3517,
      "ruraspaqa": 3518,
      "kuspanchik": 3519,
      "kuyaq": 3520,
      "tanteasqan": 3521,
      "munasqanmanta": 3522,
      "llaqtanpa": 3523,
      "lawmanta": 3524,
      "rurawaq": 3525,
      "pasaruptinmi": 3526,
      "apachi": 3527,
      "predicasqanchik": 3528,
      "Llaqta": 3529,
      "chaqwa": 3530,
      "nikipi": 3531,
      "onqoy": 3532,
      "hawkayayta": 3533,
      "Taytanta": 3534,
      "Diablopa": 3535,
      "israelitakuna": 3536,
      "kachkaptinmi": 3537,
      "Congregacionpi": 3538,
      "vidankupi": 3539,
      "derech": 3540,
      "YACHACHIKUY": 3541,
      "44": 3542,
      "AY": 3543,
      "MI": 3544,
      "RU": 3545,
      "betel": 3546,
      "tataq": 3547,
      "ingl": 3548,
      "paqña": 3549,
      "Jef": 3550,
      "hurqu": 3551,
      "imapaq": 3552,
      "munasqayki": 3553,
      "pachapim": 3554,
      "leb": 3555,
      "piensaspa": 3556,
      "prepara": 3557,
      "rikchay": 3558,
      "espirituwan": 3559,
      "willakuykuna": 3560,
      "gido": 3561,
      "necesitanchik": 3562,
      "promes": 3563,
      "yanapasqanta": 3564,
      "wañunan": 3565,
      "kamachikuykunata": 3566,
      "llawanña": 3567,
      "cesqa": 3568,
      "Efesios": 3569,
      "Qoll": 3570,
      "pasaytam": 3571,
      "for": 3572,
      "uku": 3573,
      "ía": 3574,
      "chkaspay": 3575,
      "tata": 3576,
      "pasasqanmanta": 3577,
      "nitaqmi": 3578,
      "kuyasqanta": 3579,
      "kaqkunapas": 3580,
      "kusqanraykum": 3581,
      "willakunanpaq": 3582,
      "Bibliapiqa": 3583,
      "Diostawan": 3584,
      "tarikusun": 3585,
      "tarikurqani": 3586,
      "runanpaq": 3587,
      "aykita": 3588,
      "estudianapaq": 3589,
      "ruwayqa": 3590,
      "piñakuq": 3591,
      "llataña": 3592,
      "pampachana": 3593,
      "runamasinchikta": 3594,
      "tarinchik": 3595,
      "yachachikuyninkunata": 3596,
      "herenci": 3597,
      "dibujo": 3598,
      "Alemania": 3599,
      "Mosoq": 3600,
      "agradonpaq": 3601,
      "Kasu": 3602,
      "dro": 3603,
      "gen": 3604,
      "upalla": 3605,
      "zasqa": 3606,
      "anan": 3607,
      "kaña": 3608,
      "niyqa": 3609,
      "ñawi": 3610,
      "kanmanku": 3611,
      "runapaq": 3612,
      "tukurqa": 3613,
      "via": 3614,
      "qawaq": 3615,
      "tarikuptin": 3616,
      "tarikuni": 3617,
      "nisqanwan": 3618,
      "kawsakunankupaq": 3619,
      "piensaspan": 3620,
      "kaspanchikpas": 3621,
      "rimaykunapi": 3622,
      "chaskiy": 3623,
      "warmita": 3624,
      "uywa": 3625,
      "carga": 3626,
      "yuyaymanananchik": 3627,
      "tupachiy": 3628,
      "ninanmi": 3629,
      "palabranta": 3630,
      "sapaqchasqa": 3631,
      "Yaqachusmi": 3632,
      "herencia": 3633,
      "parrafota": 3634,
      "allinninpaq": 3635,
      "television": 3636,
      "Ñuqanchikpas": 3637,
      "Pascua": 3638,
      "Jefte": 3639,
      "46": 3640,
      "Cro": 3641,
      "Qos": 3642,
      "layqa": 3643,
      "owan": 3644,
      "tado": 3645,
      "rupa": 3646,
      "chuy": 3647,
      "asqayku": 3648,
      "ibli": 3649,
      "yanapawasqanchikmanta": 3650,
      "yachachinapaq": 3651,
      "qellqan": 3652,
      "kunapiwan": 3653,
      "kutikama": 3654,
      "nacionniyuq": 3655,
      "runchik": 3656,
      "kuyawasqanchikta": 3657,
      "tapuy": 3658,
      "kaynatam": 3659,
      "kunanchikta": 3660,
      "195": 3661,
      "tantearurqa": 3662,
      "admi": 3663,
      "llanchikmi": 3664,
      "niwanchikmi": 3665,
      "Jona": 3666,
      "iskayrayarqachu": 3667,
      "Efeso": 3668,
      "LLA": 3669,
      "chawpinpi": 3670,
      "discipulon": 3671,
      "48": 3672,
      "Cor": 3673,
      "api": 3674,
      "qacha": 3675,
      "qayki": 3676,
      "ruspanku": 3677,
      "watan": 3678,
      "allinlla": 3679,
      "paypaq": 3680,
      "tukunqa": 3681,
      "tanqa": 3682,
      "yachachiyta": 3683,
      "Imatapas": 3684,
      "iñiqkuna": 3685,
      "wañuchina": 3686,
      "Wak": 3687,
      "señ": 3688,
      "Pablota": 3689,
      "munasqanchik": 3690,
      "aypaqmi": 3691,
      "apaqkuna": 3692,
      "Judas": 3693,
      "ancianokunata": 3694,
      "CHI": 3695,
      "crees": 3696,
      "Iñiynin": 3697,
      "penqa": 3698,
      "huertapi": 3699,
      "ruraspam": 3700,
      "Laza": 3701,
      "muyuri": 3702,
      "burla": 3703,
      "Pantaq": 3704,
      "Servi": 3705,
      "Chi": 3706,
      "Pentecostes": 3707,
      "piwanpas": 3708,
      "kachkarqa": 3709,
      "chaypiqa": 3710,
      "payki": 3711,
      "tumpa": 3712,
      "kasqanmantaqa": 3713,
      "kaqkunatam": 3714,
      "kaqkunatapas": 3715,
      "kusqanrayku": 3716,
      "ranqa": 3717,
      "watakunapim": 3718,
      "kusichiwanchik": 3719,
      "punchawkuna": 3720,
      "kuyakuyninta": 3721,
      "llumpaytam": 3722,
      "qakuchu": 3723,
      "congregacionkunata": 3724,
      "kawsarimun": 3725,
      "cumplikusqanta": 3726,
      "waptinchikpas": 3727,
      "Chaymantapacham": 3728,
      "lloqsin": 3729,
      "urma": 3730,
      "bendicionkunatam": 3731,
      "templon": 3732,
      "internet": 3733,
      "tentacion": 3734,
      "negocio": 3735,
      "abuel": 3736,
      "respetowan": 3737,
      "Amistad": 3738,
      "43": 3739,
      "Imay": 3740,
      "Mu": 3741,
      "gas": 3742,
      "chasqanta": 3743,
      "piñataqmi": 3744,
      "maki": 3745,
      "llaway": 3746,
      "chayrayku": 3747,
      "haypa": 3748,
      "paykunataqa": 3749,
      "erqan": 3750,
      "yanapakuq": 3751,
      "pachapiqa": 3752,
      "rqankichik": 3753,
      "divor": 3754,
      "iñiqmasiy": 3755,
      "atisqanchik": 3756,
      "kallpanchakunanku": 3757,
      "ykupas": 3758,
      "llakichi": 3759,
      "huchata": 3760,
      "Pikunataq": 3761,
      "Judio": 3762,
      "congregacionmanta": 3763,
      "ligro": 3764,
      "tiemponkuwan": 3765,
      "Abel": 3766,
      "rurasqanmi": 3767,
      "kuchkanchik": 3768,
      "kusqaykita": 3769,
      "rimaspanqa": 3770,
      "versidad": 3771,
      "Warmayki": 3772,
      "video": 3773,
      "Aaron": 3774,
      "119": 3775,
      "Eden": 3776,
      "Prom": 3777,
      "Tra": 3778,
      "acei": 3779,
      "pakasqa": 3780,
      "llasqa": 3781,
      "rirqani": 3782,
      "paykunaman": 3783,
      "paykiqa": 3784,
      "kasqanmantapas": 3785,
      "yacharurqa": 3786,
      "chanta": 3787,
      "cuar": 3788,
      "watañam": 3789,
      "serviypi": 3790,
      "kusikunapaq": 3791,
      "iñiqmasinchikpa": 3792,
      "kururqani": 3793,
      "libre": 3794,
      "uyariyta": 3795,
      "ruwasqanta": 3796,
      "pasaruptin": 3797,
      "qatiqninkunaman": 3798,
      "kanqachu": 3799,
      "espiritual": 3800,
      "predicay": 3801,
      "onqoq": 3802,
      "Runaqa": 3803,
      "llapanku": 3804,
      "alto": 3805,
      "kasqanchikrayku": 3806,
      "hukmanyachi": 3807,
      "creen": 3808,
      "noticiata": 3809,
      "donce": 3810,
      "puchukachisqa": 3811,
      "hoqari": 3812,
      "Rimarisun": 3813,
      "chiriya": 3814,
      "discurso": 3815,
      "Eno": 3816,
      "To": 3817,
      "WAN": 3818,
      "aca": 3819,
      "we": 3820,
      "manti": 3821,
      "ruy": 3822,
      "manapas": 3823,
      "ungido": 3824,
      "kanayki": 3825,
      "runataqa": 3826,
      "kasqanwan": 3827,
      "hukwan": 3828,
      "atisun": 3829,
      "wañuqkuna": 3830,
      "llanwan": 3831,
      "ober": 3832,
      "llumpaytaqa": 3833,
      "peligro": 3834,
      "vidanchik": 3835,
      "ruwawaq": 3836,
      "warmikuna": 3837,
      "pasakurqa": 3838,
      "sonqonchikpi": 3839,
      "pantasqa": 3840,
      "Davidta": 3841,
      "kikinpa": 3842,
      "Pedropa": 3843,
      "qunqa": 3844,
      "suyakuyniyuq": 3845,
      "qawasqan": 3846,
      "yanapaqnin": 3847,
      "Haykapitaq": 3848,
      "Nintaqmi": 3849,
      "Isaiaspa": 3850,
      "Enoc": 3851,
      "pra": 3852,
      "vela": 3853,
      "xi": 3854,
      "qarqu": 3855,
      "ninchu": 3856,
      "Diosni": 3857,
      "imapim": 3858,
      "hawa": 3859,
      "chinman": 3860,
      "willakunku": 3861,
      "Imakuna": 3862,
      "pachapipas": 3863,
      "rqankichu": 3864,
      "nisqankuna": 3865,
      "kusikunapaqmi": 3866,
      "sasachakuyninchik": 3867,
      "qillqan": 3868,
      "tanteay": 3869,
      "kunanmantaqa": 3870,
      "sasachakuypim": 3871,
      "runakunatapas": 3872,
      "ptiyqa": 3873,
      "warmim": 3874,
      "100": 3875,
      "144": 3876,
      "munani": 3877,
      "munanchu": 3878,
      "apakunanpaq": 3879,
      "llapankum": 3880,
      "Gobiernonpi": 3881,
      "willakusqanman": 3882,
      "hawkaya": 3883,
      "Lev": 3884,
      "kawsananchikpaq": 3885,
      "llamkaqmasin": 3886,
      "Evata": 3887,
      "hichpalla": 3888,
      "Betelpi": 3889,
      "cristianam": 3890,
      "templopi": 3891,
      "yanapakuyninwan": 3892,
      "profe": 3893,
      "pukllay": 3894,
      "trigo": 3895,
      "profesor": 3896,
      "promesan": 3897,
      "Eu": 3898,
      "Gobier": 3899,
      "Li": 3900,
      "Or": 3901,
      "fon": 3902,
      "vec": 3903,
      "kurunku": 3904,
      "namanta": 3905,
      "aychapa": 3906,
      "lle": 3907,
      "pipapas": 3908,
      "chikpa": 3909,
      "niwasqanchikta": 3910,
      "yaq": 3911,
      "imamanta": 3912,
      "munarqam": 3913,
      "kaqkunataqa": 3914,
      "maskaq": 3915,
      "cacion": 3916,
      "Kaywanqa": 3917,
      "piensasqanku": 3918,
      "kaspankum": 3919,
      "kunchikmi": 3920,
      "Jesucristom": 3921,
      "rimanankupaq": 3922,
      "taksa": 3923,
      "churiyoq": 3924,
      "harkachi": 3925,
      "mamayqa": 3926,
      "animalkunata": 3927,
      "Deut": 3928,
      "Casara": 3929,
      "Yupay": 3930,
      "control": 3931,
      "Estudi": 3932,
      "experienci": 3933,
      "hichpallapiña": 3934,
      "Fran": 3935,
      "On": 3936,
      "acuer": 3937,
      "due": 3938,
      "nacesqan": 3939,
      "pimantapas": 3940,
      "llapiña": 3941,
      "churasqa": 3942,
      "ankumantaqa": 3943,
      "toli": 3944,
      "spanpas": 3945,
      "risunchik": 3946,
      "pachapa": 3947,
      "kuyninchikqa": 3948,
      "kawsakunapaq": 3949,
      "mañakuq": 3950,
      "mañakusqanta": 3951,
      "waqku": 3952,
      "yachasqay": 3953,
      "yachaywan": 3954,
      "ruranan": 3955,
      "qampas": 3956,
      "Runakuna": 3957,
      "llapanchikmi": 3958,
      "angelnin": 3959,
      "bendicionkuna": 3960,
      "caball": 3961,
      "Fa": 3962,
      "Mus": 3963,
      "ras": 3964,
      "wasqanku": 3965,
      "qampa": 3966,
      "aymanta": 3967,
      "ninanqa": 3968,
      "mayqen": 3969,
      "recuad": 3970,
      "qora": 3971,
      "qosay": 3972,
      "spanchikqa": 3973,
      "chaynallataqmi": 3974,
      "chananpaq": 3975,
      "wanchiktaqmi": 3976,
      "rurasqayki": 3977,
      "sasachakuyta": 3978,
      "cristianoqa": 3979,
      "ykuwan": 3980,
      "yachasqayki": 3981,
      "amistadta": 3982,
      "kananpaqmi": 3983,
      "cheqapta": 3984,
      "qawanapaq": 3985,
      "respetana": 3986,
      "qillqasqa": 3987,
      "Davidmi": 3988,
      "atinkuchu": 3989,
      "huchallikuru": 3990,
      "pisimanta": 3991,
      "rimaspa": 3992,
      "ruwasqankuta": 3993,
      "qepata": 3994,
      "kasqanchikmanta": 3995,
      "tarinki": 3996,
      "Elias": 3997,
      "israelitakunata": 3998,
      "Casarasqa": 3999,
      "Imatataq": 4000,
      "hawkayaypi": 4001,
      "kallpayoq": 4002,
      "costumbren": 4003,
      "Qollqe": 4004,
      "doncella": 4005,
      "acuerdo": 4006,
      "Cha": 4007,
      "Cron": 4008,
      "Di": 4009,
      "KI": 4010,
      "aloni": 4011,
      "mpu": 4012,
      "ruyta": 4013,
      "kipi": 4014,
      "kaytapas": 4015,
      "munaspa": 4016,
      "kaqkunawan": 4017,
      "ospi": 4018,
      "rinku": 4019,
      "kasukuyta": 4020,
      "punchawqa": 4021,
      "runki": 4022,
      "mañakuspa": 4023,
      "yachanchikchu": 4024,
      "ruwananmanta": 4025,
      "yachanmanku": 4026,
      "lliwta": 4027,
      "ancianokunapa": 4028,
      "predicanankupaq": 4029,
      "arreg": 4030,
      "qillqarqa": 4031,
      "iñiyninchik": 4032,
      "riqsin": 4033,
      "faraon": 4034,
      "venga": 4035,
      "Tesaloni": 4036,
      "qawaspanmi": 4037,
      "churasqan": 4038,
      "hampichi": 4039,
      "servinapaq": 4040,
      "Llapanchikmi": 4041,
      "SAL": 4042,
      "challwa": 4043,
      "fierno": 4044,
      "contranchikpi": 4045,
      "Atal": 4046,
      "Griego": 4047,
      "Yuyari": 4048,
      "soqta": 4049,
      "ukun": 4050,
      "kutam": 4051,
      "manña": 4052,
      "pisipasqa": 4053,
      "kar": 4054,
      "kapa": 4055,
      "kachkaspa": 4056,
      "chiktaqa": 4057,
      "mag": 4058,
      "chayoq": 4059,
      "chaymantam": 4060,
      "sqanwan": 4061,
      "sunayki": 4062,
      "chaynaqa": 4063,
      "yachachisqanku": 4064,
      "Para": 4065,
      "iñiqkunapi": 4066,
      "rurasqankumanta": 4067,
      "kawsananchik": 4068,
      "iskayninku": 4069,
      "yachanqaku": 4070,
      "ruwasqankumanta": 4071,
      "qamkunapas": 4072,
      "wasita": 4073,
      "akllay": 4074,
      "sonqonwan": 4075,
      "Angel": 4076,
      "qarikunata": 4077,
      "parla": 4078,
      "Runakunapa": 4079,
      "yuyarinapaq": 4080,
      "qallarirqa": 4081,
      "ebe": 4082,
      "Ñawpa": 4083,
      "qawaspankum": 4084,
      "lluqsimuq": 4085,
      "gracia": 4086,
      "satanas": 4087,
      "Yuyarisun": 4088,
      "ruega": 4089,
      "warmankuta": 4090,
      "MANTA": 4091,
      "arreglo": 4092,
      "Atalaya": 4093,
      "),": 4094,
      "Do": 4095,
      "NIN": 4096,
      "ado": 4097,
      "nor": 4098,
      "ayqe": 4099,
      "waqnin": 4100,
      "kuyanapaq": 4101,
      "kuyanankupaq": 4102,
      "hinaspanmi": 4103,
      "allintaqa": 4104,
      "tukuytam": 4105,
      "kamachikuyta": 4106,
      "Paykunapa": 4107,
      "llupti": 4108,
      "kasukuspaqa": 4109,
      "kallpanchakuq": 4110,
      "iñiqmasinkuna": 4111,
      "kawsananpaq": 4112,
      "llaqtayuq": 4113,
      "yachanchikmi": 4114,
      "Hucha": 4115,
      "Mamay": 4116,
      "Wakinpim": 4117,
      "piñakuru": 4118,
      "sonqonchikwan": 4119,
      "nomb": 4120,
      "copi": 4121,
      "qollqen": 4122,
      "Pedrom": 4123,
      "sirvienten": 4124,
      "kuychikyá": 4125,
      "kachkaspanpas": 4126,
      "hichpan": 4127,
      "aspaykiqa": 4128,
      "Salomonpa": 4129,
      "Satanasmi": 4130,
      "Romapi": 4131,
      "kusikuywanmi": 4132,
      "qallariypi": 4133,
      "Yuyayman": 4134,
      "listolla": 4135,
      "bautizasqa": 4136,
      "Ber": 4137,
      "ban": 4138,
      "fal": 4139,
      "frica": 4140,
      "qkunam": 4141,
      "ve": 4142,
      "vas": 4143,
      "chispan": 4144,
      "rinapaq": 4145,
      "wacha": 4146,
      "nia": 4147,
      "nispanku": 4148,
      "tiyan": 4149,
      "chayan": 4150,
      "allpantinpi": 4151,
      "kayniyoq": 4152,
      "imarayku": 4153,
      "iñiqkunata": 4154,
      "wañukuq": 4155,
      "kawsakunqaku": 4156,
      "sasachakunku": 4157,
      "piensananchik": 4158,
      "mañakurqani": 4159,
      "tanteanapaq": 4160,
      "llaqtakunapi": 4161,
      "sasachakuytapas": 4162,
      "Hinaspa": 4163,
      "qawachinmi": 4164,
      "puntatam": 4165,
      "cheqaptapuni": 4166,
      "gusta": 4167,
      "ñakarichisqa": 4168,
      "atinchik": 4169,
      "willakuypi": 4170,
      "sutinqa": 4171,
      "yachachinku": 4172,
      "piensarqaku": 4173,
      "pisipu": 4174,
      "Jobqa": 4175,
      "Colos": 4176,
      "desgracia": 4177,
      "respetakuq": 4178,
      "Moisesta": 4179,
      "tupana": 4180,
      "tupanmi": 4181,
      "kachkaptinpas": 4182,
      "Cain": 4183,
      "cumplina": 4184,
      "Abrahamqa": 4185,
      "kanamanta": 4186,
      "Ñaka": 4187,
      "Qellqa": 4188,
      "ovejankunata": 4189,
      "Cuidaq": 4190,
      "señas": 4191,
      "ospital": 4192,
      "?,": 4193,
      "Haw": 4194,
      "Ita": 4195,
      "Lib": 4196,
      "QAN": 4197,
      "cero": 4198,
      "pl": 4199,
      "wasqanta": 4200,
      "yn": 4201,
      "aypu": 4202,
      "qana": 4203,
      "pasayta": 4204,
      "risqan": 4205,
      "wara": 4206,
      "churay": 4207,
      "chayraq": 4208,
      "saman": 4209,
      "kaqllamanta": 4210,
      "tota": 4211,
      "imaynataq": 4212,
      "Chaynataqmi": 4213,
      "isla": 4214,
      "Jesuspi": 4215,
      "kawsasqan": 4216,
      "kaspankuqa": 4217,
      "wasunmi": 4218,
      "hatunchasqa": 4219,
      "rurayninchik": 4220,
      "qellqapa": 4221,
      "eja": 4222,
      "Pachaman": 4223,
      "yanapawanchikman": 4224,
      "Allinmi": 4225,
      "sayay": 4226,
      "pampachasqa": 4227,
      "qawaspanku": 4228,
      "Ñuqa": 4229,
      "cheqnina": 4230,
      "yupaychaqkunaqa": 4231,
      "ñayá": 4232,
      "Cristianokunaqa": 4233,
      "Famili": 4234,
      "chuyanchasqa": 4235,
      "Guerra": 4236,
      "hinastinpi": 4237,
      "Imaynan": 4238,
      "espiritualpi": 4239,
      "kuchkaptin": 4240,
      "kuchkaq": 4241,
      "chakin": 4242,
      "rusqanta": 4243,
      "chaywanpas": 4244,
      "sien": 4245,
      "qocha": 4246,
      "kasaq": 4247,
      "munasqay": 4248,
      "hukkunatapas": 4249,
      "runakunamanmi": 4250,
      "kusqanmi": 4251,
      "nisqanpim": 4252,
      "atisqanta": 4253,
      "piensanapaq": 4254,
      "piensasqanman": 4255,
      "punchawmanta": 4256,
      "anchikpaqqa": 4257,
      "iñiqmasinchikpas": 4258,
      "tanteaspa": 4259,
      "yanapanku": 4260,
      "Mari": 4261,
      "qawachinanchik": 4262,
      "munankuchu": 4263,
      "munanta": 4264,
      "servichikunku": 4265,
      "qallaykuchwan": 4266,
      "qillqakunata": 4267,
      "carre": 4268,
      "sipaskunaqa": 4269,
      "wiñaypaqmi": 4270,
      "kunichu": 4271,
      "cumplikurqa": 4272,
      "kuskam": 4273,
      "kusqankuraykum": 4274,
      "conseja": 4275,
      "Qamqa": 4276,
      "Qamkunaqa": 4277,
      "lloqsimuq": 4278,
      "akllarqa": 4279,
      "noticiamanta": 4280,
      "librawananchikpaq": 4281,
      "familiapi": 4282,
      "metro": 4283,
      "Saraqa": 4284,
      "defiende": 4285,
      "huchankumanta": 4286,
      "Galaad": 4287,
      "ñawpaqmantaraq": 4288,
      "velacion": 4289,
      "maged": 4290,
      "El": 4291,
      "Hi": 4292,
      "OV": 4293,
      "qatin": 4294,
      "ayqi": 4295,
      "infierno": 4296,
      "chiki": 4297,
      "rurqaniku": 4298,
      "rikurqa": 4299,
      "rirqaniku": 4300,
      "kuytam": 4301,
      "kiqnin": 4302,
      "muychik": 4303,
      "ptinchikpas": 4304,
      "asqam": 4305,
      "ankupaqqa": 4306,
      "yanapawasqanchikta": 4307,
      "ropa": 4308,
      "nisqankuta": 4309,
      "wataypi": 4310,
      "iste": 4311,
      "nirqachu": 4312,
      "wañuypas": 4313,
      "piensani": 4314,
      "iñiqmasinchikwan": 4315,
      "waqchik": 4316,
      "kurqakum": 4317,
      "Armaged": 4318,
      "tanteaq": 4319,
      "Pachata": 4320,
      "suyakuynin": 4321,
      "sutinpi": 4322,
      "familianta": 4323,
      "Palabranpi": 4324,
      "Rik": 4325,
      "correg": 4326,
      "sacerdotekunapa": 4327,
      "ruwaspaqa": 4328,
      "Hebreo": 4329,
      "ptiykum": 4330,
      "Leviy": 4331,
      "Kawsa": 4332,
      "razon": 4333,
      "experienciayoq": 4334,
      "Kaq": 4335,
      "Man": 4336,
      "SE": 4337,
      "Zaca": 4338,
      "kunalla": 4339,
      "kuyananchik": 4340,
      "endes": 4341,
      "kanmi": 4342,
      "Chaykuna": 4343,
      "Chayrayku": 4344,
      "mayor": 4345,
      "runawan": 4346,
      "kaqtapas": 4347,
      "kaqkunam": 4348,
      "tiempom": 4349,
      "Waw": 4350,
      "sapallay": 4351,
      "tanteasqanchik": 4352,
      "ruraykunata": 4353,
      "Wakinkum": 4354,
      "chaskirqaku": 4355,
      "chaskisun": 4356,
      "arma": 4357,
      "parl": 4358,
      "abri": 4359,
      "taky": 4360,
      "ñoqapas": 4361,
      "wawqi": 4362,
      "wawqin": 4363,
      "Reyes": 4364,
      "judiokunapa": 4365,
      "ruptinku": 4366,
      "Qampas": 4367,
      "bendicionkunata": 4368,
      "qonqasunchu": 4369,
      "Kallpan": 4370,
      "tropan": 4371,
      "pacienciakuq": 4372,
      "valorcha": 4373,
      "consuel": 4374,
      "rantinchikpi": 4375,
      "Llaqtanpi": 4376,
      "Zacari": 4377,
      "Apaq": 4378,
      "CAS": 4379,
      "JES": 4380,
      "cin": 4381,
      "cey": 4382,
      "vin": 4383,
      "anman": 4384,
      "patan": 4385,
      "kañ": 4386,
      "rial": 4387,
      "paqchu": 4388,
      "kuytapas": 4389,
      "hinaptin": 4390,
      "chuyay": 4391,
      "Dioslla": 4392,
      "kanaykupaq": 4393,
      "Chaywanqa": 4394,
      "runamasi": 4395,
      "tum": 4396,
      "suyay": 4397,
      "puyu": 4398,
      "munaspanku": 4399,
      "spankuqa": 4400,
      "Imakunata": 4401,
      "Sama": 4402,
      "atiyta": 4403,
      "sasachan": 4404,
      "kamachiyta": 4405,
      "kallpanchaq": 4406,
      "achkam": 4407,
      "kaptinchikpas": 4408,
      "kawsasqanku": 4409,
      "anchikpaqmi": 4410,
      "Qari": 4411,
      "Mala": 4412,
      "yachananku": 4413,
      "chaskiq": 4414,
      "contenta": 4415,
      "munanki": 4416,
      "yanapasqa": 4417,
      "churinkunata": 4418,
      "kuptinpas": 4419,
      "espirituqa": 4420,
      "kanankupaqqa": 4421,
      "chinkachinanpaq": 4422,
      "niypi": 4423,
      "confianapaq": 4424,
      "onqoywan": 4425,
      "amistadninchikta": 4426,
      "unquy": 4427,
      "Maynatachá": 4428,
      "qawasqanman": 4429,
      "Elise": 4430,
      "kawsanqaku": 4431,
      "Joseypa": 4432,
      "karupi": 4433,
      "kusqayku": 4434,
      "yanapakuykunata": 4435,
      "ruwaspa": 4436,
      "yanapasunkiman": 4437,
      "celu": 4438,
      "Chun": 4439,
      "reparan": 4440,
      "JESU": 4441,
      "49": 4442,
      "Pasaq": 4443,
      "Rebe": 4444,
      "Ñi": 4445,
      "patanpi": 4446,
      "aycha": 4447,
      "aysa": 4448,
      "pikuna": 4449,
      "qanchikta": 4450,
      "nintam": 4451,
      "rapa": 4452,
      "taqyá": 4453,
      "Chaypiqa": 4454,
      "kunmanchu": 4455,
      "silla": 4456,
      "asapa": 4457,
      "qawari": 4458,
      "qurqa": 4459,
      "kusikuni": 4460,
      "sasachu": 4461,
      "wañuyta": 4462,
      "wayqa": 4463,
      "estudiananchik": 4464,
      "Iskaynin": 4465,
      "Wakinñataqmi": 4466,
      "apaqkunaqa": 4467,
      "qawanlla": 4468,
      "qillqapi": 4469,
      "sunquyuq": 4470,
      "iskayrayanchikchu": 4471,
      "kawsarimuq": 4472,
      "rimananpaq": 4473,
      "chanincha": 4474,
      "chaynatachu": 4475,
      "rikchanachisqan": 4476,
      "qullqita": 4477,
      "Evaqa": 4478,
      "Yuyaq": 4479,
      "qosayki": 4480,
      "ñawpaqtaraq": 4481,
      "ñawpaqtaraqmi": 4482,
      "qespi": 4483,
      "Nuevo": 4484,
      "novi": 4485,
      "Familiawan": 4486,
      "CHIK": 4487,
      "isterial": 4488,
      "Armagedon": 4489,
      "Go": 4490,
      "HU": 4491,
      "Po": 4492,
      "ytapas": 4493,
      "és": 4494,
      "paga": 4495,
      "insu": 4496,
      "llakin": 4497,
      "kuyasqa": 4498,
      "chaykunaqa": 4499,
      "Diospim": 4500,
      "ram": 4501,
      "allinya": 4502,
      "paytaqa": 4503,
      "imakunatapas": 4504,
      "puriq": 4505,
      "yanapakun": 4506,
      "kallpanchana": 4507,
      "lluq": 4508,
      "rurasqay": 4509,
      "sapallanku": 4510,
      "estudianankupaq": 4511,
      "yachananpaq": 4512,
      "ruwasqay": 4513,
      "piñataq": 4514,
      "kunanpaqmi": 4515,
      "cheqapmanta": 4516,
      "uywasqa": 4517,
      "iñiyninchikta": 4518,
      "yachaspa": 4519,
      "willakuymi": 4520,
      "religionkuna": 4521,
      "yuyaymanayqa": 4522,
      "abo": 4523,
      "necesitan": 4524,
      "Segu": 4525,
      "Rosa": 4526,
      "tupachin": 4527,
      "agradecekuni": 4528,
      "allpata": 4529,
      "Yachamusqanchikman": 4530,
      "alabay": 4531,
      "kusqanchikmanta": 4532,
      "cartata": 4533,
      "Kusisqa": 4534,
      "sunkiman": 4535,
      "Piensarisun": 4536,
      "llapallanchikmi": 4537,
      "Qullqi": 4538,
      "qallariyninpi": 4539,
      "wichiyku": 4540,
      "droga": 4541,
      "Gobierno": 4542,
      "Musya": 4543,
      "Rebeca": 4544,
      "Ñitiy": 4545,
      "ankama": 4546,
      "chasqanku": 4547,
      "piyá": 4548,
      "qanku": 4549,
      "paspan": 4550,
      "pasaypaq": 4551,
      "tiga": 4552,
      "churiy": 4553,
      "chaywanqa": 4554,
      "musqan": 4555,
      "anchikmanta": 4556,
      "yacharurqani": 4557,
      "hukkunawan": 4558,
      "hukkunaman": 4559,
      "tera": 4560,
      "toma": 4561,
      "tarikuchwan": 4562,
      "kasukunanku": 4563,
      "sasachakuspalla": 4564,
      "piensasqankuta": 4565,
      "tanteasqanku": 4566,
      "qawachichkan": 4567,
      "ruwanqa": 4568,
      "ruwanaykipaq": 4569,
      "unaykipaq": 4570,
      "rurananmanta": 4571,
      "munanchikchu": 4572,
      "pasakusqanmanta": 4573,
      "hukmanyay": 4574,
      "entiendena": 4575,
      "edu": 4576,
      "Tuta": 4577,
      "nikiqa": 4578,
      "willakuykunata": 4579,
      "musyay": 4580,
      "yachachinanku": 4581,
      "angelkunaqa": 4582,
      "Pedrota": 4583,
      "faci": 4584,
      "waqaychasqa": 4585,
      "agradecekunchik": 4586,
      "Abrah": 4587,
      "imatataq": 4588,
      "cuentalli": 4589,
      "puchukachi": 4590,
      "sirvienteta": 4591,
      "Inti": 4592,
      "trago": 4593,
      "ruwaspanchikqa": 4594,
      "rimanapaq": 4595,
      "escuelapi": 4596,
      "atiyninwan": 4597,
      "Internetpi": 4598,
      "munaychakuyninmanta": 4599,
      "miski": 4600,
      "abuelon": 4601,
      "Prometes": 4602,
      "aceite": 4603,
      "planta": 4604,
      "Ak": 4605,
      "Sin": 4606,
      "Sonqo": 4607,
      "Uyari": 4608,
      "cción": 4609,
      "calle": 4610,
      "uni": 4611,
      "wasqayki": 4612,
      "pala": 4613,
      "ayuq": 4614,
      "mitu": 4615,
      "cham": 4616,
      "pasun": 4617,
      "hinañachu": 4618,
      "asqanmi": 4619,
      "sachapa": 4620,
      "sunaykipaq": 4621,
      "pur": 4622,
      "kusqankuqa": 4623,
      "Bibliawan": 4624,
      "qechu": 4625,
      "tariku": 4626,
      "tiempollanpi": 4627,
      "atirqachu": 4628,
      "wañuchiq": 4629,
      "Imaynatataq": 4630,
      "Kaymanta": 4631,
      "kaptinchikqa": 4632,
      "wakinpi": 4633,
      "yachaymi": 4634,
      "yachayniyuq": 4635,
      "vidanchikpi": 4636,
      "198": 4637,
      "chaskisqanchik": 4638,
      "Huknin": 4639,
      "lliwmi": 4640,
      "Diosmanmi": 4641,
      "servichikuspa": 4642,
      "kanmanchu": 4643,
      "gus": 4644,
      "Taytalláy": 4645,
      "yanqamanta": 4646,
      "iskayrayananchikchu": 4647,
      "atinmanchu": 4648,
      "yachachinanpaq": 4649,
      "yuyarichirqa": 4650,
      "ruwasqanqa": 4651,
      "mosoqmanta": 4652,
      "lucero": 4653,
      "karunchakuru": 4654,
      "tikran": 4655,
      "Eliasqa": 4656,
      "horata": 4657,
      "estudiaqmasin": 4658,
      "ruspaymi": 4659,
      "rinaypaq": 4660,
      "presocha": 4661,
      "estudiopi": 4662,
      "contratota": 4663,
      "Religion": 4664,
      "qawaspa": 4665,
      "kikillanpaq": 4666,
      "Abrahanwan": 4667,
      "Munaychakuyninmanta": 4668,
      "penqaypi": 4669,
      "Predic": 4670,
      "Mundo": 4671,
      "ingles": 4672,
      "muyuriqnin": 4673,
      "internetpi": 4674,
      "Munan": 4675,
      "Per": 4676,
      "dá": 4677,
      "hospital": 4678,
      "oqa": 4679,
      "wasqanmanta": 4680,
      "ÑAN": 4681,
      "manej": 4682,
      "chikyá": 4683,
      "ruru": 4684,
      "wanki": 4685,
      "tico": 4686,
      "imakunapas": 4687,
      "sier": 4688,
      "kaqkunapa": 4689,
      "yanaparqaku": 4690,
      "Imapaqmi": 4691,
      "nisqantaqa": 4692,
      "sunkichik": 4693,
      "kusichin": 4694,
      "kusikunku": 4695,
      "wañukusqanmanta": 4696,
      "kunamantawan": 4697,
      "kallpanchakuspa": 4698,
      "kallpanchawarqa": 4699,
      "Manañam": 4700,
      "piensaspaqa": 4701,
      "kuyapay": 4702,
      "sutichan": 4703,
      "aykichik": 4704,
      "vidanmanta": 4705,
      "libray": 4706,
      "warmiwan": 4707,
      "yachachikuykunaqa": 4708,
      "rikuriy": 4709,
      "entiendey": 4710,
      "tantearurqaku": 4711,
      "testigonkunam": 4712,
      "yuyaymanan": 4713,
      "Runakunata": 4714,
      "pampachan": 4715,
      "sqaymanta": 4716,
      "reypa": 4717,
      "puchukay": 4718,
      "kachamurqa": 4719,
      "watakunaña": 4720,
      "ruspay": 4721,
      "chinkachinanmanta": 4722,
      "sacerdotekuna": 4723,
      "Iñiqmasin": 4724,
      "Noeyqa": 4725,
      "perio": 4726,
      "cabra": 4727,
      "telefon": 4728,
      "carcelpi": 4729,
      "Qallariypiqa": 4730,
      "Nueva": 4731,
      "ducción": 4732,
      "televisionpi": 4733,
      "Diosnilláy": 4734,
      "Aus": 4735,
      "JE": 4736,
      "ON": 4737,
      "Suti": 4738,
      "Tante": 4739,
      "Unay": 4740,
      "ZAS": 4741,
      "achkan": 4742,
      "acu": 4743,
      "fle": 4744,
      "imana": 4745,
      "les": 4746,
      "pel": 4747,
      "kuñataqmi": 4748,
      "taraq": 4749,
      "qal": 4750,
      "mikunankupaq": 4751,
      "kuykuna": 4752,
      "onqon": 4753,
      "ankutapas": 4754,
      "kayninchik": 4755,
      "imakunapi": 4756,
      "kusqanqa": 4757,
      "yanapawananchik": 4758,
      "dea": 4759,
      "servisqanchik": 4760,
      "atisqanchikta": 4761,
      "catoli": 4762,
      "aswanraqmi": 4763,
      "piensayqa": 4764,
      "iñiqmasinchikkunapas": 4765,
      "wakinpim": 4766,
      "rurakunanpaq": 4767,
      "yachachikuymi": 4768,
      "congregacionta": 4769,
      "kuptinchik": 4770,
      "kanankupaqmi": 4771,
      "predicayta": 4772,
      "predicananpaq": 4773,
      "rimasqankuta": 4774,
      "wasinkupi": 4775,
      "sinka": 4776,
      "yanapawasunchik": 4777,
      "rimaspaqa": 4778,
      "nisqapi": 4779,
      "kawsayqa": 4780,
      "TAM": 4781,
      "sapakamata": 4782,
      "wakchay": 4783,
      "bendecin": 4784,
      "pasananmanta": 4785,
      "wawayki": 4786,
      "segurom": 4787,
      "Ninmi": 4788,
      "reqsinankupaq": 4789,
      "haypanapaq": 4790,
      "Carnero": 4791,
      "Yachayniyoq": 4792,
      "killanpim": 4793,
      "consuela": 4794,
      "ENSE": 4795,
      "Nehemias": 4796,
      "kikillanmanta": 4797,
      "sunqunchikwan": 4798,
      "achki": 4799,
      "Watakuna": 4800,
      "ÑANZAS": 4801,
      "ENSEÑANZAS": 4802,
      "BÍ": 4803,
      "Rober": 4804,
      "qenta": 4805,
      "ulo": 4806,
      "kutapas": 4807,
      "tas": 4808,
      "tapun": 4809,
      "aywan": 4810,
      "chakuna": 4811,
      "spayá": 4812,
      "ruwanchik": 4813,
      "nispanmi": 4814,
      "manapaschá": 4815,
      "sqanmi": 4816,
      "envi": 4817,
      "Chaykunata": 4818,
      "musqanmanta": 4819,
      "runaman": 4820,
      "kayman": 4821,
      "kaykuna": 4822,
      "revelacion": 4823,
      "wichqa": 4824,
      "qokuq": 4825,
      "yuyan": 4826,
      "runakunapi": 4827,
      "spanchik": 4828,
      "kusqanwan": 4829,
      "chaynataqa": 4830,
      "tarikuspaqa": 4831,
      "punkun": 4832,
      "leynin": 4833,
      "atienden": 4834,
      "kamachikuyninta": 4835,
      "kawsarqa": 4836,
      "kawsanchik": 4837,
      "rimaykunata": 4838,
      "taytay": 4839,
      "librom": 4840,
      "yachanki": 4841,
      "cheqnin": 4842,
      "Wakinqa": 4843,
      "chaskiyta": 4844,
      "sqaykimanta": 4845,
      "saqchu": 4846,
      "entiendeyta": 4847,
      "napaqqa": 4848,
      "Israelita": 4849,
      "sonqonta": 4850,
      "sonqonchik": 4851,
      "qillqaqa": 4852,
      "manchakuypaq": 4853,
      "chiqni": 4854,
      "Abi": 4855,
      "kikinchik": 4856,
      "rurasqanqa": 4857,
      "munayninmanta": 4858,
      "piensarqani": 4859,
      "qollqeyoq": 4860,
      "ñoqanchikwan": 4861,
      "chaninniyuq": 4862,
      "Josa": 4863,
      "ministerial": 4864,
      "Wiñ": 4865,
      "kayninkunata": 4866,
      "judiokunaqa": 4867,
      "mamanpa": 4868,
      "NAKUNA": 4869,
      "necesitasqanchik": 4870,
      "ramurqa": 4871,
      "unanchawarqanchik": 4872,
      "Llapallanchikmi": 4873,
      "entiendenankupaq": 4874,
      "guerrapi": 4875,
      "Ezequias": 4876,
      "huchayuq": 4877,
      "estudiopim": 4878,
      "atiyniyoqmi": 4879,
      "kasqaymanta": 4880,
      "satanasqa": 4881,
      "milagrokuna": 4882,
      "salvasqa": 4883,
      "BLICAS": 4884,
      "cosecha": 4885,
      "Traducción": 4886,
      "recuadro": 4887,
      "Samaria": 4888,
      "BÍBLICAS": 4889,
      "Be": 4890,
      "Kuy": 4891,
      "Pun": 4892,
      "Yor": 4893,
      "bey": 4894,
      "ge": 4895,
      "upa": 4896,
      "uru": 4897,
      "anpi": 4898,
      "piwi": 4899,
      "wanku": 4900,
      "wanankupaq": 4901,
      "maqana": 4902,
      "kuyá": 4903,
      "ninkum": 4904,
      "chaywan": 4905,
      "ramun": 4906,
      "ent": 4907,
      "sapi": 4908,
      "kaykunamanta": 4909,
      "qokuykuq": 4910,
      "munaspanmi": 4911,
      "kuqta": 4912,
      "maskananchik": 4913,
      "culeb": 4914,
      "llaqtam": 4915,
      "wañuchin": 4916,
      "Paykuna": 4917,
      "kasukuspan": 4918,
      "ruranchik": 4919,
      "nacionkunamanta": 4920,
      "chawpi": 4921,
      "qipancha": 4922,
      "kaptinku": 4923,
      "runqa": 4924,
      "yachankum": 4925,
      "yanapananchik": 4926,
      "estudiaspa": 4927,
      "ruranaykipaq": 4928,
      "aparato": 4929,
      "yanapasu": 4930,
      "congregacionman": 4931,
      "Kunanñataq": 4932,
      "juicio": 4933,
      "iskayrayan": 4934,
      "castiga": 4935,
      "huñunakuykunapi": 4936,
      "saqerqa": 4937,
      "yuyarichiwanchik": 4938,
      "Joel": 4939,
      "Palabranmanta": 4940,
      "cuentatam": 4941,
      "rikchaku": 4942,
      "anchatamá": 4943,
      "kaspayki": 4944,
      "sapakamam": 4945,
      "folle": 4946,
      "tikr": 4947,
      "ñuqanchikrayku": 4948,
      "textokunata": 4949,
      "rinaykupaq": 4950,
      "prometerqa": 4951,
      "munaspanqa": 4952,
      "Testigokuna": 4953,
      "pasanman": 4954,
      "Anchatamá": 4955,
      "engañ": 4956,
      "tantata": 4957,
      "permi": 4958,
      "Kuyakuq": 4959,
      "favorninta": 4960,
      "Espiritu": 4961,
      "derechoyoq": 4962,
      "divorcia": 4963,
      "cuarto": 4964,
      "facil": 4965,
      "universidad": 4966,
      "York": 4967,
      "The": 4968,
      "len": 4969,
      "ud": 4970,
      "llasaq": 4971,
      "chirqaku": 4972,
      "chiqnin": 4973,
      "kunallapi": 4974,
      "kata": 4975,
      "kami": 4976,
      "pasasqanta": 4977,
      "wachkanchik": 4978,
      "kuypas": 4979,
      "kuyaspan": 4980,
      "kuypaqmi": 4981,
      "tullu": 4982,
      "eros": 4983,
      "rea": 4984,
      "reynin": 4985,
      "sqayta": 4986,
      "suptiki": 4987,
      "purin": 4988,
      "yanapawasqanchik": 4989,
      "willakunanchikpaq": 4990,
      "yachachichkan": 4991,
      "quwasqanchik": 4992,
      "tarikusqanta": 4993,
      "leon": 4994,
      "servispa": 4995,
      "kusikuyta": 4996,
      "kamachiwasqanchikta": 4997,
      "kasukuspanku": 4998,
      "kallpanchakuna": 4999,
      "kutipiqa": 5000,
      "nacionkuna": 5001,
      "yachana": 5002,
      "yachankuchu": 5003,
      "rimayniyoq": 5004,
      "qellqata": 5005,
      "mankuchu": 5006,
      "ruwasqayki": 5007,
      "cial": 5008,
      "kuptinkupas": 5009,
      "kurqanim": 5010,
      "Jesucristowan": 5011,
      "qillqata": 5012,
      "munaychakusqanmanta": 5013,
      "allichanapaq": 5014,
      "yanapayku": 5015,
      "yuyaymanasun": 5016,
      "kikinkupa": 5017,
      "warmakuna": 5018,
      "serviqninkunapa": 5019,
      "llapanchik": 5020,
      "familianchik": 5021,
      "familiayki": 5022,
      "Mayqan": 5023,
      "rimasun": 5024,
      "chaninniyoq": 5025,
      "llanchikpi": 5026,
      "ñoqapa": 5027,
      "rikchakun": 5028,
      "servinanpaq": 5029,
      "horapi": 5030,
      "yachaspanmi": 5031,
      "Diospaqqa": 5032,
      "Salomonqa": 5033,
      "Neh": 5034,
      "Cuenta": 5035,
      "atiyninta": 5036,
      "qonqayllamanta": 5037,
      "toqllan": 5038,
      "qarqosqa": 5039,
      "kawsakuyninchikpi": 5040,
      "JESUS": 5041,
      "Bibli": 5042,
      "Ci": 5043,
      "cla": 5044,
      "rqun": 5045,
      "zi": 5046,
      "paki": 5047,
      "qawasqanchik": 5048,
      "llano": 5049,
      "llankuta": 5050,
      "chisqanta": 5051,
      "riynin": 5052,
      "ninkuqa": 5053,
      "rakin": 5054,
      "paytam": 5055,
      "lista": 5056,
      "muptin": 5057,
      "musqanta": 5058,
      "runamanta": 5059,
      "tuñi": 5060,
      "erto": 5061,
      "qoyku": 5062,
      "hukkunapas": 5063,
      "tellano": 5064,
      "qawariy": 5065,
      "quina": 5066,
      "tarikusqanmanta": 5067,
      "tarikusqankumanta": 5068,
      "nisqanwanmi": 5069,
      "wañurachirqa": 5070,
      "Jesustam": 5071,
      "Wawa": 5072,
      "sutilla": 5073,
      "tanteanankupaq": 5074,
      "Salva": 5075,
      "ruwananchikpaq": 5076,
      "kuruspa": 5077,
      "197": 5078,
      "rurananta": 5079,
      "chaskisqa": 5080,
      "huñunakuyta": 5081,
      "145": 5082,
      "sonqonmanta": 5083,
      "respetaq": 5084,
      "ñakariq": 5085,
      "warmakunaqa": 5086,
      "niqta": 5087,
      "piensariy": 5088,
      "qollqella": 5089,
      "ñoqanchikrayku": 5090,
      "yuyariy": 5091,
      "tapukuykunamanta": 5092,
      "qepatam": 5093,
      "kasqanchiktaqa": 5094,
      "chkaqta": 5095,
      "wawakuna": 5096,
      "asuykamu": 5097,
      "kawsakuytam": 5098,
      "aylluyki": 5099,
      "Ñuqaqa": 5100,
      "kachkaspanmi": 5101,
      "kutichiynin": 5102,
      "diablo": 5103,
      "yanapakuyninwanmi": 5104,
      "servinaykipaq": 5105,
      "aguantanapaq": 5106,
      "parrafokunata": 5107,
      "qonqaychu": 5108,
      "pampachayku": 5109,
      "falta": 5110,
      "Mariapa": 5111,
      "periodi": 5112,
      "Bar": 5113,
      "IS": 5114,
      "bel": 5115,
      "umay": 5116,
      "ykurqa": 5117,
      "anmantapas": 5118,
      "talli": 5119,
      "papel": 5120,
      "maquina": 5121,
      "kilo": 5122,
      "chayku": 5123,
      "chaypaqqa": 5124,
      "ankutaqa": 5125,
      "ret": 5126,
      "susqaykita": 5127,
      "yacharuspan": 5128,
      "munachkan": 5129,
      "munasqaykita": 5130,
      "llaqtaqa": 5131,
      "watakunam": 5132,
      "servirqa": 5133,
      "atisqan": 5134,
      "llamkarqa": 5135,
      "llamkapa": 5136,
      "wañurqa": 5137,
      "wañuchinankupaq": 5138,
      "Paykunamanta": 5139,
      "kasukunku": 5140,
      "Waranqa": 5141,
      "Diosmantaqa": 5142,
      "achkata": 5143,
      "piensana": 5144,
      "piensayta": 5145,
      "mañaku": 5146,
      "iñiqmasinchikmanta": 5147,
      "sutillam": 5148,
      "yanu": 5149,
      "ruwana": 5150,
      "lawpim": 5151,
      "ruranqa": 5152,
      "qawachinanpaq": 5153,
      "ptiembre": 5154,
      "rimarqaku": 5155,
      "hinallachu": 5156,
      "kunankupaqmi": 5157,
      "103": 5158,
      "ruwaykunata": 5159,
      "kunanpaqqa": 5160,
      "Jue": 5161,
      "wasimanta": 5162,
      "Satanasta": 5163,
      "qatipakunanchik": 5164,
      "testigonkunawan": 5165,
      "tiemponchikpi": 5166,
      "qarikuna": 5167,
      "hiku": 5168,
      "kunim": 5169,
      "ñoqanchikpaq": 5170,
      "ñoqanchiktapas": 5171,
      "ANA": 5172,
      "watukamu": 5173,
      "fat": 5174,
      "kananchikta": 5175,
      "qunqan": 5176,
      "imataña": 5177,
      "ñakariykunata": 5178,
      "texton": 5179,
      "kusqayta": 5180,
      "familiawan": 5181,
      "kallpanchakunanchikmi": 5182,
      "Haykapim": 5183,
      "kuwaqmi": 5184,
      "templota": 5185,
      "Allpaman": 5186,
      "kuyakuyniyoq": 5187,
      "revistapa": 5188,
      "ofrendata": 5189,
      "simiwan": 5190,
      "tupasqanta": 5191,
      "qarinchakuq": 5192,
      "iglesia": 5193,
      "Orqo": 5194,
      "Segurom": 5195,
      "purma": 5196,
      "Josafat": 5197,
      "Bi": 5198,
      "Bo": 5199,
      "Espa": 5200,
      "Panta": 5201,
      "Wasin": 5202,
      "YA": 5203,
      "cto": 5204,
      "dor": 5205,
      "ele": 5206,
      "mento": 5207,
      "llun": 5208,
      "rusqan": 5209,
      "mamanta": 5210,
      "kuyasqayki": 5211,
      "ninpa": 5212,
      "Diosninchikqa": 5213,
      "imalla": 5214,
      "sia": 5215,
      "sull": 5216,
      "munarqakuchu": 5217,
      "nispam": 5218,
      "willakuspa": 5219,
      "yachachiyqa": 5220,
      "Imakunam": 5221,
      "cigar": 5222,
      "Chaynapi": 5223,
      "cuento": 5224,
      "sasallaña": 5225,
      "llanpim": 5226,
      "kasukunchik": 5227,
      "kasukurqakuchu": 5228,
      "piensasqanmanta": 5229,
      "piensaspanku": 5230,
      "mañakuyqa": 5231,
      "Mal": 5232,
      "huñunakuyninchik": 5233,
      "libroqa": 5234,
      "religionkunapa": 5235,
      "[...],": 5236,
      "yanapayninwan": 5237,
      "riqsina": 5238,
      "llamkayniyoq": 5239,
      "leespa": 5240,
      "tupachirqa": 5241,
      "karunchasqa": 5242,
      "chaskinqaku": 5243,
      "unquywan": 5244,
      "necesitasqanchikta": 5245,
      "PAS": 5246,
      "yachachikuyninkuna": 5247,
      "willawanchikmi": 5248,
      "kachkarqaku": 5249,
      "Rim": 5250,
      "Haykapipas": 5251,
      "wawayoq": 5252,
      "yachanapaqqa": 5253,
      "kawsarimusqan": 5254,
      "Qawariy": 5255,
      "sumaqllataña": 5256,
      "huchasapa": 5257,
      "Canaan": 5258,
      "www": 5259,
      "horqon": 5260,
      "Onqo": 5261,
      "dueño": 5262,
      "Chunka": 5263,
      "51": 5264,
      "Ben": 5265,
      "HOV": 5266,
      "TI": 5267,
      "stin": 5268,
      "uch": 5269,
      "kupay": 5270,
      "chasqanchikta": 5271,
      "tarisun": 5272,
      "aspaymi": 5273,
      "pasanqa": 5274,
      "wawata": 5275,
      "hinallayá": 5276,
      "chaykunam": 5277,
      "raqa": 5278,
      "encarga": 5279,
      "yacharqani": 5280,
      "qowananchikpaq": 5281,
      "kaqtam": 5282,
      "willakuspan": 5283,
      "willakusqanta": 5284,
      "willakuchkan": 5285,
      "ykichikpaq": 5286,
      "Imamantapas": 5287,
      "qepi": 5288,
      "riseo": 5289,
      "rinqaku": 5290,
      "atirqakuchu": 5291,
      "kusikurqa": 5292,
      "kuspaymi": 5293,
      "iñiqmasinkunaman": 5294,
      "wakinñataqmi": 5295,
      "tanteanku": 5296,
      "oblig": 5297,
      "sell": 5298,
      "septiembre": 5299,
      "libron": 5300,
      "uyarirqa": 5301,
      "yachananchikpaq": 5302,
      "Hinalla": 5303,
      "ptillan": 5304,
      "ptiypas": 5305,
      "rimari": 5306,
      "huñunakuynin": 5307,
      "yachachikuyqa": 5308,
      "aspanqa": 5309,
      "Allpantinpi": 5310,
      "congregacionkuna": 5311,
      "2012": 5312,
      "yachaspaqa": 5313,
      "rikuriq": 5314,
      "tiemponchik": 5315,
      "religionniyoq": 5316,
      "sqankuman": 5317,
      "sqankuraykum": 5318,
      "sqankuwanmi": 5319,
      "Runapa": 5320,
      "espiritunwanmi": 5321,
      "Achkam": 5322,
      "qawayqa": 5323,
      "leepu": 5324,
      "qepaman": 5325,
      "chaskinku": 5326,
      "cuidan": 5327,
      "allpapi": 5328,
      "imayuq": 5329,
      "Juanmi": 5330,
      "urqu": 5331,
      "qawasqa": 5332,
      "mirayninmanta": 5333,
      "Señorpa": 5334,
      "Egiptomanta": 5335,
      "Luc": 5336,
      "rimasqanqa": 5337,
      "llapaqña": 5338,
      "ruwaspam": 5339,
      "Filip": 5340,
      "graci": 5341,
      "satanaspa": 5342,
      "Huñunakuy": 5343,
      "Gali": 5344,
      "sayapakuq": 5345,
      "allinninchikpaqmi": 5346,
      "alleq": 5347,
      "Señoray": 5348,
      "Admira": 5349,
      "DIOSPA": 5350,
      "Asiria": 5351,
      "rikchanachiyqa": 5352,
      "viaj": 5353,
      "Parais": 5354,
      "JEHOV": 5355,
      "73": 5356,
      "BRE": 5357,
      "CQ": 5358,
      "Des": 5359,
      "Esa": 5360,
      "Feli": 5361,
      "rio": 5362,
      "ÑA": 5363,
      "and": 5364,
      "llin": 5365,
      "kunaña": 5366,
      "kuyaspa": 5367,
      "tiya": 5368,
      "kichay": 5369,
      "enses": 5370,
      "Chayllam": 5371,
      "ankupi": 5372,
      "tuq": 5373,
      "kayninta": 5374,
      "simin": 5375,
      "kusqanpi": 5376,
      "Imapaq": 5377,
      "tarikusunchik": 5378,
      "Chaynataqa": 5379,
      "tiempoqa": 5380,
      "tiempopaq": 5381,
      "wañukuptinqa": 5382,
      "Kaykunam": 5383,
      "kutitam": 5384,
      "punchawpim": 5385,
      "kawsanku": 5386,
      "kawsasqanchikta": 5387,
      "mañakunapaq": 5388,
      "mañakuspan": 5389,
      "prepa": 5390,
      "yanapananmanta": 5391,
      "sumaqmi": 5392,
      "munasqankumanta": 5393,
      "uyarispa": 5394,
      "ruranayki": 5395,
      "yupaychasqa": 5396,
      "warmikunaqa": 5397,
      "agosto": 5398,
      "yachachikuykunamanta": 5399,
      "ruwaytapas": 5400,
      "Judea": 5401,
      "wasipa": 5402,
      "yanapaspan": 5403,
      "salon": 5404,
      "ancianom": 5405,
      "ñawpaqninpi": 5406,
      "qatipakusun": 5407,
      "ñakarirqa": 5408,
      "yuyaymanaspa": 5409,
      "apostolkuna": 5410,
      "Ñoqanchikqa": 5411,
      "ñoqanchikmanta": 5412,
      "kunqachu": 5413,
      "CHU": 5414,
      "chaskinchik": 5415,
      "Joseyta": 5416,
      "ñakariykuna": 5417,
      "unquq": 5418,
      "willasqan": 5419,
      "Mique": 5420,
      "Jerusalenman": 5421,
      "bendicionninta": 5422,
      "animalkuna": 5423,
      "warmaykichik": 5424,
      "mirayninkuna": 5425,
      "kallpanchawanchikmi": 5426,
      "piensanki": 5427,
      "aspayki": 5428,
      "pacienciakuspa": 5429,
      "ovejakuna": 5430,
      "soldadokuna": 5431,
      "jeta": 5432,
      "Warmacha": 5433,
      "Llampu": 5434,
      "llamanña": 5435,
      "pusananpaq": 5436,
      "Lazaro": 5437,
      "Serviqnin": 5438,
      "mputado": 5439,
      "Colosenses": 5440,
      "Italia": 5441,
      "siervo": 5442,
      "qalaypaq": 5443,
      "Galilea": 5444,
      "CQ12": 5445,
      "83": 5446,
      "Ov": 5447,
      "Otaq": 5448,
      "Qay": 5449,
      "Yanqa": 5450,
      "be": 5451,
      "dres": 5452,
      "pón": 5453,
      "aytaqa": 5454,
      "chisqanmanta": 5455,
      "richi": 5456,
      "warqam": 5457,
      "kuyasqanku": 5458,
      "unchu": 5459,
      "kunkichikchu": 5460,
      "tupaq": 5461,
      "qochapa": 5462,
      "hamun": 5463,
      "yuraq": 5464,
      "spankupas": 5465,
      "yanapachkan": 5466,
      "Imakunapim": 5467,
      "ytawan": 5468,
      "nisqankunapi": 5469,
      "tiempoyoq": 5470,
      "tiempollamanta": 5471,
      "Pampa": 5472,
      "kusikurqaku": 5473,
      "wañuchinanpaq": 5474,
      "Jesusman": 5475,
      "qatiq": 5476,
      "qatikacha": 5477,
      "piensasqay": 5478,
      "qawachina": 5479,
      "kaspanchik": 5480,
      "ruwanaypaq": 5481,
      "ruraychik": 5482,
      "ruraytaqa": 5483,
      "huchamantawan": 5484,
      "Hukman": 5485,
      "fic": 5486,
      "wasikunata": 5487,
      "churinku": 5488,
      "2011": 5489,
      "Tukupay": 5490,
      "compa": 5491,
      "Davidwan": 5492,
      "Davidpas": 5493,
      "rikurirqa": 5494,
      "munaychakuq": 5495,
      "allichasqa": 5496,
      "sutinmi": 5497,
      "musy": 5498,
      "anichu": 5499,
      "qunqay": 5500,
      "tapukuykunatam": 5501,
      "kananmantaqa": 5502,
      "masiki": 5503,
      "masillanwan": 5504,
      "asuykunapaq": 5505,
      "vencen": 5506,
      "atipanankupaq": 5507,
      "ñawparinankupaq": 5508,
      "Kiki": 5509,
      "tutayay": 5510,
      "Amam": 5511,
      "kachkaptiymi": 5512,
      "munaspanchikqa": 5513,
      "llapaqchu": 5514,
      "tukuruptinmi": 5515,
      "kunaykichikpaq": 5516,
      "yuyarinanchik": 5517,
      "2008": 5518,
      "pukll": 5519,
      "juzga": 5520,
      "Jacobpa": 5521,
      "milagrokunata": 5522,
      "Atiyniyoq": 5523,
      "qonqaymanta": 5524,
      "Precur": 5525,
      "toqlla": 5526,
      "qillqanchikkunata": 5527,
      "defienden": 5528,
      "yaqachusmi": 5529,
      "Japón": 5530,
      "señal": 5531,
      "upallalla": 5532,
      "Francia": 5533,
      "Kawsari": 5534,
      "Zacarias": 5535,
      "72": 5536,
      "Bel": 5537,
      "Yuyariy": 5538,
      "am": 5539,
      "amaña": 5540,
      "ok": 5541,
      "vion": 5542,
      "wer": 5543,
      "kutin": 5544,
      "chanchikmi": 5545,
      "chkaspaymi": 5546,
      "qayay": 5547,
      "llanpaq": 5548,
      "wakillan": 5549,
      "wakiqnin": 5550,
      "ninpas": 5551,
      "ninmanku": 5552,
      "kanaykichikpaq": 5553,
      "hinaspaqa": 5554,
      "maymi": 5555,
      "mura": 5556,
      "tupay": 5557,
      "asqayta": 5558,
      "kasqankuqa": 5559,
      "yacharqakum": 5560,
      "kaqmi": 5561,
      "ñuqaqa": 5562,
      "yanapawarqaku": 5563,
      "willakunanchik": 5564,
      "robo": 5565,
      "Saulo": 5566,
      "qucha": 5567,
      "lepra": 5568,
      "tukuypi": 5569,
      "iñiqkunaqa": 5570,
      "llantam": 5571,
      "kawsakuyqa": 5572,
      "allintapunim": 5573,
      "sasachakunchik": 5574,
      "kawsaspa": 5575,
      "llayku": 5576,
      "premi": 5577,
      "tapurqaku": 5578,
      "rimaytaqa": 5579,
      "yanapananku": 5580,
      "pelea": 5581,
      "Mat": 5582,
      "yachanqa": 5583,
      "ruranmanku": 5584,
      "qawachinqa": 5585,
      "yupaychasqanchik": 5586,
      "kusisqachá": 5587,
      "ruwakunanpaq": 5588,
      "rimamusqanchik": 5589,
      "munqaku": 5590,
      "kunankupaqpas": 5591,
      "ruwaytam": 5592,
      "qatiqninkunapas": 5593,
      "aspankuqa": 5594,
      "Juanqa": 5595,
      "guel": 5596,
      "predicasqan": 5597,
      "arí": 5598,
      "qillqam": 5599,
      "suyakuyta": 5600,
      "iskayrayaspa": 5601,
      "mamakunam": 5602,
      "yuyaymananapaq": 5603,
      "parte": 5604,
      "kanapaqmi": 5605,
      "rimananchik": 5606,
      "kusqankuwan": 5607,
      "Josi": 5608,
      "kasqanchiktam": 5609,
      "sirvienteqa": 5610,
      "tupanchu": 5611,
      "tarde": 5612,
      "Miguel": 5613,
      "soltera": 5614,
      "wawanta": 5615,
      "wawankuta": 5616,
      "ñuqanchikpaq": 5617,
      "Kuyana": 5618,
      "huchapakuy": 5619,
      "Qatiqninpim": 5620,
      "aspayá": 5621,
      "yachaspanku": 5622,
      "Enti": 5623,
      "huertaman": 5624,
      "iskayrayachwanchu": 5625,
      "kamachisqankunata": 5626,
      "Reqsi": 5627,
      "conciencianchik": 5628,
      "Allpapi": 5629,
      "escuelaman": 5630,
      "atipachi": 5631,
      "Vid": 5632,
      "rachinman": 5633,
      "chakrapi": 5634,
      "chaskinapaq": 5635,
      "admirasqa": 5636,
      "Musuq": 5637,
      "caballopi": 5638,
      "Faraon": 5639,
      "61": 5640,
      "80": 5641,
      "Acab": 5642,
      "Ene": 5643,
      "LA": 5644,
      "gla": 5645,
      "jun": 5646,
      "lio": 5647,
      "mer": 5648,
      "ry": 5649,
      "tch": 5650,
      "antapas": 5651,
      "kuchkaspa": 5652,
      "tayá": 5653,
      "inon": 5654,
      "qanta": 5655,
      "wachkan": 5656,
      "kuyasqay": 5657,
      "yachin": 5658,
      "untan": 5659,
      "nintaqa": 5660,
      "chaypaqmi": 5661,
      "ñañay": 5662,
      "allinpaqmi": 5663,
      "Chaychá": 5664,
      "muspan": 5665,
      "runaña": 5666,
      "kaypas": 5667,
      "imamantam": 5668,
      "ankupaqpas": 5669,
      "kusqanman": 5670,
      "yachachirqaku": 5671,
      "qawakurqa": 5672,
      "qull": 5673,
      "tarikusqankuta": 5674,
      "wanchikchu": 5675,
      "leg": 5676,
      "iñiqkunaman": 5677,
      "kusikun": 5678,
      "kawsakunanchikpaq": 5679,
      "kasukusun": 5680,
      "kasukuspankum": 5681,
      "kutiy": 5682,
      "mañakuyta": 5683,
      "mañakusqanchikta": 5684,
      "iñiqmasinchikkunamanta": 5685,
      "docu": 5686,
      "ñoqam": 5687,
      "ñoqawan": 5688,
      "yanapanmanku": 5689,
      "munasqankuman": 5690,
      "uyarispanku": 5691,
      "amistadninta": 5692,
      "yachanayki": 5693,
      "llakipi": 5694,
      "hinallaraqmi": 5695,
      "yachachikuymanta": 5696,
      "ruwaytaqa": 5697,
      "aspankum": 5698,
      "servichikurqaku": 5699,
      "wasiyku": 5700,
      "reqsiy": 5701,
      "ancianokunapas": 5702,
      "iñiyninku": 5703,
      "suyaqkuna": 5704,
      "sipaskunata": 5705,
      "espiritunpa": 5706,
      "pisimantam": 5707,
      "taytaqa": 5708,
      "qawayta": 5709,
      "ruwaqku": 5710,
      "willakusqanqa": 5711,
      "Juanpa": 5712,
      "kaspaypas": 5713,
      "unayña": 5714,
      "nichwanchu": 5715,
      "Qatiqninpi": 5716,
      "penses": 5717,
      "kawsaqkunaqa": 5718,
      "Salomonmi": 5719,
      "taytanpa": 5720,
      "yanapakuynintam": 5721,
      "favorecesqan": 5722,
      "willayta": 5723,
      "hapinku": 5724,
      "Yachaysapa": 5725,
      "waqaycharqa": 5726,
      "apostolninkunata": 5727,
      "paginankunata": 5728,
      "Ancianokunaqa": 5729,
      "Filipenses": 5730,
      "policia": 5731,
      "especial": 5732,
      "Prometesqa": 5733,
      "Sinchi": 5734,
      "España": 5735,
      "Enemi": 5736,
      "?.": 5737,
      "Icha": 5738,
      "Mé": 5739,
      "Rimay": 5740,
      "Santa": 5741,
      "ck": 5742,
      "ol": 5743,
      "uray": 5744,
      "kuchkaspan": 5745,
      "tapa": 5746,
      "takin": 5747,
      "aymi": 5748,
      "chakunata": 5749,
      "chapu": 5750,
      "rusqa": 5751,
      "rueb": 5752,
      "rikuru": 5753,
      "pana": 5754,
      "churaq": 5755,
      "sqanpim": 5756,
      "kaykunam": 5757,
      "imakunawan": 5758,
      "pul": 5759,
      "purun": 5760,
      "kaspi": 5761,
      "munachkani": 5762,
      "iñisqanchik": 5763,
      "Bibliatam": 5764,
      "Imakunamantam": 5765,
      "Imakunataq": 5766,
      "qeru": 5767,
      "ciembre": 5768,
      "tarikusqayki": 5769,
      "atisqankuta": 5770,
      "atiendes": 5771,
      "kallpanchawasun": 5772,
      "kallpanchakurqaku": 5773,
      "iñiqmasinkunawan": 5774,
      "aswanraq": 5775,
      "piensanankupaq": 5776,
      "mañapu": 5777,
      "mañakusqanchik": 5778,
      "tapukuyta": 5779,
      "kaspanchikmi": 5780,
      "yachasqanta": 5781,
      "ruwanayki": 5782,
      "librayku": 5783,
      "amistadninku": 5784,
      "riytaqa": 5785,
      "lawninpi": 5786,
      "wiñananpaq": 5787,
      "warmipas": 5788,
      "qallayqa": 5789,
      "Juec": 5790,
      "bal": 5791,
      "139": 5792,
      "respetanapaq": 5793,
      "justo": 5794,
      "carnero": 5795,
      "saqey": 5796,
      "yuyarisun": 5797,
      "yuyaymanaspaqa": 5798,
      "warmakunata": 5799,
      "contranpim": 5800,
      "Puntatam": 5801,
      "tupachisqa": 5802,
      "Chaymantañataq": 5803,
      "wañunchik": 5804,
      "willanapaq": 5805,
      "necesitasqankuta": 5806,
      "chisqankumanta": 5807,
      "casarasqakunaqa": 5808,
      "Joseywan": 5809,
      "ertad": 5810,
      "Confi": 5811,
      "wañukusqanpi": 5812,
      "rurasqankuwan": 5813,
      "señoranta": 5814,
      "Cuer": 5815,
      "marzo": 5816,
      "sitiopi": 5817,
      "favorecesqa": 5818,
      "kurunman": 5819,
      "prometesqa": 5820,
      "kikillanchikpaq": 5821,
      "Qallariypi": 5822,
      "intuchi": 5823,
      "Lot": 5824,
      "Piensasun": 5825,
      "hawanpi": 5826,
      "atinmankum": 5827,
      "xico": 5828,
      "abril": 5829,
      "aysachi": 5830,
      "envidia": 5831,
      "México": 5832,
      "66": 5833,
      "Kanmi": 5834,
      "Lis": 5835,
      "Nabo": 5836,
      "cle": 5837,
      "pertad": 5838,
      "África": 5839,
      "kurqanchik": 5840,
      "chkasqa": 5841,
      "papa": 5842,
      "manu": 5843,
      "kunallam": 5844,
      "kunayku": 5845,
      "pichanqa": 5846,
      "nis": 5847,
      "nicas": 5848,
      "manaraqmi": 5849,
      "killapa": 5850,
      "ninkuna": 5851,
      "ninwanmi": 5852,
      "chaykunapi": 5853,
      "anamanta": 5854,
      "Diosllam": 5855,
      "enero": 5856,
      "runatapas": 5857,
      "tutam": 5858,
      "kaykunata": 5859,
      "anchiktaqmi": 5860,
      "imapa": 5861,
      "imakunatam": 5862,
      "suce": 5863,
      "puñun": 5864,
      "qowarqanchik": 5865,
      "munaptinqa": 5866,
      "kuqllaña": 5867,
      "tokunata": 5868,
      "qawarqani": 5869,
      "Imapitaq": 5870,
      "ristin": 5871,
      "Sacerdote": 5872,
      "diciembre": 5873,
      "wañurqaku": 5874,
      "wañusqanmanta": 5875,
      "kasukurqaku": 5876,
      "kasukunanpaq": 5877,
      "kutiramu": 5878,
      "sasachakuspa": 5879,
      "nacionkunata": 5880,
      "mañakunankupaq": 5881,
      "wakinku": 5882,
      "Pablowan": 5883,
      "sasachakuykunapim": 5884,
      "libr": 5885,
      "yachanan": 5886,
      "qellqakuna": 5887,
      "ceba": 5888,
      "sqaykichik": 5889,
      "Juez": 5890,
      "qawanankupaq": 5891,
      "Jesucristopas": 5892,
      "Jesucristomanta": 5893,
      "predicaspa": 5894,
      "yanqachan": 5895,
      "Allinchu": 5896,
      "saqerurqa": 5897,
      "kikiki": 5898,
      "Runakunam": 5899,
      "familianku": 5900,
      "CHA": 5901,
      "chaskinankupaq": 5902,
      "wananchiktaqa": 5903,
      "pinqa": 5904,
      "sirvientepa": 5905,
      "tutapi": 5906,
      "akllarurqa": 5907,
      "hatarichiy": 5908,
      "yanapakuykuna": 5909,
      "yupaychananchikpaq": 5910,
      "israelitakunaqa": 5911,
      "Ezeq": 5912,
      "rinaykipaq": 5913,
      "ofre": 5914,
      "enemigo": 5915,
      "yuyarinanchikmi": 5916,
      "juzgan": 5917,
      "huchayoqpaqña": 5918,
      "cambiarurqa": 5919,
      "leespan": 5920,
      "runankunata": 5921,
      "autoridadkuna": 5922,
      "favorece": 5923,
      "kikillankupaq": 5924,
      "Saulqa": 5925,
      "piñasqallaña": 5926,
      "Tawa": 5927,
      "Señoran": 5928,
      "Canadá": 5929,
      "kuyawasqanchikrayku": 5930,
      "UNTA": 5931,
      "qayllanpiqa": 5932,
      "Cronicas": 5933,
      "Europa": 5934,
      "Yupaychanapaq": 5935,
      "sientes": 5936,
      "corregin": 5937,
      "HUK": 5938,
      "Despertad": 5939,
      "Precursor": 5940,
      "54": 5941,
      "Iglesi": 5942,
      "Qan": 5943,
      "Yuyarin": 5944,
      "apasqan": 5945,
      "era": 5946,
      "gru": 5947,
      "hn": 5948,
      "illa": 5949,
      "lyn": 5950,
      "pli": 5951,
      "wasqankumanta": 5952,
      "kuptikiqa": 5953,
      "pawaq": 5954,
      "pipa": 5955,
      "mikuru": 5956,
      "wankusqa": 5957,
      "mantaqmi": 5958,
      "llaqa": 5959,
      "kuyasun": 5960,
      "paykunatam": 5961,
      "huñun": 5962,
      "kasqankum": 5963,
      "kasqanchikmi": 5964,
      "puy": 5965,
      "hatarin": 5966,
      "kaqmantam": 5967,
      "tepi": 5968,
      "runakunamantam": 5969,
      "kusqankupi": 5970,
      "yachachisqanmanta": 5971,
      "Bibliapas": 5972,
      "ykiwan": 5973,
      "llaqtanku": 5974,
      "llamkanku": 5975,
      "kamachiwasqanchik": 5976,
      "Paykunatam": 5977,
      "kutiri": 5978,
      "mañakusun": 5979,
      "tanteayta": 5980,
      "qawachinapaq": 5981,
      "llaqtapiqa": 5982,
      "yachasqa": 5983,
      "Yachasqanchik": 5984,
      "yanapanchik": 5985,
      "yachanchu": 5986,
      "kusisqaqa": 5987,
      "ruwakun": 5988,
      "huchaman": 5989,
      "ninchikmi": 5990,
      "ruwayman": 5991,
      "apaqkunata": 5992,
      "churinkunaqa": 5993,
      "2010": 5994,
      "ancianokunam": 5995,
      "manchakuspan": 5996,
      "pantarachi": 5997,
      "yanqakunata": 5998,
      "computado": 5999,
      "rimasqayki": 6000,
      "rikurirun": 6001,
      "tiemponpim": 6002,
      "kawsarichi": 6003,
      "kikinkumanta": 6004,
      "warmallaraq": 6005,
      "piensarisun": 6006,
      "rqanikuchu": 6007,
      "alma": 6008,
      "bautizakururqa": 6009,
      "agradecekunanchik": 6010,
      "kuchkani": 6011,
      "qallarichirqa": 6012,
      "kananmantapas": 6013,
      "Palabranqa": 6014,
      "despre": 6015,
      "kuyanakuspa": 6016,
      "Adanqa": 6017,
      "atipananpaq": 6018,
      "yachachisqankunata": 6019,
      "respetasqa": 6020,
      "chasqankuta": 6021,
      "alabasqa": 6022,
      "wanakuq": 6023,
      "servinaypaq": 6024,
      "naceq": 6025,
      "kallpanchasqam": 6026,
      "kuyakuywanmi": 6027,
      "kusqaymanta": 6028,
      "Kamachikuy": 6029,
      "rimapayarqa": 6030,
      "chayamunanta": 6031,
      "mamankupa": 6032,
      "yanqapaqchu": 6033,
      "Bautizaq": 6034,
      "Filipos": 6035,
      "documento": 6036,
      "62": 6037,
      "Bro": 6038,
      "Gre": 6039,
      "Respe": 6040,
      "avion": 6041,
      "bia": 6042,
      "nu": 6043,
      "th": 6044,
      "pakay": 6045,
      "pachaqa": 6046,
      "nacen": 6047,
      "astero": 6048,
      "chispa": 6049,
      "mikunanpaq": 6050,
      "wate": 6051,
      "kuyanchik": 6052,
      "Chaykunamanta": 6053,
      "kunkichik": 6054,
      "paylla": 6055,
      "maylla": 6056,
      "tukunanmanta": 6057,
      "yacharuni": 6058,
      "qokuru": 6059,
      "maska": 6060,
      "runakunañataqmi": 6061,
      "chaynallata": 6062,
      "yanapawaq": 6063,
      "yanapakunankupaq": 6064,
      "yanapawarqanchik": 6065,
      "qawamu": 6066,
      "chkachwan": 6067,
      "quel": 6068,
      "tiempolla": 6069,
      "lec": 6070,
      "watapaq": 6071,
      "kuyninkuqa": 6072,
      "kallpanchakun": 6073,
      "kallpanchakunchik": 6074,
      "Kayta": 6075,
      "yaykuy": 6076,
      "Watch": 6077,
      "piensanchik": 6078,
      "piensasqayki": 6079,
      "iñiqmasinchikkunatam": 6080,
      "tanteananchik": 6081,
      "dam": 6082,
      "qonanpaq": 6083,
      "tapukuchwan": 6084,
      "seqay": 6085,
      "cristianom": 6086,
      "Humi": 6087,
      "rimayman": 6088,
      "perqa": 6089,
      "vidankuta": 6090,
      "kachkanki": 6091,
      "ruraymi": 6092,
      "llaqtanwan": 6093,
      "llaqtanpiqa": 6094,
      "1919": 6095,
      "Wakinkuñataqmi": 6096,
      "Hukkunata": 6097,
      "warmikunawan": 6098,
      "yachachikuykunam": 6099,
      "zaret": 6100,
      "kanmanmi": 6101,
      "hamusqanta": 6102,
      "espiritum": 6103,
      "salud": 6104,
      "sonqonchikmanta": 6105,
      "respetay": 6106,
      "Pachak": 6107,
      "qatipakuyta": 6108,
      "qatipakunku": 6109,
      "ñakarichiq": 6110,
      "castellano": 6111,
      "librokunata": 6112,
      "nikiwan": 6113,
      "atinchikchu": 6114,
      "allichayta": 6115,
      "rurasqankum": 6116,
      "casarakuyta": 6117,
      "taytanchik": 6118,
      "kasqankutam": 6119,
      "tapukuykunamantam": 6120,
      "qallarisqanmanta": 6121,
      "John": 6122,
      "Chaymantañam": 6123,
      "ruspanqa": 6124,
      "Adantawan": 6125,
      "puchukaynin": 6126,
      "Moisesmi": 6127,
      "Leey": 6128,
      "yanapasunkim": 6129,
      "chiwanchikmi": 6130,
      "llullakuq": 6131,
      "kasqaykichikta": 6132,
      "Rus": 6133,
      "castamanta": 6134,
      "taytanta": 6135,
      "qepanchan": 6136,
      "warmachakuna": 6137,
      "enemigonkuna": 6138,
      "chasunki": 6139,
      "qosanta": 6140,
      "Nazaret": 6141,
      "dibujota": 6142,
      "Unanchawaqninchik": 6143,
      "Yuyayniyoq": 6144,
      "tupasqanmanta": 6145,
      "tarikuspanpas": 6146,
      "buqueta": 6147,
      "wiksan": 6148,
      "wiksaya": 6149,
      "politi": 6150,
      "forastero": 6151,
      "herenciata": 6152,
      "mantien": 6153,
      "Austra": 6154,
      "qullqin": 6155,
      "Nabot": 6156,
      "53": 6157,
      "90": 6158,
      ":“": 6159,
      "Gran": 6160,
      "Kan": 6161,
      "Pen": 6162,
      "ctu": 6163,
      "fra": 6164,
      "igu": 6165,
      "senten": 6166,
      "ÑU": 6167,
      "anpa": 6168,
      "asani": 6169,
      "miki": 6170,
      "nisqay": 6171,
      "kuyu": 6172,
      "escu": 6173,
      "sqankupi": 6174,
      "rachinanpaq": 6175,
      "tamento": 6176,
      "Jehu": 6177,
      "sqayku": 6178,
      "qoq": 6179,
      "rqakutaqmi": 6180,
      "kuqchu": 6181,
      "chaynataqmi": 6182,
      "yanapakunku": 6183,
      "yanapawananchikta": 6184,
      "dire": 6185,
      "chkantaqmi": 6186,
      "quyku": 6187,
      "rinanku": 6188,
      "watakunapiqa": 6189,
      "nirqaña": 6190,
      "chasunchik": 6191,
      "chwantaqmi": 6192,
      "Paykunata": 6193,
      "kawsarqaku": 6194,
      "kawsakuq": 6195,
      "kallpanchakuspaqa": 6196,
      "Kaykunamanta": 6197,
      "nacionpiqa": 6198,
      "nacionkunaman": 6199,
      "piensasun": 6200,
      "piensankum": 6201,
      "punchawnin": 6202,
      "kawsasqankuta": 6203,
      "kuspanpas": 6204,
      "qawachiy": 6205,
      "ñoqanchikqa": 6206,
      "wasunchu": 6207,
      "qawachinman": 6208,
      "ruwaptinchikqa": 6209,
      "rimariy": 6210,
      "huñunakunanchik": 6211,
      "pasaptinmi": 6212,
      "pasakunanmanta": 6213,
      "servichikunchik": 6214,
      "saqina": 6215,
      "ancianokunawan": 6216,
      "kaspam": 6217,
      "sonqonchikta": 6218,
      "tantearun": 6219,
      "manchari": 6220,
      "mancharisqa": 6221,
      "suyakuyninchik": 6222,
      "yanqachu": 6223,
      "kunankum": 6224,
      "tiemponchikta": 6225,
      "kustin": 6226,
      "chunniqpi": 6227,
      "saqeru": 6228,
      "munaychakusqanta": 6229,
      "religionta": 6230,
      "mozollaraq": 6231,
      "uyarinankupaq": 6232,
      "kikillanchik": 6233,
      "kasqankuwan": 6234,
      "Jobpa": 6235,
      "serviqkuna": 6236,
      "kanantaqa": 6237,
      "Gobiernonta": 6238,
      "reykuna": 6239,
      "Wiñay": 6240,
      "mamanchik": 6241,
      "rantikuq": 6242,
      "consejon": 6243,
      "kawsakuytaqa": 6244,
      "tikrasqa": 6245,
      "espad": 6246,
      "tratado": 6247,
      "yachasqanchikmi": 6248,
      "enemigonkunata": 6249,
      "Kaynatam": 6250,
      "milagrota": 6251,
      "kuyayllapaq": 6252,
      "nichkanmi": 6253,
      "Ezequiasqa": 6254,
      "serviyninchikpi": 6255,
      "Unanchaq": 6256,
      "Unanchaqnin": 6257,
      "ruranamanta": 6258,
      "vidanpi": 6259,
      "humillakuspa": 6260,
      "Numeros": 6261,
      "huchanchikmanta": 6262,
      "chinkarachiyta": 6263,
      "Gede": 6264,
      "Jonatan": 6265,
      "mantiene": 6266,
      "vecinon": 6267,
      "Hawka": 6268,
      "lluqsin": 6269,
      "educacion": 6270,
      "pultu": 6271,
      "grupo": 6272,
      "Australia": 6273,
      "ctubre": 6274,
      "47": 6275,
      "500": 6276,
      "Br": 6277,
      "Ev": 6278,
      "Knor": 6279,
      "[“": 6280,
      "cri": 6281,
      "ive": 6282,
      "opa": 6283,
      "octubre": 6284,
      "qis": 6285,
      "ín": 6286,
      "antam": 6287,
      "karqanchik": 6288,
      "kamuq": 6289,
      "mad": 6290,
      "waptinqa": 6291,
      "kichikta": 6292,
      "ninkupas": 6293,
      "chuk": 6294,
      "chaymantaqa": 6295,
      "sqantaqa": 6296,
      "raw": 6297,
      "haypay": 6298,
      "allinyan": 6299,
      "relig": 6300,
      "kasqanchikqa": 6301,
      "yacharu": 6302,
      "qosqanta": 6303,
      "munarqaniku": 6304,
      "kaqkunaman": 6305,
      "chinanmanta": 6306,
      "yachachina": 6307,
      "ciasqa": 6308,
      "qusa": 6309,
      "convence": 6310,
      "kallpanchikwan": 6311,
      "Paqarin": 6312,
      "wañuqkunata": 6313,
      "kawsakusun": 6314,
      "kallpanchakuni": 6315,
      "kawsasqanta": 6316,
      "mañakuspaqa": 6317,
      "sapallayki": 6318,
      "qonankupaq": 6319,
      "kunankamam": 6320,
      "ñawsa": 6321,
      "llakipa": 6322,
      "wiñan": 6323,
      "ptikichik": 6324,
      "terra": 6325,
      "regalon": 6326,
      "mba": 6327,
      "sqaykiman": 6328,
      "aspanpas": 6329,
      "servichikusqan": 6330,
      "qamta": 6331,
      "churinkuta": 6332,
      "kanankupaqpas": 6333,
      "Yaqachá": 6334,
      "kunankuchu": 6335,
      "sipaskunam": 6336,
      "chunniq": 6337,
      "qariwan": 6338,
      "Absalon": 6339,
      "yanapaykunanpaq": 6340,
      "warmachan": 6341,
      "apostolkunapa": 6342,
      "musqu": 6343,
      "kikikipa": 6344,
      "qollqemanta": 6345,
      "cumplikunqa": 6346,
      "angelkunata": 6347,
      "necesitanku": 6348,
      "taytam": 6349,
      "kasqankutaqa": 6350,
      "bautizakurqa": 6351,
      "yachachisqanwan": 6352,
      "mamanqa": 6353,
      "mamanwan": 6354,
      "mamankuta": 6355,
      "llankum": 6356,
      "tencion": 6357,
      "kananchikpaqqa": 6358,
      "Churinpa": 6359,
      "aylluy": 6360,
      "Ingla": 6361,
      "tonio": 6362,
      "palabranqa": 6363,
      "paqarin": 6364,
      "pacienciawan": 6365,
      "munaspankuqa": 6366,
      "salvakunankupaq": 6367,
      "confianzawan": 6368,
      "ñanpi": 6369,
      "willananpaq": 6370,
      "Baal": 6371,
      "kuyasqanraykum": 6372,
      "Jeremiaspa": 6373,
      "Ninive": 6374,
      "pukllan": 6375,
      "ruranankupaqmi": 6376,
      "Jacobqa": 6377,
      "saqespan": 6378,
      "munapayay": 6379,
      "respetananchik": 6380,
      "Abrahanpa": 6381,
      "pasasqanmi": 6382,
      "expli": 6383,
      "mamachakunata": 6384,
      "MANA": 6385,
      "Puka": 6386,
      "nanaypas": 6387,
      "qarincha": 6388,
      "invitacion": 6389,
      "Galatas": 6390,
      "Asamblea": 6391,
      "chullalla": 6392,
      "kawsarimunqaku": 6393,
      "catolico": 6394,
      "Robert": 6395,
      "Esau": 6396,
      "preparasqa": 6397,
      "compañ": 6398,
      "cebadi": 6399,
      "Brook": 6400,
      "Grecia": 6401,
      "Inglaterra": 6402,
      "):": 6403,
      "71": 6404,
      "Atin": 6405,
      "Dra": 6406,
      "MO": 6407,
      "PU": 6408,
      "Qanmi": 6409,
      "Ran": 6410,
      "SO": 6411,
      "TO": 6412,
      "achik": 6413,
      "gobiern": 6414,
      "ill": 6415,
      "ph": 6416,
      "pla": 6417,
      "prueb": 6418,
      "ste": 6419,
      "uchu": 6420,
      "ytam": 6421,
      "kurqanki": 6422,
      "pita": 6423,
      "pinas": 6424,
      "qanmi": 6425,
      "kachu": 6426,
      "kachirqa": 6427,
      "rispanku": 6428,
      "rimuy": 6429,
      "mamanmi": 6430,
      "kuyayta": 6431,
      "asqanqa": 6432,
      "chaypaq": 6433,
      "chaykunataqa": 6434,
      "chayninta": 6435,
      "sqankuqa": 6436,
      "rabia": 6437,
      "enda": 6438,
      "tuk": 6439,
      "imaña": 6440,
      "imapaqpas": 6441,
      "kasqanpim": 6442,
      "puriy": 6443,
      "vicio": 6444,
      "qokurqani": 6445,
      "kaspayqa": 6446,
      "maskarqa": 6447,
      "maskanku": 6448,
      "willakuchkanku": 6449,
      "Diostayá": 6450,
      "tarinapaq": 6451,
      "tarikuspaykiqa": 6452,
      "watapiqa": 6453,
      "cal": 6454,
      "kawsachi": 6455,
      "kawsakusunchik": 6456,
      "kasukunanchikpaq": 6457,
      "iñiqmasinkuta": 6458,
      "unanchasqanmanta": 6459,
      "Diosmantawan": 6460,
      "kuspankupas": 6461,
      "llaykichik": 6462,
      "premio": 6463,
      "tapukuynin": 6464,
      "cristianopas": 6465,
      "yachayninta": 6466,
      "sasachakuypiña": 6467,
      "amistadkunaqa": 6468,
      "qellqapi": 6469,
      "huchamanta": 6470,
      "yachachikuykunawan": 6471,
      "120": 6472,
      "ruwaypi": 6473,
      "munanqaku": 6474,
      "aspanchik": 6475,
      "apaqkunapa": 6476,
      "qawana": 6477,
      "qawananpaq": 6478,
      "ario": 6479,
      "qillqakuna": 6480,
      "tantearurqani": 6481,
      "iñiyninta": 6482,
      "Satanaswan": 6483,
      "librokuna": 6484,
      "tiemponpiqa": 6485,
      "ioso": 6486,
      "willakuytaqa": 6487,
      "willakuykunam": 6488,
      "agrad": 6489,
      "rurasqanman": 6490,
      "rurasqankunamanta": 6491,
      "sqankutapas": 6492,
      "ñoqanchikpi": 6493,
      "alton": 6494,
      "rimasunchik": 6495,
      "kuchwanmi": 6496,
      "wananchikpaqqa": 6497,
      "prome": 6498,
      "Cristoqa": 6499,
      "kusqankuman": 6500,
      "fariseo": 6501,
      "ayllunta": 6502,
      "señora": 6503,
      "sirvientemasin": 6504,
      "runamasinta": 6505,
      "llankupi": 6506,
      "rikchanachiyta": 6507,
      "TAQ": 6508,
      "consejota": 6509,
      "qawasqanta": 6510,
      "wawanku": 6511,
      "unanchaq": 6512,
      "puñuy": 6513,
      "Testigon": 6514,
      "librarqa": 6515,
      "ñawinchan": 6516,
      "wañunankupaq": 6517,
      "asil": 6518,
      "kuyakuyninpi": 6519,
      "kuyakuyninmanta": 6520,
      "suyasqanchik": 6521,
      "ACHKA": 6522,
      "waqarqa": 6523,
      "Fiesta": 6524,
      "Kaynata": 6525,
      "concienciayuq": 6526,
      "ruwanapaqmi": 6527,
      "imaynatataq": 6528,
      "castigasqa": 6529,
      "tentasqa": 6530,
      "Nacion": 6531,
      "Qawamusqanchikman": 6532,
      "nichkanchikchu": 6533,
      "asambleapi": 6534,
      "yuyaymanarqa": 6535,
      "chayamuchkaptin": 6536,
      "Sol": 6537,
      "rurunta": 6538,
      "Anaqa": 6539,
      "Leypa": 6540,
      "canton": 6541,
      "Filipinas": 6542,
      "REG": 6543,
      "asuykusun": 6544,
      "peligropi": 6545,
      "Berna": 6546,
      "Wawqe": 6547,
      "vinota": 6548,
      "Malaquias": 6549,
      "insulta": 6550,
      "periodico": 6551,
      "Felipe": 6552,
      "Qayna": 6553,
      "Belen": 6554,
      "Humilde": 6555,
      "Brasil": 6556,
      "Brooklyn": 6557,
      "Bet": 6558,
      "Chan": 6559,
      "Me": 6560,
      "Mas": 6561,
      "Mesi": 6562,
      "YU": 6563,
      "emi": 6564,
      "uchuy": 6565,
      "óven": 6566,
      "takama": 6567,
      "asna": 6568,
      "kachin": 6569,
      "ruc": 6570,
      "pasqanchik": 6571,
      "llamanmi": 6572,
      "niku": 6573,
      "ninki": 6574,
      "asqanraykum": 6575,
      "allinllata": 6576,
      "allinninku": 6577,
      "ankurayku": 6578,
      "kasqankupi": 6579,
      "sue": 6580,
      "munarqanichu": 6581,
      "kaqninmi": 6582,
      "yuy": 6583,
      "hukkunamanta": 6584,
      "chaynallatachu": 6585,
      "yanapawananchikmanta": 6586,
      "willakunchik": 6587,
      "yachachisqanchik": 6588,
      "kallpaq": 6589,
      "tarikusqanchik": 6590,
      "nisqantapas": 6591,
      "cul": 6592,
      "tukuyninpi": 6593,
      "watakama": 6594,
      "iñiqkunapa": 6595,
      "kuyninku": 6596,
      "atipayta": 6597,
      "atisunchu": 6598,
      "llamkarqani": 6599,
      "Payta": 6600,
      "Paytaqa": 6601,
      "Paykunawan": 6602,
      "Payñataqmi": 6603,
      "rurasun": 6604,
      "amigo": 6605,
      "sasachakuyninta": 6606,
      "nacionkunapim": 6607,
      "piensasqanchikta": 6608,
      "mañakusqankuta": 6609,
      "tanteananpaq": 6610,
      "llaqtakunaman": 6611,
      "Huchapa": 6612,
      "sonqom": 6613,
      "uyarirqaku": 6614,
      "uyariqnin": 6615,
      "hatunchanapaq": 6616,
      "yachanman": 6617,
      "Hinaspanmi": 6618,
      "huñunakunanku": 6619,
      "entiendenaykipaq": 6620,
      "kuptinkum": 6621,
      "sonqonkumanta": 6622,
      "julio": 6623,
      "iskayrayaspan": 6624,
      "iskayrayanichu": 6625,
      "chiytaqa": 6626,
      "rimasqanmanta": 6627,
      "religionqa": 6628,
      "religionmanta": 6629,
      "yanapaykurqa": 6630,
      "yanapayninta": 6631,
      "niqku": 6632,
      "ador": 6633,
      "llapichu": 6634,
      "chaninchanapaq": 6635,
      "chaninchasun": 6636,
      "Jobta": 6637,
      "Simon": 6638,
      "kawsayman": 6639,
      "kanankama": 6640,
      "allpaman": 6641,
      "Sapakama": 6642,
      "Sapakamam": 6643,
      "munaqkunata": 6644,
      "munaqkunaqa": 6645,
      "kayninkunamanta": 6646,
      "Yachachiq": 6647,
      "ruptinkum": 6648,
      "tarinankupaq": 6649,
      "chisqankuta": 6650,
      "qullqimanta": 6651,
      "llamantachu": 6652,
      "ayllunku": 6653,
      "llakisqallaña": 6654,
      "noticiakunata": 6655,
      "Marco": 6656,
      "Ñawpaqpi": 6657,
      "Egiptopi": 6658,
      "hampiy": 6659,
      "Testigokunapa": 6660,
      "Timoteota": 6661,
      "Timoteoqa": 6662,
      "Llumpa": 6663,
      "pasananta": 6664,
      "bendecisqa": 6665,
      "panintin": 6666,
      "hikutasqa": 6667,
      "chkaniku": 6668,
      "ruwasqankuqa": 6669,
      "Baruc": 6670,
      "2007": 6671,
      "pampachakuq": 6672,
      "contestan": 6673,
      "sinchita": 6674,
      "señorayki": 6675,
      "sichum": 6676,
      "warmaykikunata": 6677,
      "peleaq": 6678,
      "Raquel": 6679,
      "discipulo": 6680,
      "hichpallanpi": 6681,
      "Levitico": 6682,
      "librananpaq": 6683,
      "suticharqa": 6684,
      "señorninchik": 6685,
      "Qawasunchikyá": 6686,
      "Ayllu": 6687,
      "RUNAKUNA": 6688,
      "Wakcha": 6689,
      "creesqan": 6690,
      "ukunpi": 6691,
      "norte": 6692,
      "waqninchikta": 6693,
      "samanan": 6694,
      "Imaynanpitaq": 6695,
      "palacio": 6696,
      "llaqtamasin": 6697,
      "kilometro": 6698,
      "Orqopi": 6699,
      "Qanchis": 6700,
      "óvenes": 6701,
      "56": 6702,
      "91": 6703,
      "alista": 6704,
      "bibli": 6705,
      "gos": 6706,
      "jóvenes": 6707,
      "ofic": 6708,
      "qkunapa": 6709,
      "tren": 6710,
      "nal": 6711,
      "nacey": 6712,
      "aychu": 6713,
      "qanwan": 6714,
      "wantaq": 6715,
      "mal": 6716,
      "nikim": 6717,
      "kuyasqanmanta": 6718,
      "manapunim": 6719,
      "ninkumanta": 6720,
      "chayuq": 6721,
      "Diostapas": 6722,
      "sqantapas": 6723,
      "Chaykunaqa": 6724,
      "Chayllaraq": 6725,
      "mayo": 6726,
      "murqaku": 6727,
      "tukun": 6728,
      "Jerobo": 6729,
      "imallatapas": 6730,
      "yacharunchik": 6731,
      "qokurqa": 6732,
      "hukpa": 6733,
      "kusqantam": 6734,
      "iñiywan": 6735,
      "raqtaq": 6736,
      "tarichwan": 6737,
      "tarirurqa": 6738,
      "Chaynamá": 6739,
      "letra": 6740,
      "cula": 6741,
      "kurqataqmi": 6742,
      "atiwaqmi": 6743,
      "wañururqa": 6744,
      "wañukuptinmi": 6745,
      "Paywan": 6746,
      "Paytam": 6747,
      "kallpanchakunayki": 6748,
      "kallpanchakuptinchikqa": 6749,
      "rurasaq": 6750,
      "Kaykuna": 6751,
      "achkallañam": 6752,
      "punchawninpi": 6753,
      "kuspanchikmi": 6754,
      "wakinmi": 6755,
      "wakinkum": 6756,
      "qonchu": 6757,
      "yachaytam": 6758,
      "Yachasun": 6759,
      "yanapanaypaq": 6760,
      "kunanchikmanta": 6761,
      "estudiayqa": 6762,
      "amistadkunata": 6763,
      "ruraypi": 6764,
      "yuyayninchik": 6765,
      "qellqaqmi": 6766,
      "mankupas": 6767,
      "rurananchikpaq": 6768,
      "Hinallayá": 6769,
      "yupaychana": 6770,
      "yupaychayqa": 6771,
      "ptikim": 6772,
      "ptillanmi": 6773,
      "Wakinmi": 6774,
      "qamkuna": 6775,
      "qamkunawan": 6776,
      "wasikuna": 6777,
      "wasiyman": 6778,
      "hapiy": 6779,
      "bar": 6780,
      "entienderqa": 6781,
      "entienderqaku": 6782,
      "qawanqaku": 6783,
      "hamurqa": 6784,
      "gui": 6785,
      "uyway": 6786,
      "sonqonku": 6787,
      "qillqaq": 6788,
      "manchapa": 6789,
      "suyarqa": 6790,
      "Israelpi": 6791,
      "cartanta": 6792,
      "qatipakunmanku": 6793,
      "waspanchikmi": 6794,
      "niymi": 6795,
      "Antonio": 6796,
      "amam": 6797,
      "mamakunapas": 6798,
      "libropim": 6799,
      "rikurirurqaku": 6800,
      "watapiñataqmi": 6801,
      "musyan": 6802,
      "llapanpiqa": 6803,
      "altar": 6804,
      "espirituntam": 6805,
      "ruraqkuna": 6806,
      "asunto": 6807,
      "serviqkunapa": 6808,
      "pagan": 6809,
      "willakusqanchikta": 6810,
      "kasukuqkunaqa": 6811,
      "Este": 6812,
      "predicarqa": 6813,
      "Moisesman": 6814,
      "tarikunman": 6815,
      "tarikunqaku": 6816,
      "saqirqa": 6817,
      "Taytanwan": 6818,
      "admirakunapaq": 6819,
      "Eliaspa": 6820,
      "presta": 6821,
      "cesqam": 6822,
      "vidata": 6823,
      "killapim": 6824,
      "Encarga": 6825,
      "yachasqanchikman": 6826,
      "Cheqaptapunim": 6827,
      "tukuruq": 6828,
      "2009": 6829,
      "Jeremiasta": 6830,
      "qosanpa": 6831,
      "leesqanchik": 6832,
      "tanteananku": 6833,
      "tarpuq": 6834,
      "sunqunkuwan": 6835,
      "Qosa": 6836,
      "revistakunata": 6837,
      "consejokuna": 6838,
      "rakinasqa": 6839,
      "apana": 6840,
      "mikuchi": 6841,
      "controlakuq": 6842,
      "tarikuspankupas": 6843,
      "qaqchana": 6844,
      "llapallankum": 6845,
      "Nehemiasqa": 6846,
      "penqaypaq": 6847,
      "Tapukuy": 6848,
      "menos": 6849,
      "Asia": 6850,
      "RUWA": 6851,
      "rupachkaq": 6852,
      "Estudiaq": 6853,
      "Chayraykuchá": 6854,
      "celula": 6855,
      "universidadpi": 6856,
      "cigarro": 6857,
      "obligasqa": 6858,
      "graciasta": 6859,
      "Oveja": 6860,
      "Yachasqanchikman": 6861,
      "escuel": 6862,
      "Knorr": 6863,
      "52": 6864,
      "PREG": 6865,
      "Qon": 6866,
      "RA": 6867,
      "Rur": 6868,
      "Sonqon": 6869,
      "Ur": 6870,
      "Zac": 6871,
      "achkaq": 6872,
      "pesa": 6873,
      "sob": 6874,
      "sasani": 6875,
      "tankumanta": 6876,
      "kuptikichikqa": 6877,
      "chasqankumanta": 6878,
      "nam": 6879,
      "nario": 6880,
      "astin": 6881,
      "llo": 6882,
      "pikunataq": 6883,
      "qani": 6884,
      "kachkaspay": 6885,
      "mikunapaq": 6886,
      "ruga": 6887,
      "wanyá": 6888,
      "llawanmi": 6889,
      "hinachá": 6890,
      "asqanpi": 6891,
      "sqantam": 6892,
      "kanay": 6893,
      "allinkunawan": 6894,
      "maymanpas": 6895,
      "rayta": 6896,
      "pues": 6897,
      "qokunku": 6898,
      "nispay": 6899,
      "hukninta": 6900,
      "maskanapaq": 6901,
      "kusqantaqa": 6902,
      "yachachiypi": 6903,
      "rantina": 6904,
      "ykipi": 6905,
      "quri": 6906,
      "qukuykuq": 6907,
      "tarikunqa": 6908,
      "rinanchik": 6909,
      "nisqanwanqa": 6910,
      "wanchikman": 6911,
      "tiempokunapim": 6912,
      "tiempollamantam": 6913,
      "watay": 6914,
      "wañururqaku": 6915,
      "kamachikuyqa": 6916,
      "Paykunapas": 6917,
      "wayku": 6918,
      "kuspapas": 6919,
      "allintaña": 6920,
      "yayta": 6921,
      "kutirispa": 6922,
      "Jesustaqa": 6923,
      "punchawpaq": 6924,
      "punchawkunapim": 6925,
      "mañakuni": 6926,
      "sutiqa": 6927,
      "tanteana": 6928,
      "tanteoyoq": 6929,
      "qawachiyta": 6930,
      "sepultu": 6931,
      "cristianokunawan": 6932,
      "ruwanan": 6933,
      "pelo": 6934,
      "viday": 6935,
      "rurayman": 6936,
      "ruranman": 6937,
      "Wakinpiñataqmi": 6938,
      "chaskiyku": 6939,
      "warmikunata": 6940,
      "huñunakuna": 6941,
      "yachachikuypa": 6942,
      "ruwayniyuq": 6943,
      "aspanchikmi": 6944,
      "111": 6945,
      "kunanpaqña": 6946,
      "2013": 6947,
      "ardia": 6948,
      "chayllaqa": 6949,
      "chinkachiyta": 6950,
      "carron": 6951,
      "qatipakuspa": 6952,
      "ñakarichin": 6953,
      "yanapawanchiktaqmi": 6954,
      "qariki": 6955,
      "religionkunapi": 6956,
      "asqaymanta": 6957,
      "sutinmanta": 6958,
      "wasinta": 6959,
      "serviqninkunataqa": 6960,
      "sqankuwan": 6961,
      "piensachwan": 6962,
      "pisipa": 6963,
      "pisilla": 6964,
      "ruwasqanwanmi": 6965,
      "llanchikta": 6966,
      "riqkunaqa": 6967,
      "churikichik": 6968,
      "kusqankutaqa": 6969,
      "bautizakuru": 6970,
      "nisqata": 6971,
      "agradecekusqanchikta": 6972,
      "warqakum": 6973,
      "kasqanchikwan": 6974,
      "chaskinanpaq": 6975,
      "wananchikmantaqa": 6976,
      "willakusqankuta": 6977,
      "mamayki": 6978,
      "Qamkuna": 6979,
      "kamachikuyninkuna": 6980,
      "chaymantañataq": 6981,
      "hukmanyasqam": 6982,
      "watakunañam": 6983,
      "yachayniyoqmi": 6984,
      "cheqnisqan": 6985,
      "Mariata": 6986,
      "cuidakunanchik": 6987,
      "allinpaqchu": 6988,
      "atinam": 6989,
      "rimasqanwan": 6990,
      "estudiota": 6991,
      "Timoteoman": 6992,
      "Cheqaptamá": 6993,
      "ejemplota": 6994,
      "nacerqa": 6995,
      "yapakuchkan": 6996,
      "iñiynikipi": 6997,
      "yupaycharqaku": 6998,
      "Yanapan": 6999,
      "Samuelqa": 7000,
      "puriyta": 7001,
      "wichiykunapaq": 7002,
      "Unqu": 7003,
      "soldadokunapa": 7004,
      "favorecen": 7005,
      "munasqayta": 7006,
      "ruraspanmi": 7007,
      "qallariypiqa": 7008,
      "kasukuymi": 7009,
      "capitulonpi": 7010,
      "Alex": 7011,
      "chayaramuptin": 7012,
      "rimasqanchikwan": 7013,
      "Kikinmi": 7014,
      "yarqaymanta": 7015,
      "videota": 7016,
      "valeqpaq": 7017,
      "atinmankuchu": 7018,
      "pruebaman": 7019,
      "predicacionpi": 7020,
      "Escuelaman": 7021,
      "Georg": 7022,
      "Chak": 7023,
      "achkanpi": 7024,
      "JEHOVA": 7025,
      "Imapaqtaq": 7026,
      "hatarichiypi": 7027,
      "UNTAS": 7028,
      "Russell": 7029,
      "religioso": 7030,
      "SOBRE": 7031,
      "PREGUNTAS": 7032,
      "rugaw": 7033,
      "!,": 7034,
      "64": 7035,
      "Etio": 7036,
      "Fo": 7037,
      "Har": 7038,
      "Hero": 7039,
      "Kapu": 7040,
      "Qi": 7041,
      "SQAN": 7042,
      "WI": 7043,
      "qunan": 7044,
      "sti": 7045,
      "táy": 7046,
      "uyan": 7047,
      "wasqankuta": 7048,
      "ñanta": 7049,
      "chankuta": 7050,
      "tañataqmi": 7051,
      "taraqmi": 7052,
      "pachanchik": 7053,
      "ine": 7054,
      "rico": 7055,
      "machu": 7056,
      "llap": 7057,
      "nillan": 7058,
      "nisunkiman": 7059,
      "kuyniki": 7060,
      "hinañam": 7061,
      "kiman": 7062,
      "nintapas": 7063,
      "asqanrayku": 7064,
      "Chaylla": 7065,
      "saba": 7066,
      "ankukama": 7067,
      "musaq": 7068,
      "tani": 7069,
      "munachi": 7070,
      "munachkarqa": 7071,
      "hukllapi": 7072,
      "maskanankupaq": 7073,
      "runakunamantaqa": 7074,
      "qepaq": 7075,
      "qusqankuwanmi": 7076,
      "punku": 7077,
      "rinrin": 7078,
      "tiempollapi": 7079,
      "watayuq": 7080,
      "debe": 7081,
      "Patron": 7082,
      "iñiqqa": 7083,
      "serviyqa": 7084,
      "kuyninqa": 7085,
      "chaspam": 7086,
      "llamkanankupaq": 7087,
      "llamkarqaku": 7088,
      "kusikurqani": 7089,
      "wañusqan": 7090,
      "wañukunankama": 7091,
      "kamachiptin": 7092,
      "kamachimunqaku": 7093,
      "Paymanta": 7094,
      "Manachá": 7095,
      "Manapunim": 7096,
      "kutipipas": 7097,
      "yninpi": 7098,
      "kaptinkuqa": 7099,
      "piensasqankuman": 7100,
      "punchawman": 7101,
      "runanmanta": 7102,
      "kawsanqa": 7103,
      "mañakunku": 7104,
      "mañakuychik": 7105,
      "qawachiwasun": 7106,
      "dowan": 7107,
      "moto": 7108,
      "iskayniyoq": 7109,
      "yachasqankuta": 7110,
      "yachayninchikqa": 7111,
      "rimayninkupi": 7112,
      "ruwanmanku": 7113,
      "aykimantaqa": 7114,
      "yachani": 7115,
      "ruraynin": 7116,
      "Piña": 7117,
      "Pichqa": 7118,
      "bibliam": 7119,
      "ninchikpas": 7120,
      "ruwaymi": 7121,
      "qatiqninkunatam": 7122,
      "piñakururqa": 7123,
      "servichikuchwan": 7124,
      "apaqkunam": 7125,
      "rurqam": 7126,
      "entiendechi": 7127,
      "qawanki": 7128,
      "hamuspan": 7129,
      "hamuchun": 7130,
      "kurqanichu": 7131,
      "sonqonkupi": 7132,
      "niytam": 7133,
      "Davidmanta": 7134,
      "testigonkunata": 7135,
      "kuskanku": 7136,
      "religionkunata": 7137,
      "mozom": 7138,
      "kawsarichirqa": 7139,
      "kikinchikmanta": 7140,
      "mosqo": 7141,
      "llapanpi": 7142,
      "cumplikunanpaq": 7143,
      "chirqataqmi": 7144,
      "abraz": 7145,
      "angelkunapas": 7146,
      "Tito": 7147,
      "chkaptinkum": 7148,
      "ruraqkunata": 7149,
      "Pedrowan": 7150,
      "ñoqamanta": 7151,
      "Cristota": 7152,
      "Cristopi": 7153,
      "bautizakurqaku": 7154,
      "agradecekuq": 7155,
      "niwanchiktaqmi": 7156,
      "qepallatam": 7157,
      "wawakunaqa": 7158,
      "allpamanta": 7159,
      "kasqayku": 7160,
      "parais": 7161,
      "ramuspan": 7162,
      "servinanchikpaq": 7163,
      "qawasqay": 7164,
      "Munawaqchu": 7165,
      "llakisqam": 7166,
      "kamachikuykuna": 7167,
      "suqniki": 7168,
      "suqnikichik": 7169,
      "huchapakuq": 7170,
      "Noemi": 7171,
      "palabranmanta": 7172,
      "sapaqcha": 7173,
      "kachkaptinqa": 7174,
      "kachkaptiy": 7175,
      "munaychakusqanpi": 7176,
      "gobiernokunata": 7177,
      "wachwanmi": 7178,
      "nikichikpi": 7179,
      "llakipayakuqmi": 7180,
      "Kusisqam": 7181,
      "kuyasqanrayku": 7182,
      "kapuqniyuq": 7183,
      "concienciayoq": 7184,
      "familiantin": 7185,
      "allichanankupaq": 7186,
      "kuyananchikpaq": 7187,
      "qipatam": 7188,
      "bote": 7189,
      "ñakarinku": 7190,
      "watamantapacha": 7191,
      "paninchikkunata": 7192,
      "nichkarqam": 7193,
      "tarikuspapas": 7194,
      "paginankunapi": 7195,
      "dioskuna": 7196,
      "qellqanchikkunata": 7197,
      "usuchi": 7198,
      "vidaykipi": 7199,
      "IMATAM": 7200,
      "Escuelapi": 7201,
      "iñiqmasiki": 7202,
      "watanpiña": 7203,
      "kawsarimunankumanta": 7204,
      "atisunmi": 7205,
      "Huchalli": 7206,
      "hichpanpi": 7207,
      "Imaynanpim": 7208,
      "consejarqa": 7209,
      "Rikcha": 7210,
      "celular": 7211,
      "Iskayninkum": 7212,
      "rikchanachisqanpi": 7213,
      "musyaylla": 7214,
      "muyuriqninpi": 7215,
      "facilchu": 7216,
      "Cuentatam": 7217,
      "Enemigon": 7218,
      "igual": 7219,
      "Gedeon": 7220,
      "Drama": 7221,
      "tuksi": 7222,
      "Chanin": 7223,
      "600": 7224,
      "86": 7225,
      "AL": 7226,
      "Cre": 7227,
      "Jan": 7228,
      "VI": 7229,
      "gasta": 7230,
      "guntan": 7231,
      "umanta": 7232,
      "uvas": 7233,
      "kuchun": 7234,
      "kuchkarqa": 7235,
      "manka": 7236,
      "waptinmi": 7237,
      "niwasqan": 7238,
      "kuyasqankuta": 7239,
      "hinaraqmi": 7240,
      "anam": 7241,
      "anakuy": 7242,
      "Diosllata": 7243,
      "Chaya": 7244,
      "kunqam": 7245,
      "payllata": 7246,
      "mayman": 7247,
      "musqa": 7248,
      "kaykunaqa": 7249,
      "Jerico": 7250,
      "imakunam": 7251,
      "yachawaq": 7252,
      "yacharunku": 7253,
      "qokunchik": 7254,
      "hukninmi": 7255,
      "kuqkunamanta": 7256,
      "maskaspa": 7257,
      "kusqanchikqa": 7258,
      "kamapas": 7259,
      "yanapaspa": 7260,
      "yachachispa": 7261,
      "Bibliataqa": 7262,
      "Imawanmi": 7263,
      "kallpasqan": 7264,
      "cicle": 7265,
      "watamantam": 7266,
      "isqon": 7267,
      "atisqanmanta": 7268,
      "atisqay": 7269,
      "llamá": 7270,
      "kasukurqachu": 7271,
      "kasukuptinchikqa": 7272,
      "kallpanchawan": 7273,
      "iñiqmasinku": 7274,
      "kutilla": 7275,
      "punchawkama": 7276,
      "runmanmi": 7277,
      "mañakurqaku": 7278,
      "mañakuptinchikqa": 7279,
      "llaymi": 7280,
      "preguntan": 7281,
      "obis": 7282,
      "cristianokunamanta": 7283,
      "cristianokunapaq": 7284,
      "kunanchu": 7285,
      "sasachakuykunatam": 7286,
      "uyariyku": 7287,
      "uyarisqanta": 7288,
      "kachkanmi": 7289,
      "lawpiqa": 7290,
      "llakikurqa": 7291,
      "rurachkan": 7292,
      "hinallaraq": 7293,
      "contray": 7294,
      "bibliawan": 7295,
      "yachachikuykunapim": 7296,
      "Diosmanqa": 7297,
      "104": 7298,
      "yaqalla": 7299,
      "servichikuspan": 7300,
      "congregacionkunapi": 7301,
      "sonqonman": 7302,
      "sunqum": 7303,
      "suyarqaku": 7304,
      "Taytapa": 7305,
      "iskayrayaspam": 7306,
      "chiqnina": 7307,
      "coleg": 7308,
      "mamaqa": 7309,
      "qaripas": 7310,
      "apostolkunaqa": 7311,
      "chayarurqa": 7312,
      "rurasqanwan": 7313,
      "onqoynin": 7314,
      "kikillanpi": 7315,
      "huchallikuspa": 7316,
      "kuchwanchu": 7317,
      "chkaptinpas": 7318,
      "runakunamanpas": 7319,
      "casarakunankupaq": 7320,
      "Pedropas": 7321,
      "agradecesqa": 7322,
      "amistadninkuna": 7323,
      "hapipakurqa": 7324,
      "hapipakunapaq": 7325,
      "agradecekurqa": 7326,
      "willakuqkunapa": 7327,
      "qepamanmi": 7328,
      "kayninchikqa": 7329,
      "respetasqanta": 7330,
      "kaspayá": 7331,
      "NAPAQ": 7332,
      "alabanapaq": 7333,
      "willkan": 7334,
      "Miray": 7335,
      "servinku": 7336,
      "foto": 7337,
      "tikraq": 7338,
      "admirakuypaqmi": 7339,
      "Eliasta": 7340,
      "kamuchkan": 7341,
      "entiendenanpaq": 7342,
      "killakuna": 7343,
      "Señorlláy": 7344,
      "kasqaykimanta": 7345,
      "yupaychananchik": 7346,
      "kachkaspankupas": 7347,
      "hichpay": 7348,
      "textopa": 7349,
      "kutichipu": 7350,
      "piensanmanku": 7351,
      "Haykapi": 7352,
      "Qawasuntaqmi": 7353,
      "ejemplom": 7354,
      "takikunata": 7355,
      "temploman": 7356,
      "ruwaspankum": 7357,
      "tukuruptin": 7358,
      "ruwasqankuwan": 7359,
      "rispayá": 7360,
      "nanachikuq": 7361,
      "pukllaq": 7362,
      "entiendesun": 7363,
      "Astawanmi": 7364,
      "leesqay": 7365,
      "salvan": 7366,
      "kunankamapas": 7367,
      "censes": 7368,
      "Warmakunaqa": 7369,
      "testigokuna": 7370,
      "Ñam": 7371,
      "pasayllatam": 7372,
      "Iñiqmasinchikkunata": 7373,
      "qepancharurqa": 7374,
      "capitulonpim": 7375,
      "qonqananchikchu": 7376,
      "qaqcha": 7377,
      "huchanmanta": 7378,
      "Filiste": 7379,
      "imani": 7380,
      "ñawpaqmantaraqmi": 7381,
      "kunaypaqmi": 7382,
      "suticharqaku": 7383,
      "erqani": 7384,
      "Judiokunapa": 7385,
      "vecino": 7386,
      "acuerdopi": 7387,
      "Tesalonica": 7388,
      "Tesalonicenses": 7389,
      "Carneropa": 7390,
      "Wiñaypaq": 7391,
      "folleto": 7392,
      "Miqueas": 7393,
      "leprawan": 7394,
      "qerupi": 7395,
      "tencionwan": 7396,
      "prometen": 7397,
      "Betsa": 7398,
      "63": 7399,
      "97": 7400,
      "GI": 7401,
      "Jor": 7402,
      "Los": 7403,
      "Pe": 7404,
      "Ste": 7405,
      "TU": 7406,
      "YNA": 7407,
      "ber": 7408,
      "rd": 7409,
      "ypaqmi": 7410,
      "ñon": 7411,
      "anwan": 7412,
      "nata": 7413,
      "mankum": 7414,
      "llas": 7415,
      "kunallata": 7416,
      "kunañataq": 7417,
      "kat": 7418,
      "chikkunata": 7419,
      "chiktapas": 7420,
      "mañ": 7421,
      "llalli": 7422,
      "niwaptin": 7423,
      "nisan": 7424,
      "kuyaspaqa": 7425,
      "manach": 7426,
      "asqanwan": 7427,
      "chayanapaq": 7428,
      "chayllaña": 7429,
      "allinpim": 7430,
      "paymantam": 7431,
      "licula": 7432,
      "muspa": 7433,
      "kaymantaqa": 7434,
      "imallapaq": 7435,
      "qospan": 7436,
      "huktawan": 7437,
      "kuqkunapas": 7438,
      "runakunachu": 7439,
      "runakunapaqqa": 7440,
      "chinmi": 7441,
      "kusqanmantaqa": 7442,
      "willakunaypaq": 7443,
      "willamuy": 7444,
      "yachachiwarqanchik": 7445,
      "ranpi": 7446,
      "ranqantin": 7447,
      "ciante": 7448,
      "tarikurqaniku": 7449,
      "tarikuspanchikqa": 7450,
      "tiempokama": 7451,
      "ley": 7452,
      "Paul": 7453,
      "qninta": 7454,
      "servichkanku": 7455,
      "llantu": 7456,
      "kawsakurqa": 7457,
      "kawsachikuq": 7458,
      "kasukuspam": 7459,
      "kasukuspanchikqa": 7460,
      "kallpanchakurqani": 7461,
      "kallpanchakusqayki": 7462,
      "rurasqanchikta": 7463,
      "Kaykunata": 7464,
      "Kaytam": 7465,
      "amigon": 7466,
      "Waranqantin": 7467,
      "nacionkunapa": 7468,
      "nacionninku": 7469,
      "runmanku": 7470,
      "kuyakuyqa": 7471,
      "llaqtakunapim": 7472,
      "yachaynin": 7473,
      "Yachanchikmi": 7474,
      "asqankurayku": 7475,
      "yanapanmi": 7476,
      "munasqanchikman": 7477,
      "pelicula": 7478,
      "uyarispan": 7479,
      "ruraytapas": 7480,
      "qawachinankupaq": 7481,
      "qawachinmanku": 7482,
      "kusisqamá": 7483,
      "ptiyku": 7484,
      "chaskisqanta": 7485,
      "rurarurqa": 7486,
      "fia": 7487,
      "lliwchu": 7488,
      "yaqachá": 7489,
      "servichikunanchik": 7490,
      "cheqapmi": 7491,
      "reqsiq": 7492,
      "qawananku": 7493,
      "chinkachispan": 7494,
      "iñiyninkuta": 7495,
      "Taytaymi": 7496,
      "iskayrayankuchu": 7497,
      "mamakunata": 7498,
      "huñunakuykuna": 7499,
      "confiananchik": 7500,
      "saqerqachu": 7501,
      "serviqninkunamanta": 7502,
      "sqankumantaqa": 7503,
      "piensarqachu": 7504,
      "ñoqanchikpa": 7505,
      "espiritunqa": 7506,
      "pozo": 7507,
      "angelpa": 7508,
      "chaninchasqanchikta": 7509,
      "casarakuru": 7510,
      "llanchikwan": 7511,
      "ruraqku": 7512,
      "ñoqaman": 7513,
      "churiki": 7514,
      "kasqankumantam": 7515,
      "kusqankutapas": 7516,
      "nisqaman": 7517,
      "waqaypas": 7518,
      "musyakururqa": 7519,
      "chaskinanchikpaq": 7520,
      "Palabranmi": 7521,
      "hukmanyarachi": 7522,
      "sirvientemanta": 7523,
      "respetasqanchikta": 7524,
      "Hamuy": 7525,
      "tarikunmanku": 7526,
      "Jerusalenpa": 7527,
      "chaymantaña": 7528,
      "kamachikuykunaqa": 7529,
      "pachaknintin": 7530,
      "huchapakuyman": 7531,
      "guerrakuna": 7532,
      "piensaychu": 7533,
      "makinwan": 7534,
      "churanapaq": 7535,
      "willakurqaña": 7536,
      "rimaqku": 7537,
      "Luis": 7538,
      "uelo": 7539,
      "gobiernopa": 7540,
      "munaspankum": 7541,
      "bendecirqa": 7542,
      "ñanninta": 7543,
      "kasqayrayku": 7544,
      "kasqayraykum": 7545,
      "Caleb": 7546,
      "revis": 7547,
      "entiendesqan": 7548,
      "castiganan": 7549,
      "cambiarqa": 7550,
      "salvananpaq": 7551,
      "chaspanku": 7552,
      "sunqunwan": 7553,
      "Llumpayta": 7554,
      "ganas": 7555,
      "munaykunata": 7556,
      "ruraspankum": 7557,
      "nichkanchu": 7558,
      "Llamkay": 7559,
      "Santiagom": 7560,
      "bomba": 7561,
      "apostolninkuna": 7562,
      "consejokunata": 7563,
      "kallpayuq": 7564,
      "paninchikkuna": 7565,
      "chayamuptin": 7566,
      "Josueyqa": 7567,
      "ontakama": 7568,
      "negociante": 7569,
      "paginanpi": 7570,
      "chayaramurqa": 7571,
      "umalli": 7572,
      "amparakuna": 7573,
      "predicaqkunapa": 7574,
      "cumplinanpaq": 7575,
      "paniy": 7576,
      "yupaychaqninkuna": 7577,
      "tropakuna": 7578,
      "qayllanpim": 7579,
      "piensaspankum": 7580,
      "Amistadninchik": 7581,
      "pasaruptinpas": 7582,
      "weqenta": 7583,
      "kayniyoqkuna": 7584,
      "tupanachiy": 7585,
      "cumplinapaq": 7586,
      "kañasqa": 7587,
      "hukmanyaychu": 7588,
      "hospitalpi": 7589,
      "Tantea": 7590,
      "Benja": 7591,
      "Entiende": 7592,
      "mantienen": 7593,
      "uchuycha": 7594,
      "sabado": 7595,
      "obispo": 7596,
      "110": 7597,
      "112": 7598,
      "400": 7599,
      "Agra": 7600,
      "CA": 7601,
      "Ila": 7602,
      "Yan": 7603,
      "apasqa": 7604,
      "jo": 7605,
      "rero": 7606,
      "án": 7607,
      "érica": 7608,
      "”?": 7609,
      "anaypaq": 7610,
      "taka": 7611,
      "pawan": 7612,
      "pawa": 7613,
      "ascha": 7614,
      "llon": 7615,
      "ruwasun": 7616,
      "rusqankumanta": 7617,
      "riti": 7618,
      "risqay": 7619,
      "warqanki": 7620,
      "kuykuspan": 7621,
      "kuywanmi": 7622,
      "kuyananpaq": 7623,
      "kuyasqaykita": 7624,
      "yachi": 7625,
      "manapuni": 7626,
      "nini": 7627,
      "allinman": 7628,
      "Chaykunapi": 7629,
      "paykunapi": 7630,
      "mayqin": 7631,
      "kasqanchikpi": 7632,
      "yacharuspanmi": 7633,
      "vita": 7634,
      "qosqa": 7635,
      "qoyta": 7636,
      "hab": 7637,
      "liar": 7638,
      "munawaq": 7639,
      "kaqpaq": 7640,
      "kaqllata": 7641,
      "willaq": 7642,
      "Imapipas": 7643,
      "cionpi": 7644,
      "rqanchikmi": 7645,
      "nisqankunaqa": 7646,
      "tiempowan": 7647,
      "watata": 7648,
      "watachayoq": 7649,
      "servisqay": 7650,
      "kamachimu": 7651,
      "kawsakunku": 7652,
      "kasukuspanmi": 7653,
      "yaykunankupaq": 7654,
      "yaykuwaqmi": 7655,
      "runankupaq": 7656,
      "kuyachi": 7657,
      "waqtanpi": 7658,
      "tanteasqayki": 7659,
      "tanteayqa": 7660,
      "qawachichkarqa": 7661,
      "domo": 7662,
      "ñoqanchikta": 7663,
      "qonqora": 7664,
      "tapukurqa": 7665,
      "tapukunku": 7666,
      "moqo": 7667,
      "cristianokunatam": 7668,
      "aykipaqmi": 7669,
      "sasachakuykunamanta": 7670,
      "munasqankunata": 7671,
      "munasqantam": 7672,
      "vidanchikta": 7673,
      "uyarispanmi": 7674,
      "entiender": 7675,
      "qawachinchu": 7676,
      "yupaychasqanku": 7677,
      "Huklaw": 7678,
      "warmikunapa": 7679,
      "pasapa": 7680,
      "ruwayninchik": 7681,
      "sqaykipi": 7682,
      "rikurqani": 7683,
      "qamkunaqa": 7684,
      "qamkunaman": 7685,
      "wasipim": 7686,
      "wasikunapi": 7687,
      "reqsisqanchik": 7688,
      "churinkunawan": 7689,
      "qawani": 7690,
      "ancianoqa": 7691,
      "predicananchik": 7692,
      "tantearqa": 7693,
      "manchakuy": 7694,
      "chinkachi": 7695,
      "sunquwan": 7696,
      "ñakarichisqan": 7697,
      "iskayrayanapaq": 7698,
      "iskayrayasunchu": 7699,
      "Moab": 7700,
      "castan": 7701,
      "color": 7702,
      "tiemponkuta": 7703,
      "anchatachu": 7704,
      "yanapayninwanmi": 7705,
      "wasinkuta": 7706,
      "rurasqantaqa": 7707,
      "Runamasin": 7708,
      "qollqepaq": 7709,
      "espiritunmi": 7710,
      "heri": 7711,
      "angelkunapa": 7712,
      "angelkunam": 7713,
      "chaninchanchik": 7714,
      "ruwasqanwan": 7715,
      "ruraqkunaqa": 7716,
      "riqkuna": 7717,
      "bautizakurqani": 7718,
      "leena": 7719,
      "kananchikmanta": 7720,
      "kawsayniyoq": 7721,
      "musyakurqani": 7722,
      "kananmantam": 7723,
      "minu": 7724,
      "asuykunankupaq": 7725,
      "willakusqanchik": 7726,
      "kuyanakuy": 7727,
      "ruptinpas": 7728,
      "Iñiy": 7729,
      "spaykim": 7730,
      "tarinku": 7731,
      "yachachikuyninpi": 7732,
      "yachachikuyninkunaqa": 7733,
      "tukuqkuna": 7734,
      "kamurqa": 7735,
      "Evapa": 7736,
      "espada": 7737,
      "puñuymanta": 7738,
      "yupaychananpaq": 7739,
      "israelitakunapa": 7740,
      "wañukusqanwan": 7741,
      "yachachiqku": 7742,
      "chkaspam": 7743,
      "kutichisun": 7744,
      "Rimas": 7745,
      "rurasqankuqa": 7746,
      "Llulla": 7747,
      "pasanan": 7748,
      "warminwan": 7749,
      "ejemplotam": 7750,
      "ruwaspanmi": 7751,
      "chkanim": 7752,
      "auxi": 7753,
      "ovejakunapas": 7754,
      "Moisespas": 7755,
      "Universidad": 7756,
      "Kallpanchakuy": 7757,
      "entiendespan": 7758,
      "haypanankupaq": 7759,
      "ruranapaqmi": 7760,
      "saqesqan": 7761,
      "Abrahamta": 7762,
      "wakchakunata": 7763,
      "sasachakuyninkuta": 7764,
      "sasachakuyninchikta": 7765,
      "kuyasqanchiktam": 7766,
      "impues": 7767,
      "yuyaymanaymi": 7768,
      "wischusqa": 7769,
      "carcelman": 7770,
      "WAQ": 7771,
      "nanachikunanpaq": 7772,
      "niwasqanchikkunata": 7773,
      "palabraqa": 7774,
      "capitulopa": 7775,
      "Sasachakuypi": 7776,
      "waqaychananpaq": 7777,
      "qosaqa": 7778,
      "aguantanankupaq": 7779,
      "BIBLIAM": 7780,
      "fierro": 7781,
      "RIS": 7782,
      "kuyawasqanchikraykum": 7783,
      "sonqoykiwan": 7784,
      "reparay": 7785,
      "DIOSQA": 7786,
      "admirachi": 7787,
      "Yuyaqña": 7788,
      "punkunta": 7789,
      "Paraisopi": 7790,
      "qatiqniy": 7791,
      "premiota": 7792,
      "nisyu": 7793,
      "Sacerdotekunapa": 7794,
      "wiksanpi": 7795,
      "madrugaw": 7796,
      "Bernabey": 7797,
      "Herodes": 7798,
      "WILLA": 7799,
      "Jordan": 7800,
      "Benjamin": 7801,
      "Agrade": 7802,
      "auxiliar": 7803,
      "300": 7804,
      "69": 7805,
      "78": 7806,
      "700": 7807,
      "Can": 7808,
      "Canta": 7809,
      "ER": 7810,
      "Kuti": 7811,
      "KAN": 7812,
      "NI": 7813,
      "Nov": 7814,
      "apay": 7815,
      "bet": 7816,
      "ccio": 7817,
      "ea": 7818,
      "fru": 7819,
      "fer": 7820,
      "fran": 7821,
      "icion": 7822,
      "lin": 7823,
      "nel": 7824,
      "ocia": 7825,
      "plan": 7826,
      "tion": 7827,
      "ykuta": 7828,
      "ún": 7829,
      "pachanta": 7830,
      "kachay": 7831,
      "misi": 7832,
      "mienta": 7833,
      "chikkuna": 7834,
      "chapi": 7835,
      "rispam": 7836,
      "niwaptinchik": 7837,
      "kuytawan": 7838,
      "hinaraq": 7839,
      "manachayqa": 7840,
      "chumi": 7841,
      "esqa": 7842,
      "Diosninchikta": 7843,
      "sqanmantaqa": 7844,
      "rac": 7845,
      "haypayta": 7846,
      "allinña": 7847,
      "allintaqmi": 7848,
      "allinkunatam": 7849,
      "sai": 7850,
      "sak": 7851,
      "maymanta": 7852,
      "runapi": 7853,
      "runatam": 7854,
      "turi": 7855,
      "tukuspa": 7856,
      "kayninku": 7857,
      "yacharqaniku": 7858,
      "qokuy": 7859,
      "qorqaku": 7860,
      "kuqkunam": 7861,
      "laqa": 7862,
      "runakunallam": 7863,
      "chinan": 7864,
      "chinkay": 7865,
      "chinkasqa": 7866,
      "kusqanchikmi": 7867,
      "chaynayá": 7868,
      "yanapaptinmi": 7869,
      "willarqaku": 7870,
      "willakusqa": 7871,
      "ykiqa": 7872,
      "ykimanta": 7873,
      "Sapaq": 7874,
      "quwanchik": 7875,
      "queja": 7876,
      "tarikusqanchikmanta": 7877,
      "tukuynin": 7878,
      "demo": 7879,
      "anchachu": 7880,
      "kuyninkuta": 7881,
      "atirqa": 7882,
      "cabal": 7883,
      "kusichiyta": 7884,
      "Paykunataqa": 7885,
      "kasukuna": 7886,
      "kasukusqankurayku": 7887,
      "kallpanchakuyqa": 7888,
      "Kaymantam": 7889,
      "piensananchikchu": 7890,
      "mañakuynin": 7891,
      "sutichanku": 7892,
      "waqtaqmi": 7893,
      "tanteasqanman": 7894,
      "qawachirqam": 7895,
      "doma": 7896,
      "domin": 7897,
      "llaqtakunapiqa": 7898,
      "tapukurqaku": 7899,
      "ykupa": 7900,
      "rimaykunawan": 7901,
      "ruwanki": 7902,
      "yanapanmanmi": 7903,
      "yanapanaykipaq": 7904,
      "yanapananmantaqa": 7905,
      "sasachakuymanta": 7906,
      "sasachakuypipas": 7907,
      "estudiasqayki": 7908,
      "uyarina": 7909,
      "uyarispankum": 7910,
      "riytapas": 7911,
      "yachanankuta": 7912,
      "yachankichu": 7913,
      "ruraykuna": 7914,
      "ruraytam": 7915,
      "rurani": 7916,
      "chaskisqanku": 7917,
      "Hukninmi": 7918,
      "huñunakunapaq": 7919,
      "huñunakurqaku": 7920,
      "bibliataqa": 7921,
      "bibliapiqa": 7922,
      "pasarun": 7923,
      "servichikunapaq": 7924,
      "payqariki": 7925,
      "qampaq": 7926,
      "apamun": 7927,
      "wasiyoq": 7928,
      "hapiq": 7929,
      "reqsisqan": 7930,
      "entiendeyqa": 7931,
      "hamurqaku": 7932,
      "Jesucristopi": 7933,
      "pantasqankuta": 7934,
      "Taytay": 7935,
      "Taytayqa": 7936,
      "niywan": 7937,
      "Andres": 7938,
      "tiemponwan": 7939,
      "qarikunaqa": 7940,
      "qarimasillanwan": 7941,
      "atinichu": 7942,
      "wiñaypaqña": 7943,
      "allichay": 7944,
      "sutintaqa": 7945,
      "kawsarichinanpaq": 7946,
      "wasinmanta": 7947,
      "yanapawasuntaqmi": 7948,
      "hawkam": 7949,
      "cumplirqa": 7950,
      "familiay": 7951,
      "chkaptinku": 7952,
      "riqku": 7953,
      "llamkayqa": 7954,
      "taytanku": 7955,
      "Cristowan": 7956,
      "Cristopas": 7957,
      "Niwanchiktaqmi": 7958,
      "asunki": 7959,
      "leeq": 7960,
      "leenapaq": 7961,
      "leenaykipaq": 7962,
      "kapuqninchik": 7963,
      "santo": 7964,
      "tapukuykuna": 7965,
      "musyakuru": 7966,
      "warqakuchu": 7967,
      "Palabranpa": 7968,
      "asuyka": 7969,
      "lloqsina": 7970,
      "Esd": 7971,
      "imaynan": 7972,
      "Juanpas": 7973,
      "yachachisqankuta": 7974,
      "mamaypa": 7975,
      "mamaymi": 7976,
      "qullqiyuq": 7977,
      "yachachikuyninkunamanta": 7978,
      "yanapasunkichik": 7979,
      "kusqanchikman": 7980,
      "kacharqa": 7981,
      "nichwantaq": 7982,
      "asuri": 7983,
      "casarasqakuna": 7984,
      "cambiananpaq": 7985,
      "corne": 7986,
      "kallpanchananpaq": 7987,
      "entiendenku": 7988,
      "entiendenchik": 7989,
      "entiendenanchik": 7990,
      "wañukusqanqa": 7991,
      "yachaspanchik": 7992,
      "iskayrayarqakuchu": 7993,
      "wawayuq": 7994,
      "Caro": 7995,
      "qayachi": 7996,
      "kanaypaqmi": 7997,
      "entiendenapaqmi": 7998,
      "KUYKUNA": 7999,
      "autoridadkunata": 8000,
      "sitioman": 8001,
      "rikchanachiypi": 8002,
      "rikchanachiywan": 8003,
      "qawaspaqa": 8004,
      "atipachwan": 8005,
      "Cristianokunapa": 8006,
      "Kuyakuywan": 8007,
      "kuyasqanchikraykum": 8008,
      "allinninpaqmi": 8009,
      "interesakusqanta": 8010,
      "hatunchakuq": 8011,
      "iñina": 8012,
      "rikchakuqta": 8013,
      "wayrawan": 8014,
      "nichkarqachu": 8015,
      "Sodoma": 8016,
      "chaskinapaqqa": 8017,
      "Diosninchikpa": 8018,
      "Rahab": 8019,
      "kawsasqanchikmanta": 8020,
      "kawsasqanchikraykum": 8021,
      "huchanta": 8022,
      "estudianaykipaq": 8023,
      "Asaqa": 8024,
      "intipa": 8025,
      "yupaychaqninkunata": 8026,
      "iskayninkum": 8027,
      "hinastin": 8028,
      "iciona": 8029,
      "señala": 8030,
      "Cornel": 8031,
      "Lazarota": 8032,
      "altopi": 8033,
      "discursota": 8034,
      "doncellakunamanta": 8035,
      "Angelkunaqa": 8036,
      "arreglota": 8037,
      "Hawkay": 8038,
      "Eliseoqa": 8039,
      "wayqapi": 8040,
      "insul": 8041,
      "Qullqikiwan": 8042,
      "aceitewan": 8043,
      "cabrakunamanta": 8044,
      "servisqanchikpi": 8045,
      "JESUSPA": 8046,
      "clarota": 8047,
      "YAQA": 8048,
      "Pachaknintin": 8049,
      "llakipayari": 8050,
      "allinninkupaq": 8051,
      "Yachasuntaqmi": 8052,
      "Foto": 8053,
      "Rikchariy": 8054,
      "Filistea": 8055,
      "imaniraq": 8056,
      "Betsabey": 8057,
      "Cornelio": 8058,
      "68": 8059,
      "Au": 8060,
      "Cas": 8061,
      "Nor": 8062,
      "Pres": 8063,
      "Uman": 8064,
      "Unan": 8065,
      "YANA": 8066,
      "ara": 8067,
      "atencionwan": 8068,
      "ko": 8069,
      "tó": 8070,
      "ñasqa": 8071,
      "anza": 8072,
      "choq": 8073,
      "chanchikchu": 8074,
      "taza": 8075,
      "nacer": 8076,
      "mano": 8077,
      "llunchik": 8078,
      "pia": 8079,
      "mikuq": 8080,
      "ruraqmi": 8081,
      "mantaraq": 8082,
      "nias": 8083,
      "yachisqa": 8084,
      "hinapas": 8085,
      "ninanchik": 8086,
      "chayananpaq": 8087,
      "chayraykuchu": 8088,
      "anachu": 8089,
      "rado": 8090,
      "enn": 8091,
      "enton": 8092,
      "allinllaña": 8093,
      "Chaypaq": 8094,
      "sara": 8095,
      "samiento": 8096,
      "tinmi": 8097,
      "ankumantapas": 8098,
      "runachu": 8099,
      "tumpay": 8100,
      "tutay": 8101,
      "regu": 8102,
      "remoto": 8103,
      "yacharurqaku": 8104,
      "maynaña": 8105,
      "pusan": 8106,
      "qoni": 8107,
      "qowasun": 8108,
      "munaptinkupas": 8109,
      "huklawman": 8110,
      "tomas": 8111,
      "toca": 8112,
      "runakunawanmi": 8113,
      "chinanku": 8114,
      "kusqantapas": 8115,
      "chaynallatam": 8116,
      "iñiyqa": 8117,
      "yanapaptin": 8118,
      "willakuspaqa": 8119,
      "willakuyninchik": 8120,
      "yachachiwasqanchik": 8121,
      "yachachispaqa": 8122,
      "qawakunanchik": 8123,
      "chanpi": 8124,
      "chanmanta": 8125,
      "conven": 8126,
      "tarikusqanku": 8127,
      "chaspaqa": 8128,
      "atirqanichu": 8129,
      "llamkananpaq": 8130,
      "llamkaspa": 8131,
      "kusikusun": 8132,
      "kusikuymanta": 8133,
      "wañuyqa": 8134,
      "kamachiptinmi": 8135,
      "llantachu": 8136,
      "kasukusqankuraykum": 8137,
      "Kaypiqa": 8138,
      "kutipa": 8139,
      "nacionqa": 8140,
      "qipi": 8141,
      "piensasqankumanta": 8142,
      "mañakunchik": 8143,
      "llayta": 8144,
      "llaypi": 8145,
      "kuyawasqanchikmanta": 8146,
      "sutiki": 8147,
      "daño": 8148,
      "qawachiwarqanchik": 8149,
      "llaqtakunata": 8150,
      "tapuptinkum": 8151,
      "cristianota": 8152,
      "kunantaqa": 8153,
      "iskaynikichik": 8154,
      "yachaytaqa": 8155,
      "yachayninchik": 8156,
      "asqankuqa": 8157,
      "asqankupi": 8158,
      "aykiwan": 8159,
      "munasqantapas": 8160,
      "vidayta": 8161,
      "estudiananpaq": 8162,
      "riyqa": 8163,
      "ruraykunawan": 8164,
      "qellqasqanta": 8165,
      "Hinallachu": 8166,
      "qawachinanku": 8167,
      "rimapa": 8168,
      "chaskisunchik": 8169,
      "huñunasqa": 8170,
      "terremoto": 8171,
      "yachachikuykunatam": 8172,
      "pasaptin": 8173,
      "pasarurqa": 8174,
      "ruwaykuna": 8175,
      "servichikuyta": 8176,
      "servichikunqa": 8177,
      "qallaykusqanmanta": 8178,
      "qallaykurqaniku": 8179,
      "hukmanyanapaq": 8180,
      "yanapasunaykipaq": 8181,
      "churinmi": 8182,
      "2014": 8183,
      "ancianokunaman": 8184,
      "arpa": 8185,
      "suyaqkunaqa": 8186,
      "Satanastawan": 8187,
      "Taytaypa": 8188,
      "qatipakunankupaq": 8189,
      "Asocia": 8190,
      "sipasmi": 8191,
      "confiasqanta": 8192,
      "tiemponpipas": 8193,
      "atinqaku": 8194,
      "willakuypa": 8195,
      "religionkunaqa": 8196,
      "religionniyuq": 8197,
      "yuyarinankupaq": 8198,
      "yanapaytaqa": 8199,
      "sutintam": 8200,
      "kikinmanta": 8201,
      "serviqninkunaman": 8202,
      "sqankutam": 8203,
      "chkaspankum": 8204,
      "rimananku": 8205,
      "casarakuspa": 8206,
      "takyanqa": 8207,
      "llamkaypi": 8208,
      "llamkaytam": 8209,
      "kasqankutapas": 8210,
      "kasqankumantaqa": 8211,
      "aniza": 8212,
      "Nico": 8213,
      "amistadninmi": 8214,
      "churarqaku": 8215,
      "churakuq": 8216,
      "churarun": 8217,
      "Sime": 8218,
      "kawsaymanta": 8219,
      "kawsaytam": 8220,
      "musyakunchik": 8221,
      "Jose": 8222,
      "kuyanakuychik": 8223,
      "lugar": 8224,
      "atipananchikpaq": 8225,
      "hinallamá": 8226,
      "ruptinkupas": 8227,
      "uqniki": 8228,
      "kaqkunallata": 8229,
      "Lee": 8230,
      "Miq": 8231,
      "qullqilla": 8232,
      "kusqanchiktam": 8233,
      "ñuqanchiktapas": 8234,
      "kawsanankumanta": 8235,
      "llullakuspa": 8236,
      "suqta": 8237,
      "hatarichinankupaq": 8238,
      "Noeyta": 8239,
      "estudiaqkuna": 8240,
      "puñuq": 8241,
      "textota": 8242,
      "kanankumantaqa": 8243,
      "wanakuspa": 8244,
      "nirqakum": 8245,
      "mena": 8246,
      "gobiernom": 8247,
      "contratoqa": 8248,
      "Testigokunaqa": 8249,
      "ejemplokunam": 8250,
      "ruwaspanku": 8251,
      "amistadninchiktam": 8252,
      "willanankupaq": 8253,
      "aguantana": 8254,
      "yupaycharqa": 8255,
      "Munaychakusqanmanta": 8256,
      "saqenqachu": 8257,
      "entiendesqanchik": 8258,
      "taytachata": 8259,
      "castigo": 8260,
      "castigan": 8261,
      "kasukunanchikmi": 8262,
      "horqosqa": 8263,
      "amparan": 8264,
      "leesqayki": 8265,
      "estudiarqaku": 8266,
      "sientirachi": 8267,
      "kasunchu": 8268,
      "kusqaykuta": 8269,
      "Sarapa": 8270,
      "unanchasqankunapi": 8271,
      "chaspanqa": 8272,
      "Llumpaytam": 8273,
      "versiculopi": 8274,
      "yawarta": 8275,
      "peleanankupaq": 8276,
      "Josueyta": 8277,
      "Chris": 8278,
      "patronnin": 8279,
      "kallpanchayki": 8280,
      "qoykurqa": 8281,
      "humillakuq": 8282,
      "chayamunanmanta": 8283,
      "preocupasqa": 8284,
      "juzgananpaq": 8285,
      "chayaramuptinmi": 8286,
      "qellqanchikkuna": 8287,
      "engañachi": 8288,
      "demoniokunata": 8289,
      "Estudio": 8290,
      "iglesiapi": 8291,
      "Ezequielpa": 8292,
      "utqayllaman": 8293,
      "Yachanim": 8294,
      "rikchayniyoq": 8295,
      "dibujokuna": 8296,
      "tarikuptinchik": 8297,
      "Jonatanqa": 8298,
      "Tower": 8299,
      "Enocqa": 8300,
      "profeta": 8301,
      "iñiyninchikpim": 8302,
      "Doctor": 8303,
      "Yuyaymanasun": 8304,
      "islapi": 8305,
      "carreta": 8306,
      "Kaqmanta": 8307,
      "Manas": 8308,
      "mayordomo": 8309,
      "Abrahanqa": 8310,
      "Persia": 8311,
      "flechan": 8312,
      "dueñoyan": 8313,
      "señalasqa": 8314,
      "llanpaqchu": 8315,
      "junio": 8316,
      "ofrece": 8317,
      "educacionniyoq": 8318,
      "critu": 8319,
      "Agradece": 8320,
      "ccionario": 8321,
      "regular": 8322,
      "Asociación": 8323,
      "AD": 8324,
      "Apu": 8325,
      "Bre": 8326,
      "Cla": 8327,
      "Deb": 8328,
      "Ir": 8329,
      "Sof": 8330,
      "Tan": 8331,
      "ale": 8332,
      "bli": 8333,
      "cy": 8334,
      "cana": 8335,
      "clo": 8336,
      "gana": 8337,
      "gran": 8338,
      "ldad": 8339,
      "tankuta": 8340,
      "uario": 8341,
      "ñunan": 8342,
      "kutaqa": 8343,
      "kuchka": 8344,
      "kuchkarqaku": 8345,
      "taw": 8346,
      "pachasqa": 8347,
      "qaran": 8348,
      "qatina": 8349,
      "chiwaqninchik": 8350,
      "karay": 8351,
      "kachinanpaq": 8352,
      "kaptikiqa": 8353,
      "mikuna": 8354,
      "ruspaykiqa": 8355,
      "pascua": 8356,
      "rib": 8357,
      "rikuq": 8358,
      "richkan": 8359,
      "risqanta": 8360,
      "wall": 8361,
      "nisusqayki": 8362,
      "kuyani": 8363,
      "kipiqa": 8364,
      "killamanta": 8365,
      "panpi": 8366,
      "chayay": 8367,
      "estro": 8368,
      "Diosniki": 8369,
      "Diosllapi": 8370,
      "Diosllapaqña": 8371,
      "ñañan": 8372,
      "rakuna": 8373,
      "kanchay": 8374,
      "allinkunamanta": 8375,
      "samana": 8376,
      "payku": 8377,
      "payoq": 8378,
      "paytawan": 8379,
      "paywanmi": 8380,
      "payñataqmi": 8381,
      "paypaqqa": 8382,
      "lis": 8383,
      "muchkan": 8384,
      "tukururqa": 8385,
      "tunas": 8386,
      "kaychikchu": 8387,
      "sipa": 8388,
      "sqaña": 8389,
      "qosun": 8390,
      "qokuspa": 8391,
      "qokurqaku": 8392,
      "kaqllam": 8393,
      "hukkunatam": 8394,
      "tel": 8395,
      "ñutu": 8396,
      "pimunan": 8397,
      "lawan": 8398,
      "kusqankum": 8399,
      "kusqanmantam": 8400,
      "willamuychik": 8401,
      "yachachispan": 8402,
      "”,“": 8403,
      "Imamanta": 8404,
      "Imatawanmi": 8405,
      "quia": 8406,
      "imaynatapas": 8407,
      "tarichi": 8408,
      "tarikunankupaq": 8409,
      "tarikusqanchikta": 8410,
      "punanpaq": 8411,
      "rinan": 8412,
      "kallpanchayta": 8413,
      "tiempoña": 8414,
      "levita": 8415,
      "Paciencia": 8416,
      "rqanikum": 8417,
      "chasu": 8418,
      "llamkasqanmanta": 8419,
      "llamkanaypaq": 8420,
      "kunapapas": 8421,
      "wañuqkunaqa": 8422,
      "kamachimunankupaq": 8423,
      "kawsakurqaku": 8424,
      "wayrata": 8425,
      "kasukunapaqqa": 8426,
      "kasukuspankuqa": 8427,
      "ruraspanku": 8428,
      "Kaytaqa": 8429,
      "ortu": 8430,
      "kutichin": 8431,
      "kutikunapiqa": 8432,
      "nacionkunapiqa": 8433,
      "kunapaqwan": 8434,
      "punchawkunaqa": 8435,
      "punchawpiqa": 8436,
      "kawsasun": 8437,
      "sapallanchik": 8438,
      "qawachiwaq": 8439,
      "dolar": 8440,
      "qonku": 8441,
      "semanam": 8442,
      "cristianopa": 8443,
      "ykupaqqa": 8444,
      "yachasqankumanta": 8445,
      "rimaypim": 8446,
      "rimaytapas": 8447,
      "yuqmi": 8448,
      "vidaypi": 8449,
      "unayta": 8450,
      "unaypaq": 8451,
      "uyarinapaq": 8452,
      "uyarisqanmanta": 8453,
      "runakunatawan": 8454,
      "yachanaypaq": 8455,
      "qellqaqa": 8456,
      "qellqarqaku": 8457,
      "ruwaru": 8458,
      "ptiykuqa": 8459,
      "Hukkunañataqmi": 8460,
      "Pila": 8461,
      "munankum": 8462,
      "Diosmanyá": 8463,
      "munanman": 8464,
      "piñachi": 8465,
      "servichikuyqa": 8466,
      "qamtaqa": 8467,
      "qamkunapaq": 8468,
      "hapina": 8469,
      "churinkunam": 8470,
      "espiritumanta": 8471,
      "tanteakuy": 8472,
      "tanteakunanchik": 8473,
      "Pachapiqa": 8474,
      "ñawpaqtam": 8475,
      "ñawpaqtaqa": 8476,
      "manchakuspanku": 8477,
      "Taytayki": 8478,
      "niytaqa": 8479,
      "Antio": 8480,
      "Anuario": 8481,
      "chiychikchu": 8482,
      "chiqku": 8483,
      "rimasqankumanta": 8484,
      "sipasy": 8485,
      "chaqchu": 8486,
      "rikurimuq": 8487,
      "testigonmi": 8488,
      "Churiy": 8489,
      "nikimanta": 8490,
      "atinchu": 8491,
      "religionpa": 8492,
      "wiñaypaqchu": 8493,
      "mozota": 8494,
      "mozoqa": 8495,
      "wasinkuman": 8496,
      "hawkallam": 8497,
      "niqkunaqa": 8498,
      "piensarqam": 8499,
      "onqoqkunata": 8500,
      "kikiy": 8501,
      "cumplikuchkan": 8502,
      "chkaspankupas": 8503,
      "kamachiqkuna": 8504,
      "chaninchasqanta": 8505,
      "ruwasqankum": 8506,
      "casarakuynin": 8507,
      "Cristom": 8508,
      "Cristomanta": 8509,
      "KUQ": 8510,
      "monja": 8511,
      "hapipakuspa": 8512,
      "hapipakunanchik": 8513,
      "Sipas": 8514,
      "kuchkanki": 8515,
      "kunqakum": 8516,
      "ruwaqkunaqa": 8517,
      "kayninqa": 8518,
      "mamayta": 8519,
      "mamaywan": 8520,
      "predicaqkuna": 8521,
      "runamasinkuta": 8522,
      "Moiseswan": 8523,
      "yachachiwanchikmi": 8524,
      "llankuwan": 8525,
      "alaban": 8526,
      "allintamá": 8527,
      "kananchikpaqmi": 8528,
      "yachachikuyninman": 8529,
      "chaymantañam": 8530,
      "kusqanchikraykum": 8531,
[...]
