{
  "version": "1.0",
  "truncation": null,
  "padding": null,
  "added_tokens": [
    {
      "id": 0,
      "content": "[UNK]",
      "single_word": false,
      "lstrip": false,
      "rstrip": false,
      "normalized": false,
      "special": true
    },
    {
      "id": 1,
      "content": "[PAD]",
      "single_word": false,
      "lstrip": false,
      "rstrip": false,
      "normalized": false,
      "special": true
    },
    {
      "id": 2,
      "content": "[SOS]",
      "single_word": false,
      "lstrip": false,
      "rstrip": false,
      "normalized": false,
      "special": true
    },
    {
      "id": 3,
      "content": "[EOS]",
      "single_word": false,
      "lstrip": false,
      "rstrip": false,
      "normalized": false,
      "special": true
    }
  ],
  "normalizer": null,
  "pre_tokenizer": {
    "type": "Whitespace"
  },
  "post_processor": null,
  "decoder": null,
  "model": {
    "type": "WordPiece",
    "unk_token": "[UNK]",
    "continuing_subword_prefix": "##",
    "max_input_chars_per_word": 100,
    "vocab": {
      "[UNK]": 0,
      "[PAD]": 1,
      "[SOS]": 2,
      "[EOS]": 3,
      "!": 4,
      "\"": 5,
      "#": 6,
      "$": 7,
      "%": 8,
      "&": 9,
      "'": 10,
      "(": 11,
      ")": 12,
      "*": 13,
      "+": 14,
      ",": 15,
      "-": 16,
      ".": 17,
      "/": 18,
      "0": 19,
      "1": 20,
      "2": 21,
      "3": 22,
      "4": 23,
      "5": 24,
      "6": 25,
      "7": 26,
      "8": 27,
      "9": 28,
      ":": 29,
      ";": 30,
      "<": 31,
      "=": 32,
      ">": 33,
      "?": 34,
      "@": 35,
      "A": 36,
      "B": 37,
      "C": 38,
      "D": 39,
      "E": 40,
      "F": 41,
      "G": 42,
      "H": 43,
      "I": 44,
      "J": 45,
      "K": 46,
      "L": 47,
      "M": 48,
      "N": 49,
      "O": 50,
      "P": 51,
      "Q": 52,
      "R": 53,
      "S": 54,
      "T": 55,
      "U": 56,
      "V": 57,
      "W": 58,
      "X": 59,
      "Y": 60,
      "Z": 61,
      "[": 62,
      "\\": 63,
      "]": 64,
      "^": 65,
      "_": 66,
      "`": 67,
      "a": 68,
      "b": 69,
      "c": 70,
      "d": 71,
      "e": 72,
      "f": 73,
      "g": 74,
      "h": 75,
      "i": 76,
      "j": 77,
      "k": 78,
      "l": 79,
      "m": 80,
      "n": 81,
      "o": 82,
      "p": 83,
      "q": 84,
      "r": 85,
      "s": 86,
      "t": 87,
      "u": 88,
      "v": 89,
      "w": 90,
      "x": 91,
      "y": 92,
      "z": 93,
      "{": 94,
      "|": 95,
      "}": 96,
      "~": 97,
      "¡": 98,
      "¢": 99,
      "£": 100,
      "¦": 101,
      "©": 102,
      "¬": 103,
      "®": 104,
      "°": 105,
      "¶": 106,
      "·": 107,
      "¿": 108,
      "À": 109,
      "Á": 110,
      "Â": 111,
      "Ã": 112,
      "Ä": 113,
      "Å": 114,
      "Æ": 115,
      "Ç": 116,
      "È": 117,
      "É": 118,
      "Ê": 119,
      "Ë": 120,
      "Ì": 121,
      "Í": 122,
      "Î": 123,
      "Ï": 124,
      "Ñ": 125,
      "Ò": 126,
      "Ó": 127,
      "Ô": 128,
      "Õ": 129,
      "×": 130,
      "Ø": 131,
      "Ú": 132,
      "Ü": 133,
      "Ý": 134,
      "Þ": 135,
      "ß": 136,
      "à": 137,
      "á": 138,
      "â": 139,
      "ä": 140,
      "ç": 141,
      "è": 142,
      "é": 143,
      "ê": 144,
      "ë": 145,
      "ì": 146,
      "í": 147,
      "î": 148,
      "ï": 149,
      "ð": 150,
      "ñ": 151,
      "ò": 152,
      "ó": 153,
      "ô": 154,
      "õ": 155,
      "ö": 156,
      "÷": 157,
      "ø": 158,
      "ù": 159,
      "ú": 160,
      "û": 161,
      "ü": 162,
      "ý": 163,
      "þ": 164,
      "ÿ": 165,
      "Ā": 166,
      "ā": 167,
      "Ă": 168,
      "ă": 169,
      "Ą": 170,
      "ą": 171,
      "Ć": 172,
      "ć": 173,
      "Ĉ": 174,
      "ĉ": 175,
      "ċ": 176,
      "Č": 177,
      "č": 178,
      "ď": 179,
      "Đ": 180,
      "đ": 181,
      "Ē": 182,
      "ē": 183,
      "ĕ": 184,
      "ė": 185,
      "ę": 186,
      "Ě": 187,
      "ě": 188,
      "ĝ": 189,
      "Ğ": 190,
      "ğ": 191,
      "ġ": 192,
      "ģ": 193,
      "Ĥ": 194,
      "ĥ": 195,
      "Ħ": 196,
      "ħ": 197,
      "Ĩ": 198,
      "ĩ": 199,
      "Ī": 200,
      "ī": 201,
      "Į": 202,
      "į": 203,
      "İ": 204,
      "ı": 205,
      "ĵ": 206,
      "ķ": 207,
      "ĸ": 208,
      "ĺ": 209,
      "ļ": 210,
      "ľ": 211,
      "Ł": 212,
      "ł": 213,
      "Ń": 214,
      "ń": 215,
      "ņ": 216,
      "Ň": 217,
      "ň": 218,
      "ŋ": 219,
      "Ō": 220,
      "ō": 221,
      "ŏ": 222,
      "Ő": 223,
      "ő": 224,
      "Œ": 225,
      "œ": 226,
      "ŕ": 227,
      "ř": 228,
      "Ś": 229,
      "ś": 230,
      "Ŝ": 231,
      "ŝ": 232,
      "Ş": 233,
      "ş": 234,
      "Š": 235,
      "š": 236,
      "Ţ": 237,
      "ţ": 238,
      "Ť": 239,
      "ť": 240,
      "ũ": 241,
      "Ū": 242,
      "ū": 243,
      "ŭ": 244,
      "ů": 245,
      "ų": 246,
      "ŵ": 247,
      "Ÿ": 248,
      "ź": 249,
      "Ż": 250,
      "ż": 251,
      "Ž": 252,
      "ž": 253,
      "Ɔ": 254,
      "Ɖ": 255,
      "ƌ": 256,
      "Ǝ": 257,
      "Ə": 258,
      "Ɛ": 259,
      "ƒ": 260,
      "Ɨ": 261,
      "ƙ": 262,
      "ƚ": 263,
      "ƛ": 264,
      "Ɲ": 265,
      "ƞ": 266,
      "Ɵ": 267,
      "ơ": 268,
      "Ư": 269,
      "ư": 270,
      "Ʒ": 271,
      "ƿ": 272,
      "ǀ": 273,
      "ǁ": 274,
      "ǂ": 275,
      "ǃ": 276,
      "ǒ": 277,
      "ǝ": 278,
      "ǧ": 279,
      "ǰ": 280,
      "Ǵ": 281,
      "ǵ": 282,
      "Ƿ": 283,
      "ǿ": 284,
      "ȃ": 285,
      "ȇ": 286,
      "ȓ": 287,
      "Ș": 288,
      "ș": 289,
      "ț": 290,
      "Ȝ": 291,
      "ȝ": 292,
      "ȟ": 293,
      "ȩ": 294,
      "ȫ": 295,
      "ȼ": 296,
      "Ƚ": 297,
      "ɐ": 298,
      "ɑ": 299,
      "ɓ": 300,
      "ɔ": 301,
      "ɖ": 302,
      "ɗ": 303,
      "ə": 304,
      "ɛ": 305,
      "ɢ": 306,
      "ɣ": 307,
      "ɥ": 308,
      "ɨ": 309,
      "ɫ": 310,
      "ɬ": 311,
      "ɭ": 312,
      "ɰ": 313,
      "ɱ": 314,
      "ɲ": 315,
      "ɳ": 316,
      "ɸ": 317,
      "ɹ": 318,
      "ɾ": 319,
      "ʂ": 320,
      "ʃ": 321,
      "ʈ": 322,
      "ʉ": 323,
      "ʋ": 324,
      "ʌ": 325,
      "ʎ": 326,
      "ʔ": 327,
      "ʕ": 328,
      "ʗ": 329,
      "ʞ": 330,
      "ʤ": 331,
      "ʦ": 332,
      "ʧ": 333,
      "ʹ": 334,
      "ʻ": 335,
      "ʼ": 336,
      "ʾ": 337,
      "ʿ": 338,
      "ˆ": 339,
      "ˇ": 340,
      "ˈ": 341,
      "ˊ": 342,
      "ː": 343,
      "˓": 344,
      "˻": 345,
      "˼": 346,
      "̀": 347,
      "́": 348,
      "̂": 349,
      "̃": 350,
      "̄": 351,
      "̆": 352,
      "̇": 353,
      "̈": 354,
      "̊": 355,
      "̋": 356,
      "̌": 357,
      "̍": 358,
      "̐": 359,
      "̓": 360,
      "̕": 361,
      "̠": 362,
      "̣": 363,
      "̥": 364,
      "̦": 365,
      "̧": 366,
      "̨": 367,
      "̰": 368,
      "̱": 369,
      "̲": 370,
      "̳": 371,
      "̵": 372,
      "̶": 373,
      "͊": 374,
      "͋": 375,
      "͍": 376,
      "͎": 377,
      "͘": 378,
      "͙": 379,
      "͛": 380,
      "͟": 381,
      "͠": 382,
      "͡": 383,
      "ͬ": 384,
      "Ͳ": 385,
      "Ϳ": 386,
      "Έ": 387,
      "Ό": 388,
      "Α": 389,
      "Β": 390,
      "Γ": 391,
      "Δ": 392,
      "Ε": 393,
      "Ζ": 394,
      "Θ": 395,
      "Ι": 396,
      "Κ": 397,
      "Λ": 398,
      "Μ": 399,
      "Ν": 400,
      "Ο": 401,
      "Π": 402,
      "Ρ": 403,
      "Σ": 404,
      "Τ": 405,
      "Υ": 406,
      "Χ": 407,
      "Ω": 408,
      "ά": 409,
      "έ": 410,
      "ή": 411,
      "ί": 412,
      "α": 413,
      "β": 414,
      "γ": 415,
      "δ": 416,
      "ε": 417,
      "ζ": 418,
      "η": 419,
      "θ": 420,
      "ι": 421,
      "κ": 422,
      "λ": 423,
      "μ": 424,
      "ν": 425,
      "ξ": 426,
      "ο": 427,
      "π": 428,
      "ρ": 429,
      "ς": 430,
      "σ": 431,
      "τ": 432,
      "υ": 433,
      "φ": 434,
      "χ": 435,
      "ψ": 436,
      "ω": 437,
      "ϊ": 438,
      "ό": 439,
      "ύ": 440,
      "ώ": 441,
      "ϭ": 442,
      "Ϯ": 443,
      "Ա": 444,
      "Բ": 445,
      "Գ": 446,
      "Դ": 447,
      "Ե": 448,
      "Զ": 449,
      "Է": 450,
      "Ը": 451,
      "Թ": 452,
      "Ի": 453,
      "Լ": 454,
      "Խ": 455,
      "Ծ": 456,
      "Կ": 457,
      "Հ": 458,
      "Մ": 459,
      "Յ": 460,
      "Ն": 461,
      "Շ": 462,
      "Ո": 463,
      "Պ": 464,
      "Ջ": 465,
      "Ռ": 466,
      "Ս": 467,
      "Վ": 468,
      "Տ": 469,
      "Ր": 470,
      "Ց": 471,
      "Ւ": 472,
      "Փ": 473,
      "Ք": 474,
      "Օ": 475,
      "՝": 476,
      "ա": 477,
      "բ": 478,
      "գ": 479,
      "դ": 480,
      "ե": 481,
      "զ": 482,
      "է": 483,
      "ը": 484,
      "թ": 485,
      "ժ": 486,
      "ի": 487,
      "լ": 488,
      "խ": 489,
      "ծ": 490,
      "կ": 491,
      "հ": 492,
      "ղ": 493,
      "ճ": 494,
      "մ": 495,
      "յ": 496,
      "ն": 497,
      "շ": 498,
      "ո": 499,
      "չ": 500,
      "պ": 501,
      "ջ": 502,
      "ռ": 503,
      "ս": 504,
      "վ": 505,
      "տ": 506,
      "ր": 507,
      "ց": 508,
      "ւ": 509,
      "փ": 510,
      "ք": 511,
      "օ": 512,
      "։": 513,
      "֔": 514,
      "ְ": 515,
      "ֲ": 516,
      "ִ": 517,
      "ַ": 518,
      "ָ": 519,
      "ֹ": 520,
      "ֽ": 521,
      "ׁ": 522,
      "א": 523,
      "ב": 524,
      "ג": 525,
      "ד": 526,
      "ה": 527,
      "ו": 528,
      "ז": 529,
      "ח": 530,
      "ט": 531,
      "י": 532,
      "ך": 533,
      "כ": 534,
      "ל": 535,
      "ם": 536,
      "מ": 537,
      "ן": 538,
      "נ": 539,
      "ס": 540,
      "ע": 541,
      "ף": 542,
      "פ": 543,
      "ץ": 544,
      "צ": 545,
      "ק": 546,
      "ר": 547,
      "ש": 548,
      "ת": 549,
      "ײ": 550,
      "،": 551,
      "ܐ": 552,
      "ܒ": 553,
      "ܓ": 554,
      "ܕ": 555,
      "ܘ": 556,
      "ܚ": 557,
      "ܛ": 558,
      "ܝ": 559,
      "ܠ": 560,
      "ܡ": 561,
      "ܢ": 562,
      "ܣ": 563,
      "ܥ": 564,
      "ܦ": 565,
      "ܩ": 566,
      "ܪ": 567,
      "ܫ": 568,
      "ܬ": 569,
      "ނ": 570,
      "ބ": 571,
      "ފ": 572,
      "ދ": 573,
      "ތ": 574,
      "ލ": 575,
      "ގ": 576,
      "ޞ": 577,
      "ޠ": 578,
      "ަ": 579,
      "ީ": 580,
      "ު": 581,
      "ޭ": 582,
      "ް": 583,
      "ঁ": 584,
      "ঃ": 585,
      "অ": 586,
      "আ": 587,
      "ই": 588,
      "উ": 589,
      "এ": 590,
      "ও": 591,
      "ক": 592,
      "খ": 593,
      "গ": 594,
      "ঙ": 595,
      "চ": 596,
      "ছ": 597,
      "জ": 598,
      "ঞ": 599,
      "ট": 600,
      "ঠ": 601,
      "ড": 602,
      "ণ": 603,
      "ত": 604,
      "দ": 605,
      "ধ": 606,
      "ন": 607,
      "প": 608,
      "ফ": 609,
      "ব": 610,
      "ভ": 611,
      "ম": 612,
      "য": 613,
      "র": 614,
      "ল": 615,
      "শ": 616,
      "ষ": 617,
      "স": 618,
      "হ": 619,
      "়": 620,
      "া": 621,
      "ি": 622,
      "ী": 623,
      "ু": 624,
      "ৃ": 625,
      "ে": 626,
      "ৈ": 627,
      "ো": 628,
      "্": 629,
      "০": 630,
      "১": 631,
      "২": 632,
      "৩": 633,
      "৪": 634,
      "৫": 635,
      "৬": 636,
      "৭": 637,
      "৯": 638,
      "ৰ": 639,
      "ਂ": 640,
      "ਅ": 641,
      "ਆ": 642,
      "ਇ": 643,
      "ਈ": 644,
      "ਉ": 645,
      "ਊ": 646,
      "ਏ": 647,
      "ਐ": 648,
      "ਓ": 649,
      "ਕ": 650,
      "ਖ": 651,
      "ਗ": 652,
      "ਘ": 653,
      "ਚ": 654,
      "ਜ": 655,
      "ਝ": 656,
      "ਟ": 657,
      "ਡ": 658,
      "ਣ": 659,
      "ਤ": 660,
      "ਥ": 661,
      "ਦ": 662,
      "ਧ": 663,
      "ਨ": 664,
      "ਪ": 665,
      "ਫ": 666,
      "ਬ": 667,
      "ਭ": 668,
      "ਮ": 669,
      "ਯ": 670,
      "ਰ": 671,
      "ਲ": 672,
      "ਵ": 673,
      "ਸ": 674,
      "ਹ": 675,
      "਼": 676,
      "ਾ": 677,
      "ਿ": 678,
      "ੀ": 679,
      "ੁ": 680,
      "ੂ": 681,
      "ੇ": 682,
      "ੈ": 683,
      "ੋ": 684,
      "ੌ": 685,
      "੍": 686,
      "ੜ": 687,
      "੦": 688,
      "੧": 689,
      "੨": 690,
      "੩": 691,
      "੪": 692,
      "੫": 693,
      "੬": 694,
      "੮": 695,
      "੯": 696,
      "ੰ": 697,
      "ੱ": 698,
      "ં": 699,
      "અ": 700,
      "આ": 701,
      "ઉ": 702,
      "એ": 703,
      "ક": 704,
      "ગ": 705,
      "ચ": 706,
      "છ": 707,
      "જ": 708,
      "ઝ": 709,
      "ટ": 710,
      "ડ": 711,
      "ણ": 712,
      "ત": 713,
      "થ": 714,
      "દ": 715,
      "ધ": 716,
      "ન": 717,
      "પ": 718,
      "બ": 719,
      "મ": 720,
      "ય": 721,
      "ર": 722,
      "લ": 723,
      "વ": 724,
      "શ": 725,
      "ષ": 726,
      "સ": 727,
      "હ": 728,
      "ા": 729,
      "િ": 730,
      "ી": 731,
      "ુ": 732,
      "ૂ": 733,
      "ે": 734,
      "ૈ": 735,
      "ો": 736,
      "્": 737,
      "૨": 738,
      "ଂ": 739,
      "ଆ": 740,
      "ଇ": 741,
      "ଉ": 742,
      "ଏ": 743,
      "ଓ": 744,
      "କ": 745,
      "ଖ": 746,
      "ଗ": 747,
      "ଘ": 748,
      "ଙ": 749,
      "ଚ": 750,
      "ଜ": 751,
      "ଞ": 752,
      "ଟ": 753,
      "ଡ": 754,
      "ଣ": 755,
      "ତ": 756,
      "ଥ": 757,
      "ନ": 758,
      "ପ": 759,
      "ଫ": 760,
      "ବ": 761,
      "ଭ": 762,
      "ମ": 763,
      "ର": 764,
      "ଲ": 765,
      "ଵ": 766,
      "ଶ": 767,
      "ଷ": 768,
      "ସ": 769,
      "ହ": 770,
      "଼": 771,
      "ା": 772,
      "ି": 773,
      "ୀ": 774,
      "ୁ": 775,
      "ୃ": 776,
      "େ": 777,
      "ୋ": 778,
      "୍": 779,
      "ୟ": 780,
      "୫": 781,
      "ஃ": 782,
      "அ": 783,
      "ஆ": 784,
      "இ": 785,
      "உ": 786,
      "எ": 787,
      "ஏ": 788,
      "ஐ": 789,
      "ஒ": 790,
      "க": 791,
      "ங": 792,
      "ச": 793,
      "ஜ": 794,
      "ஞ": 795,
      "ட": 796,
      "ண": 797,
      "த": 798,
      "ந": 799,
      "ன": 800,
      "ப": 801,
      "ம": 802,
      "ய": 803,
      "ர": 804,
      "ற": 805,
      "ல": 806,
      "ள": 807,
      "ழ": 808,
      "வ": 809,
      "ஷ": 810,
      "ஸ": 811,
      "ஹ": 812,
      "ா": 813,
      "ி": 814,
      "ீ": 815,
      "ு": 816,
      "ூ": 817,
      "ெ": 818,
      "ே": 819,
      "ை": 820,
      "ொ": 821,
      "ோ": 822,
      "ௌ": 823,
      "்": 824,
      "ం": 825,
      "అ": 826,
      "ఆ": 827,
      "ఉ": 828,
      "ఊ": 829,
      "ఒ": 830,
      "క": 831,
      "గ": 832,
      "చ": 833,
      "జ": 834,
      "ట": 835,
      "డ": 836,
      "ణ": 837,
      "త": 838,
      "థ": 839,
      "ద": 840,
      "ధ": 841,
      "న": 842,
      "ప": 843,
      "ఫ": 844,
      "బ": 845,
      "భ": 846,
      "మ": 847,
      "య": 848,
      "ర": 849,
      "ల": 850,
      "ళ": 851,
      "వ": 852,
      "శ": 853,
      "ష": 854,
      "స": 855,
      "హ": 856,
      "ా": 857,
      "ి": 858,
      "ీ": 859,
      "ు": 860,
      "ూ": 861,
      "ె": 862,
      "ే": 863,
      "ై": 864,
      "ొ": 865,
      "ో": 866,
      "్": 867,
      "ಂ": 868,
      "ಅ": 869,
      "ಆ": 870,
      "ಇ": 871,
      "ಉ": 872,
      "ಎ": 873,
      "ಒ": 874,
      "ಕ": 875,
      "ಖ": 876,
      "ಗ": 877,
      "ಚ": 878,
      "ಛ": 879,
      "ಜ": 880,
      "ಟ": 881,
      "ಡ": 882,
      "ಣ": 883,
      "ತ": 884,
      "ದ": 885,
      "ಧ": 886,
      "ನ": 887,
      "ಪ": 888,
      "ಫ": 889,
      "ಬ": 890,
      "ಭ": 891,
      "ಮ": 892,
      "ಯ": 893,
      "ರ": 894,
      "ಲ": 895,
      "ಳ": 896,
      "ವ": 897,
      "ಶ": 898,
      "ಷ": 899,
      "ಸ": 900,
      "ಹ": 901,
      "ಾ": 902,
      "ಿ": 903,
      "ೀ": 904,
      "ು": 905,
      "ೂ": 906,
      "ೃ": 907,
      "ೆ": 908,
      "ೇ": 909,
      "ೈ": 910,
      "ೊ": 911,
      "ೋ": 912,
      "ೌ": 913,
      "್": 914,
      "೧": 915,
      "೨": 916,
      "೪": 917,
      "೮": 918,
      "ം": 919,
      "ഃ": 920,
      "അ": 921,
      "ആ": 922,
      "ഇ": 923,
      "ഈ": 924,
      "ഉ": 925,
      "ഊ": 926,
      "ഋ": 927,
      "എ": 928,
      "ഏ": 929,
      "ഒ": 930,
      "ഓ": 931,
      "ക": 932,
      "ഖ": 933,
      "ഗ": 934,
      "ങ": 935,
      "ച": 936,
      "ഛ": 937,
      "ജ": 938,
      "ഞ": 939,
      "ട": 940,
      "ഡ": 941,
      "ണ": 942,
      "ത": 943,
      "ദ": 944,
      "ധ": 945,
      "ന": 946,
      "പ": 947,
      "ഫ": 948,
      "ബ": 949,
      "ഭ": 950,
      "മ": 951,
      "യ": 952,
      "ര": 953,
      "റ": 954,
      "ല": 955,
      "ള": 956,
      "ഴ": 957,
      "വ": 958,
      "ശ": 959,
      "ഷ": 960,
      "സ": 961,
      "ഹ": 962,
      "ാ": 963,
      "ി": 964,
      "ീ": 965,
      "ു": 966,
      "ൂ": 967,
      "െ": 968,
      "േ": 969,
      "ൈ": 970,
      "ൊ": 971,
      "ോ": 972,
      "്": 973,
      "ൺ": 974,
      "ൻ": 975,
      "ർ": 976,
      "ൽ": 977,
      "ൾ": 978,
      "ං": 979,
      "අ": 980,
      "ආ": 981,
      "ඇ": 982,
      "ඉ": 983,
      "ඊ": 984,
      "උ": 985,
      "එ": 986,
      "ඔ": 987,
      "ක": 988,
      "ග": 989,
      "ඟ": 990,
      "ච": 991,
      "ඡ": 992,
      "ජ": 993,
      "ට": 994,
      "ඩ": 995,
      "ණ": 996,
      "ත": 997,
      "ථ": 998,
      "ද": 999,
      "න": 1000,
      "ප": 1001,
      "බ": 1002,
      "භ": 1003,
      "ම": 1004,
      "ය": 1005,
      "ර": 1006,
      "ල": 1007,
      "ව": 1008,
      "ශ": 1009,
      "ෂ": 1010,
      "ස": 1011,
      "හ": 1012,
      "ෆ": 1013,
      "්": 1014,
      "ා": 1015,
      "ැ": 1016,
      "ෑ": 1017,
      "ි": 1018,
      "ී": 1019,
      "ු": 1020,
      "ූ": 1021,
      "ෙ": 1022,
      "ේ": 1023,
      "ො": 1024,
      "ෝ": 1025,
      "ก": 1026,
      "ข": 1027,
      "ค": 1028,
      "ง": 1029,
      "จ": 1030,
      "ช": 1031,
      "ซ": 1032,
      "ญ": 1033,
      "ฎ": 1034,
      "ฐ": 1035,
      "ณ": 1036,
      "ด": 1037,
      "ต": 1038,
      "ท": 1039,
      "ธ": 1040,
      "น": 1041,
      "บ": 1042,
      "ป": 1043,
      "ผ": 1044,
      "ฝ": 1045,
      "พ": 1046,
      "ฟ": 1047,
      "ภ": 1048,
      "ม": 1049,
      "ย": 1050,
      "ร": 1051,
      "ฤ": 1052,
      "ล": 1053,
      "ว": 1054,
      "ศ": 1055,
      "ษ": 1056,
      "ส": 1057,
      "ห": 1058,
      "อ": 1059,
      "ฮ": 1060,
      "ะ": 1061,
      "ั": 1062,
      "า": 1063,
      "ิ": 1064,
      "ี": 1065,
      "ื": 1066,
      "ุ": 1067,
      "ู": 1068,
      "เ": 1069,
      "แ": 1070,
      "โ": 1071,
      "ใ": 1072,
      "ไ": 1073,
      "็": 1074,
      "่": 1075,
      "้": 1076,
      "์": 1077,
      "ํ": 1078,
      "ກ": 1079,
      "ຂ": 1080,
      "ຄ": 1081,
      "ງ": 1082,
      "ຈ": 1083,
      "ຊ": 1084,
      "ດ": 1085,
      "ນ": 1086,
      "ປ": 1087,
      "ພ": 1088,
      "ມ": 1089,
      "ລ": 1090,
      "ວ": 1091,
      "ສ": 1092,
      "ະ": 1093,
      "ັ": 1094,
      "າ": 1095,
      "ິ": 1096,
      "ຸ": 1097,
      "ູ": 1098,
      "ົ": 1099,
      "ເ": 1100,
      "ແ": 1101,
      "ໄ": 1102,
      "່": 1103,
      "້": 1104,
      "໌": 1105,
      "་": 1106,
      "།": 1107,
      "༔": 1108,
      "ཁ": 1109,
      "ག": 1110,
      "ང": 1111,
      "ཉ": 1112,
      "ཏ": 1113,
      "པ": 1114,
      "མ": 1115,
      "ཟ": 1116,
      "ར": 1117,
      "ལ": 1118,
      "ས": 1119,
      "ི": 1120,
      "ུ": 1121,
      "ེ": 1122,
      "ོ": 1123,
      "ྐ": 1124,
      "ྫ": 1125,
      "ྱ": 1126,
      "က": 1127,
      "ခ": 1128,
      "ဂ": 1129,
      "င": 1130,
      "စ": 1131,
      "ဆ": 1132,
      "ဇ": 1133,
      "ဉ": 1134,
      "ည": 1135,
      "တ": 1136,
      "ထ": 1137,
      "ဒ": 1138,
      "ဓ": 1139,
      "န": 1140,
      "ပ": 1141,
      "ဖ": 1142,
      "ဗ": 1143,
      "ဘ": 1144,
      "မ": 1145,
      "ယ": 1146,
      "ရ": 1147,
      "လ": 1148,
      "ဝ": 1149,
      "သ": 1150,
      "ဟ": 1151,
      "အ": 1152,
      "ဥ": 1153,
      "ါ": 1154,
      "ာ": 1155,
      "ိ": 1156,
      "ီ": 1157,
      "ု": 1158,
      "ူ": 1159,
      "ေ": 1160,
      "ဲ": 1161,
      "ံ": 1162,
      "့": 1163,
      "း": 1164,
      "္": 1165,
      "်": 1166,
      "ျ": 1167,
      "ြ": 1168,
      "ွ": 1169,
      "ှ": 1170,
      "၊": 1171,
      "ၠ": 1172,
      "ၤ": 1173,
      "ၧ": 1174,
      "ၲ": 1175,
      "ႊ": 1176,
      "ႏ": 1177,
      "ა": 1178,
      "ბ": 1179,
      "გ": 1180,
      "დ": 1181,
      "ე": 1182,
      "ვ": 1183,
      "ზ": 1184,
      "თ": 1185,
      "ი": 1186,
      "კ": 1187,
      "ლ": 1188,
      "მ": 1189,
      "ნ": 1190,
      "ო": 1191,
      "პ": 1192,
      "ჟ": 1193,
      "რ": 1194,
      "ს": 1195,
      "ტ": 1196,
      "უ": 1197,
      "ფ": 1198,
      "ქ": 1199,
      "ღ": 1200,
      "ყ": 1201,
      "შ": 1202,
      "ჩ": 1203,
      "ც": 1204,
      "ძ": 1205,
      "წ": 1206,
      "ჭ": 1207,
      "ხ": 1208,
      "ჯ": 1209,
      "ჰ": 1210,
      "ሂ": 1211,
      "ሃ": 1212,
      "ህ": 1213,
      "ለ": 1214,
      "ሊ": 1215,
      "ላ": 1216,
      "ሌ": 1217,
      "ል": 1218,
      "ሎ": 1219,
      "ሐ": 1220,
      "መ": 1221,
      "ሚ": 1222,
      "ማ": 1223,
      "ም": 1224,
      "ሥ": 1225,
      "ረ": 1226,
      "ሪ": 1227,
      "ራ": 1228,
      "ር": 1229,
      "ሮ": 1230,
      "ሰ": 1231,
      "ሳ": 1232,
      "ስ": 1233,
      "ሶ": 1234,
      "ሸ": 1235,
      "ቀ": 1236,
      "ቁ": 1237,
      "ቃ": 1238,
      "ቅ": 1239,
      "ቋ": 1240,
      "በ": 1241,
      "ቡ": 1242,
      "ቢ": 1243,
      "ባ": 1244,
      "ብ": 1245,
      "ቪ": 1246,
      "ቫ": 1247,
      "ተ": 1248,
      "ቲ": 1249,
      "ታ": 1250,
      "ቴ": 1251,
      "ት": 1252,
      "ቶ": 1253,
      "ች": 1254,
      "ነ": 1255,
      "ኑ": 1256,
      "ኒ": 1257,
      "ን": 1258,
      "ኖ": 1259,
      "ኛ": 1260,
      "አ": 1261,
      "ኢ": 1262,
      "ኣ": 1263,
      "ኤ": 1264,
      "እ": 1265,
      "ኦ": 1266,
      "ከ": 1267,
      "ካ": 1268,
      "ክ": 1269,
      "ኮ": 1270,
      "ኳ": 1271,
      "ዊ": 1272,
      "ው": 1273,
      "ዓ": 1274,
      "ዕ": 1275,
      "ዘ": 1276,
      "ዛ": 1277,
      "ዜ": 1278,
      "የ": 1279,
      "ዩ": 1280,
      "ያ": 1281,
      "ይ": 1282,
      "ዮ": 1283,
      "ዲ": 1284,
      "ዳ": 1285,
      "ድ": 1286,
      "ጅ": 1287,
      "ገ": 1288,
      "ግ": 1289,
      "ጎ": 1290,
      "ጠ": 1291,
      "ጣ": 1292,
      "ጥ": 1293,
      "ጦ": 1294,
      "ፀ": 1295,
      "ፅ": 1296,
      "ፈ": 1297,
      "ፊ": 1298,
      "ፍ": 1299,
      "ፎ": 1300,
      "ፔ": 1301,
      "ፖ": 1302,
      "ᐃ": 1303,
      "ᐄ": 1304,
      "ᐅ": 1305,
      "ᐊ": 1306,
      "ᐋ": 1307,
      "ᐣ": 1308,
      "ᐤ": 1309,
      "ᐦ": 1310,
      "ᐧ": 1311,
      "ᐩ": 1312,
      "ᐱ": 1313,
      "ᐲ": 1314,
      "ᐸ": 1315,
      "ᐹ": 1316,
      "ᑊ": 1317,
      "ᑎ": 1318,
      "ᑐ": 1319,
      "ᑕ": 1320,
      "ᑦ": 1321,
      "ᑫ": 1322,
      "ᑭ": 1323,
      "ᑯ": 1324,
      "ᑲ": 1325,
      "ᑳ": 1326,
      "ᒃ": 1327,
      "ᒋ": 1328,
      "ᒍ": 1329,
      "ᒐ": 1330,
      "ᒥ": 1331,
      "ᒪ": 1332,
      "ᒻ": 1333,
      "ᓂ": 1334,
      "ᓄ": 1335,
      "ᓇ": 1336,
      "ᓈ": 1337,
      "ᓐ": 1338,
      "ᓗ": 1339,
      "ᓚ": 1340,
      "ᓪ": 1341,
      "ᓯ": 1342,
      "ᓱ": 1343,
      "ᓴ": 1344,
      "ᓵ": 1345,
      "ᔅ": 1346,
      "ᔓ": 1347,
      "ᔥ": 1348,
      "ᔨ": 1349,
      "ᔪ": 1350,
      "ᔭ": 1351,
      "ᔮ": 1352,
      "ᕆ": 1353,
      "ᕐ": 1354,
      "ᕗ": 1355,
      "ᕙ": 1356,
      "ᕿ": 1357,
      "ᖃ": 1358,
      "ᖄ": 1359,
      "ᖅ": 1360,
      "ᖓ": 1361,
      "ក": 1362,
      "ខ": 1363,
      "គ": 1364,
      "ង": 1365,
      "ច": 1366,
      "ជ": 1367,
      "ញ": 1368,
      "ដ": 1369,
      "ឌ": 1370,
      "ណ": 1371,
      "ត": 1372,
      "ថ": 1373,
      "ទ": 1374,
      "ធ": 1375,
      "ន": 1376,
      "ប": 1377,
      "ផ": 1378,
      "ភ": 1379,
      "ម": 1380,
      "រ": 1381,
      "ល": 1382,
      "វ": 1383,
      "ស": 1384,
      "ហ": 1385,
      "អ": 1386,
      "ឧ": 1387,
      "ា": 1388,
      "ិ": 1389,
      "ី": 1390,
      "ុ": 1391,
      "ូ": 1392,
      "ើ": 1393,
      "េ": 1394,
      "ែ": 1395,
      "ៃ": 1396,
      "ោ": 1397,
      "៉": 1398,
      "៊": 1399,
      "់": 1400,
      "៍": 1401,
      "័": 1402,
      "្": 1403,
      "០": 1404,
      "១": 1405,
      "២": 1406,
      "៧": 1407,
      "ᥲ": 1408,
      "ᴚ": 1409,
      "ᵽ": 1410,
      "ᵾ": 1411,
      "ḁ": 1412,
      "Ḍ": 1413,
      "ḍ": 1414,
      "Ḏ": 1415,
      "ḏ": 1416,
      "ḑ": 1417,
      "ḣ": 1418,
      "Ḥ": 1419,
      "ḥ": 1420,
      "ḧ": 1421,
      "Ḩ": 1422,
      "Ḫ": 1423,
      "ḫ": 1424,
      "ḵ": 1425,
      "ḷ": 1426,
      "ḻ": 1427,
      "ṁ": 1428,
      "ṃ": 1429,
      "ṅ": 1430,
      "ṇ": 1431,
      "ṉ": 1432,
      "ṓ": 1433,
      "ṕ": 1434,
      "ṛ": 1435,
      "ṝ": 1436,
      "ṟ": 1437,
      "ṡ": 1438,
      "Ṣ": 1439,
      "ṣ": 1440,
      "Ṭ": 1441,
      "ṭ": 1442,
      "ṯ": 1443,
      "ṳ": 1444,
      "ẏ": 1445,
      "Ẓ": 1446,
      "ẓ": 1447,
      "ẕ": 1448,
      "ẖ": 1449,
      "ạ": 1450,
      "Ả": 1451,
      "ả": 1452,
      "ấ": 1453,
      "ầ": 1454,
      "ẫ": 1455,
      "ậ": 1456,
      "ắ": 1457,
      "Ẹ": 1458,
      "ẹ": 1459,
      "Ẽ": 1460,
      "ẽ": 1461,
      "ế": 1462,
      "ề": 1463,
      "ể": 1464,
      "ễ": 1465,
      "ệ": 1466,
      "ỉ": 1467,
      "ị": 1468,
      "Ọ": 1469,
      "ọ": 1470,
      "ỏ": 1471,
      "ố": 1472,
      "ồ": 1473,
      "ổ": 1474,
      "ộ": 1475,
      "ớ": 1476,
      "ờ": 1477,
      "ợ": 1478,
      "ụ": 1479,
      "ủ": 1480,
      "ứ": 1481,
      "ừ": 1482,
      "ử": 1483,
      "ữ": 1484,
      "ự": 1485,
      "ỹ": 1486,
      "ἀ": 1487,
      "Ᾱ": 1488,
      "‐": 1489,
      "‒": 1490,
      "―": 1491,
      "‖": 1492,
      "‛": 1493,
      "‟": 1494,
      "†": 1495,
      "‡": 1496,
      "•": 1497,
      "‣": 1498,
      "‧": 1499,
      "‰": 1500,
      "′": 1501,
      "‹": 1502,
      "›": 1503,
      "※": 1504,
      "‿": 1505,
      "⁄": 1506,
      "⁎": 1507,
      "₠": 1508,
      "₡": 1509,
      "€": 1510,
      "₹": 1511,
      "℗": 1512,
      "←": 1513,
      "↑": 1514,
      "→": 1515,
      "↓": 1516,
      "↔": 1517,
      "↙": 1518,
      "↦": 1519,
      "↵": 1520,
      "⇒": 1521,
      "∀": 1522,
      "∅": 1523,
      "∆": 1524,
      "∑": 1525,
      "−": 1526,
      "∙": 1527,
      "√": 1528,
      "∞": 1529,
      "∨": 1530,
      "∫": 1531,
      "∼": 1532,
      "≠": 1533,
      "≡": 1534,
      "≤": 1535,
      "≥": 1536,
      "≫": 1537,
      "⊙": 1538,
      "⋅": 1539,
      "⋆": 1540,
      "⋙": 1541,
      "⌨": 1542,
      "⎨": 1543,
      "␣": 1544,
      "─": 1545,
      "│": 1546,
      "┐": 1547,
      "└": 1548,
      "┬": 1549,
      "═": 1550,
      "╝": 1551,
      "▌": 1552,
      "▓": 1553,
      "■": 1554,
      "□": 1555,
      "▢": 1556,
      "▪": 1557,
      "▭": 1558,
      "▲": 1559,
      "▶": 1560,
      "▷": 1561,
      "▸": 1562,
      "►": 1563,
      "▼": 1564,
      "▽": 1565,
      "▾": 1566,
      "◄": 1567,
      "◆": 1568,
      "◇": 1569,
      "◊": 1570,
      "○": 1571,
      "●": 1572,
      "◕": 1573,
      "◠": 1574,
      "◽": 1575,
      "☀": 1576,
      "☂": 1577,
      "★": 1578,
      "☆": 1579,
      "☎": 1580,
      "☓": 1581,
      "☕": 1582,
      "☝": 1583,
      "☞": 1584,
      "☪": 1585,
      "☺": 1586,
      "☼": 1587,
      "♀": 1588,
      "♂": 1589,
      "♋": 1590,
      "♎": 1591,
      "♑": 1592,
      "♓": 1593,
      "♔": 1594,
      "♛": 1595,
      "♠": 1596,
      "♡": 1597,
      "♣": 1598,
      "♥": 1599,
      "♦": 1600,
      "♪": 1601,
      "♫": 1602,
      "♬": 1603,
      "♭": 1604,
      "⚑": 1605,
      "⚘": 1606,
      "⚪": 1607,
      "⛓": 1608,
      "⛔": 1609,
      "⛰": 1610,
      "✅": 1611,
      "✊": 1612,
      "✌": 1613,
      "✍": 1614,
      "✎": 1615,
      "✏": 1616,
      "✓": 1617,
      "✔": 1618,
      "✝": 1619,
      "✡": 1620,
      "✧": 1621,
      "✨": 1622,
      "✩": 1623,
      "✭": 1624,
      "✮": 1625,
      "✴": 1626,
      "❃": 1627,
      "❄": 1628,
      "❌": 1629,
      "❖": 1630,
      "❗": 1631,
      "❣": 1632,
      "❤": 1633,
      "❶": 1634,
      "➜": 1635,
      "➡": 1636,
      "➤": 1637,
      "➨": 1638,
      "⟨": 1639,
      "⟩": 1640,
      "⠀": 1641,
      "⠅": 1642,
      "⠍": 1643,
      "⠚": 1644,
      "⠝": 1645,
      "⠧": 1646,
      "⠱": 1647,
      "⠻": 1648,
      "⨟": 1649,
      "⫷": 1650,
      "⫸": 1651,
      "⭐": 1652,
      "ⱡ": 1653,
      "、": 1654,
      "。": 1655,
      "《": 1656,
      "》": 1657,
      "「": 1658,
      "」": 1659,
      "『": 1660,
      "』": 1661,
      "【": 1662,
      "】": 1663,
      "〒": 1664,
      "〔": 1665,
      "〕": 1666,
      "〜": 1667,
      "゙": 1668,
      "゚": 1669,
      "・": 1670,
      "ー": 1671,
      "꒳": 1672,
      "꞉": 1673,
      "ꞌ": 1674,
      "ꦏ": 1675,
      "ꦠ": 1676,
      "ꦤ": 1677,
      "ꦥ": 1678,
      "ꦩ": 1679,
      "ꦪ": 1680,
      "ꦫ": 1681,
      "ꦮ": 1682,
      "ꦲ": 1683,
      "ꦶ": 1684,
      "ꦾ": 1685,
      "꧀": 1686,
      "ꪮ": 1687,
      "︎": 1688,
      "️": 1689,
      "�": 1690,
      "🇧": 1691,
      "🇪": 1692,
      "🇫": 1693,
      "🇮": 1694,
      "🇰": 1695,
      "🇳": 1696,
      "🇵": 1697,
      "🇷": 1698,
      "🇸": 1699,
      "🇺": 1700,
      "🇿": 1701,
      "🌀": 1702,
      "🌇": 1703,
      "🌊": 1704,
      "🌌": 1705,
      "🌍": 1706,
      "🌎": 1707,
      "🌞": 1708,
      "🌟": 1709,
      "🌠": 1710,
      "🌴": 1711,
      "🌶": 1712,
      "🌸": 1713,
      "🌹": 1714,
      "🌺": 1715,
      "🌾": 1716,
      "🌿": 1717,
      "🍀": 1718,
      "🍁": 1719,
      "🍃": 1720,
      "🍏": 1721,
      "🍴": 1722,
      "🍷": 1723,
      "🍺": 1724,
      "🍼": 1725,
      "🎁": 1726,
      "🎉": 1727,
      "🎤": 1728,
      "🎧": 1729,
      "🎨": 1730,
      "🎬": 1731,
      "🎯": 1732,
      "🎵": 1733,
      "🎶": 1734,
      "🎷": 1735,
      "🎸": 1736,
      "🎼": 1737,
      "🏞": 1738,
      "🏠": 1739,
      "🏡": 1740,
      "🏧": 1741,
      "🏻": 1742,
      "🏼": 1743,
      "🏽": 1744,
      "🐆": 1745,
      "🐫": 1746,
      "🐶": 1747,
      "🐸": 1748,
      "🐼": 1749,
      "👀": 1750,
      "👆": 1751,
      "👇": 1752,
      "👈": 1753,
      "👉": 1754,
      "👋": 1755,
      "👌": 1756,
      "👍": 1757,
      "👏": 1758,
      "👒": 1759,
      "👣": 1760,
      "👤": 1761,
      "👨": 1762,
      "👩": 1763,
      "👪": 1764,
      "👯": 1765,
      "👶": 1766,
      "👹": 1767,
      "👻": 1768,
      "👼": 1769,
      "💃": 1770,
      "💄": 1771,
      "💇": 1772,
      "💊": 1773,
      "💕": 1774,
      "💖": 1775,
      "💗": 1776,
      "💘": 1777,
      "💙": 1778,
      "💚": 1779,
      "💛": 1780,
      "💜": 1781,
      "💝": 1782,
      "💞": 1783,
      "💥": 1784,
      "💧": 1785,
      "💪": 1786,
      "📅": 1787,
      "📌": 1788,
      "📚": 1789,
      "📤": 1790,
      "📥": 1791,
      "📲": 1792,
      "📷": 1793,
      "📹": 1794,
      "🔉": 1795,
      "🔋": 1796,
      "🔍": 1797,
      "🔝": 1798,
      "🔥": 1799,
      "🔴": 1800,
      "🔵": 1801,
      "🔹": 1802,
      "🕛": 1803,
      "🗓": 1804,
      "🗣": 1805,
      "🗺": 1806,
      "😀": 1807,
      "😁": 1808,
      "😂": 1809,
      "😃": 1810,
      "😄": 1811,
      "😆": 1812,
      "😇": 1813,
      "😈": 1814,
      "😉": 1815,
      "😊": 1816,
      "😋": 1817,
      "😍": 1818,
      "😎": 1819,
      "😏": 1820,
      "😒": 1821,
      "😔": 1822,
      "😕": 1823,
      "😘": 1824,
      "😚": 1825,
      "😛": 1826,
      "😜": 1827,
      "😝": 1828,
      "😠": 1829,
      "😤": 1830,
      "😥": 1831,
      "😦": 1832,
      "😬": 1833,
      "😭": 1834,
      "😰": 1835,
      "😱": 1836,
      "😷": 1837,
      "😺": 1838,
      "🙁": 1839,
      "🙂": 1840,
      "🙄": 1841,
      "🙈": 1842,
      "🙋": 1843,
      "🙏": 1844,
      "🚚": 1845,
      "🛒": 1846,
      "🤎": 1847,
      "🤑": 1848,
      "🤓": 1849,
      "🤔": 1850,
      "🤗": 1851,
      "🤙": 1852,
      "🤝": 1853,
      "🤞": 1854,
      "🤟": 1855,
      "🤣": 1856,
      "🤦": 1857,
      "🤧": 1858,
      "🤪": 1859,
      "🤭": 1860,
      "🤮": 1861,
      "🤸": 1862,
      "🥀": 1863,
      "🥄": 1864,
      "🥈": 1865,
      "🥣": 1866,
      "🥩": 1867,
      "🥪": 1868,
      "🥰": 1869,
      "🥺": 1870,
      "🦙": 1871,
      "🦨": 1872,
      "🧐": 1873,
      "🧘": 1874,
      "##i": 1875,
      "##n": 1876,
      "##s": 1877,
      "##ä": 1878,
      "##p": 1879,
      "##a": 1880,
      "##j": 1881,
      "##u": 1882,
      "##w": 1883,
      "##k": 1884,
      "##t": 1885,
      "##l": 1886,
      "##m": 1887,
      "##h": 1888,
      "##r": 1889,
      "##y": 1890,
      "##c": 1891,
      "##g": 1892,
      "##q": 1893,
      "##î": 1894,
      "##2": 1895,
      "##3": 1896,
      "##C": 1897,
      "##e": 1898,
      "##o": 1899,
      "##ḥ": 1900,
      "##d": 1901,
      "##z": 1902,
      "##b": 1903,
      "##ñ": 1904,
      "##ẽ": 1905,
      "##I": 1906,
      "##S": 1907,
      "##T": 1908,
      "##O": 1909,
      "##R": 1910,
      "##Y": 1911,
      "##ö": 1912,
      "##ï": 1913,
      "##M": 1914,
      "##v": 1915,
      "##4": 1916,
      "##6": 1917,
      "##í": 1918,
      "##ú": 1919,
      "##Ɵ": 1920,
      "##D": 1921,
      "##ë": 1922,
      "##ç": 1923,
      "##f": 1924,
      "##J": 1925,
      "##ș": 1926,
      "##ó": 1927,
      "##α": 1928,
      "##ο": 1929,
      "##ύ": 1930,
      "##λ": 1931,
      "##Ñ": 1932,
      "##ü": 1933,
      "##P": 1934,
      "##A": 1935,
      "##N": 1936,
      "##á": 1937,
      "##Q": 1938,
      "##8": 1939,
      "##1": 1940,
      "##0": 1941,
      "##9": 1942,
      "##5": 1943,
      "##L": 1944,
      "##_": 1945,
      "##7": 1946,
      "##:": 1947,
      "##ḷ": 1948,
      "##ē": 1949,
      "##ṉ": 1950,
      "##V": 1951,
      "##ć": 1952,
      "##x": 1953,
      "##ṇ": 1954,
      "##ā": 1955,
      "##ṃ": 1956,
      "##é": 1957,
      "##ש": 1958,
      "##נ": 1959,
      "##י": 1960,
      "##ה": 1961,
      "##ı": 1962,
      "##F": 1963,
      "##K": 1964,
      "##H": 1965,
      "##G": 1966,
      "##ǵ": 1967,
      "##ͬ": 1968,
      "##͘": 1969,
      "##ʼ": 1970,
      "##˼": 1971,
      "##'": 1972,
      "##đ": 1973,
      "##ś": 1974,
      "##E": 1975,
      "##ự": 1976,
      "##ş": 1977,
      "##U": 1978,
      "##ு": 1979,
      "##ள": 1980,
      "##ம": 1981,
      "##்": 1982,
      "##ப": 1983,
      "##ி": 1984,
      "##ß": 1985,
      "##š": 1986,
      "##)": 1987,
      "##.": 1988,
      "##Ò": 1989,
      "##B": 1990,
      "##?": 1991,
      "##ꞌ": 1992,
      "##ĉ": 1993,
      "##W": 1994,
      "##ฤ": 1995,
      "##ษ": 1996,
      "##ฎ": 1997,
      "##ี": 1998,
      "##Ʒ": 1999,
      "##̇": 2000,
      "##ṅ": 2001,
      "##ê": 2002,
      "##─": 2003,
      "##ẹ": 2004,
      "##́": 2005,
      "##ò": 2006,
      "##à": 2007,
      "##ō": 2008,
      "##À": 2009,
      "##ை": 2010,
      "##−": 2011,
      "##Z": 2012,
      "##Á": 2013,
      "##ź": 2014,
      "##ū": 2015,
      "##ầ": 2016,
      "##ī": 2017,
      "##া": 2018,
      "##ভ": 2019,
      "##জ": 2020,
      "##ো": 2021,
      "##ļ": 2022,
      "##ừ": 2023,
      "##ว": 2024,
      "##ิ": 2025,
      "##Ì": 2026,
      "##চ": 2027,
      "##ি": 2028,
      "##ন": 2029,
      "##য": 2030,
      "##়": 2031,
      "##̈": 2032,
      "##ุ": 2033,
      "##ด": 2034,
      "##บ": 2035,
      "##น": 2036,
      "##=": 2037,
      "##ర": 2038,
      "##్": 2039,
      "##గ": 2040,
      "##ం": 2041,
      "##̱": 2042,
      "##X": 2043,
      "##ṟ": 2044,
      "##═": 2045,
      "##ꦶ": 2046,
      "##ꦪ": 2047,
      "##ρ": 2048,
      "##ε": 2049,
      "##ω": 2050,
      "##ർ": 2051,
      "##ഗ": 2052,
      "##്": 2053,
      "##ൽ": 2054,
      "##Ä": 2055,
      "##ঞ": 2056,
      "##্": 2057,
      "##ร": 2058,
      "##อ": 2059,
      "##ต": 2060,
      "##ń": 2061,
      "##💕": 2062,
      "##ရ": 2063,
      "##ာ": 2064,
      "##း": 2065,
      "##သ": 2066,
      "##ူ": 2067,
      "##က": 2068,
      "##ြ": 2069,
      "##ီ": 2070,
      "##ŋ": 2071,
      "##ɣ": 2072,
      "##¡": 2073,
      "##ġ": 2074,
      "##ô": 2075,
      "##ŝ": 2076,
      "##ი": 2077,
      "##რ": 2078,
      "##ჯ": 2079,
      "##ნ": 2080,
      "##ა": 2081,
      "##ʿ": 2082,
      "##ู": 2083,
      "##เ": 2084,
      "##ข": 2085,
      "##า": 2086,
      "##ไ": 2087,
      "##ฟ": 2088,
      "##โ": 2089,
      "##ก": 2090,
      "##ป": 2091,
      "##ั": 2092,
      "##ซ": 2093,
      "##ˈ": 2094,
      "##θ": 2095,
      "##ட": 2096,
      "##ங": 2097,
      "##க": 2098,
      "##ù": 2099,
      "##ಿ": 2100,
      "##૨": 2101,
      "##ద": 2102,
      "##ే": 2103,
      "##హ": 2104,
      "##ে": 2105,
      "##ত": 2106,
      "##}": 2107,
      "##,": 2108,
      "##ല": 2109,
      "##̃": 2110,
      "##ʔ": 2111,
      "##ƛ": 2112,
      "##κ": 2113,
      "##φ": 2114,
      "##ώ": 2115,
      "##ν": 2116,
      "##η": 2117,
      "##σ": 2118,
      "##ו": 2119,
      "##ל": 2120,
      "##ט": 2121,
      "##Â": 2122,
      "##̄": 2123,
      "##ṣ": 2124,
      "##ṭ": 2125,
      "##ව": 2126,
      "##ර": 2127,
      "##්": 2128,
      "##ග": 2129,
      "##ය": 2130,
      "##န": 2131,
      "##်": 2132,
      "##ခ": 2133,
      "##ျ": 2134,
      "##စ": 2135,
      "##တ": 2136,
      "##မ": 2137,
      "##ိ": 2138,
      "##ု": 2139,
      "##့": 2140,
      "##ế": 2141,
      "##ํ": 2142,
      "##ศ": 2143,
      "##พ": 2144,
      "##ท": 2145,
      "##์": 2146,
      "##ి": 2147,
      "##క": 2148,
      "##త": 2149,
      "##ೆ": 2150,
      "##ವ": 2151,
      "##ಾ": 2152,
      "##ಡ": 2153,
      "##\"": 2154,
      "##έ": 2155,
      "##ψ": 2156,
      "##ι": 2157,
      "##μ": 2158,
      "##þ": 2159,
      "##ý": 2160,
      "##ှ": 2161,
      "##ပ": 2162,
      "##/": 2163,
      "##ż": 2164,
      "##Í": 2165,
      "##מ": 2166,
      "##ם": 2167,
      "##ţ": 2168,
      "##ু": 2169,
      "##দ": 2170,
      "##র": 2171,
      "##!": 2172,
      "##🇵": 2173,
      "##🇪": 2174,
      "##@": 2175,
      "##ə": 2176,
      "##τ": 2177,
      "##ʻ": 2178,
      "##ס": 2179,
      "##ן": 2180,
      "##ະ": 2181,
      "##ລ": 2182,
      "##ມ": 2183,
      "##ນ": 2184,
      "##ູ": 2185,
      "##ṁ": 2186,
      "##സ": 2187,
      "##π": 2188,
      "##ό": 2189,
      "##$": 2190,
      "##ា": 2191,
      "##ស": 2192,
      "##ណ": 2193,
      "##វ": 2194,
      "##៉": 2195,
      "##ថ": 2196,
      "##្": 2197,
      "##ល": 2198,
      "##៍": 2199,
      "##ø": 2200,
      "##͍": 2201,
      "##ែ": 2202,
      "##អ": 2203,
      "##េ": 2204,
      "##ក": 2205,
      "##ទ": 2206,
      "##័": 2207,
      "##រ": 2208,
      "##+": 2209,
      "##]": 2210,
      "##̦": 2211,
      "##͙": 2212,
      "##Ã": 2213,
      "##த": 2214,
      "##&": 2215,
      "##ɛ": 2216,
      "##್": 2217,
      "##ರ": 2218,
      "##ೀ": 2219,
      "##ಗ": 2220,
      "##ಳ": 2221,
      "##ು": 2222,
      "###": 2223,
      "##;": 2224,
      "##•": 2225,
      "##●": 2226,
      "##∀": 2227,
      "##*": 2228,
      "##ė": 2229,
      "##ί": 2230,
      "##υ": 2231,
      "##ர": 2232,
      "##ந": 2233,
      "##স": 2234,
      "##א": 2235,
      "##ר": 2236,
      "##ב": 2237,
      "##ד": 2238,
      "##[": 2239,
      "##Θ": 2240,
      "##-": 2241,
      "##ռ": 2242,
      "##ո": 2243,
      "##մ": 2244,
      "##ի": 2245,
      "##ג": 2246,
      "##ע": 2247,
      "##ա": 2248,
      "##ք": 2249,
      "##ր": 2250,
      "##ւ": 2251,
      "##հ": 2252,
      "##ി": 2253,
      "##മ": 2254,
      "##ന": 2255,
      "##ം": 2256,
      "##。": 2257,
      "##უ": 2258,
      "##დ": 2259,
      "##ო": 2260,
      "##ვ": 2261,
      "##კ": 2262,
      "##տ": 2263,
      "##ս": 2264,
      "##ն": 2265,
      "##թ": 2266,
      "##յ": 2267,
      "##û": 2268,
      "##ḻ": 2269,
      "##ậ": 2270,
      "##ങ": 2271,
      "##ˆ": 2272,
      "##ܣ": 2273,
      "##ܪ": 2274,
      "##ܐ": 2275,
      "##ล": 2276,
      "##ή": 2277,
      "##ɑ": 2278,
      "##ย": 2279,
      "##ง": 2280,
      "##ł": 2281,
      "##გ": 2282,
      "##>": 2283,
      "##͟": 2284,
      "##è": 2285,
      "##ˇ": 2286,
      "##ా": 2287,
      "##మ": 2288,
      "##న": 2289,
      "##జ": 2290,
      "##ለ": 2291,
      "##ክ": 2292,
      "##ര": 2293,
      "##😍": 2294,
      "##ტ": 2295,
      "##მ": 2296,
      "##ោ": 2297,
      "##គ": 2298,
      "##â": 2299,
      "##Ó": 2300,
      "##×": 2301,
      "##ா": 2302,
      "##ஷ": 2303,
      "##ĥ": 2304,
      "##ੇ": 2305,
      "##ਚ": 2306,
      "##ੂ": 2307,
      "##ਆ": 2308,
      "##ą": 2309,
      "##צ": 2310,
      "##פ": 2311,
      "##ồ": 2312,
      "##ת": 2313,
      "##🏻": 2314,
      "##ğ": 2315,
      "##Ç": 2316,
      "##ో": 2317,
      "##լ": 2318,
      "##պ": 2319,
      "##ల": 2320,
      "##శ": 2321,
      "##ḏ": 2322,
      "##პ": 2323,
      "##ე": 2324,
      "##ლ": 2325,
      "##ื": 2326,
      "##่": 2327,
      "##ă": 2328,
      "##ค": 2329,
      "##ɾ": 2330,
      "##ạ": 2331,
      "##ะ": 2332,
      "##ϊ": 2333,
      "##č": 2334,
      "##ž": 2335,
      "##ì": 2336,
      "##ใ": 2337,
      "##ห": 2338,
      "##ญ": 2339,
      "##ส": 2340,
      "##้": 2341,
      "##แ": 2342,
      "##േ": 2343,
      "##Ë": 2344,
      "##ს": 2345,
      "##ಲ": 2346,
      "##ಯ": 2347,
      "##ಟ": 2348,
      "##‡": 2349,
      "##Ş": 2350,
      "##ው": 2351,
      "##ቶ": 2352,
      "##ቡ": 2353,
      "##ስ": 2354,
      "##^": 2355,
      "##◕": 2356,
      "##ử": 2357,
      "##⁎": 2358,
      "##ည": 2359,
      "##ေ": 2360,
      "##ဆ": 2361,
      "##ယ": 2362,
      "##ါ": 2363,
      "##Ą": 2364,
      "##͊": 2365,
      "##ჩ": 2366,
      "##ά": 2367,
      "##ξ": 2368,
      "##{": 2369,
      "##°": 2370,
      "##ð": 2371,
      "##ể": 2372,
      "##̣": 2373,
      "##လ": 2374,
      "##ဇ": 2375,
      "##္": 2376,
      "##ဒ": 2377,
      "##ன": 2378,
      "##ூ": 2379,
      "##ছ": 2380,
      "##ộ": 2381,
      "##ಷ": 2382,
      "##ొ": 2383,
      "##ు": 2384,
      "##ິ": 2385,
      "##້": 2386,
      "##ງ": 2387,
      "##ຄ": 2388,
      "##໌": 2389,
      "##ង": 2390,
      "##ត": 2391,
      "##ੋ": 2392,
      "##ਕ": 2393,
      "##ਤ": 2394,
      "##ੰ": 2395,
      "##ਰ": 2396,
      "##ੀ": 2397,
      "##ဘ": 2398,
      "##ဂ": 2399,
      "##ơ": 2400,
      "##ാ": 2401,
      "##ഷ": 2402,
      "##ട": 2403,
      "##ൺ": 2404,
      "##Ï": 2405,
      "##ഹ": 2406,
      "##ბ": 2407,
      "##თ": 2408,
      "##͡": 2409,
      "##ʃ": 2410,
      "##ณ": 2411,
      "##👩": 2412,
      "##ܦ": 2413,
      "##ܓ": 2414,
      "##ܢ": 2415,
      "##ܛ": 2416,
      "##ָ": 2417,
      "##ק": 2418,
      "##χ": 2419,
      "##ோ": 2420,
      "##ச": 2421,
      "##œ": 2422,
      "##எ": 2423,
      "##ஸ": 2424,
      "##չ": 2425,
      "##ե": 2426,
      "##ွ": 2427,
      "##င": 2428,
      "##ံ": 2429,
      "##|": 2430,
      "##ː": 2431,
      "##ಪ": 2432,
      "##ಚ": 2433,
      "##ೇ": 2434,
      "##ಧ": 2435,
      "##ನ": 2436,
      "##¶": 2437,
      "##·": 2438,
      "##☆": 2439,
      "##£": 2440,
      "##ဖ": 2441,
      "##ǀ": 2442,
      "##ņ": 2443,
      "##ọ": 2444,
      "##ř": 2445,
      "##~": 2446,
      "##ා": 2447,
      "##ල": 2448,
      "##উ": 2449,
      "##ট": 2450,
      "##ě": 2451,
      "##ே": 2452,
      "##ல": 2453,
      "##ς": 2454,
      "##ɨ": 2455,
      "##Ć": 2456,
      "##ਾ": 2457,
      "##ਓ": 2458,
      "##ৈ": 2459,
      "##ক": 2460,
      "##ੱ": 2461,
      "##›": 2462,
      "##ய": 2463,
      "##મ": 2464,
      "##્": 2465,
      "##હ": 2466,
      "##ા": 2467,
      "##ર": 2468,
      "##િ": 2469,
      "##ક": 2470,
      "##ਲ": 2471,
      "##ܠ": 2472,
      "##ܡ": 2473,
      "##̲": 2474,
      "##̆": 2475,
      "##ʗ": 2476,
      "##ུ": 2477,
      "##ക": 2478,
      "##ണ": 2479,
      "##ზ": 2480,
      "##̐": 2481,
      "##ញ": 2482,
      "##ফ": 2483,
      "##\\": 2484,
      "##δ": 2485,
      "##■": 2486,
      "##ེ": 2487,
      "##🇰": 2488,
      "##🇷": 2489,
      "##💚": 2490,
      "##ม": 2491,
      "##ʧ": 2492,
      "##ነ": 2493,
      "##ን": 2494,
      "##ኳ": 2495,
      "##ዲ": 2496,
      "##የ": 2497,
      "##ም": 2498,
      "##ც": 2499,
      "##ଙ": 2500,
      "##୍": 2501,
      "##ଗ": 2502,
      "##ୀ": 2503,
      "##ତ": 2504,
      "##ે": 2505,
      "##♬": 2506,
      "##ਜ": 2507,
      "##਼": 2508,
      "##ਬ": 2509,
      "##ਿ": 2510,
      "##ਸ": 2511,
      "##ਨ": 2512,
      "##੬": 2513,
      "##ସ": 2514,
      "##ୟ": 2515,
      "##İ": 2516,
      "##Ğ": 2517,
      "##ȫ": 2518,
      "##õ": 2519,
      "##ĩ": 2520,
      "##ƚ": 2521,
      "##<": 2522,
      "##ṛ": 2523,
      "##ỉ": 2524,
      "##ဝ": 2525,
      "##ƒ": 2526,
      "##ೊ": 2527,
      "##ത": 2528,
      "##ų": 2529,
      "##È": 2530,
      "##ீ": 2531,
      "##ĕ": 2532,
      "##ζ": 2533,
      "##ේ": 2534,
      "##É": 2535,
      "##ċ": 2536,
      "##ೈ": 2537,
      "##ಕ": 2538,
      "##ȓ": 2539,
      "##യ": 2540,
      "##ƞ": 2541,
      "##ᴚ": 2542,
      "##ַ": 2543,
      "##ֽ": 2544,
      "##ֲ": 2545,
      "##֔": 2546,
      "##̍": 2547,
      "##ķ": 2548,
      "##ண": 2549,
      "##வ": 2550,
      "##ਣ": 2551,
      "##ੜ": 2552,
      "##ᐋ": 2553,
      "##ᔅ": 2554,
      "##ᐧ": 2555,
      "##ᓂ": 2556,
      "##ᐲ": 2557,
      "##😏": 2558,
      "##ঠ": 2559,
      "##শ": 2560,
      "##ল": 2561,
      "##আ": 2562,
      "##ח": 2563,
      "##ɱ": 2564,
      "##ḍ": 2565,
      "##┐": 2566,
      "##ǿ": 2567,
      "##ၠ": 2568,
      "##¿": 2569,
      "##ଵ": 2570,
      "##ି": 2571,
      "##ଡ": 2572,
      "##େ": 2573,
      "##ନ": 2574,
      "##డ": 2575,
      "##ప": 2576,
      "##െ": 2577,
      "##പ": 2578,
      "##റ": 2579,
      "##ബ": 2580,
      "##Å": 2581,
      "##ᕙ": 2582,
      "##ᒪ": 2583,
      "##ᖓ": 2584,
      "##Ա": 2585,
      "##Ռ": 2586,
      "##Ո": 2587,
      "##Ւ": 2588,
      "##Ց": 2589,
      "##Պ": 2590,
      "##Տ": 2591,
      "##Մ": 2592,
      "##ț": 2593,
      "##හ": 2594,
      "##ਏ": 2595,
      "##ਟ": 2596,
      "##ľ": 2597,
      "##చ": 2598,
      "##ʉ": 2599,
      "##🌺": 2600,
      "##వ": 2601,
      "##ố": 2602,
      "##†": 2603,
      "##య": 2604,
      "##ణ": 2605,
      "##կ": 2606,
      "##ു": 2607,
      "##ਵ": 2608,
      "##ਂ": 2609,
      "##ෝ": 2610,
      "##ජ": 2611,
      "##ො": 2612,
      "##ි": 2613,
      "##ඩ": 2614,
      "##ư": 2615,
      "##ǰ": 2616,
      "##ట": 2617,
      "##ಂ": 2618,
      "##ಬ": 2619,
      "##🥺": 2620,
      "##🤣": 2621,
      "##γ": 2622,
      "##ঙ": 2623,
      "##ਮ": 2624,
      "##😘": 2625,
      "##ქ": 2626,
      "##🙏": 2627,
      "##ෑ": 2628,
      "##ු": 2629,
      "##😆": 2630,
      "##Ü": 2631,
      "##ỹ": 2632,
      "##ୋ": 2633,
      "##ଣ": 2634,
      "##ଟ": 2635,
      "##ର": 2636,
      "##લ": 2637,
      "##ટ": 2638,
      "##ઝ": 2639,
      "##%": 2640,
      "##🔥": 2641,
      "##ᓇ": 2642,
      "##ற": 2643,
      "##ழ": 2644,
      "##ஜ": 2645,
      "##ႏ": 2646,
      "##ၲ": 2647,
      "##ব": 2648,
      "##ও": 2649,
      "##ቴ": 2650,
      "##ር": 2651,
      "##ግ": 2652,
      "##ት": 2653,
      "##ሪ": 2654,
      "##🌍": 2655,
      "##❤": 2656,
      "##ී": 2657,
      "##ට": 2658,
      "##ম": 2659,
      "##ই": 2660,
      "##ା": 2661,
      "##ദ": 2662,
      "##ശ": 2663,
      "##ച": 2664,
      "##ʕ": 2665,
      "##ກ": 2666,
      "##ວ": 2667,
      "##ັ": 2668,
      "##ດ": 2669,
      "##ຈ": 2670,
      "##າ": 2671,
      "##ຸ": 2672,
      "##ົ": 2673,
      "##💃": 2674,
      "##ಜ": 2675,
      "##ණ": 2676,
      "##ත": 2677,
      "##ూ": 2678,
      "##బ": 2679,
      "##ষ": 2680,
      "##ಭ": 2681,
      "##ೂ": 2682,
      "##ಮ": 2683,
      "##ི": 2684,
      "##ພ": 2685,
      "##ਪ": 2686,
      "##Ú": 2687,
      "##ં": 2688,
      "##ગ": 2689,
      "##ત": 2690,
      "##ራ": 2691,
      "##ဟ": 2692,
      "##Š": 2693,
      "##খ": 2694,
      "##ၤ": 2695,
      "##ᔓ": 2696,
      "##ᐃ": 2697,
      "##ᐱ": 2698,
      "##ᔨ": 2699,
      "##ᐤ": 2700,
      "##😇": 2701,
      "##ෆ": 2702,
      "##🇸": 2703,
      "##ਹ": 2704,
      "##ɬ": 2705,
      "##ഴ": 2706,
      "##ህ": 2707,
      "##ል": 2708,
      "##ൻ": 2709,
      "##כ": 2710,
      "##ƌ": 2711,
      "##భ": 2712,
      "##స": 2713,
      "##ệ": 2714,
      "##◇": 2715,
      "##ũ": 2716,
      "##ɥ": 2717,
      "##ᔪ": 2718,
      "##ᖅ": 2719,
      "##ፍ": 2720,
      "##ŕ": 2721,
      "##̂": 2722,
      "##ੈ": 2723,
      "##ფ": 2724,
      "##ĝ": 2725,
      "##ภ": 2726,
      "##ธ": 2727,
      "##ੁ": 2728,
      "##ਈ": 2729,
      "##♪": 2730,
      "##ధ": 2731,
      "##😂": 2732,
      "##🇿": 2733,
      "##ŏ": 2734,
      "##ꦫ": 2735,
      "##ិ": 2736,
      "##ម": 2737,
      "##ോ": 2738,
      "##ജ": 2739,
      "##ę": 2740,
      "##গ": 2741,
      "##ী": 2742,
      "##ך": 2743,
      "##ხ": 2744,
      "##ძ": 2745,
      "##න": 2746,
      "##ದ": 2747,
      "##ሊ": 2748,
      "##ჟ": 2749,
      "##̀": 2750,
      "##ತ": 2751,
      "##ન": 2752,
      "##🥩": 2753,
      "##▼": 2754,
      "##ဉ": 2755,
      "##ḧ": 2756,
      "##👶": 2757,
      "##🍼": 2758,
      "##՝": 2759,
      "##ƙ": 2760,
      "##ଲ": 2761,
      "##ଜ": 2762,
      "##←": 2763,
      "##ị": 2764,
      "##ೋ": 2765,
      "##ీ": 2766,
      "##੮": 2767,
      "##Ϳ": 2768,
      "##ผ": 2769,
      "##ਅ": 2770,
      "##ද": 2771,
      "##ස": 2772,
      "##შ": 2773,
      "##ᒥ": 2774,
      "##ᐊ": 2775,
      "##ᓗ": 2776,
      "##ᒃ": 2777,
      "##ɹ": 2778,
      "##վ": 2779,
      "##ծ": 2780,
      "##ਦ": 2781,
      "##Ր": 2782,
      "##Կ": 2783,
      "##Ն": 2784,
      "##ళ": 2785,
      "##ම": 2786,
      "##ħ": 2787,
      "##「": 2788,
      "##✡": 2789,
      "##」": 2790,
      "##ಸ": 2791,
      "##♛": 2792,
      "##ય": 2793,
      "##ો": 2794,
      "##ᔭ": 2795,
      "##ុ": 2796,
      "##ើ": 2797,
      "##ẓ": 2798,
      "##ড": 2799,
      "##ǧ": 2800,
      "##ղ": 2801,
      "##💙": 2802,
      "##‹": 2803,
      "##Õ": 2804,
      "##ន": 2805,
      "##ហ": 2806,
      "##ឌ": 2807,
      "##ូ": 2808,
      "##ɓ": 2809,
      "##Դ": 2810,
      "##Ե": 2811,
      "##ൊ": 2812,
      "##⠧": 2813,
      "##⠍": 2814,
      "##⠻": 2815,
      "##Ɨ": 2816,
      "##੯": 2817,
      "##ታ": 2818,
      "##ድ": 2819,
      "##ቲ": 2820,
      "##ṯ": 2821,
      "##ெ": 2822,
      "##ִ": 2823,
      "##ײ": 2824,
      "##ਡ": 2825,
      "##৪": 2826,
      "##৫": 2827,
      "##ொ": 2828,
      "##ז": 2829,
      "##ማ": 2830,
      "##ኑ": 2831,
      "##ኤ": 2832,
      "##ৃ": 2833,
      "##▌": 2834,
      "##▽": 2835,
      "##`": 2836,
      "##ƿ": 2837,
      "##ሌ": 2838,
      "##ዳ": 2839,
      "##০": 2840,
      "##ක": 2841,
      "##ɰ": 2842,
      "##ൂ": 2843,
      "##ീ": 2844,
      "##ഡ": 2845,
      "##ይ": 2846,
      "##ሮ": 2847,
      "##ጅ": 2848,
      "##◆": 2849,
      "##😤": 2850,
      "##ʾ": 2851,
      "##զ": 2852,
      "##ը": 2853,
      "##̶": 2854,
      "##੪": 2855,
      "##🥰": 2856,
      "##Ă": 2857,
      "##ສ": 2858,
      "##ເ": 2859,
      "##ຊ": 2860,
      "##බ": 2861,
      "##ễ": 2862,
      "##Ի": 2863,
      "##ᑐ": 2864,
      "##¢": 2865,
      "##ෙ": 2866,
      "##જ": 2867,
      "##ી": 2868,
      "##ಫ": 2869,
      "##ଚ": 2870,
      "##ĺ": 2871,
      "##ਊ": 2872,
      "##ැ": 2873,
      "##ૈ": 2874,
      "##થ": 2875,
      "##ổ": 2876,
      "##ܩ": 2877,
      "##ܘ": 2878,
      "##ܕ": 2879,
      "##ܫ": 2880,
      "##ő": 2881,
      "##ấ": 2882,
      "##Ê": 2883,
      "##ủ": 2884,
      "##ề": 2885,
      "##ÿ": 2886,
      "##ฮ": 2887,
      "##β": 2888,
      "##ဓ": 2889,
      "##ช": 2890,
      "##̓": 2891,
      "##ʦ": 2892,
      "##ฐ": 2893,
      "##ഫ": 2894,
      "##😷": 2895,
      "##❣": 2896,
      "##ଇ": 2897,
      "##ଞ": 2898,
      "##ധ": 2899,
      "##ൾ": 2900,
      "##হ": 2901,
      "##ප": 2902,
      "##ఫ": 2903,
      "##ශ": 2904,
      "##വ": 2905,
      "##Ś": 2906,
      "##ੌ": 2907,
      "##థ": 2908,
      "##ଷ": 2909,
      "##ଆ": 2910,
      "##ꪮ": 2911,
      "##ᥲ": 2912,
      "##ᐦ": 2913,
      "##ᑫ": 2914,
      "##ᒋ": 2915,
      "##ᑲ": 2916,
      "##ᔮ": 2917,
      "##ᐩ": 2918,
      "##ᒍ": 2919,
      "##ᕐ": 2920,
      "##ᐅ": 2921,
      "##ഞ": 2922,
      "##ਯ": 2923,
      "##ף": 2924,
      "##բ": 2925,
      "##็": 2926,
      "##ഃ": 2927,
      "##ഖ": 2928,
      "##ዊ": 2929,
      "##ց": 2930,
      "##ਗ": 2931,
      "##😁": 2932,
      "##ṳ": 2933,
      "##¬": 2934,
      "##จ": 2935,
      "##😭": 2936,
      "##ĸ": 2937,
      "##ై": 2938,
      "##ṝ": 2939,
      "##😊": 2940,
      "##ಶ": 2941,
      "##ೃ": 2942,
      "##ൈ": 2943,
      "##→": 2944,
      "##Ý": 2945,
      "##੨": 2946,
      "##Վ": 2947,
      "##ሰ": 2948,
      "##ጥ": 2949,
      "##ģ": 2950,
      "##ǒ": 2951,
      "##ܚ": 2952,
      "##ɢ": 2953,
      "##់": 2954,
      "##ី": 2955,
      "##ខ": 2956,
      "##ܒ": 2957,
      "##į": 2958,
      "##଼": 2959,
      "##ឧ": 2960,
      "##ភ": 2961,
      "##ላ": 2962,
      "##ካ": 2963,
      "##ဲ": 2964,
      "##・": 2965,
      "##ஞ": 2966,
      "##̠": 2967,
      "##👍": 2968,
      "##😋": 2969,
      "##ሶ": 2970,
      "##ထ": 2971,
      "##🌸": 2972,
      "##ণ": 2973,
      "##♂": 2974,
      "##′": 2975,
      "##ං": 2976,
      "##🎶": 2977,
      "##Î": 2978,
      "##ջ": 2979,
      "##ବ": 2980,
      "##ଭ": 2981,
      "##€": 2982,
      "##₹": 2983,
      "##խ": 2984,
      "##ꦩ": 2985,
      "##ꦮ": 2986,
      "##ꦤ": 2987,
      "##꧀": 2988,
      "##କ": 2989,
      "##ୁ": 2990,
      "##ె": 2991,
      "##ମ": 2992,
      "##ಛ": 2993,
      "##ẕ": 2994,
      "##ঁ": 2995,
      "##ជ": 2996,
      "##Ē": 2997,
      "##💪": 2998,
      "##͠": 2999,
      "##੩": 3000,
      "##շ": 3001,
      "##ၧ": 3002,
      "##ഭ": 3003,
      "##ዕ": 3004,
      "##ť": 3005,
      "##👉": 3006,
      "##★": 3007,
      "##ተ": 3008,
      "##ᕗ": 3009,
      "##ᑦ": 3010,
      "##ʤ": 3011,
      "##ᔥ": 3012,
      "##ᑳ": 3013,
      "##ᑯ": 3014,
      "##ᓈ": 3015,
      "##ᑭ": 3016,
      "##ᒻ": 3017,
      "##ẫ": 3018,
      "##ௌ": 3019,
      "##Ő": 3020,
      "##(": 3021,
      "##ަ": 3022,
      "##ލ": 3023,
      "##ޞ": 3024,
      "##ް": 3025,
      "##ޠ": 3026,
      "##ީ": 3027,
      "##ނ": 3028,
      "##🤗": 3029,
      "##ׁ": 3030,
      "##،": 3031,
      "##ʎ": 3032,
      "##প": 3033,
      "##ḁ": 3034,
      "##ુ": 3035,
      "##આ": 3036,
      "##ˊ": 3037,
      "##ፀ": 3038,
      "##ሐ": 3039,
      "##ᑎ": 3040,
      "##ᐹ": 3041,
      "##ᓱ": 3042,
      "##ᓐ": 3043,
      "##ዓ": 3044,
      "##წ": 3045,
      "##ŵ": 3046,
      "##😄": 3047,
      "##🤙": 3048,
      "##🏽": 3049,
      "##🗣": 3050,
      "##🤭": 3051,
      "##ĵ": 3052,
      "##ŭ": 3053,
      "##ǁ": 3054,
      "##🙄": 3055,
      "##💖": 3056,
      "##ਫ": 3057,
      "##↑": 3058,
      "##ള": 3059,
      "##👋": 3060,
      "##̕": 3061,
      "##ṡ": 3062,
      "##ⱡ": 3063,
      "##ȼ": 3064,
      "##ň": 3065,
      "##゚": 3066,
      "##😉": 3067,
      "##ᵾ": 3068,
      "##အ": 3069,
      "##ợ": 3070,
      "##භ": 3071,
      "##ච": 3072,
      "##ɔ": 3073,
      "##ഈ": 3074,
      "##¦": 3075,
      "##ắ": 3076,
      "##ޭ": 3077,
      "##ގ": 3078,
      "##ދ": 3079,
      "##ބ": 3080,
      "##ު": 3081,
      "##【": 3082,
      "##ẏ": 3083,
      "##ഛ": 3084,
      "##ፎ": 3085,
      "##ứ": 3086,
      "##ኒ": 3087,
      "##ღ": 3088,
      "##ಹ": 3089,
      "##🤟": 3090,
      "##ෂ": 3091,
      "##ቋ": 3092,
      "##ጦ": 3093,
      "##♥": 3094,
      "##ů": 3095,
      "##ܝ": 3096,
      "##੦": 3097,
      "##ฝ": 3098,
      "##બ": 3099,
      "##Ÿ": 3100,
      "##̰": 3101,
      "##ધ": 3102,
      "##ଖ": 3103,
      "##વ": 3104,
      "##ৰ": 3105,
      "##ጎ": 3106,
      "##ያ": 3107,
      "##͛": 3108,
      "##ಖ": 3109,
      "##🏼": 3110,
      "##ብ": 3111,
      "##ፅ": 3112,
      "##ყ": 3113,
      "##🎵": 3114,
      "##ූ": 3115,
      "##🙈": 3116,
      "##່": 3117,
      "##੍": 3118,
      "##ථ": 3119,
      "##♀": 3120,
      "##೧": 3121,
      "##😃": 3122,
      "##😀": 3123,
      "##Đ": 3124,
      "##ਇ": 3125,
      "##በ": 3126,
      "##ྐ": 3127,
      "##ྱ": 3128,
      "##Ø": 3129,
      "##】": 3130,
      "##ባ": 3131,
      "##ቢ": 3132,
      "##ḑ": 3133,
      "##ણ": 3134,
      "##ሚ": 3135,
      "##ኛ": 3136,
      "##៊": 3137,
      "##ប": 3138,
      "##Ĉ": 3139,
      "##👻": 3140,
      "##Ս": 3141,
      "##Ք": 3142,
      "##દ": 3143,
      "##ચ": 3144,
      "##ɳ": 3145,
      "##ဗ": 3146,
      "##ಣ": 3147,
      "##ఉ": 3148,
      "##գ": 3149,
      "##🎉": 3150,
      "##ஹ": 3151,
      "##ች": 3152,
      "##։": 3153,
      "##ǝ": 3154,
      "##ɫ": 3155,
      "##🏞": 3156,
      "##♡": 3157,
      "##🌹": 3158,
      "##ඟ": 3159,
      "##☝": 3160,
      "##դ": 3161,
      "##ȟ": 3162,
      "##ʈ": 3163,
      "##ʂ": 3164,
      "##►": 3165,
      "##ೌ": 3166,
      "##ਖ": 3167,
      "##☺": 3168,
      "##ȇ": 3169,
      "##ረ": 3170,
      "##શ": 3171,
      "##સ": 3172,
      "##ષ": 3173,
      "##Þ": 3174,
      "##ቅ": 3175,
      "##ኖ": 3176,
      "##ḣ": 3177,
      "##ᕿ": 3178,
      "##ଂ": 3179,
      "##ୃ": 3180,
      "##😬": 3181,
      "##🤪": 3182,
      "##ď": 3183,
      "##Խ": 3184,
      "##Գ": 3185,
      "##Ծ": 3186,
      "##😰": 3187,
      "##💛": 3188,
      "##੧": 3189,
      "##☼": 3190,
      "##ỏ": 3191,
      "##ȃ": 3192,
      "##ớ": 3193,
      "##』": 3194,
      "##Զ": 3195,
      "##Յ": 3196,
      "##🎧": 3197,
      "##🎼": 3198,
      "##ᑕ": 3199,
      "##ᐄ": 3200,
      "##ང": 3201,
      "##😒": 3202,
      "##ȩ": 3203,
      "##̧": 3204,
      "##Į": 3205,
      "##ఒ": 3206,
      "##ྫ": 3207,
      "##ོ": 3208,
      "##✊": 3209,
      "##ଶ": 3210,
      "##ጣ": 3211,
      "##ճ": 3212,
      "##ਘ": 3213,
      "##០": 3214,
      "##១": 3215,
      "##៧": 3216,
      "##ડ": 3217,
      "##ૂ": 3218,
      "##ష": 3219,
      "##ܬ": 3220,
      "##ঃ": 3221,
      "##ả": 3222,
      "##✭": 3223,
      "##✓": 3224,
      "##ᐣ": 3225,
      "##ụ": 3226,
      "##👌": 3227,
      "##💥": 3228,
      "##ữ": 3229,
      "##৩": 3230,
      "##ȝ": 3231,
      "##̥": 3232,
      "##🇳": 3233,
      "##ሎ": 3234,
      "##ֹ": 3235,
      "##ץ": 3236,
      "##এ": 3237,
      "##😈": 3238,
      "##೮": 3239,
      "##೪": 3240,
      "##ờ": 3241,
      "##ዮ": 3242,
      "##ៃ": 3243,
      "##》": 3244,
      "##✔": 3245,
      "##ገ": 3246,
      "##ផ": 3247,
      "##ច": 3248,
      "##ᓄ": 3249,
      "##ᓴ": 3250,
      "##ᑊ": 3251,
      "##ḫ": 3252,
      "##◠": 3253,
      "##ধ": 3254,
      "##🇧": 3255,
      "##ṓ": 3256,
      "##Œ": 3257,
      "##ቃ": 3258,
      "##৯": 3259,
      "##৭": 3260,
      "##৬": 3261,
      "##🌞": 3262,
      "##ჭ": 3263,
      "##ਧ": 3264,
      "##😚": 3265,
      "##🤦": 3266,
      "##੫": 3267,
      "##ɭ": 3268,
      "##ɖ": 3269,
      "##ପ": 3270,
      "##ꦏ": 3271,
      "##ໄ": 3272,
      "##ຂ": 3273,
      "##🤮": 3274,
      "##🏡": 3275,
      "##Ž": 3276,
      "##Δ": 3277,
      "##ᓪ": 3278,
      "##ᓚ": 3279,
      "##ᕆ": 3280,
      "##ག": 3281,
      "##▓": 3282,
      "##🍏": 3283,
      "##⫸": 3284,
      "##ዘ": 3285,
      "##ꦥ": 3286,
      "##ꦾ": 3287,
      "##Π": 3288,
      "##🧐": 3289,
      "##🔉": 3290,
      "##ᖃ": 3291,
      "##ᓯ": 3292,
      "##⠱": 3293,
      "##⠝": 3294,
      "##⠅": 3295,
      "##🐆": 3296,
      "##ጠ": 3297,
      "##ፊ": 3298,
      "##ዜ": 3299,
      "##ሳ": 3300,
      "##Ư": 3301,
      "##an": 3302,
      "##ta": 3303,
      "##un": 3304,
      "##ch": 3305,
      "##ay": 3306,
      "##pa": 3307,
      "##in": 3308,
      "##una": 3309,
      "##qa": 3310,
      "##ll": 3311,
      "##ku": 3312,
      "##as": 3313,
      "##ar": 3314,
      "##is": 3315,
      "##am": 3316,
      "##kuna": 3317,
      "##ach": 3318,
      "##pi": 3319,
      "##man": 3320,
      "ch": 3321,
      "##mi": 3322,
      "##ik": 3323,
      "##aq": 3324,
      "##us": 3325,
      "##ana": 3326,
      "##ur": 3327,
      "##iy": 3328,
      "##qan": 3329,
      "##ata": 3330,
      "##aw": 3331,
      "##uy": 3332,
      "##ki": 3333,
      "##wan": 3334,
      "Ch": 3335,
      "##ka": 3336,
      "##os": 3337,
      "##ir": 3338,
      "##pas": 3339,
      "##lla": 3340,
      "##ti": 3341,
      "##chu": 3342,
      "ll": 3343,
      "##manta": 3344,
      "##ash": 3345,
      "##ma": 3346,
      "##cuna": 3347,
      "##on": 3348,
      "##ca": 3349,
      "##paq": 3350,
      "##ak": 3351,
      "chay": 3352,
      "mana": 3353,
      "##ap": 3354,
      "##ui": 3355,
      "##er": 3356,
      "##kuy": 3357,
      "##ios": 3358,
      "##nin": 3359,
      "##ina": 3360,
      "##es": 3361,
      "##ish": 3362,
      "Dios": 3363,
      "##cha": 3364,
      "Chay": 3365,
      "##uk": 3366,
      "runa": 3367,
      "##anta": 3368,
      "##at": 3369,
      "ri": 3370,
      "##en": 3371,
      "pi": 3372,
      "kan": 3373,
      "all": 3374,
      "##chi": 3375,
      "##pis": 3376,
      "##kunata": 3377,
      "##tin": 3378,
      "##ga": 3379,
      "##uq": 3380,
      "##sh": 3381,
      "##ayta": 3382,
      "##chik": 3383,
      "yach": 3384,
      "nis": 3385,
      "##aj": 3386,
      "man": 3387,
      "##ac": 3388,
      "##or": 3389,
      "##all": 3390,
      "##al": 3391,
      "tu": 3392,
      "##unan": 3393,
      "an": 3394,
      "kay": 3395,
      "##ai": 3396,
      "##ill": 3397,
      "su": 3398,
      "##ush": 3399,
      "sh": 3400,
      "##li": 3401,
      "im": 3402,
      "##achu": 3403,
      "##taq": 3404,
      "##ri": 3405,
      "##chis": 3406,
      "##ayn": 3407,
      "##apa": 3408,
      "##ari": 3409,
      "##ts": 3410,
      "##qui": 3411,
      "##ra": 3412,
      "##ayku": 3413,
      "rur": 3414,
      "ru": 3415,
      "##pan": 3416,
      "kas": 3417,
      "##añ": 3418,
      "##api": 3419,
      "##kan": 3420,
      "##el": 3421,
      "kar": 3422,
      "##tan": 3423,
      "pay": 3424,
      "##im": 3425,
      "##ami": 3426,
      "##tu": 3427,
      "chu": 3428,
      "##cu": 3429,
      "##ika": 3430,
      "ima": 3431,
      "##hu": 3432,
      "##ayki": 3433,
      "##paj": 3434,
      "ka": 3435,
      "##ich": 3436,
      "##kus": 3437,
      "##aqta": 3438,
      "##ej": 3439,
      "##aqa": 3440,
      "allin": 3441,
      "##qanku": 3442,
      "##asqa": 3443,
      "kaw": 3444,
      "as": 3445,
      "in": 3446,
      "nispa": 3447,
      "##kur": 3448,
      "##iq": 3449,
      "Jes": 3450,
      "ay": 3451,
      "wata": 3452,
      "##anku": 3453,
      "pach": 3454,
      "##cunata": 3455,
      "##oq": 3456,
      "##uc": 3457,
      "##illa": 3458,
      "##aspa": 3459,
      "##ic": 3460,
      "##taj": 3461,
      "##tiy": 3462,
      "##uch": 3463,
      "##da": 3464,
      "nir": 3465,
      "##kunaqa": 3466,
      "Pi": 3467,
      "##pay": 3468,
      "##kun": 3469,
      "##re": 3470,
      "##ama": 3471,
      "ruw": 3472,
      "##aman": 3473,
      "un": 3474,
      "Im": 3475,
      "kaws": 3476,
      "qh": 3477,
      "ni": 3478,
      "yana": 3479,
      "##anan": 3480,
      "muna": 3481,
      "##um": 3482,
      "##qanta": 3483,
      "kam": 3484,
      "hu": 3485,
      "##imi": 3486,
      "##to": 3487,
      "Pay": 3488,
      "##ya": 3489,
      "##em": 3490,
      "ku": 3491,
      "##ci": 3492,
      "##ña": 3493,
      "##ib": 3494,
      "war": 3495,
      "##ey": 3496,
      "kaq": 3497,
      "##..": 3498,
      "##na": 3499,
      "##ita": 3500,
      "wañ": 3501,
      "may": 3502,
      "uy": 3503,
      "pun": 3504,
      "hin": 3505,
      "huk": 3506,
      "Diospa": 3507,
      "##kay": 3508,
      "tukuy": 3509,
      "##oj": 3510,
      "##uyu": 3511,
      "nin": 3512,
      "##achi": 3513,
      "##amanta": 3514,
      "rim": 3515,
      "##te": 3516,
      "##ro": 3517,
      "##qu": 3518,
      "##awan": 3519,
      "##atun": 3520,
      "yuy": 3521,
      "Jesus": 3522,
      "tiy": 3523,
      "runakuna": 3524,
      "##pun": 3525,
      "Kay": 3526,
      "##kuq": 3527,
      "llaqta": 3528,
      "##ab": 3529,
      "##llata": 3530,
      "is": 3531,
      "pika": 3532,
      "chur": 3533,
      "##pita": 3534,
      "##ris": 3535,
      "nisqa": 3536,
      "##si": 3537,
      "##ru": 3538,
      "##oqa": 3539,
      "can": 3540,
      "##om": 3541,
      "##ul": 3542,
      "##ptin": 3543,
      "##niy": 3544,
      "##chej": 3545,
      "##wa": 3546,
      "20": 3547,
      "##pash": 3548,
      "was": 3549,
      "par": 3550,
      "hina": 3551,
      "##ayc": 3552,
      "ti": 3553,
      "alli": 3554,
      "nish": 3555,
      "##arqa": 3556,
      "##arin": 3557,
      "##di": 3558,
      "rik": 3559,
      "##emp": 3560,
      "##aki": 3561,
      "##aynin": 3562,
      "##arqan": 3563,
      "##il": 3564,
      "##akin": 3565,
      "kach": 3566,
      "##uj": 3567,
      "imata": 3568,
      "##pä": 3569,
      "##isqa": 3570,
      "kash": 3571,
      "##eh": 3572,
      "##ani": 3573,
      "##ag": 3574,
      "##ov": 3575,
      "ap": 3576,
      "##chay": 3577,
      "anqa": 3578,
      "Man": 3579,
      "##chaqa": 3580,
      ").": 3581,
      "##awa": 3582,
      "mas": 3583,
      "##ikachu": 3584,
      "##rayku": 3585,
      "will": 3586,
      "llam": 3587,
      "##llan": 3588,
      "qu": 3589,
      "manam": 3590,
      "qa": 3591,
      "##iya": 3592,
      "##ran": 3593,
      "##asqan": 3594,
      "...": 3595,
      "##kunapi": 3596,
      "##uta": 3597,
      "Is": 3598,
      "##ataq": 3599,
      "##akuy": 3600,
      "wan": 3601,
      "##aran": 3602,
      "##iki": 3603,
      "##apan": 3604,
      "##llapa": 3605,
      "re": 3606,
      "kus": 3607,
      "19": 3608,
      "##ura": 3609,
      "##gan": 3610,
      "sutiy": 3611,
      "inki": 3612,
      ",\"": 3613,
      "pu": 3614,
      "##tawan": 3615,
      "cu": 3616,
      "Ll": 3617,
      "##ha": 3618,
      "##ibli": 3619,
      "##achin": 3620,
      "##chus": 3621,
      "##aptin": 3622,
      ".\"": 3623,
      "Mana": 3624,
      "##id": 3625,
      "##ara": 3626,
      "karqa": 3627,
      "##ol": 3628,
      "Jeh": 3629,
      "##aya": 3630,
      "pas": 3631,
      "Jehov": 3632,
      "##anqa": 3633,
      "willa": 3634,
      "##tam": 3635,
      "##akun": 3636,
      "mun": 3637,
      "##taqa": 3638,
      "##cur": 3639,
      "##pish": 3640,
      "warmi": 3641,
      "##pak": 3642,
      "##än": 3643,
      "kuti": 3644,
      "##ion": 3645,
      "ñaw": 3646,
      "de": 3647,
      "con": 3648,
      "pur": 3649,
      "no": 3650,
      "Chaymi": 3651,
      "##au": 3652,
      "##kunam": 3653,
      "hinaspa": 3654,
      "##oy": 3655,
      "Bibli": 3656,
      "wi": 3657,
      "es": 3658,
      "tiemp": 3659,
      "en": 3660,
      "ca": 3661,
      "##ariy": 3662,
      "Ima": 3663,
      "##aku": 3664,
      "Sh": 3665,
      "sutiyuq": 3666,
      "llamk": 3667,
      "cay": 3668,
      "##ikun": 3669,
      "##ad": 3670,
      "##kunawan": 3671,
      "al": 3672,
      "##ampa": 3673,
      "##chin": 3674,
      "simi": 3675,
      "ash": 3676,
      "mi": 3677,
      "car": 3678,
      "munan": 3679,
      "mus": 3680,
      "ju": 3681,
      "##qayki": 3682,
      "##qay": 3683,
      "aswan": 3684,
      "##ashpa": 3685,
      "##chaw": 3686,
      "##kunamanta": 3687,
      "##ats": 3688,
      "##par": 3689,
      "kall": 3690,
      "kamach": 3691,
      "##asun": 3692,
      "##aqu": 3693,
      "All": 3694,
      "##uu": 3695,
      "tap": 3696,
      "10": 3697,
      "Ts": 3698,
      "Diosta": 3699,
      "##qaku": 3700,
      "##aqui": 3701,
      "ama": 3702,
      "ach": 3703,
      "qill": 3704,
      "##raq": 3705,
      "##Ch": 3706,
      "jina": 3707,
      "pai": 3708,
      "##tsik": 3709,
      "##cun": 3710,
      "am": 3711,
      "##ayk": 3712,
      "Tayta": 3713,
      "waw": 3714,
      "##kunapa": 3715,
      "##usqa": 3716,
      "Runa": 3717,
      "##can": 3718,
      "##ayqui": 3719,
      "##ut": 3720,
      "##anki": 3721,
      "kuy": 3722,
      "yachach": 3723,
      "si": 3724,
      "##uqa": 3725,
      "aq": 3726,
      "parl": 3727,
      "##ank": 3728,
      "In": 3729,
      "mañ": 3730,
      "##ec": 3731,
      "##puni": 3732,
      "##kunaman": 3733,
      "##eqa": 3734,
      "tan": 3735,
      "##pin": 3736,
      "##llu": 3737,
      "##gu": 3738,
      "qan": 3739,
      "##yan": 3740,
      "chas": 3741,
      "##tsu": 3742,
      "##ispa": 3743,
      "yu": 3744,
      "##pu": 3745,
      "##ob": 3746,
      "imayn": 3747,
      "suyu": 3748,
      "##chö": 3749,
      "##tig": 3750,
      "yanapa": 3751,
      "##sa": 3752,
      "##guna": 3753,
      "##pim": 3754,
      "qall": 3755,
      "ur": 3756,
      "##cuy": 3757,
      "ts": 3758,
      "##piqa": 3759,
      "##kush": 3760,
      "##atan": 3761,
      "An": 3762,
      "##do": 3763,
      "##onq": 3764,
      "May": 3765,
      "##eñ": 3766,
      "Ka": 3767,
      "##lo": 3768,
      "##kuspa": 3769,
      "##sqa": 3770,
      "11": 3771,
      "karqan": 3772,
      "tiempo": 3773,
      "Ju": 3774,
      "15": 3775,
      "Chayn": 3776,
      "qui": 3777,
      "##rael": 3778,
      "##ishpa": 3779,
      "cas": 3780,
      "kap": 3781,
      "kanqa": 3782,
      "Iman": 3783,
      "##iyta": 3784,
      "hatun": 3785,
      "nisqaqa": 3786,
      "ar": 3787,
      "##ip": 3788,
      "##anchi": 3789,
      "##ayuq": 3790,
      "qaw": 3791,
      "##ukuy": 3792,
      "iman": 3793,
      "apuy": 3794,
      "Diosqa": 3795,
      "qillqa": 3796,
      "##eq": 3797,
      "##anga": 3798,
      "inkim": 3799,
      "ancha": 3800,
      "anqaman": 3801,
      "cash": 3802,
      "apa": 3803,
      "chi": 3804,
      "tar": 3805,
      "18": 3806,
      "##kunapaq": 3807,
      "##end": 3808,
      "iñ": 3809,
      "##cata": 3810,
      "uj": 3811,
      "12": 3812,
      "##huan": 3813,
      "##ni": 3814,
      "##uw": 3815,
      "##og": 3816,
      "##ens": 3817,
      "##gui": 3818,
      "wakin": 3819,
      "##et": 3820,
      "qhaw": 3821,
      "##ull": 3822,
      "Imayn": 3823,
      "##inan": 3824,
      "##akta": 3825,
      "pacha": 3826,
      "##atam": 3827,
      "##iyan": 3828,
      "##irqan": 3829,
      "chun": 3830,
      "sin": 3831,
      "##ed": 3832,
      "##la": 3833,
      "##amb": 3834,
      "##unki": 3835,
      "kani": 3836,
      "at": 3837,
      "wasi": 3838,
      "##armi": 3839,
      "##ray": 3840,
      "kanan": 3841,
      "pachapi": 3842,
      "manan": 3843,
      "##kunan": 3844,
      "mar": 3845,
      "kik": 3846,
      "##rin": 3847,
      "kasqanta": 3848,
      "14": 3849,
      "pa": 3850,
      "ham": 3851,
      "##uka": 3852,
      "sonq": 3853,
      "kasqan": 3854,
      "ush": 3855,
      "riku": 3856,
      "##inta": 3857,
      "ruwan": 3858,
      "llapan": 3859,
      "mama": 3860,
      "##ninta": 3861,
      "killa": 3862,
      "##way": 3863,
      "Ichaqa": 3864,
      "sum": 3865,
      "pikachu": 3866,
      "wiñ": 3867,
      "tiyan": 3868,
      "nishpa": 3869,
      "##ayniy": 3870,
      "Yach": 3871,
      "##chasqa": 3872,
      "runacuna": 3873,
      "ichaqa": 3874,
      "nac": 3875,
      "qam": 3876,
      "iskay": 3877,
      "##cush": 3878,
      "##aita": 3879,
      "##eñor": 3880,
      "##ant": 3881,
      "##anapaq": 3882,
      "##qam": 3883,
      "riman": 3884,
      "##aymi": 3885,
      "##unt": 3886,
      "##ayman": 3887,
      "Mo": 3888,
      "##cho": 3889,
      "##av": 3890,
      "13": 3891,
      "##ón": 3892,
      "Israel": 3893,
      "chin": 3894,
      "##ayan": 3895,
      "ak": 3896,
      "suma": 3897,
      "sapa": 3898,
      "201": 3899,
      "As": 3900,
      "ati": 3901,
      "rin": 3902,
      "yar": 3903,
      "way": 3904,
      "uk": 3905,
      "pus": 3906,
      "17": 3907,
      "kachu": 3908,
      "Ar": 3909,
      "##ons": 3910,
      "##cä": 3911,
      "##yu": 3912,
      "##asha": 3913,
      "##nö": 3914,
      "##erqa": 3915,
      "na": 3916,
      "##unta": 3917,
      "Chaymanta": 3918,
      "watapi": 3919,
      "Es": 3920,
      "Huk": 3921,
      "jatun": 3922,
      "##wanmi": 3923,
      "16": 3924,
      "caus": 3925,
      "##anchik": 3926,
      "runas": 3927,
      "##uspa": 3928,
      "##ter": 3929,
      "allinta": 3930,
      "##chiq": 3931,
      "##ajta": 3932,
      "##qani": 3933,
      "qo": 3934,
      "chayn": 3935,
      "kunan": 3936,
      "astawan": 3937,
      "qati": 3938,
      "Pika": 3939,
      "ish": 3940,
      "##kama": 3941,
      "shina": 3942,
      "##araq": 3943,
      "Dy": 3944,
      "##00": 3945,
      "##kunapas": 3946,
      "Com": 3947,
      "##uca": 3948,
      "pro": 3949,
      "##ankupaq": 3950,
      "##aypaq": 3951,
      "##aspan": 3952,
      "ki": 3953,
      "unchay": 3954,
      "##hi": 3955,
      "##uynin": 3956,
      "chayta": 3957,
      "kuna": 3958,
      "rimay": 3959,
      "aj": 3960,
      "##kach": 3961,
      "##pacha": 3962,
      "##chun": 3963,
      "Tata": 3964,
      "No": 3965,
      "runakunata": 3966,
      "ali": 3967,
      "kanki": 3968,
      "atin": 3969,
      "Hin": 3970,
      "##kusqan": 3971,
      "munas": 3972,
      "Mois": 3973,
      "pre": 3974,
      "##anka": 3975,
      "##kuyta": 3976,
      "##up": 3977,
      "##acha": 3978,
      "waq": 3979,
      "juch": 3980,
      "##isqan": 3981,
      "San": 3982,
      "kh": 3983,
      "tuku": 3984,
      "##iri": 3985,
      "ya": 3986,
      "##pam": 3987,
      "##llam": 3988,
      "kaa": 3989,
      "##kam": 3990,
      "Chu": 3991,
      "caw": 3992,
      "##ayay": 3993,
      "##erv": 3994,
      "##chij": 3995,
      "##ichwa": 3996,
      "##pach": 3997,
      "per": 3998,
      "suy": 3999,
      "llaq": 4000,
      "##asi": 4001,
      "##eta": 4002,
      "##ota": 4003,
      "anta": 4004,
      "##riy": 4005,
      "punchaw": 4006,
      "Hu": 4007,
      "##qs": 4008,
      "##llapi": 4009,
      "kë": 4010,
      "kaus": 4011,
      "tari": 4012,
      "##uni": 4013,
      "Kunan": 4014,
      "##cunaca": 4015,
      "##ins": 4016,
      "sham": 4017,
      "llaki": 4018,
      "##uri": 4019,
      "Jehová": 4020,
      "Tukuy": 4021,
      "Señor": 4022,
      "(←": 4023,
      "##uqkuna": 4024,
      "inkikuna": 4025,
      "manch": 4026,
      "##kuta": 4027,
      "##tr": 4028,
      "##pata": 4029,
      "##isi": 4030,
      "say": 4031,
      "chayqa": 4032,
      "##cion": 4033,
      "lib": 4034,
      "##waq": 4035,
      "Mar": 4036,
      "##kata": 4037,
      "hawa": 4038,
      "ta": 4039,
      "sas": 4040,
      "jam": 4041,
      "##ritu": 4042,
      "nuna": 4043,
      "##ell": 4044,
      "Ay": 4045,
      "##iru": 4046,
      "cre": 4047,
      "##taqmi": 4048,
      "yachachi": 4049,
      "Per": 4050,
      "##asta": 4051,
      "##eb": 4052,
      "wak": 4053,
      "aw": 4054,
      "saq": 4055,
      "Comm": 4056,
      "##china": 4057,
      "shu": 4058,
      "kachkan": 4059,
      "##manchu": 4060,
      "shuk": 4061,
      "##uran": 4062,
      "##chá": 4063,
      "Sal": 4064,
      "kanku": 4065,
      "rurash": 4066,
      "sutin": 4067,
      "Commons": 4068,
      "payta": 4069,
      "Qh": 4070,
      "sal": 4071,
      "##ente": 4072,
      "##tigur": 4073,
      "yachay": 4074,
      "21": 4075,
      "##inata": 4076,
      "noqa": 4077,
      "Rur": 4078,
      "llapa": 4079,
      "yachan": 4080,
      "##dad": 4081,
      "##mas": 4082,
      "##ús": 4083,
      "##uyta": 4084,
      "##ikipi": 4085,
      "##kin": 4086,
      "Ama": 4087,
      "##arish": 4088,
      "mam": 4089,
      "icha": 4090,
      "kikin": 4091,
      "##arir": 4092,
      "##pac": 4093,
      "serv": 4094,
      "##arayku": 4095,
      "##asqanku": 4096,
      "cayc": 4097,
      "##pag": 4098,
      "##urqan": 4099,
      "##iw": 4100,
      "##aquin": 4101,
      "hay": 4102,
      "##it": 4103,
      "tayta": 4104,
      "le": 4105,
      "Ab": 4106,
      "mik": 4107,
      "##paqmi": 4108,
      "kill": 4109,
      "##risto": 4110,
      "se": 4111,
      "##llay": 4112,
      "##min": 4113,
      "dis": 4114,
      "##ikapi": 4115,
      "Manam": 4116,
      "##cui": 4117,
      "##unku": 4118,
      "wa": 4119,
      "##ud": 4120,
      "##pipas": 4121,
      "Jesús": 4122,
      "yupay": 4123,
      "##lli": 4124,
      "##apä": 4125,
      "juc": 4126,
      "kamachi": 4127,
      "##cunaga": 4128,
      "##anaq": 4129,
      "Pai": 4130,
      "##ista": 4131,
      "##manmi": 4132,
      "mand": 4133,
      "kawsay": 4134,
      "inkimuqkuna": 4135,
      "##ia": 4136,
      "##ulla": 4137,
      "juk": 4138,
      "sumaq": 4139,
      "qatiq": 4140,
      "Moises": 4141,
      "##ayuqmi": 4142,
      "cheqa": 4143,
      "nacion": 4144,
      "##ier": 4145,
      "mul": 4146,
      "##tapis": 4147,
      "##ima": 4148,
      "22": 4149,
      "##ano": 4150,
      "achka": 4151,
      "##ikipid": 4152,
      "nirqa": 4153,
      "##timi": 4154,
      "kin": 4155,
      "##ñataq": 4156,
      "##paqqa": 4157,
      "us": 4158,
      "niy": 4159,
      "llank": 4160,
      "##aris": 4161,
      "llaqtan": 4162,
      "Wikipid": 4163,
      "musy": 4164,
      "Diosnin": 4165,
      "##le": 4166,
      "kanman": 4167,
      "##akunan": 4168,
      "Diosmanta": 4169,
      "manami": 4170,
      "##tapas": 4171,
      "allita": 4172,
      "##ot": 4173,
      "##apis": 4174,
      "##ichu": 4175,
      "wam": 4176,
      "cush": 4177,
      "##dya": 4178,
      "Shina": 4179,
      "##kurqan": 4180,
      "##chan": 4181,
      "##tun": 4182,
      "##eo": 4183,
      "##Chay": 4184,
      "ñau": 4185,
      "chaypi": 4186,
      "24": 4187,
      "##kurqa": 4188,
      "##kunayuqmi": 4189,
      "Jesuc": 4190,
      "##kum": 4191,
      "kashan": 4192,
      "##orqa": 4193,
      "sir": 4194,
      "kaj": 4195,
      "tr": 4196,
      "sumaj": 4197,
      "kapuynin": 4198,
      "##amili": 4199,
      "Imata": 4200,
      "ñawpaq": 4201,
      "##urqa": 4202,
      "kayta": 4203,
      "multimi": 4204,
      "atiy": 4205,
      "kaptin": 4206,
      "##allp": 4207,
      "##ashan": 4208,
      "##ashna": 4209,
      "ich": 4210,
      "multimidya": 4211,
      "Pab": 4212,
      "##achun": 4213,
      "kapuyninkunayuqmi": 4214,
      "##upa": 4215,
      "niran": 4216,
      "puk": 4217,
      "nisqan": 4218,
      "ran": 4219,
      "##iqin": 4220,
      "munar": 4221,
      "tuta": 4222,
      "##pasqa": 4223,
      "cam": 4224,
      "Wikipidiya": 4225,
      "Dyus": 4226,
      "##arina": 4227,
      "chunka": 4228,
      "##kha": 4229,
      "mir": 4230,
      "..": 4231,
      "la": 4232,
      "##chic": 4233,
      "23": 4234,
      "##risti": 4235,
      "imayna": 4236,
      "##ayna": 4237,
      "##chish": 4238,
      "##irqa": 4239,
      "##quin": 4240,
      "##onqa": 4241,
      "Payqa": 4242,
      "ric": 4243,
      "##enta": 4244,
      "##gel": 4245,
      "piens": 4246,
      "##tsi": 4247,
      "ph": 4248,
      "rey": 4249,
      "##eli": 4250,
      "##tilla": 4251,
      "##ashqa": 4252,
      "##iran": 4253,
      "Al": 4254,
      "ñak": 4255,
      "caj": 4256,
      "##arka": 4257,
      "##ij": 4258,
      "chuuu": 4259,
      "##han": 4260,
      "Chai": 4261,
      "##ñam": 4262,
      "##ue": 4263,
      "Jer": 4264,
      "##caj": 4265,
      "##llll": 4266,
      "Noqa": 4267,
      "Pikachu": 4268,
      "Juan": 4269,
      "##äpa": 4270,
      "##per": 4271,
      "sun": 4272,
      "##AN": 4273,
      "##ristu": 4274,
      "##qanchik": 4275,
      "##avid": 4276,
      "ruran": 4277,
      "pru": 4278,
      "##chiy": 4279,
      "wañu": 4280,
      "munash": 4281,
      "anch": 4282,
      "##arqanku": 4283,
      "200": 4284,
      "Kam": 4285,
      "##kta": 4286,
      "##opi": 4287,
      "jap": 4288,
      "Chayrayku": 4289,
      "Jesusqa": 4290,
      "chan": 4291,
      "##mantaqa": 4292,
      "##ahu": 4293,
      "mikh": 4294,
      "wasin": 4295,
      "Tsë": 4296,
      "##aray": 4297,
      "##antapis": 4298,
      "karan": 4299,
      "Qan": 4300,
      "mancha": 4301,
      "##rí": 4302,
      "25": 4303,
      "Ya": 4304,
      "suti": 4305,
      "##go": 4306,
      "yuyay": 4307,
      "or": 4308,
      "Su": 4309,
      "qay": 4310,
      "ñiqin": 4311,
      "tak": 4312,
      "Diosmi": 4313,
      "##anakuy": 4314,
      "ña": 4315,
      "##chim": 4316,
      "ruray": 4317,
      "th": 4318,
      "##kunataqa": 4319,
      "##epa": 4320,
      "##allpa": 4321,
      "tucui": 4322,
      "Ash": 4323,
      "Jos": 4324,
      "killapi": 4325,
      "##achish": 4326,
      "aqa": 4327,
      "Rurana": 4328,
      "Jesuspa": 4329,
      "wat": 4330,
      "##chisqa": 4331,
      "David": 4332,
      "##co": 4333,
      "##manda": 4334,
      "ari": 4335,
      "cristi": 4336,
      "nirqan": 4337,
      "##ikr": 4338,
      "antacha": 4339,
      "allpa": 4340,
      "##ashca": 4341,
      "yaku": 4342,
      "huch": 4343,
      "pii": 4344,
      "##ump": 4345,
      "paykuna": 4346,
      "##ninku": 4347,
      "Wakin": 4348,
      "ayllu": 4349,
      "Am": 4350,
      "ad": 4351,
      "kallpan": 4352,
      "##pimi": 4353,
      "on": 4354,
      "pampa": 4355,
      "##cay": 4356,
      "##asqanta": 4357,
      "##elqa": 4358,
      "waj": 4359,
      "##ten": 4360,
      "000": 4361,
      "##llataq": 4362,
      "?\"": 4363,
      "famili": 4364,
      "##pe": 4365,
      "##du": 4366,
      "yanapan": 4367,
      "##kichis": 4368,
      "mill": 4369,
      "min": 4370,
      "##sapa": 4371,
      "iñiq": 4372,
      "kush": 4373,
      "##usal": 4374,
      "##kunatam": 4375,
      "sam": 4376,
      "cach": 4377,
      "##kaq": 4378,
      "##ipa": 4379,
      "##kunatapas": 4380,
      "runata": 4381,
      "##iku": 4382,
      "##urin": 4383,
      "llak": 4384,
      "##ukun": 4385,
      "payqa": 4386,
      "##qayku": 4387,
      "##wins": 4388,
      "##är": 4389,
      "pipi": 4390,
      "shimi": 4391,
      "llaqui": 4392,
      "gu": 4393,
      "gam": 4394,
      "##apay": 4395,
      "enti": 4396,
      "##llaj": 4397,
      "##cunapis": 4398,
      "kur": 4399,
      "chh": 4400,
      "##chikta": 4401,
      "rima": 4402,
      "##su": 4403,
      "##tim": 4404,
      "ag": 4405,
      "sonqo": 4406,
      "##pica": 4407,
      "chai": 4408,
      "anqakunam": 4409,
      "Uma": 4410,
      "tsë": 4411,
      "##antaq": 4412,
      "paqa": 4413,
      "Qull": 4414,
      "##tar": 4415,
      "##arkan": 4416,
      "30": 4417,
      "pan": 4418,
      "punta": 4419,
      "push": 4420,
      "tanta": 4421,
      "cha": 4422,
      "##tir": 4423,
      "##kuynin": 4424,
      "kaqta": 4425,
      "##io": 4426,
      "Katigur": 4427,
      "inkimun": 4428,
      "##kunaka": 4429,
      "puñ": 4430,
      "huñ": 4431,
      "##apaq": 4432,
      "wawa": 4433,
      "\"¿": 4434,
      "##jina": 4435,
      "##kita": 4436,
      "llakta": 4437,
      "rikch": 4438,
      "##ayqa": 4439,
      "anqamanqa": 4440,
      "ñuc": 4441,
      "##unqa": 4442,
      "28": 4443,
      "##qe": 4444,
      "##unman": 4445,
      "llaqtapi": 4446,
      "Jehova": 4447,
      "##ampaq": 4448,
      "##lu": 4449,
      "##unqui": 4450,
      "sinchi": 4451,
      "Ni": 4452,
      "otaq": 4453,
      "to": 4454,
      "##arim": 4455,
      "##hay": 4456,
      "##qayta": 4457,
      "chaymanta": 4458,
      "kutim": 4459,
      "##kunaq": 4460,
      "chak": 4461,
      "iy": 4462,
      "Hatun": 4463,
      "Ñaw": 4464,
      "##tay": 4465,
      "##ug": 4466,
      "entiend": 4467,
      "cont": 4468,
      "##wanqa": 4469,
      "her": 4470,
      "##iyapi": 4471,
      "##llampa": 4472,
      "##änan": 4473,
      "pruwins": 4474,
      "imay": 4475,
      "##uku": 4476,
      "##OS": 4477,
      "##panku": 4478,
      "jin": 4479,
      "pipas": 4480,
      "##res": 4481,
      "##äm": 4482,
      "##acuy": 4483,
      "cai": 4484,
      "runakunaqa": 4485,
      "##masin": 4486,
      "##aykipaq": 4487,
      "kaaa": 4488,
      "##payki": 4489,
      "ayw": 4490,
      "wañuch": 4491,
      "##uru": 4492,
      "ñan": 4493,
      "##anata": 4494,
      "rikur": 4495,
      "Kan": 4496,
      "chaymi": 4497,
      "##niyoq": 4498,
      "wiy": 4499,
      "qos": 4500,
      "Katiguriya": 4501,
      "shun": 4502,
      "##ptinmi": 4503,
      "26": 4504,
      "##de": 4505,
      "Un": 4506,
      "##achus": 4507,
      "##asqayki": 4508,
      "salv": 4509,
      "vid": 4510,
      "##achiy": 4511,
      "##enci": 4512,
      "Pro": 4513,
      "##qankuta": 4514,
      "pata": 4515,
      "paykunata": 4516,
      "##kakuna": 4517,
      "##aci": 4518,
      "##äta": 4519,
      "charin": 4520,
      "Mat": 4521,
      "tin": 4522,
      "riqs": 4523,
      "##cacuna": 4524,
      "##kichik": 4525,
      "angel": 4526,
      "##shi": 4527,
      "kusisqa": 4528,
      "27": 4529,
      "runaqa": 4530,
      "##ori": 4531,
      "manta": 4532,
      "##aqtin": 4533,
      "##alla": 4534,
      "ac": 4535,
      "##tudi": 4536,
      "##lan": 4537,
      "##qo": 4538,
      "##llami": 4539,
      "##kuchu": 4540,
      "##upi": 4541,
      "##uwan": 4542,
      "##don": 4543,
      "pikapi": 4544,
      "##unchik": 4545,
      "Llaqta": 4546,
      "Chi": 4547,
      "canan": 4548,
      "##pura": 4549,
      "sasach": 4550,
      "uma": 4551,
      "nina": 4552,
      "##oc": 4553,
      "##iern": 4554,
      "com": 4555,
      "chayam": 4556,
      "##ah": 4557,
      "Jis": 4558,
      "##achkan": 4559,
      "Diosman": 4560,
      "Kachu": 4561,
      "##mantam": 4562,
      "##kichu": 4563,
      "##ashka": 4564,
      "##kas": 4565,
      "##ñataqmi": 4566,
      "##anchis": 4567,
      "Jerusal": 4568,
      "##ero": 4569,
      "##ham": 4570,
      "hanaq": 4571,
      "kat": 4572,
      "Qam": 4573,
      "##ech": 4574,
      "ris": 4575,
      "kim": 4576,
      "munay": 4577,
      "manaña": 4578,
      "hor": 4579,
      "pag": 4580,
      "piikachu": 4581,
      "29": 4582,
      "sut": 4583,
      "##onta": 4584,
      "##hun": 4585,
      "##awar": 4586,
      "Cha": 4587,
      "##...": 4588,
      "##achö": 4589,
      "##ty": 4590,
      "hinam": 4591,
      "Imanasqa": 4592,
      "##shina": 4593,
      "##ía": 4594,
      "mu": 4595,
      "juj": 4596,
      "Ap": 4597,
      "paypa": 4598,
      "res": 4599,
      "cä": 4600,
      "rumi": 4601,
      "Ped": 4602,
      "lliw": 4603,
      "puncha": 4604,
      "##cunaman": 4605,
      "Chayta": 4606,
      "cuy": 4607,
      "War": 4608,
      "Pach": 4609,
      "piika": 4610,
      "kasu": 4611,
      "pisi": 4612,
      "##qi": 4613,
      "##ark": 4614,
      "maq": 4615,
      "##arq": 4616,
      "te": 4617,
      "##wanchik": 4618,
      "panta": 4619,
      "Allin": 4620,
      "##anpaq": 4621,
      "##kupi": 4622,
      "churin": 4623,
      "Jesucristo": 4624,
      "Manan": 4625,
      "pak": 4626,
      "##wi": 4627,
      "##asuyu": 4628,
      "llajta": 4629,
      "ruway": 4630,
      "Paymi": 4631,
      "hap": 4632,
      "Di": 4633,
      "##anch": 4634,
      "##akuna": 4635,
      "ñoqa": 4636,
      "##argan": 4637,
      "Chaqa": 4638,
      "##ent": 4639,
      "##dic": 4640,
      "##gip": 4641,
      "##esta": 4642,
      "Yapasqa": 4643,
      "##ing": 4644,
      "##ushpa": 4645,
      "Chas": 4646,
      "ci": 4647,
      "##vi": 4648,
      "Manachu": 4649,
      "##chkan": 4650,
      "##spa": 4651,
      "pruwinsya": 4652,
      "##cunapa": 4653,
      "Re": 4654,
      "yur": 4655,
      "##bi": 4656,
      "##uya": 4657,
      "laya": 4658,
      "##anam": 4659,
      "imatapas": 4660,
      "##AS": 4661,
      "##ćhu": 4662,
      "##ira": 4663,
      "##ali": 4664,
      "ayll": 4665,
      "unay": 4666,
      "suk": 4667,
      "ñuk": 4668,
      "##ćh": 4669,
      "##cami": 4670,
      "##sin": 4671,
      "##allpaper": 4672,
      "##yuq": 4673,
      "wich": 4674,
      "##puy": 4675,
      "hui": 4676,
      "shuj": 4677,
      "##dio": 4678,
      "estudi": 4679,
      "Jesusta": 4680,
      "##usqan": 4681,
      "##kh": 4682,
      "kusi": 4683,
      "imapas": 4684,
      "musuq": 4685,
      "##umaq": 4686,
      "Yaya": 4687,
      "kun": 4688,
      "ricu": 4689,
      "##fi": 4690,
      "##rab": 4691,
      "##imal": 4692,
      "pal": 4693,
      "##acta": 4694,
      "##tana": 4695,
      "ma": 4696,
      "##ashun": 4697,
      "Ad": 4698,
      "tiempopi": 4699,
      "##qantsik": 4700,
      "##isha": 4701,
      "##tahuan": 4702,
      "##sim": 4703,
      "##away": 4704,
      "##pika": 4705,
      "##chikqa": 4706,
      "simipi": 4707,
      "pakta": 4708,
      "##ang": 4709,
      "##ver": 4710,
      "##niyoj": 4711,
      "',": 4712,
      "yay": 4713,
      "##aru": 4714,
      "##wanpas": 4715,
      "muy": 4716,
      "yachats": 4717,
      "##aytan": 4718,
      "##isk": 4719,
      "##ichus": 4720,
      "kaynin": 4721,
      "Qullasuyu": 4722,
      "nich": 4723,
      "##rad": 4724,
      "##arca": 4725,
      "##ishun": 4726,
      "##antá": 4727,
      "di": 4728,
      "##usha": 4729,
      "um": 4730,
      "junt": 4731,
      "imarayku": 4732,
      "##tol": 4733,
      "El": 4734,
      "yachachin": 4735,
      "Satan": 4736,
      "##nam": 4737,
      "##niyuq": 4738,
      "vi": 4739,
      "##akus": 4740,
      "pis": 4741,
      "Warmi": 4742,
      "Ri": 4743,
      "##aptinmi": 4744,
      "31": 4745,
      "##ïta": 4746,
      "##anaj": 4747,
      "suq": 4748,
      "##án": 4749,
      "el": 4750,
      "##ëki": 4751,
      "##kapak": 4752,
      "jallp": 4753,
      "##iyu": 4754,
      "yapa": 4755,
      "unchaw": 4756,
      "##mig": 4757,
      "mayta": 4758,
      "yanapay": 4759,
      "##llataj": 4760,
      "##pur": 4761,
      "Taita": 4762,
      "tarin": 4763,
      "que": 4764,
      "Sam": 4765,
      "##äsh": 4766,
      "##enqa": 4767,
      "Abra": 4768,
      "##mantapas": 4769,
      "##aquillaj": 4770,
      "##obiern": 4771,
      "Ach": 4772,
      "Egip": 4773,
      "Piru": 4774,
      "##pana": 4775,
      "##kami": 4776,
      "pipis": 4777,
      "sasachakuy": 4778,
      "##kichej": 4779,
      "Pir": 4780,
      "##quy": 4781,
      "##arispa": 4782,
      "Mama": 4783,
      "##yun": 4784,
      "Sapa": 4785,
      "##aquillaje": 4786,
      "chik": 4787,
      "Can": 4788,
      "##ñachu": 4789,
      "imatapis": 4790,
      "animal": 4791,
      "sol": 4792,
      "taq": 4793,
      "kamachiy": 4794,
      "##ishka": 4795,
      "##eg": 4796,
      "##aykur": 4797,
      "qhichwa": 4798,
      "##th": 4799,
      "reqs": 4800,
      "Arí": 4801,
      "Sayn": 4802,
      "manaraq": 4803,
      "##rim": 4804,
      "ñuca": 4805,
      "##pitaq": 4806,
      "Kas": 4807,
      "juna": 4808,
      "Jin": 4809,
      "##CH": 4810,
      "ley": 4811,
      "##gl": 4812,
      "##oman": 4813,
      "##unchu": 4814,
      "##kupaq": 4815,
      "##kar": 4816,
      "##ëta": 4817,
      "##pami": 4818,
      "##nu": 4819,
      "##cunami": 4820,
      "of": 4821,
      "huañ": 4822,
      "##asaq": 4823,
      "yaqa": 4824,
      "qell": 4825,
      "kaspa": 4826,
      "runacunata": 4827,
      "prof": 4828,
      "shuti": 4829,
      "chask": 4830,
      "Wañ": 4831,
      "##yá": 4832,
      "##ganta": 4833,
      "##chikmi": 4834,
      "mak": 4835,
      "willakuy": 4836,
      "##én": 4837,
      "wañuy": 4838,
      "kanchu": 4839,
      "quiquin": 4840,
      "Cor": 4841,
      "kriy": 4842,
      "##kap": 4843,
      "##arc": 4844,
      "Tsayn": 4845,
      "##kusqa": 4846,
      "##ñan": 4847,
      "##ini": 4848,
      "##acion": 4849,
      "yan": 4850,
      "##tritu": 4851,
      "rij": 4852,
      "herman": 4853,
      "##lig": 4854,
      "##wata": 4855,
      "##tor": 4856,
      "##hur": 4857,
      "mash": 4858,
      "##hina": 4859,
      "##ayoq": 4860,
      "##inch": 4861,
      "yall": 4862,
      "##allata": 4863,
      "##ary": 4864,
      "##za": 4865,
      "##ikunan": 4866,
      "##ala": 4867,
      "jucha": 4868,
      "libro": 4869,
      "##qen": 4870,
      "nan": 4871,
      "ñawpa": 4872,
      "Pedro": 4873,
      "##cul": 4874,
      "haw": 4875,
      "quy": 4876,
      "Cay": 4877,
      "##ëd": 4878,
      "llulla": 4879,
      "Peru": 4880,
      "qon": 4881,
      "akll": 4882,
      "##oli": 4883,
      "yanapaw": 4884,
      "##kuman": 4885,
      "Qu": 4886,
      "ñuka": 4887,
      "##raqmi": 4888,
      "li": 4889,
      "##ayninta": 4890,
      "mush": 4891,
      "camb": 4892,
      "##san": 4893,
      "nerqa": 4894,
      "##ram": 4895,
      "##cunawan": 4896,
      "caycan": 4897,
      "##mo": 4898,
      "##ahua": 4899,
      "Pablo": 4900,
      "Kaw": 4901,
      "call": 4902,
      "##hin": 4903,
      "mic": 4904,
      "alläpa": 4905,
      "##aypa": 4906,
      "yupaych": 4907,
      "sach": 4908,
      "wawan": 4909,
      "##acu": 4910,
      "##esi": 4911,
      "cristiano": 4912,
      "Biblia": 4913,
      "##cam": 4914,
      "##va": 4915,
      "##ninpi": 4916,
      "##qh": 4917,
      "Mus": 4918,
      "##cunan": 4919,
      "ukhu": 4920,
      "##ong": 4921,
      "ñucanchi": 4922,
      "##llachu": 4923,
      "##kunap": 4924,
      "cuti": 4925,
      "iñiy": 4926,
      "san": 4927,
      "##kunataq": 4928,
      "tucuy": 4929,
      "ut": 4930,
      "##nami": 4931,
      "inti": 4932,
      "Imarayku": 4933,
      "Ti": 4934,
      "nuqa": 4935,
      "paykunaqa": 4936,
      "##lin": 4937,
      "##aypi": 4938,
      "##gapaj": 4939,
      "chuu": 4940,
      "##elita": 4941,
      "del": 4942,
      "wallpaper": 4943,
      "qhepa": 4944,
      "##llakta": 4945,
      "##ananpaq": 4946,
      "Simi": 4947,
      "kimsa": 4948,
      "warm": 4949,
      "Paykunaqa": 4950,
      "llaqtam": 4951,
      "Chaura": 4952,
      "Egipto": 4953,
      "##kapi": 4954,
      "chayna": 4955,
      "huñuna": 4956,
      "##ow": 4957,
      "taki": 4958,
      "imas": 4959,
      "##raelita": 4960,
      "##achina": 4961,
      "Llapan": 4962,
      "sipas": 4963,
      "Mi": 4964,
      "##awpi": 4965,
      "##ew": 4966,
      "##awaq": 4967,
      "##orqanku": 4968,
      "##sqan": 4969,
      "apam": 4970,
      "##ati": 4971,
      "##asqanchik": 4972,
      "##kanta": 4973,
      "##aycan": 4974,
      "!!": 4975,
      "##pul": 4976,
      "perdon": 4977,
      "##imin": 4978,
      "waqa": 4979,
      "##qaq": 4980,
      "##esh": 4981,
      "kaypi": 4982,
      "##raykum": 4983,
      "##antin": 4984,
      "##raj": 4985,
      "##ado": 4986,
      "##umb": 4987,
      "##aska": 4988,
      "wiñay": 4989,
      "##caman": 4990,
      "yachachikuy": 4991,
      "##és": 4992,
      "llan": 4993,
      "imaynata": 4994,
      "runakunapa": 4995,
      "want": 4996,
      "tante": 4997,
      "##cunatapis": 4998,
      "hucha": 4999,
      "##ankuta": 5000,
      "##ez": 5001,
      "##estig": 5002,
      "32": 5003,
      "waqay": 5004,
      "Jerusalen": 5005,
      "allich": 5006,
      "Mari": 5007,
      "niyan": 5008,
      "##mana": 5009,
      "##rega": 5010,
      "cui": 5011,
      "##tur": 5012,
      "##śh": 5013,
      "##arisqa": 5014,
      "Chuu": 5015,
      "##sha": 5016,
      "imayman": 5017,
      "Gam": 5018,
      "qelqa": 5019,
      "33": 5020,
      "kaqmanta": 5021,
      "##az": 5022,
      "Luc": 5023,
      "##punin": 5024,
      "hinallataq": 5025,
      "##chista": 5026,
      "##irca": 5027,
      "##py": 5028,
      "hunt": 5029,
      "##ananchik": 5030,
      "phi": 5031,
      "tikr": 5032,
      "Bibliapi": 5033,
      "##anman": 5034,
      "kasqanmanta": 5035,
      "Pitaq": 5036,
      "maman": 5037,
      "##kä": 5038,
      "##wanpis": 5039,
      "##ishca": 5040,
      "kachun": 5041,
      "fi": 5042,
      "##achasqa": 5043,
      "##ninchik": 5044,
      "kasqa": 5045,
      "##anmi": 5046,
      "lluq": 5047,
      "mos": 5048,
      "##akuq": 5049,
      "##achis": 5050,
      "##arqaku": 5051,
      "##bre": 5052,
      "##ron": 5053,
      "distritu": 5054,
      "relig": 5055,
      "Qui": 5056,
      "ninmi": 5057,
      "##chömi": 5058,
      "##ton": 5059,
      "##acush": 5060,
      "##gi": 5061,
      "llap": 5062,
      "Si": 5063,
      "val": 5064,
      "##od": 5065,
      "##cag": 5066,
      "Chaypi": 5067,
      "iñiqmasin": 5068,
      "kich": 5069,
      "##uqui": 5070,
      "Imanasqataq": 5071,
      "##cunataca": 5072,
      "##kushpa": 5073,
      "##piritu": 5074,
      "che": 5075,
      "qull": 5076,
      "##allam": 5077,
      "##cta": 5078,
      "##kuk": 5079,
      "##era": 5080,
      "ruwayta": 5081,
      "alab": 5082,
      "##ataj": 5083,
      "cuer": 5084,
      "utaq": 5085,
      "##cunapaj": 5086,
      "##,\"": 5087,
      "##aykuna": 5088,
      "En": 5089,
      "##regacion": 5090,
      "Chashna": 5091,
      "qhari": 5092,
      "pats": 5093,
      "qat": 5094,
      "Chayna": 5095,
      "para": 5096,
      "ir": 5097,
      "waki": 5098,
      "Alli": 5099,
      "gente": 5100,
      "##tsa": 5101,
      "ruraq": 5102,
      "Tam": 5103,
      "trab": 5104,
      "##panmi": 5105,
      "yanapas": 5106,
      "Imataq": 5107,
      "chuuuu": 5108,
      "##tillan": 5109,
      "Imatam": 5110,
      "manachu": 5111,
      "uyari": 5112,
      "caran": 5113,
      "##kani": 5114,
      "##ostol": 5115,
      "'.": 5116,
      "Was": 5117,
      "]]": 5118,
      "punlla": 5119,
      "he": 5120,
      "##piri": 5121,
      "##umpa": 5122,
      "Chaymantapas": 5123,
      "puq": 5124,
      "##amp": 5125,
      "lloq": 5126,
      "##gunata": 5127,
      "ñuqa": 5128,
      "Jehovä": 5129,
      "##rib": 5130,
      "niw": 5131,
      "cos": 5132,
      "Kunanqa": 5133,
      "Cai": 5134,
      "##car": 5135,
      "nirca": 5136,
      "Imaynatam": 5137,
      "Cristo": 5138,
      "Jac": 5139,
      "##uptin": 5140,
      "Payta": 5141,
      "##ph": 5142,
      "mask": 5143,
      "##tsic": 5144,
      "nim": 5145,
      "##chata": 5146,
      "##apusqa": 5147,
      "##aqmi": 5148,
      "##ayniyoq": 5149,
      "[[": 5150,
      "anchata": 5151,
      "##ung": 5152,
      "kastilla": 5153,
      "40": 5154,
      "##yoq": 5155,
      "##paqa": 5156,
      "pich": 5157,
      "qillqakuna": 5158,
      "Piruw": 5159,
      "##mir": 5160,
      "##ayni": 5161,
      "hua": 5162,
      "##äts": 5163,
      "##quita": 5164,
      "noqan": 5165,
      "##apin": 5166,
      "ner": 5167,
      "pin": 5168,
      "Mateo": 5169,
      "##të": 5170,
      "kananpaq": 5171,
      "Way": 5172,
      "Ñuca": 5173,
      "kawsan": 5174,
      "Hinaspa": 5175,
      "watamanta": 5176,
      "Pu": 5177,
      "##llaña": 5178,
      "llapallan": 5179,
      "Shu": 5180,
      "Yuy": 5181,
      "##ce": 5182,
      "Kë": 5183,
      "Qall": 5184,
      "llaqtanqa": 5185,
      "runakunam": 5186,
      "predic": 5187,
      "it": 5188,
      "Imaray": 5189,
      "Mun": 5190,
      "##kancu": 5191,
      "pachak": 5192,
      "##ás": 5193,
      "Yaqa": 5194,
      "mayu": 5195,
      "piñ": 5196,
      "##ción": 5197,
      "kawsayta": 5198,
      "religion": 5199,
      "##was": 5200,
      "##arqani": 5201,
      "kutin": 5202,
      "##chejta": 5203,
      "much": 5204,
      "katigur": 5205,
      "Le": 5206,
      "##may": 5207,
      "##lliq": 5208,
      "):": 5209,
      "cump": 5210,
      "mai": 5211,
      "wil": 5212,
      "Qhichwa": 5213,
      "kal": 5214,
      "##llamanta": 5215,
      "##lä": 5216,
      "##mantan": 5217,
      "##acur": 5218,
      "imanö": 5219,
      "apay": 5220,
      "mal": 5221,
      "nas": 5222,
      "##kunatan": 5223,
      "warmin": 5224,
      "##no": 5225,
      "Ñuqa": 5226,
      "##curs": 5227,
      "##unanpaq": 5228,
      "34": 5229,
      "##mand": 5230,
      "##ninmi": 5231,
      "shuy": 5232,
      "Chayqa": 5233,
      "##ici": 5234,
      "##emplo": 5235,
      "tarikun": 5236,
      "qol": 5237,
      "##ninmanta": 5238,
      "shin": 5239,
      "carc": 5240,
      "noga": 5241,
      "##acho": 5242,
      "Ish": 5243,
      "##canqui": 5244,
      "Kaa": 5245,
      "cong": 5246,
      "##ras": 5247,
      "Aw": 5248,
      "##tum": 5249,
      "lla": 5250,
      "##enga": 5251,
      "##llki": 5252,
      "##usta": 5253,
      "sac": 5254,
      "##rata": 5255,
      "wiñaypaq": 5256,
      "millay": 5257,
      "##yay": 5258,
      "Sa": 5259,
      "makin": 5260,
      "##ena": 5261,
      "##ento": 5262,
      "huarmi": 5263,
      "yachaq": 5264,
      "yura": 5265,
      "##paschá": 5266,
      "kiti": 5267,
      "saj": 5268,
      "##payta": 5269,
      "##tis": 5270,
      "trabaj": 5271,
      "##niyki": 5272,
      "pusapusqa": 5273,
      ".)": 5274,
      "##uel": 5275,
      "##est": 5276,
      "##umi": 5277,
      "##ichin": 5278,
      "ruwasqan": 5279,
      "##que": 5280,
      "Th": 5281,
      "pachata": 5282,
      "##chita": 5283,
      "##cis": 5284,
      "##chikchu": 5285,
      "cashcata": 5286,
      "api": 5287,
      "tata": 5288,
      "##ukuna": 5289,
      "##ES": 5290,
      "##chuk": 5291,
      "israelita": 5292,
      "##ayquita": 5293,
      "##isip": 5294,
      "Iskay": 5295,
      "katiguriyapi": 5296,
      "me": 5297,
      "pat": 5298,
      "khuy": 5299,
      "casar": 5300,
      "##risqa": 5301,
      "##ador": 5302,
      "dios": 5303,
      "##anpi": 5304,
      "##mantami": 5305,
      "cheqaq": 5306,
      "La": 5307,
      "rurar": 5308,
      "##akur": 5309,
      "Pabl": 5310,
      "pens": 5311,
      "##apar": 5312,
      "ata": 5313,
      "por": 5314,
      "Pii": 5315,
      "##iyupa": 5316,
      "##aycä": 5317,
      "##ipi": 5318,
      "##kunami": 5319,
      "ej": 5320,
      "36": 5321,
      "##oo": 5322,
      "pachaman": 5323,
      "##änampaq": 5324,
      "##ishqa": 5325,
      "50": 5326,
      "Kus": 5327,
      "##usaq": 5328,
      "##ord": 5329,
      "rir": 5330,
      "yawar": 5331,
      "##achay": 5332,
      "rej": 5333,
      "rurana": 5334,
      "sonqon": 5335,
      "hapi": 5336,
      "##aykita": 5337,
      "##unka": 5338,
      "Muna": 5339,
      "canga": 5340,
      "Par": 5341,
      "congregacion": 5342,
      "nisha": 5343,
      "ab": 5344,
      "kawsaq": 5345,
      "##araj": 5346,
      "##ninkuna": 5347,
      "Piika": 5348,
      "chink": 5349,
      "Mush": 5350,
      "##unmi": 5351,
      "35": 5352,
      "##chichu": 5353,
      "##oqayku": 5354,
      "Shuk": 5355,
      "ras": 5356,
      "##por": 5357,
      "chari": 5358,
      "tantiy": 5359,
      "##ly": 5360,
      "##qachu": 5361,
      "##arishpa": 5362,
      "Ñuka": 5363,
      "ill": 5364,
      "Jina": 5365,
      "yanapar": 5366,
      "tuk": 5367,
      "##kuch": 5368,
      "tucun": 5369,
      "Ku": 5370,
      "payman": 5371,
      "paywan": 5372,
      "maypi": 5373,
      "chanin": 5374,
      "##and": 5375,
      "Kaws": 5376,
      "rimaq": 5377,
      "chaski": 5378,
      "Juj": 5379,
      "Yana": 5380,
      "##ampis": 5381,
      "Pikapi": 5382,
      "onq": 5383,
      "##ías": 5384,
      "##ayá": 5385,
      "Suyu": 5386,
      "ray": 5387,
      "uch": 5388,
      "kamachiq": 5389,
      "##lam": 5390,
      "##ashcata": 5391,
      "kamachin": 5392,
      "##quir": 5393,
      "Ur": 5394,
      "##atu": 5395,
      "##cuj": 5396,
      "purin": 5397,
      "##kunku": 5398,
      "bend": 5399,
      "cor": 5400,
      "##taca": 5401,
      "##amun": 5402,
      "##eyta": 5403,
      "Bibliaqa": 5404,
      "##qin": 5405,
      "kasqanku": 5406,
      "Jacob": 5407,
      "##tiki": 5408,
      "nisqanta": 5409,
      "##manqa": 5410,
      "kallpanch": 5411,
      "##akush": 5412,
      "##isipyu": 5413,
      "munani": 5414,
      "Juk": 5415,
      "##camanta": 5416,
      "##ve": 5417,
      "Imaraykun": 5418,
      "shumaq": 5419,
      "##yar": 5420,
      "##till": 5421,
      "mall": 5422,
      "Mam": 5423,
      "nec": 5424,
      "riq": 5425,
      "qanchis": 5426,
      "##hua": 5427,
      "tex": 5428,
      "Taw": 5429,
      "##iyuq": 5430,
      "##onpa": 5431,
      "ayud": 5432,
      "nisqanman": 5433,
      "Waw": 5434,
      "qhe": 5435,
      "##cunatapish": 5436,
      "##akuyta": 5437,
      "gobiern": 5438,
      "##sta": 5439,
      "##kamanta": 5440,
      "Pas": 5441,
      "Tikr": 5442,
      "agrad": 5443,
      "##atata": 5444,
      "Rey": 5445,
      "Wasi": 5446,
      "##tanta": 5447,
      "Nir": 5448,
      "contran": 5449,
      "##anmanta": 5450,
      "urm": 5451,
      "##kaptin": 5452,
      "Chayno": 5453,
      "sar": 5454,
      "ver": 5455,
      "Se": 5456,
      "pish": 5457,
      "##ato": 5458,
      "##ayi": 5459,
      "##llaman": 5460,
      "##uraq": 5461,
      "##acun": 5462,
      "tukun": 5463,
      "##anchu": 5464,
      "nisqapi": 5465,
      "Ñoqa": 5466,
      "##asqay": 5467,
      "lloj": 5468,
      "##kuspan": 5469,
      "kuska": 5470,
      "Bibliata": 5471,
      "##unam": 5472,
      "cambi": 5473,
      "Ñuc": 5474,
      "##niki": 5475,
      "askha": 5476,
      "pë": 5477,
      "##kusqanta": 5478,
      "pachamanta": 5479,
      "tawa": 5480,
      "##mat": 5481,
      "Diosca": 5482,
      "imaraykuchus": 5483,
      "Tikraynin": 5484,
      "##yuta": 5485,
      "##cia": 5486,
      "tum": 5487,
      "##asapa": 5488,
      "##kusqanku": 5489,
      "Will": 5490,
      "Jesucristu": 5491,
      "##AQ": 5492,
      "rurashpa": 5493,
      "cuerp": 5494,
      "##sis": 5495,
      "##llawan": 5496,
      "Chh": 5497,
      "##tiqui": 5498,
      "##pämi": 5499,
      "kana": 5500,
      "mil": 5501,
      "wik": 5502,
      "Chanka": 5503,
      "taytay": 5504,
      "##istad": 5505,
      "##hapaq": 5506,
      "yanqa": 5507,
      "watakuna": 5508,
      "mis": 5509,
      "##liw": 5510,
      "##vej": 5511,
      "##jin": 5512,
      "##chischu": 5513,
      "rip": 5514,
      "##llatak": 5515,
      "##yaq": 5516,
      "##uchun": 5517,
      "imash": 5518,
      "##tillanu": 5519,
      "yayku": 5520,
      "Pal": 5521,
      "Tuc": 5522,
      "##vo": 5523,
      "Cu": 5524,
      "Car": 5525,
      "Hay": 5526,
      "Pun": 5527,
      "##änu": 5528,
      "Uj": 5529,
      "yachanki": 5530,
      "israel": 5531,
      "ranti": 5532,
      "\"¡": 5533,
      "chaynataq": 5534,
      "##achim": 5535,
      "##tion": 5536,
      "atis": 5537,
      "##aqay": 5538,
      "tukur": 5539,
      "jisk": 5540,
      "raymi": 5541,
      "##ichi": 5542,
      "##papi": 5543,
      "Imanir": 5544,
      "Pero": 5545,
      "##akï": 5546,
      "##raykun": 5547,
      "##amar": 5548,
      "##aykichis": 5549,
      "sunqu": 5550,
      "cunan": 5551,
      "yachayta": 5552,
      "jay": 5553,
      "ñi": 5554,
      "##zo": 5555,
      "##tak": 5556,
      "##cunapi": 5557,
      "##ninwan": 5558,
      "##ayniyoj": 5559,
      "Isa": 5560,
      "tiempon": 5561,
      "##aca": 5562,
      "kallpach": 5563,
      "cuenta": 5564,
      "##chir": 5565,
      "##inapaq": 5566,
      "uyar": 5567,
      "ichanga": 5568,
      "maki": 5569,
      "##kuqa": 5570,
      "Qhapaq": 5571,
      "law": 5572,
      "##tá": 5573,
      "##acä": 5574,
      "willay": 5575,
      "##tik": 5576,
      "churi": 5577,
      "wasipi": 5578,
      "cheqap": 5579,
      "##kiy": 5580,
      "##oma": 5581,
      "fiyupa": 5582,
      "Uy": 5583,
      "##ind": 5584,
      "##kunapis": 5585,
      "chus": 5586,
      "Imanö": 5587,
      "Por": 5588,
      "puëd": 5589,
      "carca": 5590,
      "##war": 5591,
      "##asa": 5592,
      "Jud": 5593,
      "palab": 5594,
      "nu": 5595,
      "imamanta": 5596,
      "##qun": 5597,
      "##achir": 5598,
      "sonqoy": 5599,
      "Paqa": 5600,
      "chim": 5601,
      "##ukristu": 5602,
      "qe": 5603,
      "##lip": 5604,
      "sumaqta": 5605,
      "hinaqa": 5606,
      "##ushka": 5607,
      "##ashqai": 5608,
      "##kaman": 5609,
      "Diospaj": 5610,
      "##chakuy": 5611,
      "!\"": 5612,
      "##CAS": 5613,
      "ruwasqa": 5614,
      "ishkay": 5615,
      "##ämi": 5616,
      "##ishpi": 5617,
      "##atsi": 5618,
      "Rim": 5619,
      "niq": 5620,
      "karqanku": 5621,
      "tapuy": 5622,
      "kaptinqa": 5623,
      "qellqa": 5624,
      "Qus": 5625,
      "ashtahuan": 5626,
      "kanta": 5627,
      "##empl": 5628,
      "contr": 5629,
      "bibli": 5630,
      "##mari": 5631,
      "##impi": 5632,
      "apachina": 5633,
      "Sin": 5634,
      "ño": 5635,
      "##inki": 5636,
      "munaynin": 5637,
      "Ñawpaq": 5638,
      "Diospi": 5639,
      "asta": 5640,
      "##cunatami": 5641,
      "wasiy": 5642,
      "apostol": 5643,
      "Mand": 5644,
      "prom": 5645,
      "##kurqaku": 5646,
      "Ma": 5647,
      "##tami": 5648,
      "amistad": 5649,
      "cuid": 5650,
      "watan": 5651,
      "##gun": 5652,
      "Pipi": 5653,
      "uyw": 5654,
      "chiq": 5655,
      "##kusun": 5656,
      "uyarin": 5657,
      "tik": 5658,
      "##unanta": 5659,
      "yachaj": 5660,
      "##kanki": 5661,
      "supay": 5662,
      "munisipyu": 5663,
      "kak": 5664,
      "taytan": 5665,
      "##ushan": 5666,
      "ricush": 5667,
      "LU": 5668,
      "jus": 5669,
      "##achik": 5670,
      "esc": 5671,
      "Kastillanu": 5672,
      "Con": 5673,
      "##ninqa": 5674,
      "qhapaq": 5675,
      "chasqui": 5676,
      "ñac": 5677,
      "##iñ": 5678,
      "llacta": 5679,
      "pʼ": 5680,
      "Diosninchi": 5681,
      "Tu": 5682,
      "198": 5683,
      "##pampa": 5684,
      "wamran": 5685,
      "##tinqa": 5686,
      "##rey": 5687,
      "amig": 5688,
      "kananta": 5689,
      "Aar": 5690,
      "hayk": 5691,
      "chayman": 5692,
      "kinsa": 5693,
      "##nata": 5694,
      "##unata": 5695,
      "##cunataga": 5696,
      "Lucas": 5697,
      "Chantá": 5698,
      "##ece": 5699,
      "Job": 5700,
      "##ushca": 5701,
      "hinan": 5702,
      "Qallariy": 5703,
      "##atar": 5704,
      "goy": 5705,
      "##Pi": 5706,
      "##qaykita": 5707,
      "nitaq": 5708,
      "imatachus": 5709,
      "ñaupa": 5710,
      "##gä": 5711,
      "##uqu": 5712,
      "##chispa": 5713,
      "Fara": 5714,
      "ñu": 5715,
      "##unch": 5716,
      "yo": 5717,
      "mach": 5718,
      "##cap": 5719,
      "Imatataq": 5720,
      "imaypis": 5721,
      "##atsu": 5722,
      "imaymana": 5723,
      "cashpa": 5724,
      "##chua": 5725,
      "##nan": 5726,
      "##kuptin": 5727,
      "##icuy": 5728,
      "suyupi": 5729,
      "qar": 5730,
      "runan": 5731,
      "##apak": 5732,
      "##ayniyuq": 5733,
      "jinata": 5734,
      "##rë": 5735,
      "##llanta": 5736,
      "##achiq": 5737,
      "Inti": 5738,
      "##akunku": 5739,
      "199": 5740,
      "resp": 5741,
      "##TA": 5742,
      "[...": 5743,
      "##wanki": 5744,
      "wañur": 5745,
      "Lu": 5746,
      "cus": 5747,
      "##erta": 5748,
      "nitaj": 5749,
      "##akuya": 5750,
      "co": 5751,
      "##amuy": 5752,
      "##erdo": 5753,
      "##ninkunata": 5754,
      "nij": 5755,
      "Tamaj": 5756,
      "##ist": 5757,
      "tam": 5758,
      "##yapi": 5759,
      "puriy": 5760,
      "chayri": 5761,
      "Canan": 5762,
      "uywa": 5763,
      "[...]": 5764,
      "nill": 5765,
      "runam": 5766,
      "qoy": 5767,
      "kayqa": 5768,
      "ninku": 5769,
      "confi": 5770,
      "pä": 5771,
      "testig": 5772,
      "##ote": 5773,
      "humi": 5774,
      "waranqa": 5775,
      "Icha": 5776,
      "##urca": 5777,
      "##ora": 5778,
      "##tuta": 5779,
      "38": 5780,
      "##aspaqa": 5781,
      "##guichi": 5782,
      "Ca": 5783,
      "allinmi": 5784,
      "urqu": 5785,
      "Cas": 5786,
      "De": 5787,
      "wach": 5788,
      "##kï": 5789,
      "##qaqa": 5790,
      "##gapa": 5791,
      "hayka": 5792,
      "##kachu": 5793,
      "qallariy": 5794,
      "Yachay": 5795,
      "shungu": 5796,
      "##aykus": 5797,
      "imachus": 5798,
      "##uyuq": 5799,
      "repar": 5800,
      "##emi": 5801,
      "leey": 5802,
      "Iraq": 5803,
      "des": 5804,
      "qashqai": 5805,
      "Aswan": 5806,
      "riy": 5807,
      "##ejta": 5808,
      "##nömi": 5809,
      "Abraham": 5810,
      "Tim": 5811,
      "captin": 5812,
      "##tenga": 5813,
      "qaqa": 5814,
      "##uman": 5815,
      "##ino": 5816,
      "##chikpaq": 5817,
      "libr": 5818,
      "ovej": 5819,
      "Sichus": 5820,
      "cons": 5821,
      "yayc": 5822,
      "rikuchin": 5823,
      "##irin": 5824,
      "kaqpi": 5825,
      "##Chaymi": 5826,
      "ita": 5827,
      "##cos": 5828,
      "##TE": 5829,
      "##isa": 5830,
      "miraynin": 5831,
      "Jatun": 5832,
      "##anqui": 5833,
      "nishca": 5834,
      "##IOS": 5835,
      "nircami": 5836,
      "tand": 5837,
      "rak": 5838,
      "yachani": 5839,
      "kanchik": 5840,
      "pukyuta": 5841,
      "##icha": 5842,
      "##anqan": 5843,
      "##ashpan": 5844,
      "##aykichi": 5845,
      "Salom": 5846,
      "Say": 5847,
      "##äman": 5848,
      "##mu": 5849,
      "Chaywanpis": 5850,
      "Esta": 5851,
      "ne": 5852,
      "##lar": 5853,
      "ruwarqa": 5854,
      "maquillaje": 5855,
      "paita": 5856,
      "qawachin": 5857,
      "##ikuna": 5858,
      "chall": 5859,
      "yalli": 5860,
      "kutir": 5861,
      "##asunman": 5862,
      "##ayayayay": 5863,
      "##wanchu": 5864,
      "uku": 5865,
      "##chayta": 5866,
      "uyariy": 5867,
      "munasqan": 5868,
      "kta": 5869,
      "sa": 5870,
      "##aranku": 5871,
      "##ks": 5872,
      "##ayu": 5873,
      "37": 5874,
      "##ikï": 5875,
      "ashwan": 5876,
      "Tawallam": 5877,
      "Tamajaq": 5878,
      "Pa": 5879,
      "ador": 5880,
      "Tawallammat": 5881,
      "##cor": 5882,
      "##osqa": 5883,
      "##mag": 5884,
      "tucush": 5885,
      "44": 5886,
      "##arik": 5887,
      "##akam": 5888,
      "musyan": 5889,
      "##AP": 5890,
      "manda": 5891,
      "rikhur": 5892,
      "qillqasqa": 5893,
      "##asqankuta": 5894,
      "sur": 5895,
      "waquin": 5896,
      "##IN": 5897,
      "apar": 5898,
      "lad": 5899,
      "),": 5900,
      "Mas": 5901,
      "Ecu": 5902,
      "runapa": 5903,
      "?,\"": 5904,
      "##cunamanta": 5905,
      "iw": 5906,
      "##wasi": 5907,
      "##espi": 5908,
      "anci": 5909,
      "ciel": 5910,
      "##urqaku": 5911,
      "##cuel": 5912,
      "##aptinqa": 5913,
      "fiesta": 5914,
      "run": 5915,
      "maqana": 5916,
      "jinan": 5917,
      "Us": 5918,
      "lu": 5919,
      "##kunapak": 5920,
      "jayk": 5921,
      "Imatan": 5922,
      "Achka": 5923,
      "aut": 5924,
      "##päpis": 5925,
      "iñiqmasinchik": 5926,
      "##áy": 5927,
      "##atac": 5928,
      "imë": 5929,
      "wañup": 5930,
      "ha": 5931,
      "##op": 5932,
      "##KU": 5933,
      "##imp": 5934,
      "chashna": 5935,
      "##chakuq": 5936,
      "unanch": 5937,
      "##auti": 5938,
      "cag": 5939,
      "##ukunan": 5940,
      "##umpay": 5941,
      "Astawan": 5942,
      "Tsaynog": 5943,
      "##tuq": 5944,
      "huata": 5945,
      "kamachikuy": 5946,
      "mo": 5947,
      "serviq": 5948,
      "LUCAS": 5949,
      "Llapa": 5950,
      "Gu": 5951,
      "papa": 5952,
      "##ampi": 5953,
      "##ninkuta": 5954,
      "##kurqani": 5955,
      "juz": 5956,
      "masin": 5957,
      "tus": 5958,
      "jud": 5959,
      "Tsay": 5960,
      "yaĉ": 5961,
      "##tata": 5962,
      "kaqkunata": 5963,
      "Apu": 5964,
      "niyta": 5965,
      "##qana": 5966,
      "##acay": 5967,
      "marka": 5968,
      "##ömi": 5969,
      "kacham": 5970,
      "req": 5971,
      "##oca": 5972,
      "pe": 5973,
      "##tac": 5974,
      "Tap": 5975,
      "chir": 5976,
      "Mayta": 5977,
      "##chaq": 5978,
      "##aykillapa": 5979,
      "mandaj": 5980,
      "Gen": 5981,
      "jun": 5982,
      "##ikan": 5983,
      "kw": 5984,
      "##urqani": 5985,
      "##maj": 5986,
      "##ariq": 5987,
      "##impu": 5988,
      "huahua": 5989,
      "##erqanku": 5990,
      "Bibliamanta": 5991,
      "##erra": 5992,
      "ajll": 5993,
      "Ich": 5994,
      "castig": 5995,
      "sy": 5996,
      "##illapa": 5997,
      "sajra": 5998,
      "##chiw": 5999,
      "huauqui": 6000,
      "yachachiy": 6001,
      "Ecuador": 6002,
      "pall": 6003,
      "##3pi": 6004,
      "##ishan": 6005,
      "llankay": 6006,
      "wawas": 6007,
      "wis": 6008,
      "##llaraq": 6009,
      "win": 6010,
      "Noga": 6011,
      "Qusqu": 6012,
      "##cama": 6013,
      "##ba": 6014,
      "##unchis": 6015,
      "charish": 6016,
      "sirv": 6017,
      "kanqanta": 6018,
      "Cheqa": 6019,
      "nasyun": 6020,
      "qari": 6021,
      "##cunqui": 6022,
      "quim": 6023,
      "Kanan": 6024,
      "##anpa": 6025,
      "runakunaman": 6026,
      "hamuq": 6027,
      "chinkach": 6028,
      "##ikin": 6029,
      "##asqanmanta": 6030,
      "chaq": 6031,
      "##aynata": 6032,
      "pikaa": 6033,
      "##raycu": 6034,
      "nichpa": 6035,
      "huñunakuy": 6036,
      "##kuran": 6037,
      "qor": 6038,
      "##eno": 6039,
      "pres": 6040,
      "wañusqa": 6041,
      "Imaynatan": 6042,
      "munaq": 6043,
      "##punim": 6044,
      "Allpa": 6045,
      "00": 6046,
      "hi": 6047,
      "taw": 6048,
      "Punta": 6049,
      "cun": 6050,
      "##guta": 6051,
      "rimayta": 6052,
      "karqaku": 6053,
      "precis": 6054,
      "39": 6055,
      "capi": 6056,
      "##ja": 6057,
      "##yach": 6058,
      "suf": 6059,
      "allinchu": 6060,
      "##ananpaj": 6061,
      "Jo": 6062,
      "##ätan": 6063,
      "##antam": 6064,
      "##atin": 6065,
      "##pitapis": 6066,
      "Heb": 6067,
      "rispa": 6068,
      "chaki": 6069,
      "##onga": 6070,
      "hinalla": 6071,
      "ćh": 6072,
      "##bli": 6073,
      "wall": 6074,
      "##pipi": 6075,
      "Ph": 6076,
      "Tay": 6077,
      "Que": 6078,
      "ukupi": 6079,
      "yaya": 6080,
      "aswanqa": 6081,
      "41": 6082,
      "kʼ": 6083,
      "mish": 6084,
      "karu": 6085,
      "ruwaq": 6086,
      "imaynatachus": 6087,
      "Tuta": 6088,
      "##ACH": 6089,
      "Qaw": 6090,
      "janaj": 6091,
      "##äy": 6092,
      "rev": 6093,
      "Hina": 6094,
      "&#": 6095,
      "Rik": 6096,
      "tʼ": 6097,
      "##ispi": 6098,
      "##wanchis": 6099,
      "##ashgan": 6100,
      "##apaj": 6101,
      "llamkay": 6102,
      "##aqtinmi": 6103,
      "acha": 6104,
      "##oni": 6105,
      "Pipas": 6106,
      "Paypa": 6107,
      "Kall": 6108,
      "##aymanta": 6109,
      "Ancha": 6110,
      "##niqui": 6111,
      "pushak": 6112,
      "##gar": 6113,
      "##paca": 6114,
      "Paykuna": 6115,
      "cap": 6116,
      "ik": 6117,
      "##pina": 6118,
      "##uska": 6119,
      "manana": 6120,
      "Taytay": 6121,
      "piikaa": 6122,
      "=\"": 6123,
      "señ": 6124,
      "##__": 6125,
      "##ankuchu": 6126,
      "Shin": 6127,
      "paka": 6128,
      "Chur": 6129,
      "entienden": 6130,
      "Kh": 6131,
      "##kupas": 6132,
      "hukman": 6133,
      "imasta": 6134,
      "Pil": 6135,
      "##ayquipaj": 6136,
      "puy": 6137,
      "##ñi": 6138,
      "##llana": 6139,
      "shuc": 6140,
      "kawsarim": 6141,
      "milag": 6142,
      "pam": 6143,
      "tucur": 6144,
      "rurayta": 6145,
      "##dado": 6146,
      "Dyuspa": 6147,
      "##AY": 6148,
      "kunata": 6149,
      ".*": 6150,
      "##din": 6151,
      "##uspan": 6152,
      "paykunaman": 6153,
      "chaskin": 6154,
      "willan": 6155,
      "caycaj": 6156,
      "##bl": 6157,
      "nirka": 6158,
      "##cani": 6159,
      "##manpas": 6160,
      "##ankupaj": 6161,
      "canqui": 6162,
      "manamá": 6163,
      "##asunchik": 6164,
      "kasqankuta": 6165,
      "Kuy": 6166,
      "Wak": 6167,
      "ricur": 6168,
      "Manami": 6169,
      "##se": 6170,
      "Chasna": 6171,
      "uya": 6172,
      "\">": 6173,
      "maquin": 6174,
      "ra": 6175,
      "ura": 6176,
      "##ajtin": 6177,
      "Pin": 6178,
      "karka": 6179,
      "kawsaynin": 6180,
      "Jesusmi": 6181,
      "qucha": 6182,
      "##curan": 6183,
      "kutich": 6184,
      "yachachis": 6185,
      "##lata": 6186,
      "##aylla": 6187,
      "##ninman": 6188,
      "##aywan": 6189,
      "##alta": 6190,
      "Sayno": 6191,
      "##arirqan": 6192,
      "pusaq": 6193,
      "##20": 6194,
      "##chikpi": 6195,
      "wamb": 6196,
      "rica": 6197,
      "##las": 6198,
      "##AL": 6199,
      "Bibliapa": 6200,
      "yachachiq": 6201,
      "imanasqa": 6202,
      "##esis": 6203,
      "rant": 6204,
      "##ek": 6205,
      "##osta": 6206,
      "##pitam": 6207,
      "Shinapash": 6208,
      "Yay": 6209,
      "esp": 6210,
      "Wan": 6211,
      "rikuy": 6212,
      "tapu": 6213,
      "trg": 6214,
      "ex": 6215,
      "qhaway": 6216,
      "gr": 6217,
      "wash": 6218,
      "kanankupaq": 6219,
      "##reg": 6220,
      "Hech": 6221,
      "piña": 6222,
      "Payga": 6223,
      "rijch": 6224,
      "idi": 6225,
      "los": 6226,
      "##oll": 6227,
      "paykunawan": 6228,
      "qankuna": 6229,
      "Wik": 6230,
      "##den": 6231,
      "ashkha": 6232,
      "rimanakuy": 6233,
      "Juch": 6234,
      "##gr": 6235,
      "##cunahuan": 6236,
      "##aña": 6237,
      "##mantapacha": 6238,
      "mosoq": 6239,
      "##qä": 6240,
      "##inti": 6241,
      "Churin": 6242,
      "yuyai": 6243,
      "ukhupi": 6244,
      "alla": 6245,
      "kutimuy": 6246,
      "##jan": 6247,
      "##rqan": 6248,
      "##chimk": 6249,
      "##ok": 6250,
      "##aqam": 6251,
      "cutin": 6252,
      "carcel": 6253,
      "!!!": 6254,
      "??": 6255,
      "iui": 6256,
      "ga": 6257,
      "nisqapaq": 6258,
      "43": 6259,
      "Maquillaje": 6260,
      "Run": 6261,
      "qonqa": 6262,
      "##zh": 6263,
      "yanapash": 6264,
      "yuyayman": 6265,
      "##chejchu": 6266,
      "kaqkuna": 6267,
      "ashtawan": 6268,
      "lä": 6269,
      "##cü": 6270,
      "##kunapiqa": 6271,
      "cumpl": 6272,
      "Ali": 6273,
      "##äshun": 6274,
      "kanapaq": 6275,
      "##inku": 6276,
      "##qap": 6277,
      "##usqanta": 6278,
      "##ataqmi": 6279,
      "##aykam": 6280,
      "##pitaj": 6281,
      "Chaynaqa": 6282,
      "##umpayta": 6283,
      "Willa": 6284,
      "liy": 6285,
      "pita": 6286,
      "##pitami": 6287,
      "##kunapipas": 6288,
      "Hinaspan": 6289,
      "Min": 6290,
      "pac": 6291,
      "tiyaq": 6292,
      "llaqtaman": 6293,
      "kikill": 6294,
      "nik": 6295,
      "yap": 6296,
      "##ge": 6297,
      "##ptinqa": 6298,
      "Kar": 6299,
      "##tuy": 6300,
      "##má": 6301,
      "##pañ": 6302,
      "##llachasqa": 6303,
      "191": 6304,
      "42": 6305,
      "?...": 6306,
      "##opa": 6307,
      "Furqan": 6308,
      "Sar": 6309,
      "##ast": 6310,
      "llumpay": 6311,
      "runasimi": 6312,
      "kuraq": 6313,
      "Prover": 6314,
      "sapan": 6315,
      "##til": 6316,
      "##ona": 6317,
      "##unchi": 6318,
      "##llur": 6319,
      "nog": 6320,
      "Cunan": 6321,
      "Ñau": 6322,
      "##pichu": 6323,
      "Chantapis": 6324,
      "##embre": 6325,
      "Me": 6326,
      "Pur": 6327,
      "##naq": 6328,
      "##ín": 6329,
      "Moisés": 6330,
      "simin": 6331,
      "##yta": 6332,
      "Piikachu": 6333,
      "texto": 6334,
      "##rqa": 6335,
      "llakiy": 6336,
      "llapanta": 6337,
      "Dani": 6338,
      "ana": 6339,
      "willakun": 6340,
      "##guichij": 6341,
      "pir": 6342,
      "llaqtayuq": 6343,
      "ami": 6344,
      "##ichun": 6345,
      "espiritu": 6346,
      "##kunawanmi": 6347,
      "juts": 6348,
      "##kunapaqmi": 6349,
      "##tern": 6350,
      "kunanqa": 6351,
      "JU": 6352,
      "rurë": 6353,
      "cäs": 6354,
      "musuqchasqa": 6355,
      "##kansapa": 6356,
      "##arqanki": 6357,
      "Ci": 6358,
      "##okuna": 6359,
      "ruraj": 6360,
      "##ankichu": 6361,
      "tsay": 6362,
      "Ayllu": 6363,
      "yapay": 6364,
      "##ayoj": 6365,
      "atipan": 6366,
      "qoll": 6367,
      "muyu": 6368,
      "197": 6369,
      "apan": 6370,
      "kawsak": 6371,
      "##esqa": 6372,
      "2012": 6373,
      "Wiñ": 6374,
      "më": 6375,
      "##iyki": 6376,
      "##ele": 6377,
      "riks": 6378,
      "rikä": 6379,
      "ty": 6380,
      "tapukuy": 6381,
      "Ashtahuan": 6382,
      "lay": 6383,
      "##atari": 6384,
      "imam": 6385,
      "yuyari": 6386,
      "kachk": 6387,
      "agradece": 6388,
      "bauti": 6389,
      "tanty": 6390,
      "yupa": 6391,
      "kriyiq": 6392,
      "##chak": 6393,
      "Moisespa": 6394,
      "Ñuk": 6395,
      "yachar": 6396,
      "kama": 6397,
      "##aka": 6398,
      "##cug": 6399,
      "....": 6400,
      "atiyniyoq": 6401,
      "chakra": 6402,
      "rikush": 6403,
      "Tsëmi": 6404,
      "cheq": 6405,
      "mañakuy": 6406,
      "ishcay": 6407,
      "##run": 6408,
      "##cunapish": 6409,
      "chaypas": 6410,
      "anchay": 6411,
      "##ashpami": 6412,
      "Imaynata": 6413,
      "Mamallakta": 6414,
      "jur": 6415,
      "puchu": 6416,
      "Santu": 6417,
      "##ei": 6418,
      "##manku": 6419,
      "##cal": 6420,
      "paymi": 6421,
      "noqaqa": 6422,
      "neces": 6423,
      "quimsa": 6424,
      "Bu": 6425,
      "##kuychu": 6426,
      "##chispaq": 6427,
      "kag": 6428,
      "##dia": 6429,
      "yumb": 6430,
      "##win": 6431,
      "hinaspam": 6432,
      "lapan": 6433,
      "uq": 6434,
      "##anpaj": 6435,
      "##kuni": 6436,
      "Nuqa": 6437,
      "chal": 6438,
      "llaqu": 6439,
      "nima": 6440,
      "kashpa": 6441,
      "pukll": 6442,
      "krey": 6443,
      "saqu": 6444,
      "wir": 6445,
      "##anqanta": 6446,
      "##eyqa": 6447,
      "Ñucanchi": 6448,
      "Gén": 6449,
      "manchay": 6450,
      "sumajta": 6451,
      "Chhayn": 6452,
      "ñispa": 6453,
      "uyaris": 6454,
      "Nircur": 6455,
      "Qill": 6456,
      "chawpi": 6457,
      "##aykupaq": 6458,
      "##kunapim": 6459,
      "##ación": 6460,
      "=>": 6461,
      "##ataqa": 6462,
      "##mpi": 6463,
      "##çhu": 6464,
      "Ef": 6465,
      "pani": 6466,
      "yär": 6467,
      "##nik": 6468,
      "##acoj": 6469,
      "##tiyki": 6470,
      "Runaway": 6471,
      "sukaman": 6472,
      "ñaupaj": 6473,
      "sak": 6474,
      "wal": 6475,
      "##aqqa": 6476,
      "##acam": 6477,
      "riqsisqa": 6478,
      "Palab": 6479,
      "##anwan": 6480,
      "chaykunata": 6481,
      "rantin": 6482,
      "Nuna": 6483,
      "##jun": 6484,
      "llumpayta": 6485,
      "masta": 6486,
      "atun": 6487,
      "alita": 6488,
      "ayllun": 6489,
      "munakuy": 6490,
      "warmita": 6491,
      "kallpa": 6492,
      "##nöpis": 6493,
      "respeta": 6494,
      "imapis": 6495,
      "canguna": 6496,
      "precurs": 6497,
      "cushic": 6498,
      "pl": 6499,
      "wawq": 6500,
      "lamar": 6501,
      "churan": 6502,
      "Runas": 6503,
      "apachinapaq": 6504,
      "musuqchasqapura": 6505,
      "tucu": 6506,
      "cul": 6507,
      "runasta": 6508,
      "for": 6509,
      "jaq": 6510,
      "mants": 6511,
      "##illay": 6512,
      "yanap": 6513,
      "hukchasqa": 6514,
      "Mushtaq": 6515,
      "lul": 6516,
      "qus": 6517,
      "##amuq": 6518,
      "Dioswan": 6519,
      "shay": 6520,
      "Maypitaq": 6521,
      "CO": 6522,
      "chanta": 6523,
      "##esqan": 6524,
      "Jujman": 6525,
      "Chin": 6526,
      "##chikuna": 6527,
      "##ico": 6528,
      "MA": 6529,
      "Waj": 6530,
      "phiñ": 6531,
      "puquy": 6532,
      "##kuw": 6533,
      "patapi": 6534,
      "har": 6535,
      "##tï": 6536,
      "##chï": 6537,
      "196": 6538,
      "tapur": 6539,
      "##ges": 6540,
      "yuyarin": 6541,
      "tur": 6542,
      "yacu": 6543,
      "##unankupaq": 6544,
      "puri": 6545,
      "kamachis": 6546,
      "Chaynu": 6547,
      "Hukchasqa": 6548,
      "\"-": 6549,
      "bal": 6550,
      "##aypaj": 6551,
      "riki": 6552,
      "más": 6553,
      "##dos": 6554,
      "##palla": 6555,
      "45": 6556,
      "##dan": 6557,
      "##awanchik": 6558,
      "Hukllachasqa": 6559,
      "Musuq": 6560,
      "Saul": 6561,
      "##yki": 6562,
      "##llar": 6563,
      "judio": 6564,
      "wawakuna": 6565,
      "Satanas": 6566,
      "Taytan": 6567,
      "chac": 6568,
      "yachana": 6569,
      "qhi": 6570,
      "kamachej": 6571,
      "Salmo": 6572,
      "##nim": 6573,
      "##captin": 6574,
      "##ju": 6575,
      "##kash": 6576,
      "##Dios": 6577,
      "Payka": 6578,
      "Imanötaq": 6579,
      "chau": 6580,
      "parti": 6581,
      "Ñawpa": 6582,
      "umalliq": 6583,
      "kasqanrayku": 6584,
      "junaj": 6585,
      "achi": 6586,
      "##bios": 6587,
      "achca": 6588,
      "//": 6589,
      "##achk": 6590,
      "hinachu": 6591,
      "chaw": 6592,
      "##ankumanta": 6593,
      "yanapawasun": 6594,
      "pr": 6595,
      "##mantsik": 6596,
      "##aytaqa": 6597,
      "necesita": 6598,
      "hur": 6599,
      "##unanpaj": 6600,
      "inf": 6601,
      "nishka": 6602,
      "##angapaj": 6603,
      "cayn": 6604,
      "kari": 6605,
      "##kunas": 6606,
      "wasiman": 6607,
      "qow": 6608,
      "llakisqa": 6609,
      "Lib": 6610,
      "rayku": 6611,
      "##ji": 6612,
      "Noqan": 6613,
      "Bab": 6614,
      "Uq": 6615,
      "##kuwan": 6616,
      "##quichej": 6617,
      "cheqan": 6618,
      "Ajina": 6619,
      "Gobiern": 6620,
      "Sumaq": 6621,
      "kajta": 6622,
      "##nallata": 6623,
      "##iste": 6624,
      "sumak": 6625,
      "kaptinpas": 6626,
      "Juc": 6627,
      "Pë": 6628,
      "ko": 6629,
      "##chishpa": 6630,
      "##titu": 6631,
      "escrib": 6632,
      "Proverbios": 6633,
      "##yam": 6634,
      "##qar": 6635,
      "##vita": 6636,
      "##llayki": 6637,
      "isk": 6638,
      "Tsaynö": 6639,
      "##tä": 6640,
      "##chilla": 6641,
      "rimash": 6642,
      "195": 6643,
      "Roma": 6644,
      "hark": 6645,
      "##rij": 6646,
      "maña": 6647,
      "##inqa": 6648,
      "tukuyta": 6649,
      "chunca": 6650,
      "Chaimantami": 6651,
      "Noqaqa": 6652,
      "kusikuy": 6653,
      "##aykurqa": 6654,
      "niyanmi": 6655,
      "Gri": 6656,
      "Te": 6657,
      "##coj": 6658,
      "##uyan": 6659,
      "pusamp": 6660,
      "orqo": 6661,
      "mayqen": 6662,
      "Wam": 6663,
      "uru": 6664,
      "##aqchu": 6665,
      "##ñuna": 6666,
      "##kumanta": 6667,
      "##cunam": 6668,
      "Fi": 6669,
      "kanqaku": 6670,
      "unquy": 6671,
      "kull": 6672,
      "runakunaq": 6673,
      "##inanpaq": 6674,
      "pusampusqa": 6675,
      "##qon": 6676,
      "##qhay": 6677,
      "##antaj": 6678,
      "mayqan": 6679,
      "profeta": 6680,
      "##AM": 6681,
      "Jesusca": 6682,
      "der": 6683,
      "llaj": 6684,
      "runakunan": 6685,
      "paymanta": 6686,
      "Waq": 6687,
      "##qmi": 6688,
      "paypi": 6689,
      "munanki": 6690,
      "##ñiq": 6691,
      "##unga": 6692,
      "##kurqanku": 6693,
      "cr": 6694,
      "##gur": 6695,
      "##cunapita": 6696,
      "kut": 6697,
      "nisqata": 6698,
      "imanir": 6699,
      "wamr": 6700,
      "nic": 6701,
      "kayku": 6702,
      "kushi": 6703,
      "##iqui": 6704,
      "##ushqa": 6705,
      "watayuq": 6706,
      "hampi": 6707,
      "Daniel": 6708,
      "##llapis": 6709,
      "pill": 6710,
      "shunta": 6711,
      "up": 6712,
      "alliy": 6713,
      "##uchö": 6714,
      "##llapachu": 6715,
      "cur": 6716,
      "mur": 6717,
      "son": 6718,
      "##ke": 6719,
      "llu": 6720,
      "llull": 6721,
      "##ashg": 6722,
      "##akoq": 6723,
      "Jon": 6724,
      "Kim": 6725,
      "hun": 6726,
      "chʼ": 6727,
      "##ashä": 6728,
      "##aycam": 6729,
      "sutiyoq": 6730,
      "##ashpaca": 6731,
      "##Chayn": 6732,
      "Wawa": 6733,
      "##ne": 6734,
      "##say": 6735,
      "##inapi": 6736,
      "kankuna": 6737,
      "kanka": 6738,
      "ruwasqanku": 6739,
      "##yag": 6740,
      "wamra": 6741,
      "wasinman": 6742,
      "Yu": 6743,
      "cab": 6744,
      "##chismi": 6745,
      "aki": 6746,
      "##tas": 6747,
      "##iminta": 6748,
      "cuna": 6749,
      "gan": 6750,
      "##pus": 6751,
      "##inman": 6752,
      "warma": 6753,
      "tarinki": 6754,
      "maqui": 6755,
      "lluk": 6756,
      "Jesukristu": 6757,
      "consej": 6758,
      "Eli": 6759,
      "##po": 6760,
      "##íy": 6761,
      "tiyak": 6762,
      "##llanpi": 6763,
      "sinch": 6764,
      "sinchita": 6765,
      "janan": 6766,
      "##gen": 6767,
      "##espa": 6768,
      "runaq": 6769,
      "piii": 6770,
      "Tucui": 6771,
      "Imanirtaq": 6772,
      "Uni": 6773,
      "qi": 6774,
      "chiri": 6775,
      "siente": 6776,
      "qallarin": 6777,
      "tun": 6778,
      "##ko": 6779,
      "##apish": 6780,
      "##ren": 6781,
      "##yaj": 6782,
      "mamay": 6783,
      "Fran": 6784,
      "cat": 6785,
      "##quirb": 6786,
      "Hanaq": 6787,
      "chaytaqa": 6788,
      "rurai": 6789,
      "cada": 6790,
      "huchalli": 6791,
      "yaĉh": 6792,
      "Kur": 6793,
      "##eri": 6794,
      "##asqam": 6795,
      "kuyakuy": 6796,
      "##tanam": 6797,
      "##kusqanmanta": 6798,
      "##llllllll": 6799,
      "##arkansapa": 6800,
      "##kull": 6801,
      "chaylla": 6802,
      "asuy": 6803,
      "-¿": 6804,
      "kai": 6805,
      "##panta": 6806,
      "##çh": 6807,
      "##cacion": 6808,
      "##oqta": 6809,
      "kasukuq": 6810,
      "Mu": 6811,
      "##ïgu": 6812,
      "##kunaqam": 6813,
      "##ikuni": 6814,
      "Dius": 6815,
      "bendic": 6816,
      "##nintsik": 6817,
      "rikuspa": 6818,
      "ruwas": 6819,
      "iskayray": 6820,
      "haykapipas": 6821,
      "Pacha": 6822,
      "##kuchkan": 6823,
      "##aram": 6824,
      "mushuk": 6825,
      "phiña": 6826,
      "Roman": 6827,
      "kanchis": 6828,
      "watay": 6829,
      "##cid": 6830,
      "Aaron": 6831,
      "Ak": 6832,
      "rish": 6833,
      "##pipish": 6834,
      "manataj": 6835,
      "soldado": 6836,
      "JUAN": 6837,
      "##chana": 6838,
      "##paqpas": 6839,
      "kaqtin": 6840,
      "simita": 6841,
      "##erdote": 6842,
      "jark": 6843,
      "##mapis": 6844,
      "ruhu": 6845,
      "unq": 6846,
      "ñawin": 6847,
      "paiguna": 6848,
      "Moisesqa": 6849,
      "upy": 6850,
      "##paran": 6851,
      "##onqanku": 6852,
      "asqa": 6853,
      "churana": 6854,
      "194": 6855,
      "escuel": 6856,
      "Kal": 6857,
      "mich": 6858,
      "uman": 6859,
      "##peqa": 6860,
      "SAN": 6861,
      "chuya": 6862,
      "yachakun": 6863,
      "rasumpa": 6864,
      "jan": 6865,
      "##suyu": 6866,
      "uyarispa": 6867,
      "##acienci": 6868,
      "ñanta": 6869,
      "##koj": 6870,
      "##pashmi": 6871,
      "wayra": 6872,
      "Imanasqam": 6873,
      "Santa": 6874,
      "rirqan": 6875,
      "uti": 6876,
      "wayna": 6877,
      "##so": 6878,
      "##cas": 6879,
      "##vin": 6880,
      "##ashi": 6881,
      "##quiman": 6882,
      "imapi": 6883,
      "Corinti": 6884,
      "##kak": 6885,
      "nissan": 6886,
      "Kaypi": 6887,
      "tant": 6888,
      "shinallatak": 6889,
      "valor": 6890,
      "Day": 6891,
      "Jan": 6892,
      "Dioska": 6893,
      "##cuta": 6894,
      "kusa": 6895,
      "quill": 6896,
      "##untur": 6897,
      "ñucanchij": 6898,
      "##achirqa": 6899,
      "##uqmi": 6900,
      "##ario": 6901,
      "wanu": 6902,
      "##ëkipaq": 6903,
      "##ümi": 6904,
      "chayrayku": 6905,
      "kaynata": 6906,
      "saqer": 6907,
      "nacionpi": 6908,
      "%.": 6909,
      "awan": 6910,
      "##cai": 6911,
      "Chayri": 6912,
      "una": 6913,
      "huasi": 6914,
      "qillqasqan": 6915,
      "##equi": 6916,
      "cutim": 6917,
      "unchaypi": 6918,
      "sirw": 6919,
      "##chöpis": 6920,
      "##piritun": 6921,
      "##ternet": 6922,
      "Aj": 6923,
      "##wampis": 6924,
      "wañun": 6925,
      "chasqu": 6926,
      "Jallp": 6927,
      "raki": 6928,
      "warmikuna": 6929,
      "usus": 6930,
      "Davidpa": 6931,
      "New": 6932,
      "##kunataj": 6933,
      "##uqayku": 6934,
      "yachatsi": 6935,
      "yakuta": 6936,
      "anciano": 6937,
      "paq": 6938,
      "yac": 6939,
      "##mar": 6940,
      "##raf": 6941,
      "qolqe": 6942,
      "##ea": 6943,
      "##emig": 6944,
      "##antaqmi": 6945,
      "Timote": 6946,
      "juy": 6947,
      "qespi": 6948,
      "##ry": 6949,
      "##llapas": 6950,
      "##gañ": 6951,
      "isquirb": 6952,
      "##Chantá": 6953,
      "Marcos": 6954,
      "shumag": 6955,
      "onqoy": 6956,
      "mikuy": 6957,
      "yanapawan": 6958,
      "manchachi": 6959,
      "46": 6960,
      "siq": 6961,
      "##arich": 6962,
      "imakuna": 6963,
      "##cio": 6964,
      "##päcun": 6965,
      "canchij": 6966,
      "promet": 6967,
      "Ne": 6968,
      "##gay": 6969,
      "##shin": 6970,
      "paycuna": 6971,
      "##qakuchu": 6972,
      "the": 6973,
      "Samuel": 6974,
      ".-": 6975,
      "apaq": 6976,
      "capä": 6977,
      "dib": 6978,
      "##mara": 6979,
      "##awi": 6980,
      "##apu": 6981,
      "watayoq": 6982,
      "qhawan": 6983,
      "Col": 6984,
      "##ld": 6985,
      "##omi": 6986,
      "rurak": 6987,
      "purir": 6988,
      "runacunaga": 6989,
      "Hinaptinmi": 6990,
      "nunakuna": 6991,
      "##äpaj": 6992,
      "Chun": 6993,
      "##gaj": 6994,
      "ruranan": 6995,
      "##ojta": 6996,
      "wasita": 6997,
      "quw": 6998,
      "ajinata": 6999,
      "##antaqa": 7000,
      "##arqam": 7001,
      "agu": 7002,
      "##isapa": 7003,
      "##asqanman": 7004,
      "Tsaymi": 7005,
      "##paykiqa": 7006,
      "apaykach": 7007,
      "las": 7008,
      "2017": 7009,
      "ejemplo": 7010,
      "Babil": 7011,
      "##IS": 7012,
      "##cipul": 7013,
      "runakunawan": 7014,
      "sasa": 7015,
      "Ed": 7016,
      "yachas": 7017,
      "kayman": 7018,
      "Inka": 7019,
      "tarp": 7020,
      "2011": 7021,
      "48": 7022,
      "##llanku": 7023,
      "##kunqa": 7024,
      "##TEO": 7025,
      "aru": 7026,
      "uqa": 7027,
      "##nachu": 7028,
      "kaspan": 7029,
      "##qankumanta": 7030,
      "Paycunaga": 7031,
      "ñoqanchik": 7032,
      "Kikin": 7033,
      "jahu": 7034,
      "tariy": 7035,
      "##ego": 7036,
      "yanapak": 7037,
      "José": 7038,
      "Kënöpis": 7039,
      "So": 7040,
      "##siy": 7041,
      "##capi": 7042,
      "##akan": 7043,
      "suwa": 7044,
      "##ruta": 7045,
      "Jisus": 7046,
      "imashina": 7047,
      "Mal": 7048,
      "##nill": 7049,
      "##atapis": 7050,
      "Manaraq": 7051,
      "ats": 7052,
      "cawan": 7053,
      "kallpay": 7054,
      "shamush": 7055,
      "cac": 7056,
      "##arä": 7057,
      "##llapaq": 7058,
      "Paycuna": 7059,
      "uyarina": 7060,
      "sutich": 7061,
      "Hinaspapas": 7062,
      "Nätan": 7063,
      "lug": 7064,
      "yam": 7065,
      "##nuy": 7066,
      "Machu": 7067,
      "Ño": 7068,
      "kamachikuq": 7069,
      "##glesi": 7070,
      "Ñan": 7071,
      "##rispa": 7072,
      "Llam": 7073,
      "tarir": 7074,
      "señal": 7075,
      "Na": 7076,
      "Wata": 7077,
      "##maq": 7078,
      "##ʼaj": 7079,
      "hawka": 7080,
      "Tiemp": 7081,
      "ñuqanchik": 7082,
      "chuk": 7083,
      "##mantawan": 7084,
      "##ninchis": 7085,
      "manaraj": 7086,
      "paqarin": 7087,
      "Corintios": 7088,
      "Sun": 7089,
      "Tuku": 7090,
      "Ver": 7091,
      "cajta": 7092,
      "po": 7093,
      "##arpis": 7094,
      "##achic": 7095,
      "##awantin": 7096,
      "Imayna": 7097,
      "pap": 7098,
      "qun": 7099,
      "still": 7100,
      "##uray": 7101,
      "##chaj": 7102,
      "##chapi": 7103,
      "Mai": 7104,
      "rasun": 7105,
      "##níy": 7106,
      "##kiq": 7107,
      "##tiku": 7108,
      "watas": 7109,
      "kausay": 7110,
      "gamcuna": 7111,
      "bot": 7112,
      "##cl": 7113,
      "watakama": 7114,
      "unan": 7115,
      "munarqa": 7116,
      "dem": 7117,
      "paw": 7118,
      "##enti": 7119,
      "yachaynin": 7120,
      "yanapä": 7121,
      "Tsënö": 7122,
      "##tes": 7123,
      "##cachu": 7124,
      "##chari": 7125,
      "##achishpa": 7126,
      "##irka": 7127,
      "##tul": 7128,
      "ninan": 7129,
      "mañakus": 7130,
      "##isqanman": 7131,
      "sutinta": 7132,
      "Hechos": 7133,
      "wau": 7134,
      "##niq": 7135,
      "qhipa": 7136,
      "precursor": 7137,
      "Ev": 7138,
      "maqa": 7139,
      "chaysi": 7140,
      "##illu": 7141,
      "##tulo": 7142,
      "##kusqayki": 7143,
      "idiö": 7144,
      "jor": 7145,
      "##he": 7146,
      "##EL": 7147,
      "##chiwan": 7148,
      "##chöqa": 7149,
      "Dyusqa": 7150,
      "pacienci": 7151,
      "##waj": 7152,
      "##usqayki": 7153,
      "##apun": 7154,
      "##allaqta": 7155,
      "##aycur": 7156,
      "qamkuna": 7157,
      "yachak": 7158,
      "watam": 7159,
      "##päga": 7160,
      "##kuspaqa": 7161,
      "ñukanchik": 7162,
      "lis": 7163,
      "kawsakuy": 7164,
      "pukllay": 7165,
      "Pan": 7166,
      "##iqa": 7167,
      "juchata": 7168,
      "wakcha": 7169,
      "?.": 7170,
      "añ": 7171,
      "so": 7172,
      "##achan": 7173,
      "##ashkan": 7174,
      "##tinmi": 7175,
      "Kaymi": 7176,
      "##niyta": 7177,
      "yachachish": 7178,
      "aqpas": 7179,
      "cashganta": 7180,
      "Umalliq": 7181,
      "cuentata": 7182,
      "Nacion": 7183,
      "phu": 7184,
      "##arqataj": 7185,
      "qallarisqa": 7186,
      "juntʼ": 7187,
      "qolq": 7188,
      "Famili": 7189,
      "Kayta": 7190,
      "Suk": 7191,
      "señor": 7192,
      "Kayqa": 7193,
      "Quechua": 7194,
      "Ari": 7195,
      "##aycu": 7196,
      "yachanchik": 7197,
      "##amanda": 7198,
      "noka": 7199,
      "100": 7200,
      "Amir": 7201,
      "##llas": 7202,
      "##kunki": 7203,
      "##umk": 7204,
      "Or": 7205,
      "##kapa": 7206,
      "kasun": 7207,
      "##encia": 7208,
      "##Señor": 7209,
      "huerta": 7210,
      "##llatami": 7211,
      "atinchu": 7212,
      "killk": 7213,
      "maqanakuy": 7214,
      "pacta": 7215,
      "##gachu": 7216,
      "wataqa": 7217,
      "##paymi": 7218,
      "##arirca": 7219,
      "yumbay": 7220,
      "Waquin": 7221,
      "kaug": 7222,
      "asi": 7223,
      "casara": 7224,
      "ariy": 7225,
      "cashan": 7226,
      "af": 7227,
      "ven": 7228,
      "##untin": 7229,
      "Davidqa": 7230,
      "kallpancha": 7231,
      "##ranta": 7232,
      "##cash": 7233,
      "##ou": 7234,
      "##aqtaq": 7235,
      "##atá": 7236,
      "watata": 7237,
      "Bibliam": 7238,
      "altar": 7239,
      "kënö": 7240,
      "creen": 7241,
      "camacä": 7242,
      "Uru": 7243,
      "cum": 7244,
      "markä": 7245,
      "Shuj": 7246,
      "kir": 7247,
      "##Pay": 7248,
      "##unchay": 7249,
      "parlan": 7250,
      "criy": 7251,
      "gar": 7252,
      "laq": 7253,
      "##achikun": 7254,
      "##achiyta": 7255,
      "##cunapac": 7256,
      "##huas": 7257,
      "yuyaynin": 7258,
      "apu": 7259,
      "Pre": 7260,
      "bur": 7261,
      "##mp": 7262,
      "##aykuspa": 7263,
      "ñukanchi": 7264,
      "Wañusqa": 7265,
      "lugar": 7266,
      "Qanqa": 7267,
      "##uyku": 7268,
      "cani": 7269,
      "Israelpa": 7270,
      "Cons": 7271,
      "panka": 7272,
      "##asu": 7273,
      "##allan": 7274,
      "ent": 7275,
      "cayan": 7276,
      "mamallakta": 7277,
      "##achishka": 7278,
      "guesh": 7279,
      "##dioma": 7280,
      "au": 7281,
      "##wapi": 7282,
      "imatataq": 7283,
      "willakuq": 7284,
      "reqsi": 7285,
      "Kun": 7286,
      "Li": 7287,
      "##yachin": 7288,
      "##con": 7289,
      "##íritu": 7290,
      "##tal": 7291,
      "##kim": 7292,
      "##ales": 7293,
      "chaynapi": 7294,
      "Moisesta": 7295,
      "papi": 7296,
      "tapi": 7297,
      "chash": 7298,
      "hinaspan": 7299,
      "wawata": 7300,
      "##ck": 7301,
      "##kiman": 7302,
      "Chaypita": 7303,
      "Chaywanpas": 7304,
      "##kusqay": 7305,
      "wits": 7306,
      "yanapakuy": 7307,
      "contranpi": 7308,
      "Qos": 7309,
      "Ran": 7310,
      "Tar": 7311,
      "jaw": 7312,
      "oqh": 7313,
      "nispas": 7314,
      "##arichin": 7315,
      "2013": 7316,
      "##rus": 7317,
      "Chaysi": 7318,
      "kantun": 7319,
      "##yanu": 7320,
      "##waqchu": 7321,
      "Runasimi": 7322,
      "HE": 7323,
      "##ene": 7324,
      "canman": 7325,
      "juzg": 7326,
      "Kichwa": 7327,
      "ichi": 7328,
      "waqaych": 7329,
      "Pats": 7330,
      "bar": 7331,
      "qarq": 7332,
      "##pipash": 7333,
      "##paqtaq": 7334,
      "suw": 7335,
      "##quichu": 7336,
      "unu": 7337,
      "##kushka": 7338,
      "55": 7339,
      "Hebre": 7340,
      "Plan": 7341,
      "noqayku": 7342,
      "##iti": 7343,
      "##mänu": 7344,
      "##yuk": 7345,
      "##rag": 7346,
      "paipac": 7347,
      "##qoy": 7348,
      "chaykuna": 7349,
      "nispanku": 7350,
      "##kunapaqqa": 7351,
      "discipul": 7352,
      "respe": 7353,
      "Suy": 7354,
      "yaćh": 7355,
      "ñaupaq": 7356,
      "##ayllapa": 7357,
      "rurasqa": 7358,
      "##ucho": 7359,
      "##armiayi": 7360,
      "Chaynö": 7361,
      "Amirika": 7362,
      "Rut": 7363,
      "sap": 7364,
      "##AR": 7365,
      "##arcur": 7366,
      "impor": 7367,
      "##tupi": 7368,
      "##aspapas": 7369,
      "##uchkan": 7370,
      "punch": 7371,
      "misk": 7372,
      "##mun": 7373,
      "##eca": 7374,
      "##inmi": 7375,
      "##qanqa": 7376,
      "##eru": 7377,
      "##asqanchikta": 7378,
      "rimanku": 7379,
      "munasqanta": 7380,
      "##quega": 7381,
      "Saq": 7382,
      "wayn": 7383,
      "ins": 7384,
      "bautiz": 7385,
      "##son": 7386,
      "##rac": 7387,
      "##tiq": 7388,
      "cristian": 7389,
      "Ex": 7390,
      "##tos": 7391,
      "##qëki": 7392,
      "##bu": 7393,
      "##arqanchik": 7394,
      "qullq": 7395,
      "Pich": 7396,
      "##dun": 7397,
      "sug": 7398,
      "ruwash": 7399,
      "##anqaku": 7400,
      "wij": 7401,
      "paipa": 7402,
      "chhika": 7403,
      "puñuy": 7404,
      "##dor": 7405,
      "##uyki": 7406,
      "Chunka": 7407,
      "tull": 7408,
      "Bi": 7409,
      "pillu": 7410,
      "##tinku": 7411,
      "##unanku": 7412,
      "rikun": 7413,
      "enemig": 7414,
      "wañuchin": 7415,
      "costum": 7416,
      "rejs": 7417,
      "bendicion": 7418,
      "Lliw": 7419,
      "canta": 7420,
      "##akuni": 7421,
      "##akunqa": 7422,
      "Chaynuy": 7423,
      "Hinaptinqa": 7424,
      "Hayk": 7425,
      "Puk": 7426,
      "##äga": 7427,
      "##tita": 7428,
      "Dyusta": 7429,
      "##qantsikta": 7430,
      "Muy": 7431,
      "##pti": 7432,
      "##kapun": 7433,
      "caz": 7434,
      "##canchi": 7435,
      "watu": 7436,
      "revista": 7437,
      "Romanos": 7438,
      "##rir": 7439,
      "##osa": 7440,
      "yachasun": 7441,
      "hinaspapas": 7442,
      "yarpacha": 7443,
      "Esp": 7444,
      "guerra": 7445,
      "llaktapi": 7446,
      "Ag": 7447,
      "Sim": 7448,
      "##ate": 7449,
      "nishpami": 7450,
      "jinachu": 7451,
      "##uin": 7452,
      "##yap": 7453,
      "##aqku": 7454,
      "unchayta": 7455,
      "nil": 7456,
      "wañuq": 7457,
      "tiyaj": 7458,
      "runakunapas": 7459,
      "rikunki": 7460,
      "shinami": 7461,
      "Piluta": 7462,
      "cachun": 7463,
      "machu": 7464,
      "##chejpaj": 7465,
      "##anqam": 7466,
      "yanapawanchik": 7467,
      "Supay": 7468,
      "tantanakuy": 7469,
      "47": 7470,
      "##ashayqui": 7471,
      "##culo": 7472,
      "##iliste": 7473,
      "sapallan": 7474,
      "llakipay": 7475,
      "Chuuu": 7476,
      "pari": 7477,
      "##achwan": 7478,
      "paykunamanta": 7479,
      "causaj": 7480,
      "col": 7481,
      "maj": 7482,
      "pad": 7483,
      "##lami": 7484,
      "##anankupaq": 7485,
      "##amush": 7486,
      "kasqayta": 7487,
      "chaynata": 7488,
      "peru": 7489,
      "rimapay": 7490,
      "lloqsim": 7491,
      "##lipsis": 7492,
      "##21": 7493,
      "##char": 7494,
      "##chikun": 7495,
      "Imamanta": 7496,
      "Isai": 7497,
      "##Chai": 7498,
      "pachapipas": 7499,
      "tsënö": 7500,
      "sutʼ": 7501,
      "Apoca": 7502,
      "##jinamanta": 7503,
      "49": 7504,
      "Ruw": 7505,
      "##kunachu": 7506,
      "##shpa": 7507,
      "wañush": 7508,
      "carta": 7509,
      "##oridad": 7510,
      "Testig": 7511,
      "wana": 7512,
      "lluy": 7513,
      "##ukan": 7514,
      "##ablo": 7515,
      "allpapi": 7516,
      "paqari": 7517,
      "Apocalipsis": 7518,
      "puna": 7519,
      "uchu": 7520,
      "##inakuy": 7521,
      "##aytam": 7522,
      "##aykichik": 7523,
      "##ula": 7524,
      "mit": 7525,
      "##amba": 7526,
      "Ichapas": 7527,
      "haq": 7528,
      "##ñu": 7529,
      "tupan": 7530,
      "Shinallata": 7531,
      "##achkanku": 7532,
      "Hayka": 7533,
      "##iman": 7534,
      "##mpa": 7535,
      "##ós": 7536,
      "##EN": 7537,
      "china": 7538,
      "##tici": 7539,
      "nispan": 7540,
      "Espiritu": 7541,
      "chaytan": 7542,
      "llaqtamanta": 7543,
      "caycä": 7544,
      "junaq": 7545,
      "Maman": 7546,
      "aman": 7547,
      "bi": 7548,
      "saki": 7549,
      "##achej": 7550,
      "##piwan": 7551,
      "##illata": 7552,
      "nini": 7553,
      "2009": 7554,
      "pï": 7555,
      "##rish": 7556,
      "##IL": 7557,
      "runakunamanta": 7558,
      "munaspa": 7559,
      "soldad": 7560,
      "qawan": 7561,
      "##runa": 7562,
      "##anu": 7563,
      "char": 7564,
      "##raqa": 7565,
      "warmiqa": 7566,
      "Unay": 7567,
      "acr": 7568,
      "##chk": 7569,
      "##hulla": 7570,
      "ushak": 7571,
      "##aspanku": 7572,
      "María": 7573,
      "nay": 7574,
      "lluj": 7575,
      "##aykuq": 7576,
      "##omb": 7577,
      "##asqanchis": 7578,
      "2018": 7579,
      "Perú": 7580,
      "##dur": 7581,
      "anj": 7582,
      "##chisqan": 7583,
      "yanapayta": 7584,
      "cangui": 7585,
      "cati": 7586,
      "marca": 7587,
      "mikhuna": 7588,
      "mikhuy": 7589,
      "video": 7590,
      "Jerusalén": 7591,
      "importan": 7592,
      ".'": 7593,
      "Ru": 7594,
      "iti": 7595,
      "ji": 7596,
      "##CC": 7597,
      "##arnin": 7598,
      "##paqchu": 7599,
      "kanmi": 7600,
      "##cuptin": 7601,
      "imatataj": 7602,
      "Runakuna": 7603,
      "imano": 7604,
      "2016": 7605,
      "Kin": 7606,
      "##atay": 7607,
      "watapim": 7608,
      "##arqachu": 7609,
      "ruwanku": 7610,
      "##peci": 7611,
      "pʼunchay": 7612,
      "Cana": 7613,
      "Po": 7614,
      "Para": 7615,
      "dij": 7616,
      "gl": 7617,
      "and": 7618,
      "siud": 7619,
      "Unid": 7620,
      "jayw": 7621,
      "MATEO": 7622,
      "Her": 7623,
      "tri": 7624,
      "##ON": 7625,
      "Chayraykun": 7626,
      "ruwana": 7627,
      "2019": 7628,
      "hukmany": 7629,
      "milla": 7630,
      "##nenqa": 7631,
      "##tí": 7632,
      "##nintin": 7633,
      "##tajrí": 7634,
      "puriq": 7635,
      "##qaymanta": 7636,
      "##asunki": 7637,
      "manchari": 7638,
      "##me": 7639,
      "##okunata": 7640,
      "Jesuska": 7641,
      "##kuqmi": 7642,
      "##anichu": 7643,
      "willapä": 7644,
      "tanti": 7645,
      "qallarir": 7646,
      "hayt": 7647,
      "Imaraykutaj": 7648,
      "Tin": 7649,
      "Takuya": 7650,
      "apash": 7651,
      "je": 7652,
      "vin": 7653,
      "##uncha": 7654,
      "##kunalla": 7655,
      "##achaq": 7656,
      "churay": 7657,
      "cashna": 7658,
      "waqy": 7659,
      "qapa": 7660,
      "##fic": 7661,
      "runasqa": 7662,
      "pitaq": 7663,
      "pitapas": 7664,
      "ruwasqanta": 7665,
      "Paica": 7666,
      "__": 7667,
      "sacha": 7668,
      "##los": 7669,
      "##irqanku": 7670,
      "pacham": 7671,
      "kashanku": 7672,
      "pasa": 7673,
      "engañ": 7674,
      "sacerdote": 7675,
      "##nej": 7676,
      "##aspas": 7677,
      "##piy": 7678,
      "Chayshina": 7679,
      "Pichu": 7680,
      "Ruraq": 7681,
      "wasinpi": 7682,
      "Yaqapaschá": 7683,
      "Ko": 7684,
      "pha": 7685,
      "##kunaj": 7686,
      "pitapis": 7687,
      "enter": 7688,
      "##kunamantaqa": 7689,
      "##ambaq": 7690,
      "munaycha": 7691,
      "Tant": 7692,
      "##tachu": 7693,
      "##liz": 7694,
      "##uchin": 7695,
      "taky": 7696,
      "##tura": 7697,
      "##kup": 7698,
      "##elo": 7699,
      "aycha": 7700,
      "Pitaj": 7701,
      "wica": 7702,
      "aswanpas": 7703,
      "Anti": 7704,
      "Qhaw": 7705,
      "orq": 7706,
      "minish": 7707,
      "chhayn": 7708,
      "Haq": 7709,
      "han": 7710,
      "iq": 7711,
      "##kipi": 7712,
      "ricun": 7713,
      "alleq": 7714,
      "munayninta": 7715,
      "servichi": 7716,
      "qullqi": 7717,
      "apas": 7718,
      "rab": 7719,
      "##iraq": 7720,
      "##mantaj": 7721,
      "##tsiy": 7722,
      "##tsuraq": 7723,
      "karqani": 7724,
      "Bar": 7725,
      "##chuy": 7726,
      "chapa": 7727,
      "##ushi": 7728,
      "##quichis": 7729,
      "rurasqan": 7730,
      "##änayqui": 7731,
      "##ankichis": 7732,
      "ajina": 7733,
      "amigon": 7734,
      "##ankuna": 7735,
      "##onpi": 7736,
      "Chaypin": 7737,
      "kashka": 7738,
      "aqta": 7739,
      "yuraq": 7740,
      "Lima": 7741,
      "mikun": 7742,
      "##law": 7743,
      "manataq": 7744,
      "##aicu": 7745,
      "kutita": 7746,
      "##kunamatata": 7747,
      "yachachisqan": 7748,
      "suyukunata": 7749,
      "##ishpami": 7750,
      "sunq": 7751,
      "contra": 7752,
      "Jisusqa": 7753,
      "##versi": 7754,
      "Wiñay": 7755,
      "idiöm": 7756,
      "YACH": 7757,
      "hallp": 7758,
      "##tri": 7759,
      "##lay": 7760,
      "##asya": 7761,
      "##manjina": 7762,
      "##panman": 7763,
      "kawsanan": 7764,
      "kachari": 7765,
      "qallar": 7766,
      "60": 7767,
      "?,": 7768,
      "##pari": 7769,
      "chich": 7770,
      "ink": 7771,
      "maskh": 7772,
      "munanku": 7773,
      "##yanam": 7774,
      "qatiqnin": 7775,
      "Chasa": 7776,
      "].": 7777,
      "kil": 7778,
      "##ep": 7779,
      "##ukama": 7780,
      "##kunatawan": 7781,
      "##orqan": 7782,
      "ruwaj": 7783,
      "kullki": 7784,
      "##chöga": 7785,
      "##usqanmanta": 7786,
      "Ric": 7787,
      "illa": 7788,
      "##arga": 7789,
      "##achisqa": 7790,
      "##ashga": 7791,
      "chayan": 7792,
      "##kuyu": 7793,
      "##allqa": 7794,
      "imp": 7795,
      "kawan": 7796,
      "tiempopiqa": 7797,
      "##arishka": 7798,
      "##arisun": 7799,
      "Lev": 7800,
      "yanaparqa": 7801,
      "iglesi": 7802,
      "2020": 7803,
      "kuraj": 7804,
      "pantay": 7805,
      "riyta": 7806,
      "wic": 7807,
      "##ces": 7808,
      "##akiy": 7809,
      "ayq": 7810,
      "pud": 7811,
      "##cunä": 7812,
      "causai": 7813,
      "paqarisqa": 7814,
      "Vid": 7815,
      "tay": 7816,
      "##rend": 7817,
      "kananku": 7818,
      "##kunatami": 7819,
      "karanku": 7820,
      "Imash": 7821,
      "And": 7822,
      "Paqarisqa": 7823,
      "Boli": 7824,
      "##wam": 7825,
      "chap": 7826,
      "Chaytaqa": 7827,
      "##illan": 7828,
      "niptin": 7829,
      "atinman": 7830,
      "KAQ": 7831,
      "mat": 7832,
      "tat": 7833,
      "upa": 7834,
      "we": 7835,
      "##payku": 7836,
      "##inpi": 7837,
      "##onia": 7838,
      "Gal": 7839,
      "Ta": 7840,
      "qas": 7841,
      "##pï": 7842,
      "nishcata": 7843,
      "rimaykuna": 7844,
      "Abrah": 7845,
      "70": 7846,
      "tor": 7847,
      "ucha": 7848,
      "##ópi": 7849,
      "##LA": 7850,
      "##aychu": 7851,
      "##kunatapis": 7852,
      "##ushun": 7853,
      "suyakuy": 7854,
      "sunquy": 7855,
      "chinkachin": 7856,
      "##kawan": 7857,
      "##chwan": 7858,
      "runaka": 7859,
      "quiqui": 7860,
      "Santo": 7861,
      "ricuchin": 7862,
      "Pam": 7863,
      "Yaku": 7864,
      "quch": 7865,
      "##iray": 7866,
      "193": 7867,
      "##cangui": 7868,
      "manchakuy": 7869,
      "51": 7870,
      "Wa": 7871,
      "ichá": 7872,
      "muj": 7873,
      "Diospaq": 7874,
      "runaman": 7875,
      "kangi": 7876,
      "kaymantam": 7877,
      "willaw": 7878,
      "2015": 7879,
      "Buliw": 7880,
      "HECH": 7881,
      "phax": 7882,
      "rap": 7883,
      "##sy": 7884,
      "allim": 7885,
      "rurag": 7886,
      "##kunamantapas": 7887,
      "qillqay": 7888,
      "hatunchasqa": 7889,
      "puntata": 7890,
      "huill": 7891,
      "caq": 7892,
      "##koq": 7893,
      "##gü": 7894,
      "waran": 7895,
      "quir": 7896,
      "##irqani": 7897,
      "HECHOS": 7898,
      "er": 7899,
      "sichus": 7900,
      "##out": 7901,
      "##usa": 7902,
      "##rakuna": 7903,
      "##achikuq": 7904,
      "Shimi": 7905,
      "##ober": 7906,
      "adur": 7907,
      "cananpaj": 7908,
      "##octor": 7909,
      "Plantilla": 7910,
      "Hinan": 7911,
      "junta": 7912,
      "##mira": 7913,
      "kayan": 7914,
      "invita": 7915,
      "##qantam": 7916,
      "paicuna": 7917,
      "The": 7918,
      "At": 7919,
      "takin": 7920,
      "##sun": 7921,
      "##ío": 7922,
      "pichus": 7923,
      "##tsin": 7924,
      "##achikuy": 7925,
      "Tatay": 7926,
      "pero": 7927,
      "punchawmi": 7928,
      "##aykichipa": 7929,
      "Nin": 7930,
      "##kana": 7931,
      "##arun": 7932,
      "chinkan": 7933,
      "chikan": 7934,
      "##qanchis": 7935,
      "kamayuq": 7936,
      "##enses": 7937,
      "##ayanqui": 7938,
      "shinallata": 7939,
      "##akunanpaq": 7940,
      "##Chaymanta": 7941,
      "Jinapis": 7942,
      "diy": 7943,
      "fara": 7944,
      "hö": 7945,
      "kum": 7946,
      "##amus": 7947,
      "Chak": 7948,
      "hinata": 7949,
      "rimaynin": 7950,
      "imatam": 7951,
      "Allinta": 7952,
      "qhawarin": 7953,
      "familia": 7954,
      "Faraon": 7955,
      "Palabran": 7956,
      "Dic": 7957,
      "Saymi": 7958,
      "hoq": 7959,
      "##yak": 7960,
      "##for": 7961,
      "Chaychina": 7962,
      "##ushcata": 7963,
      "##kanchik": 7964,
      "##tanpi": 7965,
      "rikäts": 7966,
      "Dis": 7967,
      "gusta": 7968,
      "taku": 7969,
      "runaga": 7970,
      "##eni": 7971,
      "imalla": 7972,
      "##llatam": 7973,
      "##änanpä": 7974,
      "hunta": 7975,
      "lim": 7976,
      "qel": 7977,
      "##manpis": 7978,
      "karupi": 7979,
      "##cupi": 7980,
      "ayta": 7981,
      "churiy": 7982,
      "llaqtanta": 7983,
      "usqhay": 7984,
      "pand": 7985,
      "Imaraykutaq": 7986,
      "wiñaypaj": 7987,
      "autoridad": 7988,
      "Kimsa": 7989,
      "Co": 7990,
      "Sur": 7991,
      "##mis": 7992,
      "##ïpul": 7993,
      "##Hin": 7994,
      "allpata": 7995,
      "manach": 7996,
      "##tiyqa": 7997,
      "##amanmi": 7998,
      "huaquin": 7999,
      "##ovi": 8000,
      "pasan": 8001,
      "##kasapa": 8002,
      "yachatsikï": 8003,
      "mozo": 8004,
      "uyarinakunatapas": 8005,
      "imi": 8006,
      "japi": 8007,
      "jahua": 8008,
      "nun": 8009,
      "va": 8010,
      "##idad": 8011,
      "Chayraycu": 8012,
      "allilla": 8013,
      "nishan": 8014,
      "mund": 8015,
      "yarpar": 8016,
      "seman": 8017,
      "ñucata": 8018,
      "Pachapi": 8019,
      "hermanos": 8020,
      "pul": 8021,
      "##yana": 8022,
      "##ber": 8023,
      "##onmanta": 8024,
      "##kuyman": 8025,
      "##ninchej": 8026,
      "##aykipaj": 8027,
      "yanapana": 8028,
      "yuyayniyoq": 8029,
      "wanna": 8030,
      "qis": 8031,
      "tal": 8032,
      "lluc": 8033,
      "##mantaq": 8034,
      "##apuni": 8035,
      "##aja": 8036,
      "##tani": 8037,
      "##cula": 8038,
      "kallpacha": 8039,
      "creey": 8040,
      "##chishka": 8041,
      "captinpis": 8042,
      "muru": 8043,
      "tic": 8044,
      "kasukunan": 8045,
      "##payqui": 8046,
      "##ananchis": 8047,
      "imataq": 8048,
      "##pachiy": 8049,
      "##arkancu": 8050,
      "kalind": 8051,
      "##mandami": 8052,
      "Génesis": 8053,
      "Pampa": 8054,
      "Pisi": 8055,
      "go": 8056,
      "igu": 8057,
      "r2": 8058,
      "##chiyta": 8059,
      "allimi": 8060,
      "Imam": 8061,
      "ushan": 8062,
      "pes": 8063,
      "##Tata": 8064,
      "##chur": 8065,
      "##erqan": 8066,
      "rikusqa": 8067,
      "##chichun": 8068,
      "yachaspa": 8069,
      "yachanapaq": 8070,
      "chiqap": 8071,
      "Pikaa": 8072,
      "tukui": 8073,
      "Chayraykum": 8074,
      "ke": 8075,
      "##usi": 8076,
      "jinalla": 8077,
      "cäsuc": 8078,
      "mon": 8079,
      "rob": 8080,
      "taita": 8081,
      "ñam": 8082,
      "##ua": 8083,
      "##xt": 8084,
      "##tinta": 8085,
      "##acuj": 8086,
      "##illampa": 8087,
      "##rapi": 8088,
      "kasqayki": 8089,
      "##kuspanku": 8090,
      "wawqen": 8091,
      "cü": 8092,
      "rato": 8093,
      "##les": 8094,
      "##hush": 8095,
      "##der": 8096,
      "##UN": 8097,
      "##ashk": 8098,
      "publi": 8099,
      "##unkichis": 8100,
      "##aycanqui": 8101,
      "Jallpʼ": 8102,
      "Ej": 8103,
      "Nu": 8104,
      "##ampaj": 8105,
      "##urnin": 8106,
      "kawë": 8107,
      "##ome": 8108,
      "Mandaj": 8109,
      "rikätsi": 8110,
      "qhipaq": 8111,
      "52": 8112,
      "Be": 8113,
      "ull": 8114,
      "##chikpas": 8115,
      "##chikmanta": 8116,
      "##acuran": 8117,
      "##niykichej": 8118,
      "kashani": 8119,
      "kusikun": 8120,
      "decid": 8121,
      "Salv": 8122,
      "junag": 8123,
      "qhepaman": 8124,
      "Ajinamanta": 8125,
      "cayta": 8126,
      "##ocu": 8127,
      "##qami": 8128,
      "kastig": 8129,
      "##achiw": 8130,
      "paipaj": 8131,
      "Josu": 8132,
      "##timpis": 8133,
      "Pabloqa": 8134,
      "##tikiqa": 8135,
      "chiqu": 8136,
      "##tina": 8137,
      "##dami": 8138,
      "##Jes": 8139,
      "##EM": 8140,
      "##amay": 8141,
      "chayka": 8142,
      "aypa": 8143,
      "kapuq": 8144,
      "japʼ": 8145,
      "Bet": 8146,
      "Tawantin": 8147,
      "sina": 8148,
      "##yy": 8149,
      "##nincuna": 8150,
      "Chaypina": 8151,
      "kaymanta": 8152,
      "ays": 8153,
      "caycap": 8154,
      "khuska": 8155,
      "këkan": 8156,
      "Chuuuu": 8157,
      "lloqs": 8158,
      "tyimpu": 8159,
      "Ami": 8160,
      "Jinan": 8161,
      "vill": 8162,
      "##3Pi": 8163,
      "##qanda": 8164,
      "kaqkunaqa": 8165,
      "qankunaqa": 8166,
      "yarpä": 8167,
      "causaita": 8168,
      "killka": 8169,
      "profe": 8170,
      "Ñoqaqa": 8171,
      "oveja": 8172,
      "chalapa": 8173,
      "To": 8174,
      "mac": 8175,
      "nau": 8176,
      "uchilla": 8177,
      "lli": 8178,
      "ruwaspa": 8179,
      "##ruz": 8180,
      "Ashtahuanpish": 8181,
      "Tanta": 8182,
      "##gami": 8183,
      "##ake": 8184,
      "payka": 8185,
      "wañunan": 8186,
      "##cuyta": 8187,
      "qocha": 8188,
      "munarqan": 8189,
      "muyur": 8190,
      "chuscu": 8191,
      "Tur": 8192,
      "gue": 8193,
      "ja": 8194,
      "poq": 8195,
      "##hn": 8196,
      "##ork": 8197,
      "##aynita": 8198,
      "##ible": 8199,
      "runacunapa": 8200,
      "llaqtanpi": 8201,
      "2008": 8202,
      "Pr": 8203,
      "Uk": 8204,
      "hawan": 8205,
      "##ädu": 8206,
      "##day": 8207,
      "rig": 8208,
      "imawan": 8209,
      "intin": 8210,
      "waway": 8211,
      "##ankama": 8212,
      "##asqankumanta": 8213,
      "##camanda": 8214,
      "Isaac": 8215,
      "hich": 8216,
      "##öga": 8217,
      "##śhan": 8218,
      "##cham": 8219,
      "allinpaq": 8220,
      "ñawi": 8221,
      "casta": 8222,
      "atiyta": 8223,
      "##óstol": 8224,
      "?'": 8225,
      "qunqa": 8226,
      "##rik": 8227,
      "##orqani": 8228,
      "paycunata": 8229,
      "aya": 8230,
      "llaqtata": 8231,
      "akr": 8232,
      "kunankama": 8233,
      "punllacuna": 8234,
      "Nue": 8235,
      "manañam": 8236,
      "ruph": 8237,
      "munaj": 8238,
      "chasa": 8239,
      "pampach": 8240,
      "importante": 8241,
      "Waran": 8242,
      "kapi": 8243,
      "##cupaj": 8244,
      "niwan": 8245,
      "llaqtap": 8246,
      "quishpi": 8247,
      "atipa": 8248,
      "##otel": 8249,
      "atiyniyoj": 8250,
      "maypichus": 8251,
      "kalindary": 8252,
      "CP": 8253,
      "niki": 8254,
      "puyu": 8255,
      "puj": 8256,
      "rina": 8257,
      "##arikun": 8258,
      "##isun": 8259,
      "##erqani": 8260,
      "Chaypim": 8261,
      "##gal": 8262,
      "##allataqmi": 8263,
      "tupa": 8264,
      "casado": 8265,
      "qhawariy": 8266,
      "Sumaj": 8267,
      "##azar": 8268,
      "necesi": 8269,
      "Mos": 8270,
      "##yn": 8271,
      "##kunapin": 8272,
      "##huanmi": 8273,
      "##unkichik": 8274,
      "tatas": 8275,
      "Los": 8276,
      "##papis": 8277,
      "##achiran": 8278,
      "Chaypis": 8279,
      "runaway": 8280,
      "##pitaga": 8281,
      "Imaynatá": 8282,
      "ushac": 8283,
      "kankichis": 8284,
      "katin": 8285,
      "versi": 8286,
      "testigon": 8287,
      "Tan": 8288,
      "##korqa": 8289,
      "##qha": 8290,
      "kati": 8291,
      "qhat": 8292,
      "yanapaq": 8293,
      "##aycaran": 8294,
      "wants": 8295,
      "cuar": 8296,
      "Angel": 8297,
      "Kamasqa": 8298,
      "Ichanga": 8299,
      "##lis": 8300,
      "##data": 8301,
      "Diosga": 8302,
      "tapuk": 8303,
      "uras": 8304,
      "Jisukristu": 8305,
      "Imaraykuchus": 8306,
      "Ñuqaqa": 8307,
      "riqsi": 8308,
      "akun": 8309,
      "akuq": 8310,
      "##cus": 8311,
      "##aqkuna": 8312,
      "##kichi": 8313,
      "kasukuy": 8314,
      "mayman": 8315,
      "rikchan": 8316,
      "Maypi": 8317,
      "rini": 8318,
      "mamallaqta": 8319,
      "##simuy": 8320,
      "kuticherqa": 8321,
      "Ber": 8322,
      "Nog": 8323,
      "pen": 8324,
      "##akunapaq": 8325,
      "##ël": 8326,
      "##eron": 8327,
      "##pankuna": 8328,
      "huknin": 8329,
      "Tse": 8330,
      "ukhun": 8331,
      "horas": 8332,
      "wilacuy": 8333,
      "Ir": 8334,
      "##omanta": 8335,
      "##ford": 8336,
      "##apim": 8337,
      "yuyan": 8338,
      "##kunamanmi": 8339,
      "chunga": 8340,
      "qatipa": 8341,
      "##arinapaq": 8342,
      "vide": 8343,
      "graci": 8344,
      "Ati": 8345,
      "puch": 8346,
      "##qta": 8347,
      "##oto": 8348,
      "##śha": 8349,
      "allllll": 8350,
      "yachash": 8351,
      "yachayniyoq": 8352,
      "##alli": 8353,
      "siti": 8354,
      "Efes": 8355,
      "Nacional": 8356,
      "##nï": 8357,
      "##aria": 8358,
      "##omas": 8359,
      "cull": 8360,
      "sinchiy": 8361,
      "kananmanta": 8362,
      "Jehoväqa": 8363,
      "##Mana": 8364,
      "Chaita": 8365,
      "chayar": 8366,
      "yacharqa": 8367,
      "munasqa": 8368,
      "Llakta": 8369,
      "sirvi": 8370,
      "phuyu": 8371,
      "Satanasqa": 8372,
      "utiliz": 8373,
      "Ha": 8374,
      "Pe": 8375,
      "thu": 8376,
      "##äpaq": 8377,
      "##via": 8378,
      "##chiran": 8379,
      "##pismi": 8380,
      "qhelqa": 8381,
      "parki": 8382,
      "apusqa": 8383,
      "achik": 8384,
      "buy": 8385,
      "##shun": 8386,
      "imakunata": 8387,
      "##llatataj": 8388,
      "kausaynin": 8389,
      "Qankunaqa": 8390,
      "qonqay": 8391,
      "patron": 8392,
      "qesh": 8393,
      "uñ": 8394,
      "cham": 8395,
      "llaqtaqa": 8396,
      "##abl": 8397,
      "qamqa": 8398,
      "##paykichi": 8399,
      "astasqa": 8400,
      "precisaq": 8401,
      "Ac": 8402,
      "Mañ": 8403,
      "gus": 8404,
      "qal": 8405,
      "yal": 8406,
      "##payni": 8407,
      "Chaymand": 8408,
      "images": 8409,
      "willakï": 8410,
      "disc": 8411,
      "ñawpaqta": 8412,
      "2007": 8413,
      "pichqa": 8414,
      "##ninmantaq": 8415,
      "--": 8416,
      "pawan": 8417,
      "##tus": 8418,
      "shi": 8419,
      "kusala": 8420,
      "##asunchis": 8421,
      "llankʼ": 8422,
      "pampaman": 8423,
      "preso": 8424,
      "bu": 8425,
      "qaq": 8426,
      "##SA": 8427,
      "##ack": 8428,
      "shiminta": 8429,
      "##tiya": 8430,
      "uyan": 8431,
      "Santi": 8432,
      "ñakʼ": 8433,
      "puëdin": 8434,
      "anjil": 8435,
      "##CCS": 8436,
      "Tes": 8437,
      "fav": 8438,
      "mamanta": 8439,
      "##hui": 8440,
      "##riya": 8441,
      "##gin": 8442,
      "##isqanku": 8443,
      "inter": 8444,
      "ruwaynin": 8445,
      "Manch": 8446,
      "Mayu": 8447,
      "takiy": 8448,
      "hora": 8449,
      "COR": 8450,
      "aqtasqa": 8451,
      "Au": 8452,
      "##des": 8453,
      "##ER": 8454,
      "##pani": 8455,
      "mayin": 8456,
      "tumkuy": 8457,
      "kullkita": 8458,
      "CPCCS": 8459,
      "Iñ": 8460,
      "iach": 8461,
      "Ñu": 8462,
      "##ble": 8463,
      "##vas": 8464,
      "anchu": 8465,
      "pachaj": 8466,
      "juez": 8467,
      "##llataqmi": 8468,
      "micuy": 8469,
      "Suyukuna": 8470,
      "Mach": 8471,
      "Wat": 8472,
      "jita": 8473,
      "qanqa": 8474,
      "##ächu": 8475,
      "##apita": 8476,
      "qamkunaqa": 8477,
      "##anchikpaq": 8478,
      "sirb": 8479,
      "muchu": 8480,
      "päs": 8481,
      "lluksh": 8482,
      "On": 8483,
      "##ner": 8484,
      "##antan": 8485,
      "##ospa": 8486,
      "##aranam": 8487,
      "hatunchakuq": 8488,
      "ukninmantaq": 8489,
      "rimaypi": 8490,
      "2001": 8491,
      "##arqä": 8492,
      "lic": 8493,
      "pura": 8494,
      "##kunataka": 8495,
      "##ojtin": 8496,
      "mikuna": 8497,
      "2010": 8498,
      "##ankapak": 8499,
      "Paicunaca": 8500,
      "Win": 8501,
      "##chum": 8502,
      "Diosniy": 8503,
      "##chisapa": 8504,
      "huan": 8505,
      "Diosninsi": 8506,
      "Pat": 8507,
      "crij": 8508,
      "ñit": 8509,
      "##mos": 8510,
      "##Ll": 8511,
      "##mak": 8512,
      "shinata": 8513,
      "intr": 8514,
      "##kuranku": 8515,
      "Pipis": 8516,
      "willam": 8517,
      "Llaq": 8518,
      "Imaynataq": 8519,
      "yaqapaschá": 8520,
      "yanapasunki": 8521,
      "Kawsay": 8522,
      "Idioma": 8523,
      "Papa": 8524,
      "Sil": 8525,
      "##ión": 8526,
      "##are": 8527,
      "##kunachus": 8528,
      "##mal": 8529,
      "##gapi": 8530,
      "##uqta": 8531,
      "yachanchi": 8532,
      "##dica": 8533,
      "munayniy": 8534,
      "##parin": 8535,
      "imaynachus": 8536,
      "caway": 8537,
      "tutamanta": 8538,
      "shujtaj": 8539,
      "Estado": 8540,
      "Kush": 8541,
      "km": 8542,
      "lawpi": 8543,
      "##yä": 8544,
      "##achpa": 8545,
      "##llapuni": 8546,
      "##cunacho": 8547,
      "##apaya": 8548,
      "##ichiy": 8549,
      "wañuyta": 8550,
      "##llatapis": 8551,
      "Internet": 8552,
      "##isqanmanta": 8553,
      "millon": 8554,
      "##tëru": 8555,
      "##ukur": 8556,
      "##ard": 8557,
      "##ister": 8558,
      "##irmi": 8559,
      "kanqanku": 8560,
      "servi": 8561,
      "##akunanku": 8562,
      "##akunankupaq": 8563,
      "casarasqa": 8564,
      "Wikis": 8565,
      "dibuj": 8566,
      "Kill": 8567,
      "Tura": 8568,
      "##jta": 8569,
      "##ëpa": 8570,
      "##uyay": 8571,
      "##enqanku": 8572,
      "##kusqankuta": 8573,
      "yanapam": 8574,
      "ishk": 8575,
      "kachkanku": 8576,
      "org": 8577,
      "##tenqa": 8578,
      "lluqs": 8579,
      "Kaaa": 8580,
      "humilla": 8581,
      "kaugs": 8582,
      "rö": 8583,
      "##äpam": 8584,
      "##11": 8585,
      "##anakun": 8586,
      "##ican": 8587,
      "##guichu": 8588,
      "gentecunaca": 8589,
      "Mish": 8590,
      "don": 8591,
      "yai": 8592,
      "Ña": 8593,
      "##apur": 8594,
      "Chaypiqa": 8595,
      "##camantami": 8596,
      "Ley": 8597,
      "Rom": 8598,
      "kuyu": 8599,
      "tatan": 8600,
      "##gs": 8601,
      "##achispa": 8602,
      "kaynu": 8603,
      "kasaq": 8604,
      "##iqi": 8605,
      "shimita": 8606,
      "akllasqa": 8607,
      "munasqanman": 8608,
      "##KUY": 8609,
      "hurq": 8610,
      "Tiy": 8611,
      "kuch": 8612,
      "kaman": 8613,
      "##paña": 8614,
      "Chanta": 8615,
      "##ariyan": 8616,
      "##uptiqui": 8617,
      "rurashka": 8618,
      "uyariq": 8619,
      "##dash": 8620,
      "##chawwan": 8621,
      "##iyanka": 8622,
      "sintir": 8623,
      "##amble": 8624,
      "jinaman": 8625,
      "horq": 8626,
      "##achöqa": 8627,
      "Estados": 8628,
      "yaw": 8629,
      "##TU": 8630,
      "##isca": 8631,
      "manaqa": 8632,
      "enqa": 8633,
      "ching": 8634,
      "wayr": 8635,
      "punchawpi": 8636,
      "##apäcun": 8637,
      "##ninkupi": 8638,
      "admira": 8639,
      "jinataj": 8640,
      "Ez": 8641,
      "wag": 8642,
      "##chru": 8643,
      "##paman": 8644,
      "##lll": 8645,
      "##amin": 8646,
      "##atami": 8647,
      "##litiku": 8648,
      "rikh": 8649,
      "tiempu": 8650,
      "##qaykichis": 8651,
      "Imaynam": 8652,
      "##aspanmi": 8653,
      "##aqtintaq": 8654,
      "pachakwata": 8655,
      "you": 8656,
      "chawpin": 8657,
      "Des": 8658,
      "uchay": 8659,
      "##äna": 8660,
      "##anapi": 8661,
      "##anapaj": 8662,
      "rimarka": 8663,
      "##anchiq": 8664,
      "chaninch": 8665,
      "Quiquin": 8666,
      "Unidos": 8667,
      "80": 8668,
      "##rray": 8669,
      "##10": 8670,
      "runaguna": 8671,
      "chasna": 8672,
      "##ayanam": 8673,
      "Aswanqa": 8674,
      "kamachikuynin": 8675,
      "##ieronta": 8676,
      "Hebreos": 8677,
      "Han": 8678,
      "Noq": 8679,
      "Sol": 8680,
      "mapa": 8681,
      "qepa": 8682,
      "##kaw": 8683,
      "##ikita": 8684,
      "##tica": 8685,
      "runamasin": 8686,
      "##akunki": 8687,
      "##kushan": 8688,
      "rimana": 8689,
      "kitilli": 8690,
      "palabran": 8691,
      "igual": 8692,
      "Templ": 8693,
      "Wallpaper": 8694,
      "nuka": 8695,
      "poli": 8696,
      "##kaqta": 8697,
      "##ho": 8698,
      "##pai": 8699,
      "##unapaq": 8700,
      "##kunapaj": 8701,
      "##anaqa": 8702,
      "##ninpa": 8703,
      "##amily": 8704,
      "##achij": 8705,
      "##ila": 8706,
      "willayta": 8707,
      "##raqchu": 8708,
      "rikuchi": 8709,
      "Imatataj": 8710,
      "milagro": 8711,
      "amigo": 8712,
      "He": 8713,
      "maqu": 8714,
      "templo": 8715,
      "pachaqa": 8716,
      "unch": 8717,
      "##pachan": 8718,
      "libru": 8719,
      "##ćhü": 8720,
      "charij": 8721,
      "Pak": 8722,
      "Ra": 8723,
      "ter": 8724,
      "##ced": 8725,
      "##cunallata": 8726,
      "##kurmi": 8727,
      "unayta": 8728,
      "Jesusman": 8729,
      "Qhich": 8730,
      "Satanaspa": 8731,
      "Piikaa": 8732,
      "yupachi": 8733,
      "Hul": 8734,
      "Ik": 8735,
      "Kash": 8736,
      "Pic": 8737,
      "kunt": 8738,
      "pamb": 8739,
      "##cmi": 8740,
      "manataqmi": 8741,
      "##liku": 8742,
      "watakunapi": 8743,
      "tantana": 8744,
      "qallaykurqa": 8745,
      "iskaynin": 8746,
      "Apostol": 8747,
      "Vi": 8748,
      "hall": 8749,
      "jir": 8750,
      "##12": 8751,
      "##kuypi": 8752,
      "manas": 8753,
      "##aspam": 8754,
      "Pita": 8755,
      "kashaspa": 8756,
      "Llaki": 8757,
      "shungun": 8758,
      "Lot": 8759,
      "gi": 8760,
      "##huk": 8761,
      "##kuchun": 8762,
      "kaykuna": 8763,
      "allinkunata": 8764,
      "comp": 8765,
      "lluqsim": 8766,
      "Nogaga": 8767,
      "‹‹": 8768,
      "##ocha": 8769,
      "manapuni": 8770,
      "sull": 8771,
      "##umaqta": 8772,
      "llamkan": 8773,
      "khaynata": 8774,
      "kausayta": 8775,
      "wañuchi": 8776,
      "mallkiq": 8777,
      "tiemponpi": 8778,
      "imamantapas": 8779,
      "inkisqa": 8780,
      "'?": 8781,
      "II": 8782,
      "##unawan": 8783,
      "##allami": 8784,
      "##richun": 8785,
      "shamur": 8786,
      "Nan": 8787,
      "hatari": 8788,
      "##uda": 8789,
      "##QA": 8790,
      "##cunapash": 8791,
      "##kuyqa": 8792,
      "runauna": 8793,
      "runakunap": 8794,
      "Chaynata": 8795,
      "Imaynan": 8796,
      "##kunanpaq": 8797,
      "##iria": 8798,
      "munarqani": 8799,
      "wañuchisqa": 8800,
      "##raduc": 8801,
      "favor": 8802,
      "men": 8803,
      "##ros": 8804,
      "kara": 8805,
      "uyarir": 8806,
      "cashanta": 8807,
      "salb": 8808,
      "##chisha": 8809,
      "ñakariy": 8810,
      "huilla": 8811,
      "cumpli": 8812,
      "Porqui": 8813,
      "cel": 8814,
      "lan": 8815,
      "ol": 8816,
      "patan": 8817,
      "##naqa": 8818,
      "##ete": 8819,
      "Chash": 8820,
      "##ashaj": 8821,
      "kasuk": 8822,
      "##ejmanta": 8823,
      "kutiy": 8824,
      "##oyqa": 8825,
      "jinallataj": 8826,
      "Chaynulla": 8827,
      "##iciembre": 8828,
      "sacri": 8829,
      "Piii": 8830,
      "bendec": 8831,
      "hatunchakuqqa": 8832,
      "Sut": 8833,
      "kata": 8834,
      "ñami": 8835,
      "##rar": 8836,
      "##Chu": 8837,
      "##kunapita": 8838,
      "##achaw": 8839,
      "shong": 8840,
      "ruwakun": 8841,
      "ñawir": 8842,
      "##aqucha": 8843,
      "parlay": 8844,
      "2014": 8845,
      "muts": 8846,
      "Abrahan": 8847,
      "Tantanakuy": 8848,
      "DIOS": 8849,
      "aun": 8850,
      "ui": 8851,
      "çh": 8852,
      "##gram": 8853,
      "kuyay": 8854,
      "quilla": 8855,
      "##unquipaj": 8856,
      "Jerusalenman": 8857,
      "iwka": 8858,
      "lutan": 8859,
      "CH": 8860,
      "Rus": 8861,
      "ed": 8862,
      "sapaq": 8863,
      "##cchu": 8864,
      "##cunacta": 8865,
      "##payqa": 8866,
      "simiman": 8867,
      "munanchu": 8868,
      "amayá": 8869,
      "qankunaman": 8870,
      "noqanchis": 8871,
      "Qillqa": 8872,
      "necesitan": 8873,
      "Huch": 8874,
      "Mag": 8875,
      "##unda": 8876,
      "China": 8877,
      "llik": 8878,
      "##ashcanqui": 8879,
      "tukuq": 8880,
      "kayna": 8881,
      "##oqmi": 8882,
      "kamachiyta": 8883,
      "##umkristu": 8884,
      "limpi": 8885,
      "wiya": 8886,
      "charina": 8887,
      "kankunata": 8888,
      "rurarqa": 8889,
      "niwanchik": 8890,
      "##cienci": 8891,
      "punku": 8892,
      "kananchik": 8893,
      "crey": 8894,
      "wikch": 8895,
      "Diosninchipa": 8896,
      "kwir": 8897,
      "Hamuq": 8898,
      "Paita": 8899,
      "hieronta": 8900,
      "lo": 8901,
      "wayta": 8902,
      "##urqanku": 8903,
      "yachakuy": 8904,
      "manar": 8905,
      "chaskiy": 8906,
      "Timoteo": 8907,
      "kalindaryukama": 8908,
      "Hotel": 8909,
      "kimi": 8910,
      "##usun": 8911,
      "##iye": 8912,
      "Chawpi": 8913,
      "##entu": 8914,
      "pachaq": 8915,
      "##kunampaq": 8916,
      "##tero": 8917,
      "yachaywasi": 8918,
      "cristiänu": 8919,
      "päg": 8920,
      "'¿": 8921,
      "Ben": 8922,
      "Ecl": 8923,
      "diya": 8924,
      "kishpi": 8925,
      "lin": 8926,
      "##karqan": 8927,
      "##chpa": 8928,
      "runap": 8929,
      "runamanta": 8930,
      "tiyanku": 8931,
      "##punku": 8932,
      "imatapash": 8933,
      "wawqi": 8934,
      "llajtapi": 8935,
      "santo": 8936,
      "wijch": 8937,
      "Ki": 8938,
      "janaq": 8939,
      "mita": 8940,
      "ob": 8941,
      "wac": 8942,
      "##nun": 8943,
      "##äl": 8944,
      "##ky": 8945,
      "##tra": 8946,
      "##öpis": 8947,
      "##llaw": 8948,
      "##tico": 8949,
      "##ashwan": 8950,
      "##ore": 8951,
      "llaqtakunapi": 8952,
      "kamachim": 8953,
      "atina": 8954,
      "rurashan": 8955,
      "##achisha": 8956,
      "##gles": 8957,
      "Cre": 8958,
      "qhulla": 8959,
      "rat": 8960,
      "##LO": 8961,
      "##anisqa": 8962,
      "##llachö": 8963,
      "##ision": 8964,
      "##osto": 8965,
      "##uqtin": 8966,
      "ruwasqayki": 8967,
      "carka": 8968,
      "##arishca": 8969,
      "trat": 8970,
      "munashan": 8971,
      "Sas": 8972,
      "cˈ": 8973,
      "ichik": 8974,
      "raz": 8975,
      "ruqu": 8976,
      "sen": 8977,
      "##lik": 8978,
      "##aykun": 8979,
      "##kuri": 8980,
      "##ashcä": 8981,
      "##onman": 8982,
      "chaywan": 8983,
      "##ago": 8984,
      "arin": 8985,
      "##pagmi": 8986,
      "Prov": 8987,
      "khuyapay": 8988,
      "##versidad": 8989,
      "Mayna": 8990,
      "Ras": 8991,
      "ic": 8992,
      "my": 8993,
      "ñisqa": 8994,
      "##ninkunaqa": 8995,
      "anqay": 8996,
      "suld": 8997,
      "##imaq": 8998,
      "allinqa": 8999,
      "nipä": 9000,
      "##llapapaq": 9001,
      "Askha": 9002,
      "##ananchikpaq": 9003,
      "Isaías": 9004,
      "Espíritu": 9005,
      "Bel": 9006,
      "dya": 9007,
      "lik": 9008,
      "qori": 9009,
      "##kayta": 9010,
      "##aqkunaqa": 9011,
      "##anacush": 9012,
      "shita": 9013,
      "rupa": 9014,
      "yuyayta": 9015,
      "canchi": 9016,
      "hinallam": 9017,
      "##ilu": 9018,
      "espa": 9019,
      "##kunankupaq": 9020,
      "Amayá": 9021,
      "Warkay": 9022,
      "ejempl": 9023,
      "Sonq": 9024,
      "Wayna": 9025,
      "mara": 9026,
      "nam": 9027,
      "##chakun": 9028,
      "##piña": 9029,
      "##killapa": 9030,
      "##chikman": 9031,
      "##arij": 9032,
      "kankichik": 9033,
      "creej": 9034,
      "usaq": 9035,
      "rikurir": 9036,
      "nergan": 9037,
      "doctor": 9038,
      "fru": 9039,
      "##Runa": 9040,
      "##tari": 9041,
      "##mantachu": 9042,
      "yachanku": 9043,
      "paykunapa": 9044,
      "##icun": 9045,
      "ruwaran": 9046,
      "kamay": 9047,
      "##ptinpis": 9048,
      "kutitam": 9049,
      "##kamam": 9050,
      "reypa": 9051,
      "chusku": 9052,
      "discipulon": 9053,
      "siudä": 9054,
      "du": 9055,
      "kuk": 9056,
      "##gh": 9057,
      "##isqanta": 9058,
      "llimp": 9059,
      "##ashqan": 9060,
      "##ishgan": 9061,
      "nirqaku": 9062,
      "maymanta": 9063,
      "isqa": 9064,
      "Maymanta": 9065,
      "chinkar": 9066,
      "Pablu": 9067,
      "phaw": 9068,
      "Bipim": 9069,
      "Chaymandaqam": 9070,
      "Ox": 9071,
      "Pata": 9072,
      "Tik": 9073,
      "cama": 9074,
      "ij": 9075,
      "##Tukuy": 9076,
      "##ine": 9077,
      "chakin": 9078,
      "rurayan": 9079,
      "##itam": 9080,
      "wasinta": 9081,
      "willacuy": 9082,
      "qallarirqan": 9083,
      "creeq": 9084,
      "Jerusalenpi": 9085,
      "Paqarin": 9086,
      "yachanichu": 9087,
      "challwa": 9088,
      "Isaias": 9089,
      "Mik": 9090,
      "Wawan": 9091,
      "Yar": 9092,
      "av": 9093,
      "jar": 9094,
      "sim": 9095,
      "##lish": 9096,
      "##gayqui": 9097,
      "##asaj": 9098,
      "Chik": 9099,
      "##kuypaq": 9100,
      "nishqan": 9101,
      "puka": 9102,
      "warmiwan": 9103,
      "asha": 9104,
      "ruwanan": 9105,
      "runacunapis": 9106,
      "##ciones": 9107,
      "Genesis": 9108,
      "Betel": 9109,
      "##rraylin": 9110,
      "SAL": 9111,
      "kñ": 9112,
      "nuk": 9113,
      "paqta": 9114,
      "##che": 9115,
      "##inchu": 9116,
      "##arch": 9117,
      "##kunapash": 9118,
      "##kunawanqa": 9119,
      "unchaymi": 9120,
      "##akunanchik": 9121,
      "truc": 9122,
      "qayll": 9123,
      "Urqu": 9124,
      "Judá": 9125,
      "##tilde": 9126,
      "Diction": 9127,
      "##anisqatsi": 9128,
      "mä": 9129,
      "oll": 9130,
      "peli": 9131,
      "prim": 9132,
      "vend": 9133,
      "##rat": 9134,
      "##ukta": 9135,
      "runawan": 9136,
      "##lio": 9137,
      "##panpi": 9138,
      "imapaq": 9139,
      "churasqa": 9140,
      "kachkaptin": 9141,
      "##ariyta": 9142,
      "##utanta": 9143,
      "paytaqa": 9144,
      "reyqa": 9145,
      "##achishca": 9146,
      "Filip": 9147,
      "Ale": 9148,
      "ćhay": 9149,
      "Churi": 9150,
      "##kunatapash": 9151,
      "##cup": 9152,
      "##cil": 9153,
      "esta": 9154,
      "sumä": 9155,
      "##antun": 9156,
      "Huañ": 9157,
      "mandac": 9158,
      "cacham": 9159,
      "imëpis": 9160,
      "##ïpulun": 9161,
      "Puka": 9162,
      "Tari": 9163,
      "perqa": 9164,
      "qanta": 9165,
      "ser": 9166,
      "zoo": 9167,
      "ruranapaq": 9168,
      "##kaycu": 9169,
      "reall": 9170,
      "##angapa": 9171,
      "atiq": 9172,
      "juchach": 9173,
      "Pacham": 9174,
      "rikätsikun": 9175,
      "Kach": 9176,
      "Nor": 9177,
      "ah": 9178,
      "##15": 9179,
      "##unaq": 9180,
      "##asqui": 9181,
      "##wantaj": 9182,
      "##ashkata": 9183,
      "pim": 9184,
      "tup": 9185,
      "aych": 9186,
      "##ibi": 9187,
      "tian": 9188,
      "imaynatam": 9189,
      "astawanqa": 9190,
      "reqsisqa": 9191,
      "quyllur": 9192,
      "caball": 9193,
      "##Is": 9194,
      "##Noqa": 9195,
      "chaywanpas": 9196,
      "##ers": 9197,
      "##ishcata": 9198,
      "##omin": 9199,
      "##llanmi": 9200,
      "familian": 9201,
      "viaj": 9202,
      "Hulyanu": 9203,
      "Karu": 9204,
      "Raymi": 9205,
      "Waqa": 9206,
      "ichu": 9207,
      "##lor": 9208,
      "##rämi": 9209,
      "##OM": 9210,
      "##asqayta": 9211,
      "##one": 9212,
      "##isqas": 9213,
      "Jehoväta": 9214,
      "hayw": 9215,
      "##ierto": 9216,
      "wallpapers": 9217,
      "cashpaca": 9218,
      "##INT": 9219,
      "Jam": 9220,
      "Yaw": 9221,
      "huq": 9222,
      "jw": 9223,
      "##rall": 9224,
      "##llañam": 9225,
      "allintam": 9226,
      "pachapis": 9227,
      "##cunataj": 9228,
      "##tiymi": 9229,
      "##yaanisqatsi": 9230,
      "runakunaka": 9231,
      "##kunamantam": 9232,
      "urq": 9233,
      "atir": 9234,
      "Jose": 9235,
      "cristianokunaqa": 9236,
      "Sinchi": 9237,
      "Aya": 9238,
      "Poli": 9239,
      "York": 9240,
      "Zarqa": 9241,
      "pod": 9242,
      "qʼ": 9243,
      "##guy": 9244,
      "##isy": 9245,
      "llaqtakuna": 9246,
      "kashkata": 9247,
      "anqaqa": 9248,
      "Ins": 9249,
      "qawachirqa": 9250,
      "ruwanki": 9251,
      "##kusqanqa": 9252,
      "kachkani": 9253,
      "huiñ": 9254,
      "Luis": 9255,
      "Chaynöpami": 9256,
      "Tawa": 9257,
      "##uh": 9258,
      "Chan": 9259,
      "##ace": 9260,
      "Pikunataq": 9261,
      "kamachik": 9262,
      "Aswanmi": 9263,
      "cristianokuna": 9264,
      "hinallataqmi": 9265,
      "Ñoqan": 9266,
      "##pecies": 9267,
      "jui": 9268,
      "khu": 9269,
      "##zar": 9270,
      "##tigan": 9271,
      "runaj": 9272,
      "alläpam": 9273,
      "munanichu": 9274,
      "tarpuy": 9275,
      "Jesukristuta": 9276,
      "publicacion": 9277,
      "Cam": 9278,
      "Kat": 9279,
      "Mayk": 9280,
      "hata": 9281,
      "##ev": 9282,
      "##taga": 9283,
      "##und": 9284,
      "##chakuna": 9285,
      "rikuna": 9286,
      "nisqanku": 9287,
      "##orid": 9288,
      "##ichkan": 9289,
      "##payá": 9290,
      "tipi": 9291,
      "mast": 9292,
      "atinichu": 9293,
      "qayllanpi": 9294,
      "congregacionpi": 9295,
      "Pascu": 9296,
      "Wajman": 9297,
      "##INTIOS": 9298,
      "Kaq": 9299,
      "oj": 9300,
      "piy": 9301,
      "##gata": 9302,
      "Chuq": 9303,
      "runami": 9304,
      "##ichay": 9305,
      "rimasqan": 9306,
      "Jehoväpa": 9307,
      "mundo": 9308,
      "siel": 9309,
      "says": 9310,
      "nunakunata": 9311,
      "rurashca": 9312,
      "wisq": 9313,
      "enteron": 9314,
      "Killa": 9315,
      "Pis": 9316,
      "Rasun": 9317,
      "kichwa": 9318,
      "##pakuy": 9319,
      "##isnin": 9320,
      "##usqanku": 9321,
      "##wanku": 9322,
      "anim": 9323,
      "aska": 9324,
      "tukuynin": 9325,
      "isrraylin": 9326,
      "mij": 9327,
      "kuyana": 9328,
      "##ishpaca": 9329,
      "qillqaq": 9330,
      "yupaychana": 9331,
      "apachinapaj": 9332,
      "qolqeta": 9333,
      "Testigo": 9334,
      "hena": 9335,
      "qispi": 9336,
      "tä": 9337,
      "##purqan": 9338,
      "##rum": 9339,
      "##isu": 9340,
      "##atapas": 9341,
      "##liq": 9342,
      "##riq": 9343,
      "##kurka": 9344,
      "aynin": 9345,
      "##awanmi": 9346,
      "##ular": 9347,
      "##olog": 9348,
      "ashtaca": 9349,
      "jutin": 9350,
      "wawayki": 9351,
      "Arhin": 9352,
      "runaspa": 9353,
      "##eblo": 9354,
      "lees": 9355,
      "waka": 9356,
      "sunqun": 9357,
      "Prof": 9358,
      "Elis": 9359,
      "##wasin": 9360,
      "Tawantinsuyu": 9361,
      "Oxford": 9362,
      ":)": 9363,
      "Ana": 9364,
      "Kai": 9365,
      "##gam": 9366,
      "##TI": 9367,
      "tuc": 9368,
      "##ile": 9369,
      "##ganpita": 9370,
      "kasqanman": 9371,
      "juchayoj": 9372,
      "lawman": 9373,
      "caycaptenga": 9374,
      "CAP": 9375,
      "Il": 9376,
      "Pap": 9377,
      "Sir": 9378,
      "Tag": 9379,
      "captinmi": 9380,
      "ntilde": 9381,
      "ul": 9382,
      "kananqa": 9383,
      "yacha": 9384,
      "##acunqui": 9385,
      "munaran": 9386,
      "Llap": 9387,
      "servin": 9388,
      "tucuita": 9389,
      "##llara": 9390,
      "##isqayki": 9391,
      "##osh": 9392,
      "kaykunata": 9393,
      "shonq": 9394,
      "##oyki": 9395,
      "##qayman": 9396,
      "kikinta": 9397,
      "chaynu": 9398,
      "llakikuy": 9399,
      "Kusi": 9400,
      "Chhaynaqa": 9401,
      "robot": 9402,
      "Sup": 9403,
      "Yawar": 9404,
      "achic": 9405,
      "##taka": 9406,
      "##mani": 9407,
      "##ikoq": 9408,
      "##alata": 9409,
      "shamun": 9410,
      "yachachiw": 9411,
      "sutinqa": 9412,
      "ichapas": 9413,
      "##ushpaca": 9414,
      "Chauraga": 9415,
      "##TULO": 9416,
      "Feli": 9417,
      "Munan": 9418,
      "Ush": 9419,
      "cari": 9420,
      "pá": 9421,
      "##ngel": 9422,
      "##warmi": 9423,
      "##ashaq": 9424,
      "##ayno": 9425,
      "ruranki": 9426,
      "mayo": 9427,
      "hamun": 9428,
      "kasqanchikta": 9429,
      "##änanpaj": 9430,
      ",'": 9431,
      "Sara": 9432,
      "diciembre": 9433,
      "kid": 9434,
      "sab": 9435,
      "tele": 9436,
      "##PA": 9437,
      "Chaytan": 9438,
      "##kunta": 9439,
      "kaqnin": 9440,
      "puchuk": 9441,
      "kutichiy": 9442,
      "ujtawan": 9443,
      "yarpay": 9444,
      "jamun": 9445,
      "semana": 9446,
      "53": 9447,
      "niranku": 9448,
      "Imaman": 9449,
      "##kuqkuna": 9450,
      "##apanchi": 9451,
      "reg": 9452,
      "runasman": 9453,
      "saqen": 9454,
      "shutin": 9455,
      "##achunmi": 9456,
      "ofrend": 9457,
      "cosas": 9458,
      "Cananga": 9459,
      "???": 9460,
      "ususin": 9461,
      "anqayuqmi": 9462,
      "Eur": 9463,
      "Yan": 9464,
      "gran": 9465,
      "gong": 9466,
      "jat": 9467,
      "pash": 9468,
      "##koqa": 9469,
      "##mer": 9470,
      "##men": 9471,
      "##huy": 9472,
      "##rina": 9473,
      "##që": 9474,
      "##fer": 9475,
      "##llin": 9476,
      "Che": 9477,
      "##ashanta": 9478,
      "##rica": 9479,
      "rurasha": 9480,
      "##quë": 9481,
      "canchu": 9482,
      "kashanki": 9483,
      "##pues": 9484,
      "kanqachu": 9485,
      "aklla": 9486,
      "Noey": 9487,
      "juchan": 9488,
      "anchatam": 9489,
      "riqsin": 9490,
      "ñoqaqa": 9491,
      "pitachus": 9492,
      "Wikispecies": 9493,
      "raw": 9494,
      "sis": 9495,
      "##suy": 9496,
      "##rü": 9497,
      "##para": 9498,
      "##mantapis": 9499,
      "paykunataqa": 9500,
      "parraf": 9501,
      "llamp": 9502,
      "willakuyta": 9503,
      "##curmi": 9504,
      "concienci": 9505,
      "cargan": 9506,
      "tapuran": 9507,
      "Chaynam": 9508,
      "causan": 9509,
      "rikurin": 9510,
      "umalli": 9511,
      "Riman": 9512,
      "humill": 9513,
      "capitulo": 9514,
      "necesitas": 9515,
      "yayk": 9516,
      "##ven": 9517,
      "##ër": 9518,
      "##chas": 9519,
      "##uspanku": 9520,
      "Chir": 9521,
      "##ergan": 9522,
      "##ishi": 9523,
      "puncu": 9524,
      "punzh": 9525,
      "cancuna": 9526,
      "imatata": 9527,
      "apari": 9528,
      "chiqa": 9529,
      "##avidad": 9530,
      "tukukuy": 9531,
      "këkaq": 9532,
      "##tros": 9533,
      "ñakari": 9534,
      "yapamanta": 9535,
      "cheqni": 9536,
      "aku": 9537,
      "ro": 9538,
      "tau": 9539,
      "chej": 9540,
      "##chapampa": 9541,
      "rupach": 9542,
      "##kusaq": 9543,
      "ninki": 9544,
      "willash": 9545,
      "##uwaq": 9546,
      "sonqonta": 9547,
      "##araqmi": 9548,
      "runakunataqa": 9549,
      "##ANTA": 9550,
      "muyun": 9551,
      "hawkay": 9552,
      "humillakuq": 9553,
      "Har": 9554,
      "lado": 9555,
      "maw": 9556,
      "sai": 9557,
      "ulla": 9558,
      "wo": 9559,
      "##chirqan": 9560,
      "chey": 9561,
      "##ela": 9562,
      "pasaq": 9563,
      "Chaymantam": 9564,
      "charini": 9565,
      "Jesucristuta": 9566,
      "Tucuy": 9567,
      "ruwasqas": 9568,
      "hasta": 9569,
      "pajta": 9570,
      "##garin": 9571,
      "##22": 9572,
      "Diosníy": 9573,
      "llaqtay": 9574,
      "##oven": 9575,
      "kutichin": 9576,
      "aswanmi": 9577,
      "Señorpa": 9578,
      "##pirit": 9579,
      "costumb": 9580,
      "SALM": 9581,
      ".›": 9582,
      "bis": 9583,
      "gay": 9584,
      "##wit": 9585,
      "##úl": 9586,
      "##unal": 9587,
      "charir": 9588,
      "##anaku": 9589,
      "##akoj": 9590,
      "##ishuj": 9591,
      "##sia": 9592,
      "##änanta": 9593,
      "cartata": 9594,
      "chiqui": 9595,
      "qhawasqa": 9596,
      "##masiy": 9597,
      "huchayoq": 9598,
      "paktachin": 9599,
      "warmis": 9600,
      "tikraynin": 9601,
      "llojs": 9602,
      "apusqakuna": 9603,
      "Yus": 9604,
      "gri": 9605,
      "heh": 9606,
      "qur": 9607,
      "##puq": 9608,
      "##kayki": 9609,
      "##yoj": 9610,
      "##ëkan": 9611,
      "##amur": 9612,
      "##paspa": 9613,
      "##allay": 9614,
      "##tsun": 9615,
      "##pajqa": 9616,
      "nira": 9617,
      "ruwarqan": 9618,
      "punchay": 9619,
      "##ted": 9620,
      "suyumanta": 9621,
      "salud": 9622,
      "caycaran": 9623,
      "cushish": 9624,
      "Shinallataj": 9625,
      "Kamachiy": 9626,
      "jinaspa": 9627,
      "muyuy": 9628,
      "umuy": 9629,
      "Wasin": 9630,
      "Jus": 9631,
      "RE": 9632,
      "Samanta": 9633,
      "tai": 9634,
      "timpu": 9635,
      "##uma": 9636,
      "##ukunata": 9637,
      "##rach": 9638,
      "##zhu": 9639,
      "##val": 9640,
      "##kunachö": 9641,
      "##chikuy": 9642,
      "paypaq": 9643,
      "Jesuswan": 9644,
      "##adu": 9645,
      "Inuin": 9646,
      "##isqanchik": 9647,
      "tukuchin": 9648,
      "Huaquin": 9649,
      "Kastilla": 9650,
      "Cat": 9651,
      "Teyta": 9652,
      "kon": 9653,
      "ms": 9654,
      "Ñatac": 9655,
      "##we": 9656,
      "##cin": 9657,
      "##dam": 9658,
      "##ñataj": 9659,
      "llall": 9660,
      "##akorqa": 9661,
      "##atur": 9662,
      "suced": 9663,
      "##icio": 9664,
      "ruwarqanku": 9665,
      "sutinpi": 9666,
      "leen": 9667,
      "sonqowan": 9668,
      "kusisqam": 9669,
      "pantasqa": 9670,
      "wiks": 9671,
      "##naqtun": 9672,
      "Ata": 9673,
      "WIL": 9674,
      "##NI": 9675,
      "##uyuy": 9676,
      "wank": 9677,
      "Tseno": 9678,
      "iñiyniyoq": 9679,
      "tikray": 9680,
      "54": 9681,
      "Pik": 9682,
      "Qati": 9683,
      "Ut": 9684,
      "apun": 9685,
      "fac": 9686,
      "qonq": 9687,
      "##asku": 9688,
      "##asqayku": 9689,
      "chaqui": 9690,
      "##llaqa": 9691,
      "##acunan": 9692,
      "##chispi": 9693,
      "##aries": 9694,
      "ayqe": 9695,
      "ruwawaq": 9696,
      "##llatachu": 9697,
      "Llank": 9698,
      "mañakun": 9699,
      "##anchic": 9700,
      "##arisha": 9701,
      "wajy": 9702,
      "maskʼ": 9703,
      "Kuti": 9704,
      "cüra": 9705,
      "humillasqam": 9706,
      "Inuinnaqtun": 9707,
      "Rumi": 9708,
      "tuq": 9709,
      "##nog": 9710,
      "##OR": 9711,
      "##tapuni": 9712,
      "chayllaraq": 9713,
      "##chika": 9714,
      "##orka": 9715,
      "##allu": 9716,
      "kaymi": 9717,
      "chiqan": 9718,
      "yaykun": 9719,
      "Quaqtaq": 9720,
      "cuerpon": 9721,
      "mandag": 9722,
      "Dictionaries": 9723,
      "Dan": 9724,
      "oc": 9725,
      "chaita": 9726,
      "karkan": 9727,
      "##iqu": 9728,
      "munapay": 9729,
      "wanush": 9730,
      "Jisumkristu": 9731,
      "hermano": 9732,
      "noqanchej": 9733,
      "faris": 9734,
      "nana": 9735,
      "pantaq": 9736,
      "rakin": 9737,
      "sayk": 9738,
      "ucu": 9739,
      "##gillapa": 9740,
      "##asy": 9741,
      "manachus": 9742,
      "ruranata": 9743,
      "Paywan": 9744,
      "##akuk": 9745,
      "llamkaq": 9746,
      "aliy": 9747,
      "imaynan": 9748,
      "chaynuy": 9749,
      "##Chayrayku": 9750,
      "Qanchis": 9751,
      "herenci": 9752,
      "##ämun": 9753,
      "chayamun": 9754,
      "Jacobpa": 9755,
      "watanpi": 9756,
      ".]": 9757,
      "Apachiy": 9758,
      "cal": 9759,
      "nä": 9760,
      "nap": 9761,
      "##aa": 9762,
      "##IM": 9763,
      "##arani": 9764,
      "##onio": 9765,
      "manañan": 9766,
      "##panqui": 9767,
      "pachantin": 9768,
      "huac": 9769,
      "##quiy": 9770,
      "qaway": 9771,
      "##eqnin": 9772,
      "nacionmanta": 9773,
      "pampapi": 9774,
      "pataman": 9775,
      "Diablo": 9776,
      "mashi": 9777,
      "tʼukur": 9778,
      "66": 9779,
      "Family": 9780,
      "Ram": 9781,
      "Yo": 9782,
      "by": 9783,
      "kte": 9784,
      "uw": 9785,
      "##nejta": 9786,
      "##chirca": 9787,
      "##iyarqan": 9788,
      "##ishkami": 9789,
      "runapaj": 9790,
      "##enpi": 9791,
      "##cuinta": 9792,
      "##pajtaj": 9793,
      "nogan": 9794,
      "juñuna": 9795,
      "##gunada": 9796,
      "qallë": 9797,
      "Escuel": 9798,
      "prueb": 9799,
      "Hinaspam": 9800,
      "ajllasqa": 9801,
      "pukllaykuna": 9802,
      "Cong": 9803,
      "Noqayku": 9804,
      "aran": 9805,
      "##natsu": 9806,
      "##lat": 9807,
      "##unmanchu": 9808,
      "##chaspa": 9809,
      "##pir": 9810,
      "aywan": 9811,
      "runakunapaq": 9812,
      "Llu": 9813,
      "Manaña": 9814,
      "kuyan": 9815,
      "yanapakun": 9816,
      "tse": 9817,
      "akllay": 9818,
      "saqra": 9819,
      "pakasqa": 9820,
      "Ñukaka": 9821,
      "Ajinata": 9822,
      "hawkalla": 9823,
      "Koyaanisqatsi": 9824,
      "Cristi": 9825,
      "Qaway": 9826,
      "Tum": 9827,
      "nuw": 9828,
      "sallqa": 9829,
      "templ": 9830,
      "##ica": 9831,
      "##by": 9832,
      "##AW": 9833,
      "chis": 9834,
      "chapak": 9835,
      "##ere": 9836,
      "##kunatataq": 9837,
      "nirqanku": 9838,
      "##rom": 9839,
      "pachapiqa": 9840,
[...]
