{
  "version": "1.0",
  "truncation": null,
  "padding": null,
  "added_tokens": [
    {
      "id": 0,
      "content": "[UNK]",
      "single_word": false,
      "lstrip": false,
      "rstrip": false,
      "normalized": false,
      "special": true
    },
    {
      "id": 1,
      "content": "[PAD]",
      "single_word": false,
      "lstrip": false,
      "rstrip": false,
      "normalized": false,
      "special": true
    },
    {
      "id": 2,
      "content": "[SOS]",
      "single_word": false,
      "lstrip": false,
      "rstrip": false,
      "normalized": false,
      "special": true
    },
    {
      "id": 3,
      "content": "[EOS]",
      "single_word": false,
      "lstrip": false,
      "rstrip": false,
      "normalized": false,
      "special": true
    }
  ],
  "normalizer": null,
  "pre_tokenizer": {
    "type": "Whitespace"
  },
  "post_processor": null,
  "decoder": null,
  "model": {
    "type": "WordPiece",
    "unk_token": "[UNK]",
    "continuing_subword_prefix": "##",
    "max_input_chars_per_word": 100,
    "vocab": {
      "[UNK]": 0,
      "[PAD]": 1,
      "[SOS]": 2,
      "[EOS]": 3,
      "!": 4,
      "\"": 5,
      "#": 6,
      "$": 7,
      "%": 8,
      "&": 9,
      "'": 10,
      "(": 11,
      ")": 12,
      "*": 13,
      "+": 14,
      ",": 15,
      "-": 16,
      ".": 17,
      "/": 18,
      "0": 19,
      "1": 20,
      "2": 21,
      "3": 22,
      "4": 23,
      "5": 24,
      "6": 25,
      "7": 26,
      "8": 27,
      "9": 28,
      ":": 29,
      ";": 30,
      "<": 31,
      "=": 32,
      ">": 33,
      "?": 34,
      "@": 35,
      "A": 36,
      "B": 37,
      "C": 38,
      "D": 39,
      "E": 40,
      "F": 41,
      "G": 42,
      "H": 43,
      "I": 44,
      "J": 45,
      "K": 46,
      "L": 47,
      "M": 48,
      "N": 49,
      "O": 50,
      "P": 51,
      "Q": 52,
      "R": 53,
      "S": 54,
      "T": 55,
      "U": 56,
      "V": 57,
      "W": 58,
      "X": 59,
      "Y": 60,
      "Z": 61,
      "[": 62,
      "]": 63,
      "^": 64,
      "_": 65,
      "a": 66,
      "b": 67,
      "c": 68,
      "d": 69,
      "e": 70,
      "f": 71,
      "g": 72,
      "h": 73,
      "i": 74,
      "j": 75,
      "k": 76,
      "l": 77,
      "m": 78,
      "n": 79,
      "o": 80,
      "p": 81,
      "q": 82,
      "r": 83,
      "s": 84,
      "t": 85,
      "u": 86,
      "v": 87,
      "w": 88,
      "x": 89,
      "y": 90,
      "z": 91,
      "{": 92,
      "}": 93,
      "~": 94,
      "¡": 95,
      "£": 96,
      "¥": 97,
      "§": 98,
      "¬": 99,
      "°": 100,
      "±": 101,
      "¶": 102,
      "·": 103,
      "¿": 104,
      "À": 105,
      "Á": 106,
      "Â": 107,
      "Ã": 108,
      "Ä": 109,
      "Å": 110,
      "Æ": 111,
      "Ç": 112,
      "È": 113,
      "É": 114,
      "Ê": 115,
      "Ë": 116,
      "Ì": 117,
      "Í": 118,
      "Î": 119,
      "Ï": 120,
      "Ñ": 121,
      "Ò": 122,
      "Ó": 123,
      "Ô": 124,
      "Ö": 125,
      "×": 126,
      "Ø": 127,
      "Ú": 128,
      "Û": 129,
      "Ü": 130,
      "Þ": 131,
      "ß": 132,
      "à": 133,
      "á": 134,
      "â": 135,
      "ã": 136,
      "ä": 137,
      "å": 138,
      "æ": 139,
      "ç": 140,
      "è": 141,
      "é": 142,
      "ê": 143,
      "ë": 144,
      "ì": 145,
      "í": 146,
      "î": 147,
      "ï": 148,
      "ð": 149,
      "ñ": 150,
      "ò": 151,
      "ó": 152,
      "ô": 153,
      "õ": 154,
      "ö": 155,
      "ø": 156,
      "ù": 157,
      "ú": 158,
      "û": 159,
      "ü": 160,
      "ý": 161,
      "ÿ": 162,
      "Ā": 163,
      "ā": 164,
      "Ă": 165,
      "ă": 166,
      "Ą": 167,
      "ć": 168,
      "Č": 169,
      "č": 170,
      "Ď": 171,
      "đ": 172,
      "ē": 173,
      "ę": 174,
      "ğ": 175,
      "ħ": 176,
      "ĩ": 177,
      "Ī": 178,
      "ī": 179,
      "ĭ": 180,
      "İ": 181,
      "ı": 182,
      "ĺ": 183,
      "Ł": 184,
      "ł": 185,
      "Ń": 186,
      "ń": 187,
      "ņ": 188,
      "ň": 189,
      "ŋ": 190,
      "Ō": 191,
      "ō": 192,
      "ő": 193,
      "œ": 194,
      "ŕ": 195,
      "Ś": 196,
      "ś": 197,
      "ş": 198,
      "Š": 199,
      "š": 200,
      "ũ": 201,
      "ū": 202,
      "ů": 203,
      "Ÿ": 204,
      "ź": 205,
      "ż": 206,
      "Ž": 207,
      "ž": 208,
      "Ɵ": 209,
      "ơ": 210,
      "ư": 211,
      "ǒ": 212,
      "ǧ": 213,
      "ț": 214,
      "ɕ": 215,
      "ə": 216,
      "ɤ": 217,
      "ʃ": 218,
      "ʒ": 219,
      "ʔ": 220,
      "ʻ": 221,
      "ʿ": 222,
      "ˁ": 223,
      "ː": 224,
      "́": 225,
      "̃": 226,
      "̄": 227,
      "̅": 228,
      "̇": 229,
      "̈": 230,
      "̋": 231,
      "̮": 232,
      "̶": 233,
      "ͣ": 234,
      "Ά": 235,
      "Έ": 236,
      "Ί": 237,
      "Α": 238,
      "Γ": 239,
      "Δ": 240,
      "Ε": 241,
      "Η": 242,
      "Ι": 243,
      "Κ": 244,
      "Λ": 245,
      "Μ": 246,
      "Ξ": 247,
      "Ο": 248,
      "Π": 249,
      "Ρ": 250,
      "Σ": 251,
      "Τ": 252,
      "Ψ": 253,
      "Ω": 254,
      "ά": 255,
      "έ": 256,
      "ή": 257,
      "ί": 258,
      "α": 259,
      "β": 260,
      "γ": 261,
      "δ": 262,
      "ε": 263,
      "ζ": 264,
      "η": 265,
      "θ": 266,
      "ι": 267,
      "κ": 268,
      "λ": 269,
      "μ": 270,
      "ν": 271,
      "ξ": 272,
      "ο": 273,
      "π": 274,
      "ρ": 275,
      "ς": 276,
      "σ": 277,
      "τ": 278,
      "υ": 279,
      "φ": 280,
      "χ": 281,
      "ψ": 282,
      "ω": 283,
      "ϊ": 284,
      "ό": 285,
      "ώ": 286,
      "Ў": 287,
      "А": 288,
      "Б": 289,
      "Г": 290,
      "Д": 291,
      "Е": 292,
      "И": 293,
      "К": 294,
      "М": 295,
      "Н": 296,
      "О": 297,
      "П": 298,
      "Р": 299,
      "С": 300,
      "Т": 301,
      "Ф": 302,
      "Я": 303,
      "а": 304,
      "б": 305,
      "в": 306,
      "г": 307,
      "д": 308,
      "е": 309,
      "ж": 310,
      "з": 311,
      "и": 312,
      "й": 313,
      "к": 314,
      "л": 315,
      "м": 316,
      "н": 317,
      "о": 318,
      "п": 319,
      "р": 320,
      "с": 321,
      "т": 322,
      "у": 323,
      "ф": 324,
      "х": 325,
      "ц": 326,
      "ч": 327,
      "ш": 328,
      "ы": 329,
      "ь": 330,
      "э": 331,
      "ю": 332,
      "я": 333,
      "і": 334,
      "ї": 335,
      "Ҳ": 336,
      "Ө": 337,
      "ե": 338,
      "մ": 339,
      "ն": 340,
      "ք": 341,
      "֑": 342,
      "֔": 343,
      "֗": 344,
      "֣": 345,
      "ְ": 346,
      "ֱ": 347,
      "ֳ": 348,
      "ִ": 349,
      "ֵ": 350,
      "ֶ": 351,
      "ַ": 352,
      "ָ": 353,
      "ֹ": 354,
      "ּ": 355,
      "ׁ": 356,
      "א": 357,
      "ב": 358,
      "ג": 359,
      "ד": 360,
      "ה": 361,
      "ו": 362,
      "ז": 363,
      "ח": 364,
      "ט": 365,
      "י": 366,
      "כ": 367,
      "ל": 368,
      "ם": 369,
      "מ": 370,
      "ן": 371,
      "נ": 372,
      "ס": 373,
      "ע": 374,
      "פ": 375,
      "ץ": 376,
      "ק": 377,
      "ר": 378,
      "ש": 379,
      "ת": 380,
      "،": 381,
      "ؙ": 382,
      "؟": 383,
      "آ": 384,
      "أ": 385,
      "ا": 386,
      "ب": 387,
      "ة": 388,
      "ت": 389,
      "ج": 390,
      "ح": 391,
      "د": 392,
      "ذ": 393,
      "ر": 394,
      "س": 395,
      "ش": 396,
      "ص": 397,
      "ض": 398,
      "ط": 399,
      "ع": 400,
      "ف": 401,
      "ق": 402,
      "ك": 403,
      "ل": 404,
      "م": 405,
      "ن": 406,
      "ه": 407,
      "و": 408,
      "ى": 409,
      "ي": 410,
      "َ": 411,
      "ُ": 412,
      "ِ": 413,
      "ّ": 414,
      "ْ": 415,
      "ٕ": 416,
      "ٰ": 417,
      "چ": 418,
      "ی": 419,
      "द": 420,
      "व": 421,
      "ा": 422,
      "১": 423,
      "৪": 424,
      "৭": 425,
      "৮": 426,
      "৯": 427,
      "இ": 428,
      "ง": 429,
      "ช": 430,
      "ด": 431,
      "น": 432,
      "ป": 433,
      "ผ": 434,
      "ม": 435,
      "ร": 436,
      "อ": 437,
      "ั": 438,
      "า": 439,
      "ี": 440,
      "ึ": 441,
      "ู": 442,
      "่": 443,
      "้": 444,
      "ᐅ": 445,
      "ḍ": 446,
      "ḏ": 447,
      "Ḥ": 448,
      "ḥ": 449,
      "ṁ": 450,
      "ṇ": 451,
      "ṛ": 452,
      "ṣ": 453,
      "ṭ": 454,
      "ẽ": 455,
      "ệ": 456,
      "ọ": 457,
      "ἀ": 458,
      "ἄ": 459,
      "Ἀ": 460,
      "ἐ": 461,
      "ἔ": 462,
      "ἱ": 463,
      "Ὀ": 464,
      "ὐ": 465,
      "ὰ": 466,
      "ὲ": 467,
      "ὺ": 468,
      "ῆ": 469,
      "ῖ": 470,
      "ῳ": 471,
      "‐": 472,
      "―": 473,
      "†": 474,
      "•": 475,
      "‣": 476,
      "′": 477,
      "‹": 478,
      "›": 479,
      "⁄": 480,
      "€": 481,
      "←": 482,
      "↑": 483,
      "→": 484,
      "↠": 485,
      "↳": 486,
      "↵": 487,
      "⇒": 488,
      "−": 489,
      "∗": 490,
      "∙": 491,
      "√": 492,
      "∞": 493,
      "∴": 494,
      "≠": 495,
      "≥": 496,
      "⋄": 497,
      "⋅": 498,
      "⎯": 499,
      "─": 500,
      "■": 501,
      "□": 502,
      "▲": 503,
      "▷": 504,
      "►": 505,
      "▼": 506,
      "◄": 507,
      "◆": 508,
      "◊": 509,
      "◌": 510,
      "●": 511,
      "◘": 512,
      "★": 513,
      "☆": 514,
      "☞": 515,
      "☾": 516,
      "♕": 517,
      "♡": 518,
      "♪": 519,
      "♫": 520,
      "♭": 521,
      "✞": 522,
      "❖": 523,
      "❚": 524,
      "❥": 525,
      "⠀": 526,
      "。": 527,
      "《": 528,
      "》": 529,
      "「": 530,
      "」": 531,
      "【": 532,
      "】": 533,
      "き": 534,
      "し": 535,
      "じ": 536,
      "な": 537,
      "ね": 538,
      "の": 539,
      "は": 540,
      "ぶ": 541,
      "ま": 542,
      "ゃ": 543,
      "ら": 544,
      "る": 545,
      "ん": 546,
      "ア": 547,
      "ィ": 548,
      "イ": 549,
      "ウ": 550,
      "エ": 551,
      "オ": 552,
      "カ": 553,
      "ク": 554,
      "グ": 555,
      "コ": 556,
      "シ": 557,
      "ジ": 558,
      "ス": 559,
      "ズ": 560,
      "セ": 561,
      "ダ": 562,
      "チ": 563,
      "ッ": 564,
      "デ": 565,
      "ト": 566,
      "ニ": 567,
      "ノ": 568,
      "ハ": 569,
      "バ": 570,
      "パ": 571,
      "ピ": 572,
      "ブ": 573,
      "プ": 574,
      "ヘ": 575,
      "ホ": 576,
      "ム": 577,
      "ョ": 578,
      "ラ": 579,
      "リ": 580,
      "ル": 581,
      "ロ": 582,
      "ヲ": 583,
      "ン": 584,
      "・": 585,
      "ー": 586,
      "一": 587,
      "上": 588,
      "下": 589,
      "丑": 590,
      "二": 591,
      "井": 592,
      "人": 593,
      "仲": 594,
      "党": 595,
      "前": 596,
      "华": 597,
      "夏": 598,
      "天": 599,
      "嫡": 600,
      "子": 601,
      "平": 602,
      "愛": 603,
      "承": 604,
      "文": 605,
      "死": 606,
      "洛": 607,
      "活": 608,
      "理": 609,
      "生": 610,
      "神": 611,
      "義": 612,
      "腕": 613,
      "覧": 614,
      "该": 615,
      "豪": 616,
      "鏡": 617,
      "阳": 618,
      "餅": 619,
      "駄": 620,
      "鳥": 621,
      "과": 622,
      "교": 623,
      "기": 624,
      "날": 625,
      "느": 626,
      "부": 627,
      "설": 628,
      "술": 629,
      "육": 630,
      "폰": 631,
      "학": 632,
      "해": 633,
      "##a": 634,
      "##h": 635,
      "##v": 636,
      "##é": 637,
      "##o": 638,
      "##s": 639,
      "##i": 640,
      "##b": 641,
      "##l": 642,
      "##t": 643,
      "##ó": 644,
      "##u": 645,
      "##e": 646,
      "##r": 647,
      "##í": 648,
      "##g": 649,
      "##d": 650,
      "##n": 651,
      "##z": 652,
      "##c": 653,
      "##á": 654,
      "##f": 655,
      "##m": 656,
      "##j": 657,
      "##ñ": 658,
      "##J": 659,
      "##A": 660,
      "##y": 661,
      "##1": 662,
      "##7": 663,
      "##D": 664,
      "##E": 665,
      "##x": 666,
      "##p": 667,
      "##k": 668,
      "##R": 669,
      "##O": 670,
      "##G": 671,
      "##M": 672,
      "##C": 673,
      "##w": 674,
      "##I": 675,
      "##q": 676,
      "##2": 677,
      "##8": 678,
      "##4": 679,
      "##0": 680,
      "##Y": 681,
      "##6": 682,
      "##9": 683,
      "##/": 684,
      "##>": 685,
      "##¿": 686,
      "##?": 687,
      "##Ñ": 688,
      "##.": 689,
      "##U": 690,
      "##S": 691,
      "##N": 692,
      "##B": 693,
      "##T": 694,
      "##5": 695,
      "##!": 696,
      "##;": 697,
      "##X": 698,
      "##L": 699,
      "##P": 700,
      "##V": 701,
      "##ú": 702,
      "##ì": 703,
      "##H": 704,
      "##ü": 705,
      "##É": 706,
      "##ò": 707,
      "##3": 708,
      "##\"": 709,
      "##[": 710,
      "##_": 711,
      "##ṣ": 712,
      "##ṇ": 713,
      "##*": 714,
      "##)": 715,
      "##,": 716,
      "##¡": 717,
      "##-": 718,
      "##à": 719,
      "##Á": 720,
      "##K": 721,
      "##F": 722,
      "##Q": 723,
      "##W": 724,
      "##л": 725,
      "##ь": 726,
      "##б": 727,
      "##о": 728,
      "##м": 729,
      "##ç": 730,
      "##Ã": 731,
      "##î": 732,
      "##'": 733,
      "##Ó": 734,
      "##Ą": 735,
      "##Ô": 736,
      "##ö": 737,
      "##<": 738,
      "##ู": 739,
      "##:": 740,
      "##ō": 741,
      "##ã": 742,
      "##Z": 743,
      "##ū": 744,
      "##â": 745,
      "##ḍ": 746,
      "##ā": 747,
      "##Í": 748,
      "##Ë": 749,
      "##ل": 750,
      "##ر": 751,
      "##َ": 752,
      "##ّ": 753,
      "##ح": 754,
      "##ْ": 755,
      "##م": 756,
      "##ٰ": 757,
      "##ن": 758,
      "##ِ": 759,
      "##ı": 760,
      "##è": 761,
      "##夏": 762,
      "##ת": 763,
      "##ו": 764,
      "##ב": 765,
      "##י": 766,
      "##]": 767,
      "##́": 768,
      "##Ü": 769,
      "##ÿ": 770,
      "##ù": 771,
      "##š": 772,
      "##̶": 773,
      "##+": 774,
      "##ä": 775,
      "##ʻ": 776,
      "##ń": 777,
      "##ṁ": 778,
      "##=": 779,
      "##ô": 780,
      "##е": 781,
      "##д": 782,
      "##в": 783,
      "##ы": 784,
      "##х": 785,
      "##ف": 786,
      "##ی": 787,
      "##س": 788,
      "##ī": 789,
      "##α": 790,
      "##ν": 791,
      "##θ": 792,
      "##ι": 793,
      "##ά": 794,
      "##ְ": 795,
      "##ּ": 796,
      "##ר": 797,
      "##ָ": 798,
      "##ה": 799,
      "##ֳ": 800,
      "##א": 801,
      "##ִ": 802,
      "##֑": 803,
      "##õ": 804,
      "##ル": 805,
      "##ピ": 806,
      "##ト": 807,
      "##ê": 808,
      "##р": 809,
      "##а": 810,
      "##γ": 811,
      "##ώ": 812,
      "##ע": 813,
      "##ד": 814,
      "##@": 815,
      "##ë": 816,
      "##ش": 817,
      "##ي": 818,
      "##Ă": 819,
      "##Ì": 820,
      "##ś": 821,
      "##Ú": 822,
      "##活": 823,
      "##の": 824,
      "##党": 825,
      "###": 826,
      "##ό": 827,
      "##€": 828,
      "##ğ": 829,
      "##ع": 830,
      "##ا": 831,
      "##ى": 832,
      "##È": 833,
      "##ø": 834,
      "##ß": 835,
      "##и": 836,
      "##ж": 837,
      "##н": 838,
      "##т": 839,
      "##ю": 840,
      "##ш": 841,
      "##ε": 842,
      "##ρ": 843,
      "##ς": 844,
      "##&": 845,
      "##ه": 846,
      "##ש": 847,
      "##מ": 848,
      "##ן": 849,
      "##û": 850,
      "##►": 851,
      "##£": 852,
      "##ك": 853,
      "##ذ": 854,
      "##ŕ": 855,
      "##−": 856,
      "##ð": 857,
      "##♪": 858,
      "##ל": 859,
      "##ă": 860,
      "##·": 861,
      "##ξ": 862,
      "##}": 863,
      "##و": 864,
      "##ض": 865,
      "##ï": 866,
      "##{": 867,
      "##ṛ": 868,
      "##ὺ": 869,
      "##Â": 870,
      "##◘": 871,
      "##人": 872,
      "##该": 873,
      "##死": 874,
      "##č": 875,
      "##′": 876,
      "##ć": 877,
      "##у": 878,
      "##к": 879,
      "##ם": 880,
      "##ş": 881,
      "##⠀": 882,
      "##ħ": 883,
      "##À": 884,
      "##ē": 885,
      "##з": 886,
      "##ֵ": 887,
      "##֣": 888,
      "##τ": 889,
      "##ὐ": 890,
      "##%": 891,
      "##ο": 892,
      "##έ": 893,
      "##ω": 894,
      "##$": 895,
      "##œ": 896,
      "##π": 897,
      "##η": 898,
      "##ň": 899,
      "##~": 900,
      "##ϊ": 901,
      "##×": 902,
      "##Ç": 903,
      "##ึ": 904,
      "##้": 905,
      "##ง": 906,
      "##Š": 907,
      "##פ": 908,
      "##с": 909,
      "##υ": 910,
      "##כ": 911,
      "##ł": 912,
      "##ὰ": 913,
      "##Ń": 914,
      "##ę": 915,
      "##ั": 916,
      "##น": 917,
      "##β": 918,
      "##σ": 919,
      "##コ": 920,
      "##リ": 921,
      "##ー": 922,
      "##ダ": 923,
      "##า": 924,
      "##κ": 925,
      "##ジ": 926,
      "##ョ": 927,
      "##ン": 928,
      "##一": 929,
      "##覧": 930,
      "##δ": 931,
      "##Ê": 932,
      "##ʔ": 933,
      "##ɤ": 934,
      "##ː": 935,
      "##ؙ": 936,
      "##đ": 937,
      "##נ": 938,
      "##☆": 939,
      "##å": 940,
      "##Û": 941,
      "##λ": 942,
      "##」": 943,
      "##г": 944,
      "##》": 945,
      "##ư": 946,
      "##ơ": 947,
      "##ņ": 948,
      "##ֱ": 949,
      "##ֹ": 950,
      "##ַ": 951,
      "##°": 952,
      "##ラ": 953,
      "##ッ": 954,
      "##ク": 955,
      "##ロ": 956,
      "##バ": 957,
      "##エ": 958,
      "##ý": 959,
      "##ί": 960,
      "##μ": 961,
      "##̅": 962,
      "##ֶ": 963,
      "##ׁ": 964,
      "##ס": 965,
      "##シ": 966,
      "##グ": 967,
      "##阳": 968,
      "##ů": 969,
      "##أ": 970,
      "##ب": 971,
      "##ة": 972,
      "##৯": 973,
      "##৮": 974,
      "##৪": 975,
      "##†": 976,
      "##ф": 977,
      "##э": 978,
      "##ͣ": 979,
      "##Ï": 980,
      "##イ": 981,
      "##ズ": 982,
      "##(": 983,
      "##ק": 984,
      "##ῆ": 985,
      "##ق": 986,
      "##د": 987,
      "##Τ": 988,
      "##Ρ": 989,
      "##Α": 990,
      "##Η": 991,
      "##Γ": 992,
      "##Ι": 993,
      "##Κ": 994,
      "##Σ": 995,
      "##ə": 996,
      "##じ": 997,
      "##느": 998,
      "##폰": 999,
      "##ũ": 1000,
      "##ṭ": 1001,
      "##อ": 1002,
      "##ǒ": 1003,
      "##і": 1004,
      "##ч": 1005,
      "##я": 1006,
      "##子": 1007,
      "##^": 1008,
      "##•": 1009,
      "##่": 1010,
      "##날": 1011,
      "##ノ": 1012,
      "##上": 1013,
      "##¶": 1014,
      "##カ": 1015,
      "##ス": 1016,
      "##ア": 1017,
      "##セ": 1018,
      "##ヲ": 1019,
      "##ゃ": 1020,
      "##ぶ": 1021,
      "##し": 1022,
      "##仲": 1023,
      "##ت": 1024,
      "##ž": 1025,
      "##ḏ": 1026,
      "##ɕ": 1027,
      "##ŋ": 1028,
      "##ż": 1029,
      "##餅": 1030,
      "##ĭ": 1031,
      "##χ": 1032,
      "##ή": 1033,
      "##п": 1034,
      "##֗": 1035,
      "##Ў": 1036,
      "##ե": 1037,
      "##ն": 1038,
      "##ք": 1039,
      "##→": 1040,
      "##ț": 1041,
      "##ٕ": 1042,
      "##ム": 1043,
      "##술": 1044,
      "##부": 1045,
      "##Λ": 1046,
      "##Ο": 1047,
      "##학": 1048,
      "##φ": 1049,
      "##プ": 1050,
      "##ץ": 1051,
      "##∞": 1052,
      "##৭": 1053,
      "##●": 1054,
      "##ἱ": 1055,
      "##육": 1056,
      "##ź": 1057,
      "##★": 1058,
      "##ῖ": 1059,
      "##Ö": 1060,
      "##Ä": 1061,
      "##й": 1062,
      "##Я": 1063,
      "##İ": 1064,
      "##腕": 1065,
      "##ี": 1066,
      "##ĩ": 1067,
      "##ˁ": 1068,
      "##ĺ": 1069,
      "##¬": 1070,
      "##←": 1071,
      "##ُ": 1072,
      "##ウ": 1073,
      "##ィ": 1074,
      "##チ": 1075,
      "##֔": 1076,
      "##ζ": 1077,
      "##ệ": 1078,
      "##ő": 1079,
      "##æ": 1080,
      "##ז": 1081,
      "##理": 1082,
      "##駄": 1083,
      "##ὲ": 1084,
      "##ा": 1085,
      "##व": 1086,
      "##ま": 1087,
      "##き": 1088,
      "##鳥": 1089,
      "##ニ": 1090,
      "##ц": 1091,
      "##ῳ": 1092,
      "##前": 1093,
      "##os": 1094,
      "de": 1095,
      "##ue": 1096,
      "##er": 1097,
      "##en": 1098,
      "##as": 1099,
      "##es": 1100,
      "##ar": 1101,
      "##on": 1102,
      "##an": 1103,
      "que": 1104,
      "##or": 1105,
      "##ad": 1106,
      "es": 1107,
      "la": 1108,
      "en": 1109,
      "el": 1110,
      "##ci": 1111,
      "##re": 1112,
      "##do": 1113,
      "se": 1114,
      "los": 1115,
      "##te": 1116,
      "##al": 1117,
      "##om": 1118,
      "un": 1119,
      "##ra": 1120,
      "con": 1121,
      "su": 1122,
      "##is": 1123,
      "##to": 1124,
      "##ab": 1125,
      "##am": 1126,
      "no": 1127,
      "##in": 1128,
      "##ón": 1129,
      "##ien": 1130,
      "##tr": 1131,
      "##id": 1132,
      "##ic": 1133,
      "##ta": 1134,
      "##ía": 1135,
      "lo": 1136,
      "ha": 1137,
      "##ec": 1138,
      "par": 1139,
      "est": 1140,
      "##un": 1141,
      "al": 1142,
      "##ado": 1143,
      "las": 1144,
      "##ti": 1145,
      "El": 1146,
      "##em": 1147,
      "##ier": 1148,
      "##ción": 1149,
      "por": 1150,
      "##lo": 1151,
      "##od": 1152,
      "##ios": 1153,
      "para": 1154,
      "##le": 1155,
      "##ri": 1156,
      "del": 1157,
      "com": 1158,
      "##ro": 1159,
      "##el": 1160,
      "qu": 1161,
      "di": 1162,
      "##ás": 1163,
      ".\"": 1164,
      "##ch": 1165,
      "##res": 1166,
      "re": 1167,
      "##go": 1168,
      "per": 1169,
      "una": 1170,
      "##bre": 1171,
      "##la": 1172,
      "si": 1173,
      "Es": 1174,
      "##án": 1175,
      "le": 1176,
      "des": 1177,
      "in": 1178,
      "##jo": 1179,
      "mu": 1180,
      "##ol": 1181,
      "##de": 1182,
      "##..": 1183,
      "Dios": 1184,
      "La": 1185,
      "##én": 1186,
      "me": 1187,
      "##di": 1188,
      "##ente": 1189,
      "cu": 1190,
      "##uer": 1191,
      "##us": 1192,
      "##gu": 1193,
      "sus": 1194,
      "##mo": 1195,
      "##bi": 1196,
      "##ues": 1197,
      "ser": 1198,
      "##ando": 1199,
      "hab": 1200,
      "mi": 1201,
      "##tu": 1202,
      "##los": 1203,
      "##tos": 1204,
      "##ia": 1205,
      "##se": 1206,
      "No": 1207,
      "En": 1208,
      "##ada": 1209,
      "##cer": 1210,
      "Se": 1211,
      "##ir": 1212,
      "##tes": 1213,
      "tod": 1214,
      "##que": 1215,
      "##ud": 1216,
      "##ados": 1217,
      "##ero": 1218,
      "##tros": 1219,
      "hi": 1220,
      "##uen": 1221,
      "nos": 1222,
      "##cu": 1223,
      "pue": 1224,
      "##il": 1225,
      "so": 1226,
      "##ran": 1227,
      "##ce": 1228,
      "Qu": 1229,
      "##ten": 1230,
      "##ie": 1231,
      "##tar": 1232,
      "##qu": 1233,
      "##idad": 1234,
      "##ones": 1235,
      "##odo": 1236,
      "##cia": 1237,
      "##tra": 1238,
      "te": 1239,
      "##ños": 1240,
      "##ma": 1241,
      "##po": 1242,
      "##ida": 1243,
      "##tas": 1244,
      "##io": 1245,
      "...": 1246,
      "##ombre": 1247,
      "##mp": 1248,
      "mis": 1249,
      "##amos": 1250,
      "##gun": 1251,
      "son": 1252,
      "##ambi": 1253,
      "pro": 1254,
      "él": 1255,
      "Por": 1256,
      "##ca": 1257,
      "ten": 1258,
      "##ho": 1259,
      "como": 1260,
      "##tro": 1261,
      "más": 1262,
      "##ter": 1263,
      "##és": 1264,
      "##emos": 1265,
      "res": 1266,
      "##ño": 1267,
      "##ación": 1268,
      "##ñor": 1269,
      "##ús": 1270,
      "ex": 1271,
      "ver": 1272,
      "Los": 1273,
      "ti": 1274,
      "lle": 1275,
      "qué": 1276,
      "##pa": 1277,
      "##vo": 1278,
      "##ib": 1279,
      "todo": 1280,
      "am": 1281,
      "##ambién": 1282,
      "ac": 1283,
      "##ras": 1284,
      "an": 1285,
      "Jes": 1286,
      "##vi": 1287,
      "##dad": 1288,
      "##jos": 1289,
      "Yo": 1290,
      "tien": 1291,
      "cas": 1292,
      "##tan": 1293,
      "##ino": 1294,
      "##adre": 1295,
      "##co": 1296,
      "man": 1297,
      "##za": 1298,
      "##mos": 1299,
      "##man": 1300,
      "##ora": 1301,
      "tra": 1302,
      "está": 1303,
      "##gar": 1304,
      "##ba": 1305,
      "todos": 1306,
      "Jesús": 1307,
      "Al": 1308,
      "tu": 1309,
      "cre": 1310,
      "pre": 1311,
      "yo": 1312,
      "##da": 1313,
      "hacer": 1314,
      "##ara": 1315,
      "fue": 1316,
      "##les": 1317,
      "##jer": 1318,
      "##ig": 1319,
      "esp": 1320,
      "Señor": 1321,
      "Un": 1322,
      "ap": 1323,
      "también": 1324,
      "hay": 1325,
      "ni": 1326,
      "##ían": 1327,
      "Cu": 1328,
      "pr": 1329,
      "##ico": 1330,
      "ellos": 1331,
      "sab": 1332,
      "dijo": 1333,
      "##ión": 1334,
      "##den": 1335,
      "much": 1336,
      "##ces": 1337,
      "ma": 1338,
      "##ica": 1339,
      "##ías": 1340,
      "ca": 1341,
      "##ciones": 1342,
      "dic": 1343,
      "ent": 1344,
      "años": 1345,
      "20": 1346,
      "##son": 1347,
      "Qué": 1348,
      "##las": 1349,
      "vida": 1350,
      "enc": 1351,
      "as": 1352,
      "##ez": 1353,
      "día": 1354,
      "##ur": 1355,
      "##aba": 1356,
      "Si": 1357,
      "pod": 1358,
      "##ores": 1359,
      "De": 1360,
      "##pu": 1361,
      "##je": 1362,
      "##oy": 1363,
      "##ga": 1364,
      "##ierra": 1365,
      "ob": 1366,
      "##ver": 1367,
      "pa": 1368,
      "Pero": 1369,
      "sin": 1370,
      "##ido": 1371,
      "pas": 1372,
      "##iento": 1373,
      "están": 1374,
      "había": 1375,
      "##omb": 1376,
      "##im": 1377,
      "##otros": 1378,
      "##aron": 1379,
      "person": 1380,
      "hombre": 1381,
      "sal": 1382,
      ").": 1383,
      "ll": 1384,
      "ci": 1385,
      "##iz": 1386,
      "pero": 1387,
      "##emp": 1388,
      "dis": 1389,
      "##ún": 1390,
      "##era": 1391,
      "##amente": 1392,
      "##des": 1393,
      "quier": 1394,
      "nues": 1395,
      "Él": 1396,
      "lu": 1397,
      "##ens": 1398,
      "##av": 1399,
      "##tor": 1400,
      "##ién": 1401,
      "##ul": 1402,
      "##ici": 1403,
      "ar": 1404,
      "##end": 1405,
      "sobre": 1406,
      "esc": 1407,
      "##ales": 1408,
      "rec": 1409,
      "##ieron": 1410,
      "##tras": 1411,
      "deb": 1412,
      "comp": 1413,
      "has": 1414,
      "##ven": 1415,
      "deci": 1416,
      "##ru": 1417,
      "quien": 1418,
      "mujer": 1419,
      "tierra": 1420,
      "##va": 1421,
      "Con": 1422,
      "vi": 1423,
      "resp": 1424,
      "her": 1425,
      "##undo": 1426,
      "hijos": 1427,
      "uno": 1428,
      "muer": 1429,
      "##ste": 1430,
      "##tó": 1431,
      "gran": 1432,
      "eso": 1433,
      "##mb": 1434,
      "hec": 1435,
      "cons": 1436,
      "Las": 1437,
      "##ris": 1438,
      "dos": 1439,
      "este": 1440,
      "##rim": 1441,
      "##ará": 1442,
      "##ómo": 1443,
      "les": 1444,
      "##ac": 1445,
      "entre": 1446,
      "cos": 1447,
      "##quí": 1448,
      "##alab": 1449,
      "mismo": 1450,
      "bien": 1451,
      "##ís": 1452,
      "hu": 1453,
      "##uc": 1454,
      "esto": 1455,
      "tiene": 1456,
      "##ve": 1457,
      "##iendo": 1458,
      "##ombres": 1459,
      "19": 1460,
      "##ja": 1461,
      "##lar": 1462,
      "##ed": 1463,
      "ab": 1464,
      "mundo": 1465,
      "##ay": 1466,
      "ya": 1467,
      "##cien": 1468,
      "muy": 1469,
      "ay": 1470,
      "##zo": 1471,
      "nombre": 1472,
      "dem": 1473,
      "cono": 1474,
      "po": 1475,
      "mí": 1476,
      "##empo": 1477,
      "dice": 1478,
      "casa": 1479,
      "ad": 1480,
      "##udad": 1481,
      "buen": 1482,
      "fuer": 1483,
      "##uel": 1484,
      "pe": 1485,
      "Is": 1486,
      "##gr": 1487,
      "##adas": 1488,
      "tiempo": 1489,
      "##me": 1490,
      "puede": 1491,
      "vol": 1492,
      "han": 1493,
      "hecho": 1494,
      "##anto": 1495,
      "Me": 1496,
      "##aban": 1497,
      "mal": 1498,
      "dej": 1499,
      "personas": 1500,
      "cam": 1501,
      "cuando": 1502,
      "pueb": 1503,
      "##señ": 1504,
      "verdad": 1505,
      "##tado": 1506,
      "hombres": 1507,
      "esta": 1508,
      "##gún": 1509,
      "era": 1510,
      "##pañ": 1511,
      "llam": 1512,
      "##ió": 1513,
      "palab": 1514,
      "##tal": 1515,
      "##par": 1516,
      "##eci": 1517,
      "Lo": 1518,
      "ciudad": 1519,
      "##ritu": 1520,
      "##dos": 1521,
      "##lan": 1522,
      "ven": 1523,
      "##argo": 1524,
      "enseñ": 1525,
      "hijo": 1526,
      "##idos": 1527,
      "##éis": 1528,
      "##eros": 1529,
      "hace": 1530,
      "Cuando": 1531,
      "##pués": 1532,
      "##gen": 1533,
      "ah": 1534,
      "pres": 1535,
      "?\"": 1536,
      "nue": 1537,
      "decir": 1538,
      "cor": 1539,
      "ayud": 1540,
      "##guien": 1541,
      "Re": 1542,
      "padre": 1543,
      "imp": 1544,
      "herman": 1545,
      "10": 1546,
      "os": 1547,
      "##ina": 1548,
      "nada": 1549,
      "##gua": 1550,
      "ella": 1551,
      "##rá": 1552,
      "##onces": 1553,
      "prim": 1554,
      "pec": 1555,
      "Je": 1556,
      "##rec": 1557,
      "pregun": 1558,
      "traba": 1559,
      "cuen": 1560,
      "sen": 1561,
      "Su": 1562,
      "vez": 1563,
      "Des": 1564,
      "##arse": 1565,
      "##vos": 1566,
      "pueblo": 1567,
      "##adie": 1568,
      "Le": 1569,
      "prop": 1570,
      "conf": 1571,
      "##mi": 1572,
      "aquí": 1573,
      "ba": 1574,
      "As": 1575,
      "##ento": 1576,
      "##per": 1577,
      "##ob": 1578,
      "##if": 1579,
      "##rael": 1580,
      "##mente": 1581,
      "nosotros": 1582,
      "Que": 1583,
      "amor": 1584,
      "pues": 1585,
      "##bl": 1586,
      "for": 1587,
      "mar": 1588,
      "llev": 1589,
      "vis": 1590,
      "soy": 1591,
      "Jeho": 1592,
      "sí": 1593,
      "todas": 1594,
      "##cion": 1595,
      "##amil": 1596,
      "##eces": 1597,
      "gente": 1598,
      "##gan": 1599,
      "será": 1600,
      "qued": 1601,
      "##ren": 1602,
      "lib": 1603,
      "hasta": 1604,
      "##imo": 1605,
      "##vá": 1606,
      "##cias": 1607,
      "porque": 1608,
      "año": 1609,
      "madre": 1610,
      "emb": 1611,
      "Cómo": 1612,
      "cosas": 1613,
      "##no": 1614,
      "Quién": 1615,
      "otros": 1616,
      "lugar": 1617,
      "##um": 1618,
      "\"¿": 1619,
      "Jehová": 1620,
      "In": 1621,
      "segu": 1622,
      "nin": 1623,
      "algun": 1624,
      "famil": 1625,
      "201": 1626,
      "or": 1627,
      "##cen": 1628,
      "##ría": 1629,
      "##ante": 1630,
      "Com": 1631,
      "##ana": 1632,
      "cada": 1633,
      "cab": 1634,
      "he": 1635,
      "uste": 1636,
      "##vir": 1637,
      "##oraz": 1638,
      "##dió": 1639,
      "Para": 1640,
      "##cio": 1641,
      "##lí": 1642,
      "##cas": 1643,
      "sig": 1644,
      "na": 1645,
      "##osotros": 1646,
      "car": 1647,
      "##tir": 1648,
      "##unto": 1649,
      "Sin": 1650,
      "##uego": 1651,
      "pos": 1652,
      "sido": 1653,
      "días": 1654,
      "##fer": 1655,
      "##trar": 1656,
      "Tod": 1657,
      "##tad": 1658,
      "nadie": 1659,
      "encon": 1660,
      "can": 1661,
      "##cl": 1662,
      "dar": 1663,
      "Te": 1664,
      "ve": 1665,
      "##ín": 1666,
      "Mo": 1667,
      "##pe": 1668,
      "coraz": 1669,
      "An": 1670,
      "estar": 1671,
      "tres": 1672,
      "Ent": 1673,
      "Est": 1674,
      "Mi": 1675,
      "##quel": 1676,
      "Mar": 1677,
      "##ibl": 1678,
      "##ha": 1679,
      "Una": 1680,
      "##cuch": 1681,
      "así": 1682,
      "##empre": 1683,
      "15": 1684,
      "co": 1685,
      "Ma": 1686,
      "##ias": 1687,
      "##encia": 1688,
      "##entes": 1689,
      "##esti": 1690,
      "##ciendo": 1691,
      "exp": 1692,
      "##can": 1693,
      "##der": 1694,
      "cual": 1695,
      "##mpl": 1696,
      "parte": 1697,
      "demás": 1698,
      "estaba": 1699,
      "cie": 1700,
      "##iera": 1701,
      "lleg": 1702,
      "Israel": 1703,
      "fin": 1704,
      "##che": 1705,
      "##tin": 1706,
      "##ros": 1707,
      "embargo": 1708,
      "##ito": 1709,
      "##tic": 1710,
      "inter": 1711,
      "muerte": 1712,
      "##miento": 1713,
      "##fici": 1714,
      "##adres": 1715,
      "##iblia": 1716,
      "cuenta": 1717,
      "12": 1718,
      "va": 1719,
      "pon": 1720,
      "rey": 1721,
      "mon": 1722,
      "real": 1723,
      "da": 1724,
      "reg": 1725,
      "escri": 1726,
      "respon": 1727,
      "##anos": 1728,
      "du": 1729,
      "nuestros": 1730,
      "contra": 1731,
      "emp": 1732,
      "##ío": 1733,
      "rel": 1734,
      "otro": 1735,
      "##nos": 1736,
      "mej": 1737,
      "sea": 1738,
      "sue": 1739,
      "ter": 1740,
      "##ña": 1741,
      "men": 1742,
      "prof": 1743,
      "##rante": 1744,
      "##vid": 1745,
      "18": 1746,
      "estu": 1747,
      "Esto": 1748,
      "11": 1749,
      "ju": 1750,
      "aquel": 1751,
      "Biblia": 1752,
      "Mois": 1753,
      "##car": 1754,
      "pueden": 1755,
      "##ícu": 1756,
      "siempre": 1757,
      "palabras": 1758,
      "tom": 1759,
      "##ece": 1760,
      "##iente": 1761,
      "##gas": 1762,
      "##ord": 1763,
      "##eb": 1764,
      "##van": 1765,
      "ins": 1766,
      "Moisés": 1767,
      "escuch": 1768,
      "##eron": 1769,
      "##ono": 1770,
      "cielo": 1771,
      "tú": 1772,
      "niños": 1773,
      "##gel": 1774,
      "##onde": 1775,
      "encuen": 1776,
      "quienes": 1777,
      "##iones": 1778,
      "##ena": 1779,
      "alguien": 1780,
      "padres": 1781,
      "cer": 1782,
      "Ju": 1783,
      "tener": 1784,
      "##so": 1785,
      "##it": 1786,
      "14": 1787,
      "agua": 1788,
      "##ip": 1789,
      "Sal": 1790,
      "##gos": 1791,
      "sino": 1792,
      "##tación": 1793,
      "##dio": 1794,
      "tem": 1795,
      "##ál": 1796,
      "algo": 1797,
      "perd": 1798,
      "##yo": 1799,
      "##risto": 1800,
      "reci": 1801,
      "después": 1802,
      ",\"": 1803,
      "##ano": 1804,
      "##íritu": 1805,
      "##at": 1806,
      "muchas": 1807,
      "##tido": 1808,
      "tienen": 1809,
      "dec": 1810,
      "muchos": 1811,
      "mucho": 1812,
      "17": 1813,
      "peque": 1814,
      "Ad": 1815,
      "inf": 1816,
      "voy": 1817,
      "##lti": 1818,
      "quién": 1819,
      "sol": 1820,
      "Así": 1821,
      "familia": 1822,
      "##ér": 1823,
      "allí": 1824,
      "toda": 1825,
      "fueron": 1826,
      "##elos": 1827,
      "acer": 1828,
      "san": 1829,
      "op": 1830,
      "cal": 1831,
      "##ies": 1832,
      "Ah": 1833,
      "Entonces": 1834,
      "bus": 1835,
      "ir": 1836,
      "Hay": 1837,
      "##az": 1838,
      "val": 1839,
      "pes": 1840,
      "señor": 1841,
      "##00": 1842,
      "##able": 1843,
      "gra": 1844,
      "##cur": 1845,
      "##idas": 1846,
      "ale": 1847,
      "##iene": 1848,
      "hizo": 1849,
      "##rección": 1850,
      "##iste": 1851,
      "cumpl": 1852,
      "##ientes": 1853,
      "##jas": 1854,
      "vuel": 1855,
      "mom": 1856,
      "##dic": 1857,
      "##vió": 1858,
      "##trás": 1859,
      "##rió": 1860,
      "au": 1861,
      "##.\"": 1862,
      "##cho": 1863,
      "Ab": 1864,
      "##ador": 1865,
      "##rend": 1866,
      "fe": 1867,
      "fal": 1868,
      "##dia": 1869,
      "mujeres": 1870,
      "ahora": 1871,
      "16": 1872,
      "to": 1873,
      "##cido": 1874,
      "manos": 1875,
      "apar": 1876,
      "tanto": 1877,
      "##íos": 1878,
      "noche": 1879,
      "Sa": 1880,
      "##tico": 1881,
      "poder": 1882,
      "corazón": 1883,
      "nuevo": 1884,
      "##et": 1885,
      "human": 1886,
      "##...": 1887,
      "##til": 1888,
      "##du": 1889,
      "##qui": 1890,
      "13": 1891,
      "otra": 1892,
      "##zas": 1893,
      "camino": 1894,
      "##ientos": 1895,
      "##cha": 1896,
      "desde": 1897,
      "##anza": 1898,
      "ch": 1899,
      "##mas": 1900,
      "persona": 1901,
      "mes": 1902,
      "pie": 1903,
      "##ech": 1904,
      "##eo": 1905,
      "trabajo": 1906,
      "ben": 1907,
      "##ijo": 1908,
      "##eric": 1909,
      "San": 1910,
      "pens": 1911,
      "tan": 1912,
      "##na": 1913,
      "ese": 1914,
      "ej": 1915,
      "hacia": 1916,
      "lado": 1917,
      "ustedes": 1918,
      "##idades": 1919,
      "aten": 1920,
      "##ración": 1921,
      "##ñas": 1922,
      "mejor": 1923,
      "##adores": 1924,
      "##ea": 1925,
      "nuestro": 1926,
      "##min": 1927,
      "quiere": 1928,
      "Todos": 1929,
      "gu": 1930,
      "##tante": 1931,
      "##tados": 1932,
      "habl": 1933,
      "##cep": 1934,
      "forma": 1935,
      "tienes": 1936,
      "durante": 1937,
      "##ós": 1938,
      "vosotros": 1939,
      "ante": 1940,
      "sier": 1941,
      "##das": 1942,
      "esper": 1943,
      "donde": 1944,
      "Padre": 1945,
      "cuer": 1946,
      "Ha": 1947,
      "llegar": 1948,
      "momento": 1949,
      "mor": 1950,
      "##cip": 1951,
      "ojos": 1952,
      "##gre": 1953,
      "##cil": 1954,
      "##cimiento": 1955,
      "##rán": 1956,
      "##fic": 1957,
      "##ído": 1958,
      "af": 1959,
      "hermanos": 1960,
      "##bo": 1961,
      "Ya": 1962,
      "cómo": 1963,
      "Mu": 1964,
      "neces": 1965,
      "cambi": 1966,
      "##bol": 1967,
      "desc": 1968,
      "##dido": 1969,
      "Juan": 1970,
      "hoy": 1971,
      "estas": 1972,
      "estos": 1973,
      "col": 1974,
      "##lic": 1975,
      "tus": 1976,
      "jud": 1977,
      "##vas": 1978,
      "desa": 1979,
      "Jos": 1980,
      "gen": 1981,
      "##avid": 1982,
      "comer": 1983,
      "comen": 1984,
      "##men": 1985,
      "solo": 1986,
      "Todo": 1987,
      "##eza": 1988,
      "##edo": 1989,
      "Esp": 1990,
      "sa": 1991,
      "##urrección": 1992,
      "luz": 1993,
      "##ónde": 1994,
      "ningún": 1995,
      "án": 1996,
      "##ensa": 1997,
      "##atro": 1998,
      "Ch": 1999,
      "mano": 2000,
      "estamos": 2001,
      "of": 2002,
      "Cristo": 2003,
      "dios": 2004,
      "##jar": 2005,
      "unos": 2006,
      "##ció": 2007,
      "##úm": 2008,
      "país": 2009,
      "palabra": 2010,
      "Ar": 2011,
      "miedo": 2012,
      "200": 2013,
      "##omos": 2014,
      "quiero": 2015,
      "##ucción": 2016,
      "gan": 2017,
      "##uso": 2018,
      "Jer": 2019,
      "##emplo": 2020,
      "estoy": 2021,
      "rep": 2022,
      "##oso": 2023,
      "##vel": 2024,
      "##gra": 2025,
      "##igos": 2026,
      "David": 2027,
      "##iel": 2028,
      "ley": 2029,
      "##igo": 2030,
      "gus": 2031,
      "Este": 2032,
      "##tura": 2033,
      "manera": 2034,
      "Después": 2035,
      "Pro": 2036,
      "ol": 2037,
      "##ita": 2038,
      "##ecer": 2039,
      "antes": 2040,
      "salv": 2041,
      "mil": 2042,
      "acom": 2043,
      "Como": 2044,
      "capa": 2045,
      "##ario": 2046,
      "##toria": 2047,
      "##ición": 2048,
      "poco": 2049,
      "cin": 2050,
      "acuer": 2051,
      "debe": 2052,
      "ref": 2053,
      "vo": 2054,
      "##rig": 2055,
      "##tió": 2056,
      "habían": 2057,
      "cielos": 2058,
      "eres": 2059,
      "tenía": 2060,
      "##unca": 2061,
      "entr": 2062,
      "##imos": 2063,
      "cris": 2064,
      "También": 2065,
      "##uy": 2066,
      "##orm": 2067,
      "pu": 2068,
      "##ítu": 2069,
      "##ete": 2070,
      "##ecto": 2071,
      "##tica": 2072,
      "##mil": 2073,
      "##onio": 2074,
      "ayudar": 2075,
      "##gles": 2076,
      "may": 2077,
      "dado": 2078,
      "##antes": 2079,
      "##ista": 2080,
      "hac": 2081,
      "inc": 2082,
      "##ablo": 2083,
      "his": 2084,
      "Ten": 2085,
      "desp": 2086,
      "Ahora": 2087,
      "crey": 2088,
      "orden": 2089,
      "Esc": 2090,
      "tran": 2091,
      "##tamente": 2092,
      "puer": 2093,
      "He": 2094,
      "##taron": 2095,
      "##ág": 2096,
      "##dición": 2097,
      "##pon": 2098,
      "##segu": 2099,
      "cap": 2100,
      "##uría": 2101,
      "##zar": 2102,
      "compañ": 2103,
      "volver": 2104,
      "##oo": 2105,
      "##rad": 2106,
      "##ierto": 2107,
      "jus": 2108,
      "primer": 2109,
      "##ólo": 2110,
      "),": 2111,
      "núm": 2112,
      "##and": 2113,
      "##eta": 2114,
      "entonces": 2115,
      "ningun": 2116,
      "##nif": 2117,
      "mo": 2118,
      "Cor": 2119,
      "##rar": 2120,
      "##lor": 2121,
      "serán": 2122,
      "acompañ": 2123,
      "estado": 2124,
      "Tú": 2125,
      "##iduría": 2126,
      "22": 2127,
      "##ona": 2128,
      "##quiera": 2129,
      "otras": 2130,
      "fav": 2131,
      "caso": 2132,
      "impor": 2133,
      "quieres": 2134,
      "cuatro": 2135,
      "prom": 2136,
      "24": 2137,
      "##caso": 2138,
      "##dose": 2139,
      "ellas": 2140,
      "##tre": 2141,
      "##unque": 2142,
      "Porque": 2143,
      "miseric": 2144,
      "##be": 2145,
      "##vers": 2146,
      "##cos": 2147,
      "deber": 2148,
      "21": 2149,
      "##ap": 2150,
      "##ección": 2151,
      "dere": 2152,
      "hermano": 2153,
      "##almente": 2154,
      "Hijo": 2155,
      "favor": 2156,
      "cul": 2157,
      "##ecen": 2158,
      "##ible": 2159,
      "pla": 2160,
      "##tivo": 2161,
      "libro": 2162,
      "algunos": 2163,
      "##emás": 2164,
      "##osa": 2165,
      "##jeron": 2166,
      "diciendo": 2167,
      "Acaso": 2168,
      "##itas": 2169,
      "##zó": 2170,
      "##rbol": 2171,
      "##ientras": 2172,
      "tengo": 2173,
      "fu": 2174,
      "ahí": 2175,
      "##ard": 2176,
      "##pues": 2177,
      "últi": 2178,
      "atención": 2179,
      "Ser": 2180,
      "misma": 2181,
      "ello": 2182,
      "ángel": 2183,
      "vivir": 2184,
      "Per": 2185,
      "cuerpo": 2186,
      "##vés": 2187,
      "resurrección": 2188,
      "visto": 2189,
      "plan": 2190,
      "##ñana": 2191,
      "is": 2192,
      "##amiento": 2193,
      "confi": 2194,
      "##icos": 2195,
      "##und": 2196,
      "dio": 2197,
      "hacen": 2198,
      "disc": 2199,
      "Hab": 2200,
      "?,": 2201,
      "eran": 2202,
      "\"¡": 2203,
      "comun": 2204,
      "Algun": 2205,
      "##arán": 2206,
      "cristi": 2207,
      "anim": 2208,
      "Sab": 2209,
      "encontr": 2210,
      "veces": 2211,
      "Tierra": 2212,
      "fel": 2213,
      "ho": 2214,
      "signif": 2215,
      "##pos": 2216,
      "var": 2217,
      "medio": 2218,
      "##jes": 2219,
      "So": 2220,
      "tam": 2221,
      "bo": 2222,
      "Nos": 2223,
      "##ion": 2224,
      "dicho": 2225,
      "recibi": 2226,
      "pecados": 2227,
      "arre": 2228,
      "judíos": 2229,
      "den": 2230,
      "sabiduría": 2231,
      "ne": 2232,
      "##tur": 2233,
      "árbol": 2234,
      "siervos": 2235,
      "##ándo": 2236,
      "##usal": 2237,
      "estaban": 2238,
      "segun": 2239,
      "junto": 2240,
      "fuera": 2241,
      "vers": 2242,
      "##teo": 2243,
      "def": 2244,
      "acuerdo": 2245,
      "sac": 2246,
      "##ítulo": 2247,
      "Jerusal": 2248,
      "len": 2249,
      "##glesia": 2250,
      "Pa": 2251,
      "hablar": 2252,
      "Luego": 2253,
      "##titu": 2254,
      "beb": 2255,
      "Jerusalén": 2256,
      "Sus": 2257,
      "Espíritu": 2258,
      "ro": 2259,
      "tal": 2260,
      "puedo": 2261,
      "tend": 2262,
      "obras": 2263,
      "##ala": 2264,
      "testi": 2265,
      "##vier": 2266,
      "##sa": 2267,
      "Quier": 2268,
      "usted": 2269,
      "dud": 2270,
      "##quier": 2271,
      "nuestra": 2272,
      "mañana": 2273,
      "##ior": 2274,
      "mayor": 2275,
      "##pulos": 2276,
      "##remos": 2277,
      "do": 2278,
      "Cre": 2279,
      "##enta": 2280,
      "##tando": 2281,
      "nunca": 2282,
      "bas": 2283,
      "##ham": 2284,
      "##ismo": 2285,
      "enten": 2286,
      "Am": 2287,
      "##ículo": 2288,
      "inten": 2289,
      "##lig": 2290,
      "##icas": 2291,
      "haber": 2292,
      "##inas": 2293,
      "sec": 2294,
      "Aquí": 2295,
      "##ienes": 2296,
      "pid": 2297,
      "través": 2298,
      "dejar": 2299,
      "tar": 2300,
      "seguir": 2301,
      "grande": 2302,
      "dijeron": 2303,
      "sé": 2304,
      "pol": 2305,
      "buena": 2306,
      "tor": 2307,
      "bueno": 2308,
      "23": 2309,
      "paz": 2310,
      "30": 2311,
      "discí": 2312,
      "tipo": 2313,
      "cabeza": 2314,
      "Abra": 2315,
      "gru": 2316,
      "ún": 2317,
      "##vieron": 2318,
      "Ver": 2319,
      "li": 2320,
      "muertos": 2321,
      "debemos": 2322,
      "detrás": 2323,
      "ayuda": 2324,
      "##gó": 2325,
      "##gip": 2326,
      "extra": 2327,
      "pecado": 2328,
      "##lah": 2329,
      "somos": 2330,
      "din": 2331,
      "##embre": 2332,
      "obs": 2333,
      "pel": 2334,
      "Ex": 2335,
      "morir": 2336,
      "Has": 2337,
      "hici": 2338,
      "fr": 2339,
      "trans": 2340,
      "25": 2341,
      "historia": 2342,
      "puedes": 2343,
      "sir": 2344,
      "pró": 2345,
      "monta": 2346,
      "suf": 2347,
      "mismos": 2348,
      "alegr": 2349,
      "sabemos": 2350,
      "número": 2351,
      "acep": 2352,
      "llegó": 2353,
      "mas": 2354,
      "##all": 2355,
      "##itan": 2356,
      "Son": 2357,
      "##venes": 2358,
      "##pas": 2359,
      "Esta": 2360,
      "Res": 2361,
      "##orma": 2362,
      "Eso": 2363,
      "##render": 2364,
      "##tran": 2365,
      "##vil": 2366,
      "##ort": 2367,
      "conocer": 2368,
      "incl": 2369,
      "amigos": 2370,
      "##pen": 2371,
      "sólo": 2372,
      "##itar": 2373,
      "hora": 2374,
      "Di": 2375,
      "##ticas": 2376,
      "cara": 2377,
      "##emb": 2378,
      "punto": 2379,
      "regres": 2380,
      "olvid": 2381,
      "dif": 2382,
      "servi": 2383,
      "llevar": 2384,
      "##iso": 2385,
      "suce": 2386,
      "siguien": 2387,
      "##dor": 2388,
      "##ril": 2389,
      "mer": 2390,
      "cl": 2391,
      "Uste": 2392,
      "Allah": 2393,
      "##ing": 2394,
      "##bil": 2395,
      "##dan": 2396,
      "saber": 2397,
      "##cios": 2398,
      "##rom": 2399,
      "prod": 2400,
      "##óvenes": 2401,
      "sabe": 2402,
      "igu": 2403,
      "envi": 2404,
      "encuentra": 2405,
      "hor": 2406,
      "esos": 2407,
      "José": 2408,
      "cuid": 2409,
      "voz": 2410,
      "##ír": 2411,
      "fuego": 2412,
      "##tru": 2413,
      "##tidad": 2414,
      "Cuál": 2415,
      "##ár": 2416,
      "dinero": 2417,
      "estás": 2418,
      "##avía": 2419,
      "llama": 2420,
      "guer": 2421,
      "##isten": 2422,
      "hemos": 2423,
      "?.\"": 2424,
      "##gado": 2425,
      "espíritu": 2426,
      "esa": 2427,
      "creyentes": 2428,
      "discípulos": 2429,
      "##blem": 2430,
      "prin": 2431,
      "menos": 2432,
      "enf": 2433,
      "##rib": 2434,
      "trata": 2435,
      "acerca": 2436,
      "Tu": 2437,
      "aquellos": 2438,
      "vas": 2439,
      "contin": 2440,
      "bajo": 2441,
      "##untos": 2442,
      "##ne": 2443,
      "dé": 2444,
      "##ge": 2445,
      "##tener": 2446,
      "permi": 2447,
      "podemos": 2448,
      "vues": 2449,
      "##íamos": 2450,
      "##cel": 2451,
      "raz": 2452,
      "##uci": 2453,
      "##etas": 2454,
      "Her": 2455,
      "##iencia": 2456,
      "bar": 2457,
      "pan": 2458,
      "##migo": 2459,
      "##imen": 2460,
      "algunas": 2461,
      "perten": 2462,
      "##tanás": 2463,
      "lengua": 2464,
      "....": 2465,
      "pasado": 2466,
      "van": 2467,
      "jóvenes": 2468,
      "us": 2469,
      "##dir": 2470,
      "##culo": 2471,
      "humil": 2472,
      "reun": 2473,
      "Jo": 2474,
      "según": 2475,
      "cambio": 2476,
      "Ella": 2477,
      "pequeño": 2478,
      "especi": 2479,
      "##pi": 2480,
      "cinco": 2481,
      "agu": 2482,
      "##isión": 2483,
      "luego": 2484,
      "trabaj": 2485,
      "Ja": 2486,
      "##bió": 2487,
      "hija": 2488,
      "!\"": 2489,
      "señ": 2490,
      "invi": 2491,
      "realiz": 2492,
      "presen": 2493,
      "volun": 2494,
      "respondió": 2495,
      "Abraham": 2496,
      "dese": 2497,
      "28": 2498,
      "fru": 2499,
      "tras": 2500,
      "primera": 2501,
      "ocur": 2502,
      "##áis": 2503,
      "relig": 2504,
      "##genes": 2505,
      "encontrar": 2506,
      "ejemplo": 2507,
      "##ura": 2508,
      "##má": 2509,
      "reino": 2510,
      "##icio": 2511,
      "Isa": 2512,
      "autor": 2513,
      "alegría": 2514,
      "tenemos": 2515,
      "princip": 2516,
      "problem": 2517,
      "pesar": 2518,
      "alcan": 2519,
      "##tigo": 2520,
      "##ame": 2521,
      "enseñar": 2522,
      "haciendo": 2523,
      "niño": 2524,
      "ador": 2525,
      "vino": 2526,
      "##zos": 2527,
      "recono": 2528,
      "fi": 2529,
      "##ables": 2530,
      "Satanás": 2531,
      "##ocu": 2532,
      "##len": 2533,
      "##ya": 2534,
      "med": 2535,
      "respe": 2536,
      "##ré": 2537,
      "##ósto": 2538,
      "##lá": 2539,
      "##lación": 2540,
      "har": 2541,
      "unas": 2542,
      "##istas": 2543,
      "difer": 2544,
      "llen": 2545,
      "##abil": 2546,
      "actu": 2547,
      "Na": 2548,
      "conmigo": 2549,
      "Ac": 2550,
      "lí": 2551,
      "Ba": 2552,
      "viene": 2553,
      "viv": 2554,
      "dirig": 2555,
      "Escritu": 2556,
      "##ordia": 2557,
      "María": 2558,
      "##alidad": 2559,
      "compar": 2560,
      "Nosotros": 2561,
      "poner": 2562,
      "##fía": 2563,
      "cen": 2564,
      "##ierno": 2565,
      "##alo": 2566,
      "Pue": 2567,
      "oración": 2568,
      "##ró": 2569,
      "Nue": 2570,
      "pasa": 2571,
      "obra": 2572,
      "Pablo": 2573,
      "##chos": 2574,
      "##onios": 2575,
      "apo": 2576,
      "##arlo": 2577,
      "Pre": 2578,
      "##una": 2579,
      "apro": 2580,
      "sangre": 2581,
      "##tiv": 2582,
      "gob": 2583,
      "rela": 2584,
      "Mateo": 2585,
      "##icado": 2586,
      "mos": 2587,
      "dicen": 2588,
      "##gía": 2589,
      "grandes": 2590,
      "Estoy": 2591,
      "Nues": 2592,
      "##!!": 2593,
      "##oma": 2594,
      "puesto": 2595,
      "##inos": 2596,
      "mue": 2597,
      "liber": 2598,
      "##úbl": 2599,
      "vay": 2600,
      "Egip": 2601,
      "clar": 2602,
      "pasar": 2603,
      "difí": 2604,
      "##pre": 2605,
      "cerca": 2606,
      "Ni": 2607,
      "##ima": 2608,
      "levan": 2609,
      "Par": 2610,
      "##ut": 2611,
      "div": 2612,
      "grupo": 2613,
      "Co": 2614,
      "sabes": 2615,
      "##gn": 2616,
      "creo": 2617,
      "##cul": 2618,
      "##bajo": 2619,
      "conocimiento": 2620,
      "Luc": 2621,
      "min": 2622,
      "##ble": 2623,
      "##ves": 2624,
      "##he": 2625,
      "quer": 2626,
      "aún": 2627,
      "##cado": 2628,
      "ángeles": 2629,
      "##ticia": 2630,
      "Ellos": 2631,
      "siete": 2632,
      "prepar": 2633,
      "quería": 2634,
      "Palab": 2635,
      "##eció": 2636,
      "todavía": 2637,
      "##omin": 2638,
      "siguiente": 2639,
      "Car": 2640,
      "perdon": 2641,
      "26": 2642,
      "via": 2643,
      "##áp": 2644,
      "##rado": 2645,
      "respues": 2646,
      "total": 2647,
      "puerta": 2648,
      "Ay": 2649,
      "ofre": 2650,
      "Egipto": 2651,
      "Fue": 2652,
      "resul": 2653,
      "quedó": 2654,
      "pien": 2655,
      "##itos": 2656,
      "##ormación": 2657,
      "voluntad": 2658,
      "paso": 2659,
      "ele": 2660,
      "siento": 2661,
      "##tores": 2662,
      "cuanto": 2663,
      "##ioso": 2664,
      "dónde": 2665,
      "##ub": 2666,
      "##rede": 2667,
      "29": 2668,
      "mensa": 2669,
      "?.": 2670,
      "largo": 2671,
      "##OR": 2672,
      "muerto": 2673,
      "murió": 2674,
      "preocu": 2675,
      "israel": 2676,
      "Además": 2677,
      "##erv": 2678,
      "##ern": 2679,
      "revel": 2680,
      "sueños": 2681,
      "##có": 2682,
      "ce": 2683,
      "ninguna": 2684,
      "Dónde": 2685,
      "##iar": 2686,
      "cristianos": 2687,
      "##tamos": 2688,
      "##gon": 2689,
      "Rec": 2690,
      "##tivos": 2691,
      "recom": 2692,
      "##rón": 2693,
      "##araón": 2694,
      "enfer": 2695,
      "27": 2696,
      "Rey": 2697,
      "super": 2698,
      "final": 2699,
      "Vamos": 2700,
      "Ca": 2701,
      "modo": 2702,
      "agr": 2703,
      "##gue": 2704,
      "amigo": 2705,
      "meses": 2706,
      "##mientos": 2707,
      "Buen": 2708,
      "hon": 2709,
      "Reino": 2710,
      "##tá": 2711,
      "aunque": 2712,
      "##ama": 2713,
      "alma": 2714,
      "##edro": 2715,
      "##rido": 2716,
      "##uela": 2717,
      "guerra": 2718,
      "##sión": 2719,
      "vista": 2720,
      "Hoy": 2721,
      "habéis": 2722,
      "##via": 2723,
      "prue": 2724,
      "enseña": 2725,
      "gri": 2726,
      "##gres": 2727,
      "##teg": 2728,
      "vend": 2729,
      "esposa": 2730,
      "expres": 2731,
      "Vi": 2732,
      "##pti": 2733,
      "glor": 2734,
      "mientras": 2735,
      "digo": 2736,
      "##ban": 2737,
      "mues": 2738,
      "enga": 2739,
      "caus": 2740,
      "fuerte": 2741,
      "##bios": 2742,
      "sueño": 2743,
      "significa": 2744,
      "##tud": 2745,
      "corazones": 2746,
      "Sí": 2747,
      "obje": 2748,
      "due": 2749,
      "fun": 2750,
      "preguntó": 2751,
      "##tía": 2752,
      "##eras": 2753,
      "##lado": 2754,
      "##usión": 2755,
      "Ap": 2756,
      "Soy": 2757,
      "habla": 2758,
      "equi": 2759,
      "cosa": 2760,
      "anti": 2761,
      "canción": 2762,
      "recuer": 2763,
      "##cter": 2764,
      "enem": 2765,
      "Pedro": 2766,
      "posible": 2767,
      "##tón": 2768,
      "##tios": 2769,
      "Palabra": 2770,
      "er": 2771,
      "ide": 2772,
      "##fec": 2773,
      "##emente": 2774,
      "empez": 2775,
      "Cas": 2776,
      "podría": 2777,
      "dentro": 2778,
      "Mis": 2779,
      "igual": 2780,
      "##tarse": 2781,
      "continu": 2782,
      "apósto": 2783,
      "vamos": 2784,
      "primero": 2785,
      "##ef": 2786,
      "##ándose": 2787,
      "Santo": 2788,
      "creen": 2789,
      "juz": 2790,
      "deben": 2791,
      "##cerdo": 2792,
      "SE": 2793,
      "lejos": 2794,
      "tenían": 2795,
      "conten": 2796,
      "##zado": 2797,
      "contr": 2798,
      "der": 2799,
      "##rir": 2800,
      "hacerlo": 2801,
      "volvió": 2802,
      "importante": 2803,
      "ru": 2804,
      "perdón": 2805,
      "Lu": 2806,
      "misericordia": 2807,
      "##vol": 2808,
      "##rededor": 2809,
      "##por": 2810,
      "algún": 2811,
      "dispues": 2812,
      "comple": 2813,
      "Pues": 2814,
      "propio": 2815,
      "oído": 2816,
      "ren": 2817,
      "haces": 2818,
      "gener": 2819,
      "cierto": 2820,
      "oblig": 2821,
      "trad": 2822,
      "##ución": 2823,
      "##ice": 2824,
      "servicio": 2825,
      "Lucas": 2826,
      "capaz": 2827,
      "esf": 2828,
      "pron": 2829,
      "mucha": 2830,
      "consid": 2831,
      "sub": 2832,
      "##....": 2833,
      "sentido": 2834,
      "gracias": 2835,
      "mente": 2836,
      "##arios": 2837,
      "llegado": 2838,
      "delante": 2839,
      "##gü": 2840,
      "cumplir": 2841,
      "Cada": 2842,
      "tuvo": 2843,
      "Pas": 2844,
      "##hi": 2845,
      "##con": 2846,
      "perman": 2847,
      "cuales": 2848,
      "##tio": 2849,
      "tomar": 2850,
      "cru": 2851,
      "atrás": 2852,
      "##taba": 2853,
      "##rol": 2854,
      "ind": 2855,
      "fuerza": 2856,
      "repres": 2857,
      "##cal": 2858,
      "estre": 2859,
      "servir": 2860,
      "ganas": 2861,
      "Pe": 2862,
      "##lica": 2863,
      "tercer": 2864,
      "situ": 2865,
      "sacerdo": 2866,
      "públ": 2867,
      "art": 2868,
      "nueva": 2869,
      "preguntas": 2870,
      "hech": 2871,
      "Ci": 2872,
      "ima": 2873,
      "dejó": 2874,
      "lleva": 2875,
      "##tam": 2876,
      "sufici": 2877,
      "maes": 2878,
      "pob": 2879,
      "cabo": 2880,
      "israelitas": 2881,
      "Man": 2882,
      "parti": 2883,
      "##mágenes": 2884,
      "il": 2885,
      "##áles": 2886,
      "siquiera": 2887,
      "jo": 2888,
      "##ria": 2889,
      "##fru": 2890,
      "Quien": 2891,
      "llamado": 2892,
      "##cima": 2893,
      "mayo": 2894,
      "decían": 2895,
      "contrar": 2896,
      "apren": 2897,
      "és": 2898,
      "conver": 2899,
      "decía": 2900,
      "lín": 2901,
      "buenas": 2902,
      "##yos": 2903,
      "##og": 2904,
      "sien": 2905,
      "mod": 2906,
      "Hasta": 2907,
      "cier": 2908,
      "##iedad": 2909,
      "allá": 2910,
      "mand": 2911,
      "##ximo": 2912,
      "rom": 2913,
      "dedic": 2914,
      "busc": 2915,
      "dije": 2916,
      "##li": 2917,
      "##icación": 2918,
      "respons": 2919,
      "ciudades": 2920,
      "\"?": 2921,
      "##aran": 2922,
      "demonios": 2923,
      "bendi": 2924,
      "Desde": 2925,
      "31": 2926,
      "Sam": 2927,
      "sur": 2928,
      "edad": 2929,
      "##ik": 2930,
      "gol": 2931,
      "##unci": 2932,
      "##tiva": 2933,
      "animales": 2934,
      "##leg": 2935,
      "aprender": 2936,
      "##pul": 2937,
      "senti": 2938,
      "sor": 2939,
      "frente": 2940,
      "atra": 2941,
      "seman": 2942,
      "mur": 2943,
      "##bir": 2944,
      "estudi": 2945,
      "difícil": 2946,
      "##entos": 2947,
      "Alá": 2948,
      "mío": 2949,
      "##leb": 2950,
      "##bido": 2951,
      "50": 2952,
      "Adán": 2953,
      "eter": 2954,
      "valor": 2955,
      "##cidos": 2956,
      "noso": 2957,
      "amb": 2958,
      "familias": 2959,
      "Gu": 2960,
      "##ecía": 2961,
      "Uno": 2962,
      "segundo": 2963,
      "exper": 2964,
      "feliz": 2965,
      "tarde": 2966,
      "##ine": 2967,
      "pregunta": 2968,
      "humanos": 2969,
      "##chas": 2970,
      "derecho": 2971,
      "fiel": 2972,
      "Entre": 2973,
      "##trucción": 2974,
      "duda": 2975,
      "cump": 2976,
      "##cional": 2977,
      "nosotras": 2978,
      "propia": 2979,
      "Nadie": 2980,
      "##fico": 2981,
      "##ización": 2982,
      "correc": 2983,
      "Todas": 2984,
      "##sos": 2985,
      "desapar": 2986,
      "pág": 2987,
      "alrededor": 2988,
      "Du": 2989,
      "##esa": 2990,
      "##irm": 2991,
      "escuchar": 2992,
      "miemb": 2993,
      "señal": 2994,
      "comenzó": 2995,
      "siendo": 2996,
      "seres": 2997,
      "boca": 2998,
      "razón": 2999,
      "cree": 3000,
      "sean": 3001,
      "##cación": 3002,
      "Jud": 3003,
      "Más": 3004,
      "##endo": 3005,
      "manif": 3006,
      "misericord": 3007,
      "encar": 3008,
      "##tró": 3009,
      "llevó": 3010,
      "único": 3011,
      "##taría": 3012,
      "agrad": 3013,
      "##ber": 3014,
      "hacemos": 3015,
      "Iglesia": 3016,
      "##echa": 3017,
      "##ísimo": 3018,
      "inm": 3019,
      "contrario": 3020,
      "##guió": 3021,
      "##ron": 3022,
      "parece": 3023,
      "pap": 3024,
      "oro": 3025,
      "ra": 3026,
      "creer": 3027,
      "40": 3028,
      "pier": 3029,
      "matar": 3030,
      "##ciencia": 3031,
      "##ortun": 3032,
      "salvación": 3033,
      "Gran": 3034,
      "ham": 3035,
      "ama": 3036,
      "Ven": 3037,
      "##iza": 3038,
      "33": 3039,
      "Po": 3040,
      "puso": 3041,
      "dioses": 3042,
      "Ta": 3043,
      "entrar": 3044,
      "##tel": 3045,
      "##ram": 3046,
      "##cob": 3047,
      "información": 3048,
      "joven": 3049,
      "compañeros": 3050,
      "pies": 3051,
      "cualquier": 3052,
      "mir": 3053,
      "acab": 3054,
      ".-": 3055,
      "iglesia": 3056,
      "obed": 3057,
      "mé": 3058,
      "rod": 3059,
      "seis": 3060,
      "Tra": 3061,
      "diez": 3062,
      "podía": 3063,
      "##echos": 3064,
      "mensaje": 3065,
      "alimen": 3066,
      "cuar": 3067,
      "Está": 3068,
      "vac": 3069,
      "pied": 3070,
      "encontra": 3071,
      "):": 3072,
      "Aunque": 3073,
      "cantidad": 3074,
      "Tengo": 3075,
      "Usted": 3076,
      "ráp": 3077,
      "##ceso": 3078,
      "jun": 3079,
      "dol": 3080,
      "##amientos": 3081,
      "amar": 3082,
      "humano": 3083,
      "000": 3084,
      "##hu": 3085,
      "##quil": 3086,
      "espec": 3087,
      "##ton": 3088,
      "##trim": 3089,
      "##cub": 3090,
      "hicieron": 3091,
      "conven": 3092,
      "publ": 3093,
      "##ticos": 3094,
      "éste": 3095,
      "hago": 3096,
      "Lle": 3097,
      "buscar": 3098,
      "medi": 3099,
      "##ficio": 3100,
      "incre": 3101,
      "##anzas": 3102,
      "##logía": 3103,
      "termin": 3104,
      "arrep": 3105,
      "Algunos": 3106,
      "comida": 3107,
      "##esis": 3108,
      "mad": 3109,
      "montañas": 3110,
      "Dis": 3111,
      "...\"": 3112,
      "entender": 3113,
      "disfru": 3114,
      "escritu": 3115,
      "##ñad": 3116,
      "encan": 3117,
      "quedado": 3118,
      "lec": 3119,
      "pelícu": 3120,
      "##arrol": 3121,
      "##empos": 3122,
      "Estamos": 3123,
      "##óm": 3124,
      "##turas": 3125,
      "Cuán": 3126,
      "##tará": 3127,
      "Jacob": 3128,
      "Isaías": 3129,
      "##ónimo": 3130,
      "##iado": 3131,
      "iba": 3132,
      "##xto": 3133,
      "##inar": 3134,
      "salir": 3135,
      "respeto": 3136,
      "esté": 3137,
      "horas": 3138,
      "celeb": 3139,
      "##él": 3140,
      "escla": 3141,
      "nombres": 3142,
      "##tidos": 3143,
      "gracia": 3144,
      "vuelta": 3145,
      "##val": 3146,
      "##th": 3147,
      "enter": 3148,
      "##edad": 3149,
      "##ác": 3150,
      "##ÑOR": 3151,
      "Cam": 3152,
      "SEÑOR": 3153,
      "##tada": 3154,
      "venido": 3155,
      "##eas": 3156,
      "##íso": 3157,
      "profeta": 3158,
      "encima": 3159,
      "habrá": 3160,
      "pueblos": 3161,
      "##tancia": 3162,
      "ech": 3163,
      "realidad": 3164,
      "suficiente": 3165,
      "oy": 3166,
      "haya": 3167,
      "clas": 3168,
      "envió": 3169,
      "predic": 3170,
      "Col": 3171,
      "blan": 3172,
      "bene": 3173,
      "Tienes": 3174,
      "##ite": 3175,
      "##zan": 3176,
      "##ecu": 3177,
      "come": 3178,
      "dieron": 3179,
      "##tific": 3180,
      "escrito": 3181,
      "Vol": 3182,
      "vio": 3183,
      "form": 3184,
      "estrel": 3185,
      "oír": 3186,
      "pri": 3187,
      "causa": 3188,
      "##OS": 3189,
      "profes": 3190,
      "Mientras": 3191,
      "##tí": 3192,
      "##tural": 3193,
      "32": 3194,
      "ban": 3195,
      "##gro": 3196,
      "tiempos": 3197,
      "##gl": 3198,
      "profetas": 3199,
      "##ell": 3200,
      "##turo": 3201,
      "temp": 3202,
      "##ede": 3203,
      "falta": 3204,
      "##ju": 3205,
      "Os": 3206,
      "##omón": 3207,
      "nie": 3208,
      "ocas": 3209,
      "##cito": 3210,
      "alguna": 3211,
      "último": 3212,
      "pus": 3213,
      "ninguno": 3214,
      "esfuer": 3215,
      "conse": 3216,
      "cub": 3217,
      "existen": 3218,
      "convier": 3219,
      "Cuáles": 3220,
      "hogar": 3221,
      "Escrituras": 3222,
      "dará": 3223,
      "##itantes": 3224,
      "engañ": 3225,
      "##éc": 3226,
      "posi": 3227,
      "asegu": 3228,
      "caracter": 3229,
      "record": 3230,
      "consegu": 3231,
      "propós": 3232,
      "árboles": 3233,
      "##rás": 3234,
      "pasos": 3235,
      "##izás": 3236,
      "##ile": 3237,
      "##tiene": 3238,
      "env": 3239,
      "##gados": 3240,
      "queda": 3241,
      "Or": 3242,
      "leer": 3243,
      "Noé": 3244,
      "##ancia": 3245,
      "err": 3246,
      "Cap": 3247,
      "Gén": 3248,
      "Ben": 3249,
      "##cuen": 3250,
      "consider": 3251,
      "explic": 3252,
      "Ti": 3253,
      "##udo": 3254,
      "ases": 3255,
      "aband": 3256,
      "##cri": 3257,
      "encontró": 3258,
      "Vida": 3259,
      "nuevas": 3260,
      "##vis": 3261,
      "##ill": 3262,
      "naciones": 3263,
      "mejores": 3264,
      "prome": 3265,
      "prueba": 3266,
      "##trib": 3267,
      "conce": 3268,
      "##abl": 3269,
      "trib": 3270,
      "adel": 3271,
      "##tirse": 3272,
      "go": 3273,
      "realmente": 3274,
      "polí": 3275,
      "##tantes": 3276,
      "Dan": 3277,
      "util": 3278,
      "##tina": 3279,
      "##zco": 3280,
      "prob": 3281,
      "veo": 3282,
      "Salomón": 3283,
      "##ck": 3284,
      "salió": 3285,
      "ví": 3286,
      "##vin": 3287,
      "Ho": 3288,
      "rem": 3289,
      "##té": 3290,
      "secre": 3291,
      "##osotras": 3292,
      "##nas": 3293,
      "##ucristo": 3294,
      "##orte": 3295,
      "jue": 3296,
      "jef": 3297,
      "lad": 3298,
      "Jesucristo": 3299,
      "conoce": 3300,
      "pequeña": 3301,
      "problemas": 3302,
      "pare": 3303,
      "atre": 3304,
      "##aciones": 3305,
      "##cis": 3306,
      "refier": 3307,
      "##ienen": 3308,
      "Hu": 3309,
      "##ich": 3310,
      "resuci": 3311,
      "Ne": 3312,
      "vir": 3313,
      "##tino": 3314,
      "queremos": 3315,
      "##ices": 3316,
      "suelo": 3317,
      "Gra": 3318,
      "Allí": 3319,
      "caer": 3320,
      "Cons": 3321,
      "pena": 3322,
      "enviado": 3323,
      "##terior": 3324,
      "##iesta": 3325,
      "tamb": 3326,
      "escribió": 3327,
      "demos": 3328,
      "separ": 3329,
      "Corin": 3330,
      "encuentran": 3331,
      "hablando": 3332,
      "cuidado": 3333,
      "contar": 3334,
      "imágenes": 3335,
      "##rados": 3336,
      "existe": 3337,
      "guar": 3338,
      "sorp": 3339,
      "##ídos": 3340,
      "##ecido": 3341,
      "demas": 3342,
      "ido": 3343,
      "libre": 3344,
      "##tieron": 3345,
      "además": 3346,
      "##gamos": 3347,
      "piens": 3348,
      "##lam": 3349,
      "##paña": 3350,
      "fá": 3351,
      "##cial": 3352,
      "desob": 3353,
      "##uente": 3354,
      "##trimonio": 3355,
      "templo": 3356,
      "Faraón": 3357,
      "Mon": 3358,
      "aver": 3359,
      "##hn": 3360,
      "haga": 3361,
      "campo": 3362,
      "Quiero": 3363,
      "##ase": 3364,
      "interes": 3365,
      "##ug": 3366,
      "Según": 3367,
      "versículo": 3368,
      "dan": 3369,
      "convir": 3370,
      "Quiénes": 3371,
      "países": 3372,
      "edi": 3373,
      "199": 3374,
      "pensar": 3375,
      "respuesta": 3376,
      "34": 3377,
      "##iga": 3378,
      "siervo": 3379,
      "testigos": 3380,
      "domin": 3381,
      "##óg": 3382,
      "partes": 3383,
      "nuestras": 3384,
      "viento": 3385,
      "futuro": 3386,
      "ens": 3387,
      "##cidad": 3388,
      "##rio": 3389,
      "Estos": 3390,
      "confianza": 3391,
      "puertas": 3392,
      "comien": 3393,
      "sigue": 3394,
      "##ám": 3395,
      "ri": 3396,
      "desarrol": 3397,
      "debería": 3398,
      "Fel": 3399,
      "##ome": 3400,
      "hará": 3401,
      "épo": 3402,
      "hambre": 3403,
      "descub": 3404,
      "libros": 3405,
      "justicia": 3406,
      "cir": 3407,
      "Hombre": 3408,
      "##omas": 3409,
      "##tán": 3410,
      "oportun": 3411,
      "preocup": 3412,
      "somb": 3413,
      "##ire": 3414,
      "##eño": 3415,
      "conden": 3416,
      "hub": 3417,
      "Génesis": 3418,
      "##rero": 3419,
      "198": 3420,
      "logr": 3421,
      "relación": 3422,
      "casi": 3423,
      "pecadores": 3424,
      "##clam": 3425,
      "hue": 3426,
      "##encias": 3427,
      "Ro": 3428,
      "pueda": 3429,
      "llega": 3430,
      "##ivers": 3431,
      "##ería": 3432,
      "refer": 3433,
      "casas": 3434,
      "trabajar": 3435,
      "##uye": 3436,
      "doy": 3437,
      "sacri": 3438,
      "testim": 3439,
      "Quieres": 3440,
      "##ciente": 3441,
      "##eñ": 3442,
      "##isa": 3443,
      "Salmo": 3444,
      "tendrá": 3445,
      "vuestros": 3446,
      "oc": 3447,
      "Corintios": 3448,
      "##bilidad": 3449,
      "misericordioso": 3450,
      "##cientes": 3451,
      "35": 3452,
      "ves": 3453,
      "##idores": 3454,
      "cur": 3455,
      "aguas": 3456,
      "buenos": 3457,
      "lan": 3458,
      "contes": 3459,
      "cualquiera": 3460,
      "Can": 3461,
      "Les": 3462,
      "esca": 3463,
      "##vimos": 3464,
      "##abilidad": 3465,
      "claro": 3466,
      "##ieran": 3467,
      "saben": 3468,
      "fo": 3469,
      "tenido": 3470,
      "cues": 3471,
      "##ída": 3472,
      "##lares": 3473,
      "acerc": 3474,
      "presencia": 3475,
      "esas": 3476,
      "estuvo": 3477,
      "miembros": 3478,
      "ocho": 3479,
      "##bu": 3480,
      "##aré": 3481,
      "pone": 3482,
      "deja": 3483,
      "##anas": 3484,
      "##atis": 3485,
      "declar": 3486,
      "calle": 3487,
      "enemigos": 3488,
      "llegaron": 3489,
      "tr": 3490,
      "##ísticas": 3491,
      "línea": 3492,
      "pud": 3493,
      "ta": 3494,
      "alto": 3495,
      "enfren": 3496,
      "represen": 3497,
      "hechos": 3498,
      "##ema": 3499,
      "primeros": 3500,
      "lenguaje": 3501,
      "##fi": 3502,
      "apóstoles": 3503,
      "ata": 3504,
      "habitantes": 3505,
      "comunidad": 3506,
      "##idamente": 3507,
      "##illa": 3508,
      "principio": 3509,
      "Cono": 3510,
      "gustaría": 3511,
      "perf": 3512,
      "##izar": 3513,
      "pose": 3514,
      "sum": 3515,
      "proy": 3516,
      "Confía": 3517,
      "fil": 3518,
      "habló": 3519,
      "Sh": 3520,
      "##ela": 3521,
      "entien": 3522,
      "eleg": 3523,
      "control": 3524,
      "esperanza": 3525,
      "Bar": 3526,
      "Durante": 3527,
      "ros": 3528,
      "##jus": 3529,
      "dici": 3530,
      "##terio": 3531,
      "ove": 3532,
      "resto": 3533,
      "distin": 3534,
      "##ares": 3535,
      "salud": 3536,
      "36": 3537,
      "##ide": 3538,
      "juicio": 3539,
      "gloria": 3540,
      "partir": 3541,
      "respecto": 3542,
      "Había": 3543,
      "Pod": 3544,
      "escritura": 3545,
      "!!!": 3546,
      "##ches": 3547,
      "mantener": 3548,
      "estr": 3549,
      "##cieron": 3550,
      "espera": 3551,
      "colo": 3552,
      "##ducación": 3553,
      "medida": 3554,
      "muestra": 3555,
      "To": 3556,
      "entra": 3557,
      "fa": 3558,
      "capítulo": 3559,
      "Val": 3560,
      "Será": 3561,
      "##tiles": 3562,
      "Tom": 3563,
      "Ve": 3564,
      "Ustedes": 3565,
      "dolor": 3566,
      "Cal": 3567,
      "##rigen": 3568,
      "##queda": 3569,
      "comprom": 3570,
      "justos": 3571,
      "202": 3572,
      "natural": 3573,
      "libertad": 3574,
      "##ki": 3575,
      "##dencia": 3576,
      "Ley": 3577,
      "arrepen": 3578,
      "pal": 3579,
      "puntos": 3580,
      "##íbl": 3581,
      "dueño": 3582,
      "##one": 3583,
      "decisión": 3584,
      "tema": 3585,
      "viaje": 3586,
      "Eres": 3587,
      "Rom": 3588,
      "mús": 3589,
      "##uro": 3590,
      "##adamente": 3591,
      "Nuestro": 3592,
      "##amá": 3593,
      "##poco": 3594,
      "##hh": 3595,
      "##dico": 3596,
      "##cto": 3597,
      "quieren": 3598,
      "recibir": 3599,
      "Ob": 3600,
      "pers": 3601,
      "público": 3602,
      "##duc": 3603,
      "dig": 3604,
      "daño": 3605,
      "peso": 3606,
      "Pr": 3607,
      "Estas": 3608,
      "##jado": 3609,
      "indi": 3610,
      "habría": 3611,
      "idea": 3612,
      "propósito": 3613,
      "##medad": 3614,
      "época": 3615,
      "##icamente": 3616,
      "habi": 3617,
      "opin": 3618,
      "sitio": 3619,
      "conoc": 3620,
      "Algunas": 3621,
      "buscando": 3622,
      "sob": 3623,
      "llu": 3624,
      "llamar": 3625,
      "segunda": 3626,
      "dices": 3627,
      "tambien": 3628,
      "hues": 3629,
      "##bas": 3630,
      "##cti": 3631,
      "##orme": 3632,
      "deseo": 3633,
      "enseñanza": 3634,
      "refle": 3635,
      "suyos": 3636,
      "últimos": 3637,
      "##ques": 3638,
      "temor": 3639,
      "##güen": 3640,
      "##jimo": 3641,
      "##verbios": 3642,
      "##quis": 3643,
      "pidió": 3644,
      "Ra": 3645,
      "añad": 3646,
      "##ial": 3647,
      "sería": 3648,
      "miles": 3649,
      "corres": 3650,
      "##ond": 3651,
      "##uerte": 3652,
      "gusta": 3653,
      "##tend": 3654,
      "podrá": 3655,
      "abandon": 3656,
      "rin": 3657,
      "Hechos": 3658,
      "malo": 3659,
      "uso": 3660,
      "##illas": 3661,
      "jam": 3662,
      "luch": 3663,
      "##icidad": 3664,
      "particip": 3665,
      "on": 3666,
      "vin": 3667,
      "organ": 3668,
      "pasó": 3669,
      "cabal": 3670,
      "río": 3671,
      "sel": 3672,
      "##úsqueda": 3673,
      "##endientes": 3674,
      "Estás": 3675,
      "##uti": 3676,
      "##fa": 3677,
      "##fes": 3678,
      "##AN": 3679,
      "beber": 3680,
      "dorm": 3681,
      "##iño": 3682,
      "tengas": 3683,
      "!.\"": 3684,
      "interpre": 3685,
      "semana": 3686,
      "##glés": 3687,
      "fl": 3688,
      "John": 3689,
      "Nueva": 3690,
      "satis": 3691,
      "suje": 3692,
      "##irse": 3693,
      "Estados": 3694,
      "##ulio": 3695,
      "presente": 3696,
      "cuál": 3697,
      "vuelve": 3698,
      "acu": 3699,
      "pido": 3700,
      "##rían": 3701,
      "pl": 3702,
      "##siones": 3703,
      "estén": 3704,
      "descar": 3705,
      "##var": 3706,
      "##ué": 3707,
      "espa": 3708,
      "##ículos": 3709,
      "mol": 3710,
      "##ss": 3711,
      "llor": 3712,
      "!,": 3713,
      "Lib": 3714,
      "ambos": 3715,
      "Mes": 3716,
      "tér": 3717,
      "bienes": 3718,
      "pequeños": 3719,
      "fácil": 3720,
      "tro": 3721,
      "##jó": 3722,
      "Proverbios": 3723,
      "##jan": 3724,
      "diablo": 3725,
      "descon": 3726,
      "imagen": 3727,
      "ovejas": 3728,
      "##ka": 3729,
      "##uelo": 3730,
      "ocu": 3731,
      "vivo": 3732,
      "Sobre": 3733,
      "##bel": 3734,
      "##rí": 3735,
      "##osición": 3736,
      "##inta": 3737,
      "Somos": 3738,
      "mun": 3739,
      "##pir": 3740,
      "prójimo": 3741,
      "esperar": 3742,
      "bor": 3743,
      "##uda": 3744,
      "##úl": 3745,
      "##enses": 3746,
      "cumple": 3747,
      "creación": 3748,
      "arro": 3749,
      "##zaron": 3750,
      "religión": 3751,
      "Samuel": 3752,
      "cargo": 3753,
      "mira": 3754,
      "acción": 3755,
      "Lev": 3756,
      "tes": 3757,
      "##onia": 3758,
      "poderos": 3759,
      "##pañol": 3760,
      "##ula": 3761,
      "sup": 3762,
      "##ender": 3763,
      "sos": 3764,
      "corr": 3765,
      "líder": 3766,
      "piedra": 3767,
      "gobern": 3768,
      "Era": 3769,
      "##__": 3770,
      "##tuvo": 3771,
      "jard": 3772,
      "##ájar": 3773,
      "abs": 3774,
      ".)": 3775,
      "##éu": 3776,
      "concl": 3777,
      "##irma": 3778,
      "##ts": 3779,
      "##pción": 3780,
      "sed": 3781,
      "tuyo": 3782,
      "bra": 3783,
      "Escuch": 3784,
      "##cier": 3785,
      "##dul": 3786,
      "castigo": 3787,
      "montaña": 3788,
      "Unidos": 3789,
      "pagar": 3790,
      "derecha": 3791,
      "Bo": 3792,
      "##cog": 3793,
      "matrimonio": 3794,
      "##vangel": 3795,
      "##oooo": 3796,
      "perder": 3797,
      "Bueno": 3798,
      "Antes": 3799,
      "nu": 3800,
      "tre": 3801,
      "##cin": 3802,
      "##tera": 3803,
      "hermana": 3804,
      "##ptiembre": 3805,
      "pedir": 3806,
      "Voy": 3807,
      "bur": 3808,
      "estable": 3809,
      "varios": 3810,
      "##truir": 3811,
      "##oro": 3812,
      "##torio": 3813,
      "'.": 3814,
      "evi": 3815,
      "##éndo": 3816,
      "apoyo": 3817,
      "adelante": 3818,
      "Fran": 3819,
      "##zados": 3820,
      "hijas": 3821,
      "##rimas": 3822,
      "salvar": 3823,
      "##icia": 3824,
      "##tadas": 3825,
      "estará": 3826,
      "##illo": 3827,
      "fras": 3828,
      "vemos": 3829,
      "##ivo": 3830,
      "197": 3831,
      "recib": 3832,
      "Dos": 3833,
      "có": 3834,
      "ór": 3835,
      "##osas": 3836,
      "Bien": 3837,
      "##ke": 3838,
      "estan": 3839,
      "##aravil": 3840,
      "dispon": 3841,
      "sois": 3842,
      "piezas": 3843,
      "ub": 3844,
      "Siempre": 3845,
      "##avidad": 3846,
      "num": 3847,
      "##ES": 3848,
      "##orada": 3849,
      "##inación": 3850,
      "##emor": 3851,
      "carne": 3852,
      "especial": 3853,
      "capaces": 3854,
      "sirve": 3855,
      "##talla": 3856,
      "Josué": 3857,
      "##ubes": 3858,
      "testimonio": 3859,
      "Día": 3860,
      "bíbl": 3861,
      "pen": 3862,
      "vie": 3863,
      "humanidad": 3864,
      "ado": 3865,
      "Hace": 3866,
      "##arón": 3867,
      "común": 3868,
      "Nombre": 3869,
      "2011": 3870,
      "busca": 3871,
      "puedan": 3872,
      "##éutico": 3873,
      "venir": 3874,
      "entend": 3875,
      "contigo": 3876,
      "espal": 3877,
      "próximo": 3878,
      "continuación": 3879,
      "vícti": 3880,
      "abajo": 3881,
      "mus": 3882,
      "##inado": 3883,
      "diferentes": 3884,
      "demonio": 3885,
      "incluso": 3886,
      "Nin": 3887,
      "##jeros": 3888,
      "44": 3889,
      "##eno": 3890,
      "##iosos": 3891,
      "silen": 3892,
      "problema": 3893,
      "búsqueda": 3894,
      "##imiento": 3895,
      "quedaron": 3896,
      "Pres": 3897,
      "##fica": 3898,
      "paraíso": 3899,
      "encuentro": 3900,
      "autoridad": 3901,
      "resultado": 3902,
      "avergon": 3903,
      "venta": 3904,
      "##vio": 3905,
      "##vech": 3906,
      "196": 3907,
      ".....": 3908,
      "familiar": 3909,
      "doce": 3910,
      "##taban": 3911,
      "##uce": 3912,
      "proteg": 3913,
      "cri": 3914,
      "perdido": 3915,
      "enseñanzas": 3916,
      "marido": 3917,
      "Muchos": 3918,
      "Tiene": 3919,
      "##ese": 3920,
      "sabía": 3921,
      "interior": 3922,
      "##ciedad": 3923,
      "España": 3924,
      "##LA": 3925,
      "frutos": 3926,
      "Daniel": 3927,
      "##digo": 3928,
      "tampoco": 3929,
      "enfermedad": 3930,
      "00": 3931,
      "idi": 3932,
      "luna": 3933,
      "dejo": 3934,
      "##idente": 3935,
      "tenga": 3936,
      "estrellas": 3937,
      "lág": 3938,
      "dep": 3939,
      "##echo": 3940,
      "bel": 3941,
      "má": 3942,
      "hubo": 3943,
      "Inter": 3944,
      "dispuestos": 3945,
      "situación": 3946,
      "..": 3947,
      "Mal": 3948,
      "exis": 3949,
      "aire": 3950,
      "tri": 3951,
      "sex": 3952,
      "tama": 3953,
      "Emp": 3954,
      "nación": 3955,
      "inglés": 3956,
      "volv": 3957,
      "llamó": 3958,
      "##umen": 3959,
      "##ER": 3960,
      "##ple": 3961,
      "##tec": 3962,
      "serie": 3963,
      "##ensión": 3964,
      "##AD": 3965,
      "Estado": 3966,
      "Alguien": 3967,
      "##menéutico": 3968,
      "honor": 3969,
      "sola": 3970,
      "##fo": 3971,
      "##aría": 3972,
      "37": 3973,
      "condición": 3974,
      "Verdad": 3975,
      "pronto": 3976,
      "##éro": 3977,
      "Hermenéutico": 3978,
      "##jero": 3979,
      "maldición": 3980,
      "az": 3981,
      "##úa": 3982,
      "prác": 3983,
      "191": 3984,
      "2017": 3985,
      "golpe": 3986,
      "Están": 3987,
      "##her": 3988,
      "propios": 3989,
      "##ficios": 3990,
      "falle": 3991,
      "entró": 3992,
      "##táculo": 3993,
      "siente": 3994,
      "sucedió": 3995,
      "antigu": 3996,
      "Del": 3997,
      "##onos": 3998,
      "##tate": 3999,
      "lab": 4000,
      "creado": 4001,
      "cumplió": 4002,
      "compañero": 4003,
      "quiso": 4004,
      "seguidores": 4005,
      "trabajando": 4006,
      "Aarón": 4007,
      "bol": 4008,
      "##éndose": 4009,
      "Resurrección": 4010,
      "apoy": 4011,
      "don": 4012,
      "The": 4013,
      "##mej": 4014,
      "afec": 4015,
      "hacía": 4016,
      "Pregun": 4017,
      "##güenza": 4018,
      "Tor": 4019,
      "Dej": 4020,
      "expresión": 4021,
      "sentimientos": 4022,
      "?...": 4023,
      "Prim": 4024,
      "juego": 4025,
      "antepas": 4026,
      "Escritura": 4027,
      "artículo": 4028,
      "Da": 4029,
      "pájar": 4030,
      "vieron": 4031,
      "##gación": 4032,
      "##**": 4033,
      "##dito": 4034,
      "hered": 4035,
      "alta": 4036,
      "digas": 4037,
      "confiar": 4038,
      "características": 4039,
      "45": 4040,
      "Án": 4041,
      "mila": 4042,
      "dejado": 4043,
      "monte": 4044,
      "temas": 4045,
      "maravil": 4046,
      "asus": 4047,
      "debajo": 4048,
      "##gros": 4049,
      "Fin": 4050,
      "abra": 4051,
      "##rigin": 4052,
      "funcion": 4053,
      "##tivas": 4054,
      "anci": 4055,
      "nacimiento": 4056,
      "culp": 4057,
      "gobierno": 4058,
      "%.": 4059,
      "Trad": 4060,
      "dul": 4061,
      "rob": 4062,
      "##tencia": 4063,
      "viol": 4064,
      "Muchas": 4065,
      "conseguir": 4066,
      "##ian": 4067,
      "aso": 4068,
      "2018": 4069,
      "nubes": 4070,
      "##cados": 4071,
      "texto": 4072,
      "Deb": 4073,
      "pusieron": 4074,
      "Nunca": 4075,
      "##eos": 4076,
      "crees": 4077,
      "abier": 4078,
      "##...]": 4079,
      "equipo": 4080,
      "película": 4081,
      "errores": 4082,
      "##rea": 4083,
      "pobres": 4084,
      "significado": 4085,
      "realizar": 4086,
      "lis": 4087,
      "bauti": 4088,
      "##ira": 4089,
      "quedo": 4090,
      "##abor": 4091,
      "papel": 4092,
      "##zquier": 4093,
      "alim": 4094,
      "viven": 4095,
      "cuentan": 4096,
      "Tes": 4097,
      "ejer": 4098,
      "éx": 4099,
      "##tero": 4100,
      "conj": 4101,
      "mez": 4102,
      "pertenece": 4103,
      "respuestas": 4104,
      "secreto": 4105,
      "bon": 4106,
      "ciento": 4107,
      "##riba": 4108,
      "##ásico": 4109,
      "100": 4110,
      "números": 4111,
      "recibido": 4112,
      "tenéis": 4113,
      "antepasados": 4114,
      "##ibles": 4115,
      "!!": 4116,
      "rebel": 4117,
      "recor": 4118,
      "##zada": 4119,
      "consec": 4120,
      "nació": 4121,
      "regis": 4122,
      "bendición": 4123,
      "##puesto": 4124,
      "Sabes": 4125,
      "Han": 4126,
      "ocul": 4127,
      "##ramos": 4128,
      "##ieb": 4129,
      "##curidad": 4130,
      "##amas": 4131,
      "inte": 4132,
      "##viembre": 4133,
      "ejér": 4134,
      "Ter": 4135,
      "compla": 4136,
      "verdadero": 4137,
      "cuesti": 4138,
      "Ale": 4139,
      "cad": 4140,
      "ofici": 4141,
      "tí": 4142,
      "##esión": 4143,
      "oportunidad": 4144,
      "##aa": 4145,
      "##ilo": 4146,
      "##II": 4147,
      "##deci": 4148,
      "juntos": 4149,
      "vive": 4150,
      "cariño": 4151,
      "correcto": 4152,
      "##truy": 4153,
      "Quienes": 4154,
      "mismas": 4155,
      "compas": 4156,
      "2012": 4157,
      "Oh": 4158,
      "tin": 4159,
      "##uencia": 4160,
      "##pan": 4161,
      "##termin": 4162,
      "creemos": 4163,
      "caída": 4164,
      "toma": 4165,
      "fiesta": 4166,
      "Conse": 4167,
      "construcción": 4168,
      "fieles": 4169,
      "refiere": 4170,
      "hubiera": 4171,
      "sienten": 4172,
      "Sol": 4173,
      "cien": 4174,
      "multi": 4175,
      "mencion": 4176,
      "convirtió": 4177,
      "##tia": 4178,
      "##emías": 4179,
      "aprend": 4180,
      "escuela": 4181,
      "tamaño": 4182,
      "Mas": 4183,
      "hagas": 4184,
      "hermos": 4185,
      "vein": 4186,
      "mill": 4187,
      "culpa": 4188,
      "produc": 4189,
      "38": 4190,
      "aun": 4191,
      "desen": 4192,
      "##ayo": 4193,
      "enseñado": 4194,
      "casti": 4195,
      "tris": 4196,
      "##ridad": 4197,
      "##ectos": 4198,
      "enseñó": 4199,
      "##denes": 4200,
      "Ese": 4201,
      "extraño": 4202,
      "sacerdotes": 4203,
      "maestros": 4204,
      "septiembre": 4205,
      "##tarios": 4206,
      "darle": 4207,
      "necesario": 4208,
      "41": 4209,
      "##??": 4210,
      "##oda": 4211,
      "##vido": 4212,
      "canciones": 4213,
      "disfrutar": 4214,
      "##tales": 4215,
      "conocido": 4216,
      "Creo": 4217,
      "origen": 4218,
      "##elo": 4219,
      "Inf": 4220,
      "Santa": 4221,
      "centro": 4222,
      "Bus": 4223,
      "Dijo": 4224,
      "bal": 4225,
      "##ienda": 4226,
      "##ticias": 4227,
      "debes": 4228,
      "cuentas": 4229,
      "2019": 4230,
      "responder": 4231,
      "##gul": 4232,
      "[...]": 4233,
      "emo": 4234,
      "lar": 4235,
      "##rac": 4236,
      "desierto": 4237,
      "promesa": 4238,
      "##dulidad": 4239,
      "##yó": 4240,
      "##abel": 4241,
      "llevo": 4242,
      "español": 4243,
      "2016": 4244,
      "encontramos": 4245,
      "blanco": 4246,
      "Gracias": 4247,
      "Aquel": 4248,
      "izquier": 4249,
      "##ini": 4250,
      "Capítulo": 4251,
      "##ger": 4252,
      "Mira": 4253,
      "guard": 4254,
      "empezó": 4255,
      "entrada": 4256,
      ",...": 4257,
      "##tid": 4258,
      "##fac": 4259,
      "lágrimas": 4260,
      "Gal": 4261,
      "vidas": 4262,
      "195": 4263,
      "##ific": 4264,
      "sentir": 4265,
      "trono": 4266,
      "Mir": 4267,
      "Madre": 4268,
      "noches": 4269,
      "silencio": 4270,
      "##ondo": 4271,
      "semej": 4272,
      "siguió": 4273,
      "abund": 4274,
      "seguro": 4275,
      "empres": 4276,
      "exac": 4277,
      "orar": 4278,
      "obstante": 4279,
      "rique": 4280,
      "dia": 4281,
      "mater": 4282,
      "objetivo": 4283,
      "demasiado": 4284,
      "Ángel": 4285,
      "Jon": 4286,
      "Tras": 4287,
      "quedar": 4288,
      "NO": 4289,
      "##EN": 4290,
      "direc": 4291,
      "##ign": 4292,
      "##uto": 4293,
      "##aso": 4294,
      "##dial": 4295,
      "compr": 4296,
      "sens": 4297,
      "##ila": 4298,
      "acos": 4299,
      "general": 4300,
      "consejos": 4301,
      "bes": 4302,
      "Segu": 4303,
      "evid": 4304,
      "desta": 4305,
      "descen": 4306,
      "tuvieron": 4307,
      "Judá": 4308,
      "cla": 4309,
      "supon": 4310,
      "194": 4311,
      "conozco": 4312,
      "oscuridad": 4313,
      "Recuer": 4314,
      "órdenes": 4315,
      "39": 4316,
      "julio": 4317,
      "##ko": 4318,
      "##orn": 4319,
      "niña": 4320,
      "región": 4321,
      "levantó": 4322,
      "huesos": 4323,
      "pros": 4324,
      "observ": 4325,
      "##tín": 4326,
      "##dieron": 4327,
      "destino": 4328,
      "hacerse": 4329,
      "##tente": 4330,
      "##áb": 4331,
      "conciencia": 4332,
      "quin": 4333,
      "##breos": 4334,
      "Estu": 4335,
      "aman": 4336,
      "##ieblas": 4337,
      "##gará": 4338,
      "desaf": 4339,
      "diciembre": 4340,
      "lími": 4341,
      "manifes": 4342,
      "faraón": 4343,
      "siste": 4344,
      "exclam": 4345,
      "pregunto": 4346,
      "42": 4347,
      "fund": 4348,
      "rápidamente": 4349,
      "fan": 4350,
      "##cón": 4351,
      "Marcos": 4352,
      "derechos": 4353,
      "incredulidad": 4354,
      "desobed": 4355,
      "evitar": 4356,
      "propiedad": 4357,
      "clase": 4358,
      "Mesías": 4359,
      "##utos": 4360,
      "##cida": 4361,
      "##ime": 4362,
      "lista": 4363,
      "##gia": 4364,
      "cár": 4365,
      "Incl": 4366,
      "!.": 4367,
      "Vir": 4368,
      "ciencia": 4369,
      "##iver": 4370,
      "##osque": 4371,
      "##tim": 4372,
      "decisiones": 4373,
      "vacío": 4374,
      "tel": 4375,
      "guía": 4376,
      "2009": 4377,
      "única": 4378,
      "relacion": 4379,
      "zona": 4380,
      "##alá": 4381,
      "misión": 4382,
      "oscu": 4383,
      "mirada": 4384,
      "naturaleza": 4385,
      "título": 4386,
      "##tísimo": 4387,
      "##).": 4388,
      "señora": 4389,
      "color": 4390,
      "dob": 4391,
      "firm": 4392,
      "##gando": 4393,
      "quiera": 4394,
      "dejes": 4395,
      "ayudará": 4396,
      "jamás": 4397,
      "vid": 4398,
      "aut": 4399,
      "Amor": 4400,
      "Sig": 4401,
      "homb": 4402,
      "norte": 4403,
      "red": 4404,
      "conte": 4405,
      "vergüenza": 4406,
      "emple": 4407,
      "vuestro": 4408,
      "alcanzar": 4409,
      "60": 4410,
      "##ielo": 4411,
      "2015": 4412,
      "quiénes": 4413,
      "equivo": 4414,
      "pareja": 4415,
      "##taciones": 4416,
      "injus": 4417,
      "nacido": 4418,
      "cárcel": 4419,
      "vosotras": 4420,
      "##ital": 4421,
      "##lu": 4422,
      "##ual": 4423,
      "activ": 4424,
      "sale": 4425,
      "llevaron": 4426,
      "montón": 4427,
      "apareció": 4428,
      "lim": 4429,
      "Éx": 4430,
      "salieron": 4431,
      "quieras": 4432,
      "reyes": 4433,
      "sold": 4434,
      "pensamientos": 4435,
      "Casa": 4436,
      "jefe": 4437,
      "espacio": 4438,
      "Do": 4439,
      "Vosotros": 4440,
      "##pó": 4441,
      "escog": 4442,
      "fruto": 4443,
      "ocurre": 4444,
      "sacerdote": 4445,
      "contestó": 4446,
      "Tal": 4447,
      "origin": 4448,
      "tir": 4449,
      "##arle": 4450,
      "2010": 4451,
      "plata": 4452,
      "jardín": 4453,
      "veci": 4454,
      "##aria": 4455,
      "Be": 4456,
      "Navidad": 4457,
      "Pon": 4458,
      ".......": 4459,
      "siglo": 4460,
      "música": 4461,
      "##bles": 4462,
      "##rez": 4463,
      "##izado": 4464,
      "educación": 4465,
      "##rin": 4466,
      "##xim": 4467,
      "##raciones": 4468,
      "desper": 4469,
      "recu": 4470,
      "Ciudad": 4471,
      "##tamento": 4472,
      "besti": 4473,
      "obtener": 4474,
      "culto": 4475,
      "43": 4476,
      "dur": 4477,
      "mamá": 4478,
      "invo": 4479,
      "Pla": 4480,
      "gal": 4481,
      "elección": 4482,
      "espada": 4483,
      "2008": 4484,
      "justo": 4485,
      "Nuevo": 4486,
      "apóstol": 4487,
      "héro": 4488,
      "dieci": 4489,
      "exten": 4490,
      "lleno": 4491,
      "éstos": 4492,
      "ja": 4493,
      "##alte": 4494,
      "##alla": 4495,
      "sabios": 4496,
      "Die": 4497,
      "Hi": 4498,
      "corre": 4499,
      "tinieblas": 4500,
      "##éf": 4501,
      "##ines": 4502,
      "ga": 4503,
      "suyo": 4504,
      "##gentina": 4505,
      "2013": 4506,
      "##trado": 4507,
      "desh": 4508,
      "Prof": 4509,
      "Otros": 4510,
      "##iados": 4511,
      "hagan": 4512,
      "##uesto": 4513,
      "lugares": 4514,
      "escribir": 4515,
      "sagr": 4516,
      "regreso": 4517,
      "rostro": 4518,
      "em": 4519,
      "dev": 4520,
      "##tario": 4521,
      "auto": 4522,
      "Cuen": 4523,
      "nar": 4524,
      "patr": 4525,
      "interés": 4526,
      "capacidad": 4527,
      "volverá": 4528,
      "Haz": 4529,
      "cob": 4530,
      "infierno": 4531,
      "página": 4532,
      "asis": 4533,
      "recur": 4534,
      "cambiar": 4535,
      "recibió": 4536,
      "murieron": 4537,
      "lluvia": 4538,
      "enam": 4539,
      "vayas": 4540,
      "junio": 4541,
      "##vado": 4542,
      "devol": 4543,
      "##culos": 4544,
      "acon": 4545,
      "personal": 4546,
      "consi": 4547,
      "Saúl": 4548,
      "vendrá": 4549,
      "completo": 4550,
      "##ick": 4551,
      "Quizás": 4552,
      "vayan": 4553,
      "población": 4554,
      "Romanos": 4555,
      "Gen": 4556,
      "ag": 4557,
      "fecha": 4558,
      "sigu": 4559,
      "##tumb": 4560,
      "adecu": 4561,
      "experiencia": 4562,
      "Cielo": 4563,
      "Mun": 4564,
      "iden": 4565,
      "piel": 4566,
      "##trod": 4567,
      "Esa": 4568,
      "amado": 4569,
      "Solo": 4570,
      "Traducción": 4571,
      "##enas": 4572,
      "##ciles": 4573,
      "Cuid": 4574,
      "ocasiones": 4575,
      "oídos": 4576,
      "tur": 4577,
      "instr": 4578,
      "primeras": 4579,
      "Pol": 4580,
      "proceso": 4581,
      "crea": 4582,
      "##ular": 4583,
      "páginas": 4584,
      "Sur": 4585,
      "suel": 4586,
      "##tien": 4587,
      "cercan": 4588,
      "avan": 4589,
      "##ok": 4590,
      "##úp": 4591,
      "convers": 4592,
      "acciones": 4593,
      "hom": 4594,
      "##día": 4595,
      "descan": 4596,
      "##grá": 4597,
      "alguno": 4598,
      "estarán": 4599,
      "Mundo": 4600,
      "Tres": 4601,
      "].": 4602,
      "recog": 4603,
      "escucha": 4604,
      "eterna": 4605,
      "##yy": 4606,
      "simp": 4607,
      "inici": 4608,
      "sociedad": 4609,
      "podían": 4610,
      "193": 4611,
      "Ins": 4612,
      "fueran": 4613,
      "Toda": 4614,
      "##ptimo": 4615,
      "Euro": 4616,
      "Sue": 4617,
      "mía": 4618,
      "##fra": 4619,
      "enalte": 4620,
      "alum": 4621,
      "cuad": 4622,
      "apre": 4623,
      "abrió": 4624,
      "##ándole": 4625,
      "derro": 4626,
      "Cuánto": 4627,
      "convierte": 4628,
      "alimento": 4629,
      "gentes": 4630,
      "##eran": 4631,
      "eno": 4632,
      "Cual": 4633,
      "constitu": 4634,
      "pobre": 4635,
      "aparece": 4636,
      "adoración": 4637,
      "perfec": 4638,
      "##uerto": 4639,
      "##garon": 4640,
      "pele": 4641,
      "formas": 4642,
      "terren": 4643,
      "olvides": 4644,
      "congre": 4645,
      "##éase": 4646,
      "##AR": 4647,
      "enero": 4648,
      "daré": 4649,
      "Jeremías": 4650,
      "mostrar": 4651,
      "huevos": 4652,
      "Pu": 4653,
      "##ph": 4654,
      "divid": 4655,
      "leg": 4656,
      "felicidad": 4657,
      "cruz": 4658,
      "éxito": 4659,
      "##amb": 4660,
      "quizás": 4661,
      "admi": 4662,
      "afirma": 4663,
      "Fuer": 4664,
      "És": 4665,
      "##ríamos": 4666,
      "tomó": 4667,
      "enemigo": 4668,
      "Cielos": 4669,
      "##AS": 4670,
      "regal": 4671,
      "recuper": 4672,
      "noviembre": 4673,
      "esposo": 4674,
      "nuevos": 4675,
      "preguntar": 4676,
      "baja": 4677,
      "descendientes": 4678,
      "versión": 4679,
      "Isaac": 4680,
      "dispuesto": 4681,
      "exclamó": 4682,
      "Apo": 4683,
      "##ry": 4684,
      "##ígen": 4685,
      "sepul": 4686,
      "hablan": 4687,
      "llena": 4688,
      "##ítulos": 4689,
      "Dé": 4690,
      "há": 4691,
      "##ífico": 4692,
      "##quél": 4693,
      "felices": 4694,
      "maestro": 4695,
      "Fe": 4696,
      "Timo": 4697,
      "garan": 4698,
      "detal": 4699,
      "recha": 4700,
      "limp": 4701,
      "totalmente": 4702,
      "rode": 4703,
      "millones": 4704,
      "##kin": 4705,
      "##mbo": 4706,
      "ancianos": 4707,
      "Bel": 4708,
      "##ulo": 4709,
      "conta": 4710,
      "altura": 4711,
      "necesit": 4712,
      "treinta": 4713,
      "amo": 4714,
      "##ór": 4715,
      "prisión": 4716,
      "##torias": 4717,
      "##ológ": 4718,
      "movi": 4719,
      "Perú": 4720,
      "diferencia": 4721,
      "Pens": 4722,
      "Va": 4723,
      "##esía": 4724,
      "##biles": 4725,
      "Elías": 4726,
      "prem": 4727,
      "podrán": 4728,
      "existencia": 4729,
      "Vuel": 4730,
      "##ze": 4731,
      "##ecían": 4732,
      "##oder": 4733,
      "malos": 4734,
      "march": 4735,
      "posibilidad": 4736,
      "##vangelio": 4737,
      "triste": 4738,
      "##oría": 4739,
      "espi": 4740,
      "##cientos": 4741,
      "2014": 4742,
      "refug": 4743,
      "Cru": 4744,
      "Mé": 4745,
      "atrib": 4746,
      "egip": 4747,
      "pul": 4748,
      "deten": 4749,
      "##guas": 4750,
      "comprar": 4751,
      "##curso": 4752,
      "habitación": 4753,
      "Guer": 4754,
      "##cre": 4755,
      "##fr": 4756,
      "quis": 4757,
      "arriba": 4758,
      "2020": 4759,
      "Min": 4760,
      "plen": 4761,
      "##ex": 4762,
      "##nt": 4763,
      "reún": 4764,
      "pelo": 4765,
      "Sen": 4766,
      "##tis": 4767,
      "##tus": 4768,
      "##erva": 4769,
      "##bia": 4770,
      "seguridad": 4771,
      "piensan": 4772,
      ".[": 4773,
      "Mil": 4774,
      "##inó": 4775,
      "anterior": 4776,
      "vengan": 4777,
      "Oj": 4778,
      "menor": 4779,
      "hojas": 4780,
      "cuarenta": 4781,
      "política": 4782,
      "bril": 4783,
      "hier": 4784,
      "líderes": 4785,
      "absol": 4786,
      "estudio": 4787,
      "pelig": 4788,
      "##tiendo": 4789,
      "##ped": 4790,
      "##osos": 4791,
      "deje": 4792,
      "##leza": 4793,
      "simil": 4794,
      "viviendo": 4795,
      "##ablemente": 4796,
      "foto": 4797,
      "conjunto": 4798,
      "EL": 4799,
      "##rera": 4800,
      "##mon": 4801,
      "##arlos": 4802,
      "salva": 4803,
      "Yah": 4804,
      "##grafía": 4805,
      "sombra": 4806,
      "Éxodo": 4807,
      "web": 4808,
      "##jados": 4809,
      "##tubre": 4810,
      "hacían": 4811,
      "brazos": 4812,
      "Cuidado": 4813,
      "Ol": 4814,
      "##gus": 4815,
      "##puls": 4816,
      "izquierda": 4817,
      "sistema": 4818,
      ".:": 4819,
      "Roma": 4820,
      "amena": 4821,
      "and": 4822,
      "##ave": 4823,
      "exposición": 4824,
      "pudo": 4825,
      "permite": 4826,
      "Timoteo": 4827,
      "santo": 4828,
      "##dida": 4829,
      "##tudes": 4830,
      "sobrevi": 4831,
      "mayoría": 4832,
      "pertenecen": 4833,
      "Luis": 4834,
      "##eman": 4835,
      "casos": 4836,
      "##titud": 4837,
      "humillado": 4838,
      "Sólo": 4839,
      "dirección": 4840,
      "acaso": 4841,
      "55": 4842,
      "econ": 4843,
      "##sis": 4844,
      "##ientas": 4845,
      "confía": 4846,
      "ésta": 4847,
      "(...": 4848,
      "##eme": 4849,
      "ejemp": 4850,
      "Mor": 4851,
      "##años": 4852,
      "##món": 4853,
      "##ustr": 4854,
      "escon": 4855,
      "mala": 4856,
      "Mujer": 4857,
      "Hebreos": 4858,
      "Herman": 4859,
      "Cris": 4860,
      "Efes": 4861,
      "Job": 4862,
      "##nes": 4863,
      "eng": 4864,
      "##uestos": 4865,
      "libres": 4866,
      "Comen": 4867,
      "Ahí": 4868,
      "incon": 4869,
      "##iverso": 4870,
      "Jue": 4871,
      "ojo": 4872,
      "##chi": 4873,
      "acus": 4874,
      "necesidad": 4875,
      "última": 4876,
      "tribu": 4877,
      "##fas": 4878,
      "paciencia": 4879,
      "torno": 4880,
      "Feliz": 4881,
      "Th": 4882,
      "ace": 4883,
      "##ciales": 4884,
      "inde": 4885,
      "menti": 4886,
      "isla": 4887,
      "tendrán": 4888,
      "compasión": 4889,
      "ES": 4890,
      "fuente": 4891,
      "##riendo": 4892,
      "##ale": 4893,
      "##inidad": 4894,
      "anunci": 4895,
      "##tades": 4896,
      "vaya": 4897,
      "cel": 4898,
      "efec": 4899,
      "odi": 4900,
      "##quer": 4901,
      "Enseñ": 4902,
      "##isteos": 4903,
      "compañía": 4904,
      "etern": 4905,
      "espalda": 4906,
      "Mad": 4907,
      "fra": 4908,
      "##aste": 4909,
      "##arla": 4910,
      "quede": 4911,
      "precio": 4912,
      "vale": 4913,
      "Argentina": 4914,
      "memor": 4915,
      "tec": 4916,
      "##timos": 4917,
      "pocos": 4918,
      "verdadera": 4919,
      "acercó": 4920,
      "leyes": 4921,
      "##posición": 4922,
      "bastante": 4923,
      "70": 4924,
      "vig": 4925,
      "nivel": 4926,
      "##tivamente": 4927,
      "tercera": 4928,
      "películas": 4929,
      "##iversidad": 4930,
      "48": 4931,
      "anun": 4932,
      "obede": 4933,
      "embara": 4934,
      "Maes": 4935,
      "madera": 4936,
      "correspon": 4937,
      "##ong": 4938,
      "##rito": 4939,
      "destin": 4940,
      "##tración": 4941,
      "batalla": 4942,
      "valores": 4943,
      "##cepto": 4944,
      "grupos": 4945,
      "##icía": 4946,
      "diga": 4947,
      "espero": 4948,
      "##izo": 4949,
      "##gosto": 4950,
      "exactamente": 4951,
      "##zca": 4952,
      "##ON": 4953,
      "##enda": 4954,
      "repar": 4955,
      "presidente": 4956,
      "minis": 4957,
      "ocasión": 4958,
      "jur": 4959,
      "lección": 4960,
      "##ól": 4961,
      "debido": 4962,
      "determin": 4963,
      "desemp": 4964,
      "##capa": 4965,
      "extre": 4966,
      "despre": 4967,
      "Puede": 4968,
      "ofrecer": 4969,
      "espectáculo": 4970,
      "temporada": 4971,
      "dormir": 4972,
      "Cha": 4973,
      "Sé": 4974,
      "##ejo": 4975,
      "##mento": 4976,
      "seas": 4977,
      "##diciones": 4978,
      "podido": 4979,
      "comprender": 4980,
      "aprovech": 4981,
      "supuesto": 4982,
      "llamada": 4983,
      "carta": 4984,
      "despid": 4985,
      "ordenó": 4986,
      "Quer": 4987,
      "##net": 4988,
      "entregó": 4989,
      "propias": 4990,
      "##minos": 4991,
      "varias": 4992,
      "Miseric": 4993,
      "Jus": 4994,
      "##endiente": 4995,
      "animal": 4996,
      "doc": 4997,
      "pide": 4998,
      "##ántate": 4999,
      "impres": 5000,
      "pond": 5001,
      "aquellas": 5002,
      "pequeñas": 5003,
      "Efesios": 5004,
      "Gob": 5005,
      "##ork": 5006,
      "persegu": 5007,
      "popu": 5008,
      "quedarse": 5009,
      "estuvieron": 5010,
      "Sabemos": 5011,
      "ejército": 5012,
      "Ej": 5013,
      "##ude": 5014,
      "##arte": 5015,
      "excel": 5016,
      "And": 5017,
      "dirigió": 5018,
      "frase": 5019,
      "numeros": 5020,
      "Éste": 5021,
      "##tés": 5022,
      "##gada": 5023,
      "##ye": 5024,
      "Tenemos": 5025,
      "motivo": 5026,
      "ofrece": 5027,
      "estudiar": 5028,
      "Wik": 5029,
      "##han": 5030,
      "elec": 5031,
      "mesa": 5032,
      "reflex": 5033,
      "##OO": 5034,
      "provin": 5035,
      "opinión": 5036,
      "Eva": 5037,
      "dific": 5038,
      "sonido": 5039,
      "manten": 5040,
      "personajes": 5041,
      "hablado": 5042,
      "dificul": 5043,
      "Dem": 5044,
      "suerte": 5045,
      "##eis": 5046,
      "##CI": 5047,
      "##log": 5048,
      "encom": 5049,
      "decirle": 5050,
      "##ebrero": 5051,
      "base": 5052,
      "ampl": 5053,
      "ign": 5054,
      "tier": 5055,
      "##iendas": 5056,
      "##quen": 5057,
      "veía": 5058,
      "ánimo": 5059,
      "##andés": 5060,
      "DI": 5061,
      "##viendo": 5062,
      "##cada": 5063,
      "##mino": 5064,
      "haz": 5065,
      "peri": 5066,
      "fui": 5067,
      "transf": 5068,
      "figu": 5069,
      "Incluso": 5070,
      "ras": 5071,
      "##ciado": 5072,
      "##iencias": 5073,
      "lucha": 5074,
      "quedan": 5075,
      "temen": 5076,
      "##érica": 5077,
      "inv": 5078,
      "##aya": 5079,
      "claramente": 5080,
      "ilum": 5081,
      "raí": 5082,
      "marzo": 5083,
      "llevado": 5084,
      "aquello": 5085,
      "vuelven": 5086,
      "##minis": 5087,
      "intención": 5088,
      "grie": 5089,
      "Clar": 5090,
      "##iación": 5091,
      "tratar": 5092,
      "Ana": 5093,
      "actualidad": 5094,
      "recomiendo": 5095,
      "filisteos": 5096,
      "##vados": 5097,
      "alm": 5098,
      "sil": 5099,
      "Puedes": 5100,
      "términos": 5101,
      "Virgen": 5102,
      "Fil": 5103,
      "agre": 5104,
      "##para": 5105,
      "querido": 5106,
      "pará": 5107,
      "judío": 5108,
      "##titución": 5109,
      "recomp": 5110,
      "##greso": 5111,
      "##legio": 5112,
      "lectura": 5113,
      "mezc": 5114,
      "##éfono": 5115,
      "aho": 5116,
      "marcha": 5117,
      "Cl": 5118,
      "lig": 5119,
      "pin": 5120,
      "##uras": 5121,
      "##yas": 5122,
      "nueve": 5123,
      "espiritu": 5124,
      "nomb": 5125,
      "##iores": 5126,
      "##amen": 5127,
      "caído": 5128,
      "sincer": 5129,
      "vuelto": 5130,
      "##vierno": 5131,
      "intelig": 5132,
      "Via": 5133,
      "damos": 5134,
      "hos": 5135,
      "harán": 5136,
      "ín": 5137,
      "##ff": 5138,
      "servid": 5139,
      "##udas": 5140,
      "##date": 5141,
      "##eraciones": 5142,
      "peces": 5143,
      "alimentos": 5144,
      "proteger": 5145,
      "abre": 5146,
      "ído": 5147,
      "##cina": 5148,
      "##ienten": 5149,
      "Papa": 5150,
      "Reyes": 5151,
      "Mensa": 5152,
      "##réis": 5153,
      "##eramente": 5154,
      "##cimientos": 5155,
      "##isis": 5156,
      "proce": 5157,
      "progra": 5158,
      "resca": 5159,
      "minutos": 5160,
      "##écn": 5161,
      "soldados": 5162,
      "46": 5163,
      "Li": 5164,
      "##ém": 5165,
      "hablo": 5166,
      "##irme": 5167,
      "manda": 5168,
      "tratando": 5169,
      "baño": 5170,
      "##mentos": 5171,
      "Alguna": 5172,
      "ocurrió": 5173,
      "(...)": 5174,
      "Cen": 5175,
      "His": 5176,
      "Jam": 5177,
      "huel": 5178,
      "##bano": 5179,
      "##tamiento": 5180,
      "##dimos": 5181,
      "##ieza": 5182,
      "salvo": 5183,
      "abrir": 5184,
      "camp": 5185,
      "caballo": 5186,
      "conclusión": 5187,
      "ef": 5188,
      "##ñado": 5189,
      "elem": 5190,
      "##ciar": 5191,
      "aplic": 5192,
      "importancia": 5193,
      "deseos": 5194,
      "compartir": 5195,
      "papá": 5196,
      "labor": 5197,
      "Har": 5198,
      "Ka": 5199,
      "##ly": 5200,
      "##este": 5201,
      "alab": 5202,
      "sopor": 5203,
      "##ciación": 5204,
      "##ack": 5205,
      "Anónimo": 5206,
      "deberíamos": 5207,
      "ilusión": 5208,
      "ladrón": 5209,
      "pad": 5210,
      "útil": 5211,
      "##pado": 5212,
      "amis": 5213,
      "cumplido": 5214,
      "personaje": 5215,
      "##echas": 5216,
      "imag": 5217,
      "##hua": 5218,
      "Ed": 5219,
      "Sara": 5220,
      "ton": 5221,
      "##oros": 5222,
      "arte": 5223,
      "orgul": 5224,
      "usar": 5225,
      "obedecer": 5226,
      "Cer": 5227,
      "##cor": 5228,
      "traer": 5229,
      "llevan": 5230,
      "siguen": 5231,
      "iguales": 5232,
      "haría": 5233,
      "bendiciones": 5234,
      "banda": 5235,
      "belleza": 5236,
      "Van": 5237,
      "##ipe": 5238,
      "sentado": 5239,
      "chica": 5240,
      "Ban": 5241,
      "II": 5242,
      "##tida": 5243,
      "##óvil": 5244,
      "##zcan": 5245,
      "leído": 5246,
      "desgra": 5247,
      "crear": 5248,
      "debía": 5249,
      "1000": 5250,
      "##tillo": 5251,
      "ganar": 5252,
      "deberían": 5253,
      "nego": 5254,
      "recuerda": 5255,
      "##cuenta": 5256,
      "jefes": 5257,
      "vinieron": 5258,
      "hombros": 5259,
      "convo": 5260,
      "conduc": 5261,
      "##leo": 5262,
      "rev": 5263,
      "indic": 5264,
      "##qué": 5265,
      "##ecieron": 5266,
      "aceptar": 5267,
      "proyecto": 5268,
      "om": 5269,
      "##dores": 5270,
      "##cir": 5271,
      "##bito": 5272,
      "asp": 5273,
      "500": 5274,
      "Pel": 5275,
      "crí": 5276,
      "fondo": 5277,
      "vienes": 5278,
      "##ciados": 5279,
      "destru": 5280,
      "##illos": 5281,
      "resta": 5282,
      "##jería": 5283,
      "tantos": 5284,
      "##alacio": 5285,
      "muestran": 5286,
      "líneas": 5287,
      "Mí": 5288,
      "cha": 5289,
      "##viera": 5290,
      "##lad": 5291,
      "destrucción": 5292,
      "##uesta": 5293,
      "preten": 5294,
      "##izó": 5295,
      "quieran": 5296,
      "##enaje": 5297,
      "creencias": 5298,
      "Guerra": 5299,
      "ep": 5300,
      "oril": 5301,
      "##mba": 5302,
      "##loso": 5303,
      "##queño": 5304,
      "creó": 5305,
      "colabor": 5306,
      "public": 5307,
      "arrepin": 5308,
      "je": 5309,
      "##ponde": 5310,
      "##tirá": 5311,
      "casarse": 5312,
      "malas": 5313,
      "conforme": 5314,
      "humana": 5315,
      "dudas": 5316,
      "sirven": 5317,
      "aprob": 5318,
      "Aten": 5319,
      "aquella": 5320,
      "llenos": 5321,
      "semanas": 5322,
      "diecis": 5323,
      "Aún": 5324,
      "Mic": 5325,
      "##iva": 5326,
      "##ático": 5327,
      "##ditos": 5328,
      "recomend": 5329,
      "\":": 5330,
      "ayudó": 5331,
      "llegada": 5332,
      "débiles": 5333,
      "antiguos": 5334,
      "Cab": 5335,
      "##vamente": 5336,
      "condu": 5337,
      "adul": 5338,
      "volvieron": 5339,
      "dejando": 5340,
      "##centes": 5341,
      "manifies": 5342,
      "esfuerzo": 5343,
      "octubre": 5344,
      "Año": 5345,
      "Pan": 5346,
      "ur": 5347,
      "apor": 5348,
      "diseñ": 5349,
      "fortal": 5350,
      "visitar": 5351,
      "prometido": 5352,
      "Fo": 5353,
      "Nosotras": 5354,
      "##iamente": 5355,
      "pensó": 5356,
      "servicios": 5357,
      "religiones": 5358,
      "##rédu": 5359,
      "código": 5360,
      "Eze": 5361,
      "##rada": 5362,
      "##omo": 5363,
      "##itán": 5364,
      "razones": 5365,
      "autoridades": 5366,
      "mediante": 5367,
      "enamor": 5368,
      "otor": 5369,
      "##ric": 5370,
      "##zando": 5371,
      "##piente": 5372,
      "##erg": 5373,
      "presenta": 5374,
      "seguimos": 5375,
      "##ficos": 5376,
      "sucede": 5377,
      "principal": 5378,
      "Ga": 5379,
      "##tt": 5380,
      "##emen": 5381,
      "titu": 5382,
      "##ezas": 5383,
      "fuertes": 5384,
      "sección": 5385,
      "estudiantes": 5386,
      "some": 5387,
      "##col": 5388,
      "##mbre": 5389,
      "mitad": 5390,
      "##ucciones": 5391,
      "##cepción": 5392,
      "mayores": 5393,
      "tradición": 5394,
      "milagros": 5395,
      "##ujo": 5396,
      "##rantes": 5397,
      "séptimo": 5398,
      "siguientes": 5399,
      "reconocer": 5400,
      "circ": 5401,
      "elim": 5402,
      "##endas": 5403,
      "Conf": 5404,
      "dejaron": 5405,
      "Comp": 5406,
      "importantes": 5407,
      "humilla": 5408,
      "difíciles": 5409,
      "generación": 5410,
      "suficientemente": 5411,
      "tierras": 5412,
      "Pien": 5413,
      "##dica": 5414,
      "##eca": 5415,
      "##iosa": 5416,
      "herencia": 5417,
      "##tór": 5418,
      "escrib": 5419,
      "Nada": 5420,
      "Otra": 5421,
      "lá": 5422,
      "##tl": 5423,
      "##cando": 5424,
      "##onom": 5425,
      "##tual": 5426,
      "##iéndose": 5427,
      "##icip": 5428,
      "cuento": 5429,
      "visión": 5430,
      "desarrollo": 5431,
      "##ror": 5432,
      "##unta": 5433,
      "##uentes": 5434,
      "##tarán": 5435,
      "sabio": 5436,
      "responde": 5437,
      "##atán": 5438,
      "ganado": 5439,
      "comunic": 5440,
      "encontré": 5441,
      "clásico": 5442,
      "reunión": 5443,
      "traducción": 5444,
      "partici": 5445,
      "desapareció": 5446,
      "dominio": 5447,
      "familiares": 5448,
      "##mor": 5449,
      "##TA": 5450,
      "depen": 5451,
      "esclavos": 5452,
      "límites": 5453,
      "York": 5454,
      "##eria": 5455,
      "##inados": 5456,
      "##irá": 5457,
      "##tería": 5458,
      "creído": 5459,
      "sentía": 5460,
      "##umbre": 5461,
      "terri": 5462,
      "calidad": 5463,
      "ropa": 5464,
      "pájaros": 5465,
      "et": 5466,
      "hall": 5467,
      "tab": 5468,
      "##ulas": 5469,
      "##tana": 5470,
      "Nuestros": 5471,
      "muere": 5472,
      "querían": 5473,
      "resultados": 5474,
      "desobede": 5475,
      "Az": 5476,
      "Amb": 5477,
      "Donde": 5478,
      "Men": 5479,
      "bosque": 5480,
      "gén": 5481,
      "##eña": 5482,
      "##mar": 5483,
      "cuan": 5484,
      "agosto": 5485,
      "pis": 5486,
      "parecen": 5487,
      "prín": 5488,
      "pastor": 5489,
      "constante": 5490,
      "##metros": 5491,
      "plantas": 5492,
      "ponerse": 5493,
      "representa": 5494,
      "Dic": 5495,
      "cue": 5496,
      "partido": 5497,
      "##ierta": 5498,
      "reba": 5499,
      "##ezca": 5500,
      "##rendió": 5501,
      "olvidar": 5502,
      "rápido": 5503,
      "cumpleaños": 5504,
      "sitios": 5505,
      "##igas": 5506,
      "##icion": 5507,
      "regalo": 5508,
      "opción": 5509,
      "alcance": 5510,
      "máximo": 5511,
      "49": 5512,
      "##garse": 5513,
      "necesita": 5514,
      "##uyen": 5515,
      "objeto": 5516,
      "memoria": 5517,
      "52": 5518,
      "aquél": 5519,
      "dó": 5520,
      "local": 5521,
      "marca": 5522,
      "caball": 5523,
      "inspir": 5524,
      "señores": 5525,
      "Perd": 5526,
      "convertido": 5527,
      "referencia": 5528,
      "##IN": 5529,
      "establ": 5530,
      "##izas": 5531,
      "santos": 5532,
      "cincuenta": 5533,
      "moles": 5534,
      "ignor": 5535,
      "Ir": 5536,
      "acord": 5537,
      "trajo": 5538,
      "vivió": 5539,
      "verdaderos": 5540,
      "##rende": 5541,
      "bebé": 5542,
      "Pueb": 5543,
      "contenido": 5544,
      "01": 5545,
      "Luna": 5546,
      "Ru": 5547,
      "repu": 5548,
      "perro": 5549,
      "mirar": 5550,
      "##jate": 5551,
      "recuerdos": 5552,
      "comienzo": 5553,
      "comprensión": 5554,
      "##iciones": 5555,
      "##bamos": 5556,
      "##gadas": 5557,
      "##misión": 5558,
      "digan": 5559,
      "serás": 5560,
      "habia": 5561,
      "##aven": 5562,
      "descri": 5563,
      "Vivo": 5564,
      "indígen": 5565,
      "letras": 5566,
      "consigo": 5567,
      "##álisis": 5568,
      "encontrado": 5569,
      "Pos": 5570,
      "##reas": 5571,
      "##iló": 5572,
      "llego": 5573,
      "satisfac": 5574,
      "víctima": 5575,
      "##itado": 5576,
      "##unda": 5577,
      "lev": 5578,
      "##uencias": 5579,
      "dejará": 5580,
      "cumplen": 5581,
      "afirm": 5582,
      "bondad": 5583,
      "Cin": 5584,
      "##rones": 5585,
      "##amento": 5586,
      "Esper": 5587,
      "introd": 5588,
      "......": 5589,
      "revelación": 5590,
      "consiguió": 5591,
      "Crón": 5592,
      "Mer": 5593,
      "##br": 5594,
      "##mán": 5595,
      "invierno": 5596,
      "abril": 5597,
      "poesía": 5598,
      "descono": 5599,
      "responsabilidad": 5600,
      "esfuerzos": 5601,
      "Paz": 5602,
      "##diendo": 5603,
      "##xico": 5604,
      "loc": 5605,
      "despe": 5606,
      "desea": 5607,
      "##vias": 5608,
      "quedamos": 5609,
      "testigo": 5610,
      "presentó": 5611,
      "aprendido": 5612,
      "Cuántos": 5613,
      "error": 5614,
      "teléfono": 5615,
      "Bol": 5616,
      "Mos": 5617,
      "Tan": 5618,
      "hice": 5619,
      "##fe": 5620,
      "ali": 5621,
      "quitar": 5622,
      "##quía": 5623,
      "##rimiento": 5624,
      "imper": 5625,
      "explica": 5626,
      "##ándolo": 5627,
      "revelado": 5628,
      "cuarto": 5629,
      "perfecto": 5630,
      "##cierto": 5631,
      "descendencia": 5632,
      "egipcios": 5633,
      "biblia": 5634,
      "famos": 5635,
      "ira": 5636,
      "##viene": 5637,
      "##rod": 5638,
      "##cua": 5639,
      "llevará": 5640,
      "##etida": 5641,
      "incrédu": 5642,
      "?,\"": 5643,
      "Paul": 5644,
      "riquezas": 5645,
      "Europa": 5646,
      "pez": 5647,
      "vic": 5648,
      "##aje": 5649,
      "cuándo": 5650,
      "protec": 5651,
      "sintió": 5652,
      "fuerzas": 5653,
      "corru": 5654,
      "trabajos": 5655,
      "propor": 5656,
      "baj": 5657,
      "acompañado": 5658,
      "débil": 5659,
      "haré": 5660,
      "organización": 5661,
      "alumnos": 5662,
      "Imp": 5663,
      "cria": 5664,
      "ped": 5665,
      "##sas": 5666,
      "##wa": 5667,
      "##todo": 5668,
      "recibe": 5669,
      "Chile": 5670,
      "Nacional": 5671,
      "mostró": 5672,
      "Nuestra": 5673,
      "sacrificio": 5674,
      "Finalmente": 5675,
      "dulce": 5676,
      "veinte": 5677,
      "Dice": 5678,
      "Hemos": 5679,
      "##HH": 5680,
      "##ins": 5681,
      "cuán": 5682,
      "sald": 5683,
      "entrega": 5684,
      "conocen": 5685,
      "chico": 5686,
      "usu": 5687,
      "Hijos": 5688,
      "##eral": 5689,
      "##ley": 5690,
      "perí": 5691,
      "magia": 5692,
      "viva": 5693,
      "vengo": 5694,
      "enseñan": 5695,
      "grab": 5696,
      "comenzaron": 5697,
      "entren": 5698,
      "producción": 5699,
      "pruebas": 5700,
      "piedras": 5701,
      "flores": 5702,
      "madres": 5703,
      "##vía": 5704,
      "##tienen": 5705,
      "subió": 5706,
      "constru": 5707,
      "llegue": 5708,
      "momentos": 5709,
      "sufren": 5710,
      "recordar": 5711,
      "comprome": 5712,
      "mág": 5713,
      "distancia": 5714,
      "consciente": 5715,
      "peda": 5716,
      "inform": 5717,
      "esperando": 5718,
      "recuerdo": 5719,
      "bestias": 5720,
      "Go": 5721,
      "pár": 5722,
      "sientes": 5723,
      "##imas": 5724,
      "salida": 5725,
      "Reg": 5726,
      "carga": 5727,
      "Ant": 5728,
      "jug": 5729,
      "Muy": 5730,
      "pudieron": 5731,
      "05": 5732,
      "aven": 5733,
      "muchísimo": 5734,
      "mueren": 5735,
      "##mplemente": 5736,
      "encanta": 5737,
      "demostrar": 5738,
      "video": 5739,
      "febrero": 5740,
      "firme": 5741,
      "##apa": 5742,
      "##óma": 5743,
      "##pados": 5744,
      "pacto": 5745,
      "Paraíso": 5746,
      "dieciséis": 5747,
      "##selo": 5748,
      "señales": 5749,
      "encontraba": 5750,
      "increí": 5751,
      "término": 5752,
      "viejo": 5753,
      "víctimas": 5754,
      "aceite": 5755,
      "Dar": 5756,
      "cón": 5757,
      "##table": 5758,
      "dedos": 5759,
      "##adora": 5760,
      "diseño": 5761,
      "escuchan": 5762,
      "idiomas": 5763,
      "47": 5764,
      "Der": 5765,
      "Rob": 5766,
      "##ov": 5767,
      "##iro": 5768,
      "##chu": 5769,
      "serían": 5770,
      "##iete": 5771,
      "Altísimo": 5772,
      "solici": 5773,
      "gentiles": 5774,
      "gusto": 5775,
      "Quiere": 5776,
      "inclu": 5777,
      "medios": 5778,
      "02": 5779,
      "##ler": 5780,
      "##áver": 5781,
      "elig": 5782,
      "##dimiento": 5783,
      "provo": 5784,
      "presentes": 5785,
      "seguía": 5786,
      "trabajadores": 5787,
      "Escucha": 5788,
      "movimiento": 5789,
      "DE": 5790,
      "dando": 5791,
      "iban": 5792,
      "##RE": 5793,
      "##ws": 5794,
      "pongo": 5795,
      "datos": 5796,
      "calles": 5797,
      "2007": 5798,
      "superior": 5799,
      "responsables": 5800,
      "##orías": 5801,
      "##diza": 5802,
      "cuch": 5803,
      "##enso": 5804,
      "aparecen": 5805,
      "glorif": 5806,
      "obligación": 5807,
      "51": 5808,
      "Don": 5809,
      "oraciones": 5810,
      "alaban": 5811,
      "acceso": 5812,
      "conscientes": 5813,
      "caminos": 5814,
      "ofrec": 5815,
      "fij": 5816,
      "nube": 5817,
      "##cción": 5818,
      "##iden": 5819,
      "Carlos": 5820,
      "poderoso": 5821,
      "far": 5822,
      "##ps": 5823,
      "##uelas": 5824,
      "##esas": 5825,
      "sepa": 5826,
      "##amble": 5827,
      "perm": 5828,
      "##ilandés": 5829,
      "##tador": 5830,
      "instal": 5831,
      "perdonar": 5832,
      "vecinos": 5833,
      "contacto": 5834,
      "efecto": 5835,
      "03": 5836,
      "?:": 5837,
      "aqui": 5838,
      "incapa": 5839,
      "decidió": 5840,
      "demues": 5841,
      "piedad": 5842,
      "corresponde": 5843,
      "sensación": 5844,
      "##iano": 5845,
      "universo": 5846,
      "teniendo": 5847,
      "menudo": 5848,
      "Art": 5849,
      "Corán": 5850,
      "placer": 5851,
      "##ramientas": 5852,
      "idioma": 5853,
      "Bas": 5854,
      "tele": 5855,
      "expuls": 5856,
      "Habl": 5857,
      "sacar": 5858,
      "gas": 5859,
      "##uter": 5860,
      "##guen": 5861,
      "##últi": 5862,
      "##erse": 5863,
      "inicio": 5864,
      "alej": 5865,
      "comunicación": 5866,
      "##piración": 5867,
      "divor": 5868,
      "vendrán": 5869,
      "médico": 5870,
      "--": 5871,
      "80": 5872,
      "Babil": 5873,
      "ago": 5874,
      "estúp": 5875,
      "estóma": 5876,
      "resol": 5877,
      "actos": 5878,
      "Cuándo": 5879,
      "generos": 5880,
      "aceptó": 5881,
      "Levántate": 5882,
      "cadáver": 5883,
      "recursos": 5884,
      "cál": 5885,
      "even": 5886,
      "norm": 5887,
      "##arás": 5888,
      "##udos": 5889,
      "##caciones": 5890,
      "pecador": 5891,
      "preguntaron": 5892,
      "jugar": 5893,
      "barco": 5894,
      "conocía": 5895,
      "Libro": 5896,
      "Ángeles": 5897,
      "##mbolo": 5898,
      "Imágenes": 5899,
      "##oc": 5900,
      "##rú": 5901,
      "##inando": 5902,
      "estilo": 5903,
      "##ello": 5904,
      "asomb": 5905,
      "Deja": 5906,
      "##izan": 5907,
      "Todavía": 5908,
      "merece": 5909,
      "relaciones": 5910,
      "##iqu": 5911,
      "partic": 5912,
      "altar": 5913,
      "letra": 5914,
      "hacéis": 5915,
      "##ábado": 5916,
      "dientes": 5917,
      "##uestas": 5918,
      "tentación": 5919,
      "armas": 5920,
      "escribo": 5921,
      "infl": 5922,
      "##versidad": 5923,
      "Testi": 5924,
      "apa": 5925,
      "cré": 5926,
      "##bal": 5927,
      "##gón": 5928,
      "##yu": 5929,
      "unidad": 5930,
      "ayun": 5931,
      "carrera": 5932,
      "Mat": 5933,
      "Fueron": 5934,
      "aj": 5935,
      "dom": 5936,
      "##adio": 5937,
      "##emas": 5938,
      "perros": 5939,
      "media": 5940,
      "colec": 5941,
      "regresar": 5942,
      "responsable": 5943,
      "##tren": 5944,
      "##tría": 5945,
      "##teras": 5946,
      "traído": 5947,
      "niñas": 5948,
      "míos": 5949,
      "Mej": 5950,
      "piernas": 5951,
      "esclavo": 5952,
      ".,": 5953,
      "Fa": 5954,
      "Mig": 5955,
      "darse": 5956,
      "lados": 5957,
      "técn": 5958,
      "novia": 5959,
      "diría": 5960,
      "retir": 5961,
      "##bio": 5962,
      "##ésped": 5963,
      "verano": 5964,
      "siglos": 5965,
      "Exp": 5966,
      "ideas": 5967,
      "comienza": 5968,
      "Mundial": 5969,
      "Tur": 5970,
      "##pro": 5971,
      "##úcar": 5972,
      "muñ": 5973,
      "Jehova": 5974,
      "intenciones": 5975,
      "suceder": 5976,
      "aproxim": 5977,
      "indica": 5978,
      "caballos": 5979,
      "Babilonia": 5980,
      "Junto": 5981,
      "das": 5982,
      "##cipe": 5983,
      "semil": 5984,
      "sabían": 5985,
      "entregar": 5986,
      "próx": 5987,
      "once": 5988,
      "Debemos": 5989,
      "aus": 5990,
      "##ím": 5991,
      "destruir": 5992,
      "mantiene": 5993,
      "vivos": 5994,
      "192": 5995,
      "tomado": 5996,
      "escuchado": 5997,
      "obediencia": 5998,
      "multitud": 5999,
      "México": 6000,
      "estómago": 6001,
      "90": 6002,
      "Apar": 6003,
      "cuel": 6004,
      "id": 6005,
      "##lados": 6006,
      "##eración": 6007,
      "tengan": 6008,
      "opon": 6009,
      "mostr": 6010,
      "divinidad": 6011,
      "miembro": 6012,
      "kiló": 6013,
      "##ks": 6014,
      "##wn": 6015,
      "Super": 6016,
      "musul": 6017,
      "##uteronom": 6018,
      "Jn": 6019,
      "bru": 6020,
      "##visión": 6021,
      "##anía": 6022,
      "almas": 6023,
      "podrían": 6024,
      "##torno": 6025,
      "Sagr": 6026,
      "docu": 6027,
      "convertirse": 6028,
      "Hola": 6029,
      "doble": 6030,
      "vienen": 6031,
      "##eti": 6032,
      "##egr": 6033,
      "##orge": 6034,
      "novel": 6035,
      "parecía": 6036,
      "##entemente": 6037,
      "verás": 6038,
      "Deuteronom": 6039,
      "abri": 6040,
      "posición": 6041,
      "preparados": 6042,
      "ciertamente": 6043,
      "Traba": 6044,
      "héroe": 6045,
      "Fu": 6046,
      "Gar": 6047,
      "Mus": 6048,
      "vesti": 6049,
      "##itu": 6050,
      "##lico": 6051,
      "##cles": 6052,
      "##orra": 6053,
      "contamos": 6054,
      "##ánd": 6055,
      "Segun": 6056,
      "##land": 6057,
      "##tividad": 6058,
      "benefici": 6059,
      "guardi": 6060,
      "individ": 6061,
      "ubic": 6062,
      "Deuteronomio": 6063,
      "edición": 6064,
      "##ij": 6065,
      "condiciones": 6066,
      "noticia": 6067,
      "##ung": 6068,
      "##vedad": 6069,
      "adver": 6070,
      "ordenado": 6071,
      "versos": 6072,
      "hicimos": 6073,
      "ensal": 6074,
      "digno": 6075,
      "opiniones": 6076,
      "larga": 6077,
      "Gobierno": 6078,
      "##rieron": 6079,
      "devo": 6080,
      "contó": 6081,
      "##amar": 6082,
      "parar": 6083,
      "##odos": 6084,
      "##iles": 6085,
      "amamos": 6086,
      "creían": 6087,
      "pasando": 6088,
      "disco": 6089,
      "construir": 6090,
      "Person": 6091,
      "situaciones": 6092,
      "##au": 6093,
      "##ago": 6094,
      "##cé": 6095,
      "##quías": 6096,
      "Maestro": 6097,
      "TLA": 6098,
      "fran": 6099,
      "seré": 6100,
      "Anti": 6101,
      "versículos": 6102,
      "surg": 6103,
      "luchar": 6104,
      "Fuego": 6105,
      "Tw": 6106,
      "YO": 6107,
      "cará": 6108,
      "##reros": 6109,
      "##uelos": 6110,
      "subir": 6111,
      "##ienta": 6112,
      "comba": 6113,
      "dirá": 6114,
      "Cuatro": 6115,
      "fuimos": 6116,
      "cristiano": 6117,
      "fron": 6118,
      "medidas": 6119,
      "Leví": 6120,
      "Ningun": 6121,
      "Apocal": 6122,
      "participar": 6123,
      "fís": 6124,
      "##ami": 6125,
      "tipos": 6126,
      "llegan": 6127,
      "tienda": 6128,
      "creía": 6129,
      "salido": 6130,
      "##nología": 6131,
      "profund": 6132,
      "iré": 6133,
      "2006": 6134,
      "cierta": 6135,
      "Orden": 6136,
      "clave": 6137,
      "peligro": 6138,
      "Pal": 6139,
      "hal": 6140,
      "mando": 6141,
      "##rid": 6142,
      "##IS": 6143,
      "noticias": 6144,
      "dibu": 6145,
      "Universidad": 6146,
      "##izados": 6147,
      "capital": 6148,
      "planta": 6149,
      "piensa": 6150,
      "lograr": 6151,
      "Minis": 6152,
      "Cos": 6153,
      "Ima": 6154,
      "suen": 6155,
      "##elas": 6156,
      "desn": 6157,
      "habil": 6158,
      "##tara": 6159,
      "##igan": 6160,
      "##iéndo": 6161,
      "argu": 6162,
      "##cencia": 6163,
      "Hacer": 6164,
      "juzgar": 6165,
      "juzgados": 6166,
      "engañar": 6167,
      "resucitado": 6168,
      "sexo": 6169,
      "congregación": 6170,
      "SO": 6171,
      "ramas": 6172,
      "##uns": 6173,
      "redu": 6174,
      "##jeje": 6175,
      "sencil": 6176,
      "##eche": 6177,
      "especie": 6178,
      "Den": 6179,
      "Len": 6180,
      "On": 6181,
      "##tían": 6182,
      "##ep": 6183,
      "##YY": 6184,
      "##omía": 6185,
      "##ística": 6186,
      "peor": 6187,
      "impos": 6188,
      "juven": 6189,
      "tranqui": 6190,
      "planeta": 6191,
      "defender": 6192,
      "##írculo": 6193,
      "vistazo": 6194,
      "Fal": 6195,
      "dele": 6196,
      "quem": 6197,
      "partidos": 6198,
      "perdió": 6199,
      "inme": 6200,
      "tex": 6201,
      "consul": 6202,
      "perdona": 6203,
      "##bola": 6204,
      "municip": 6205,
      "##éndole": 6206,
      "cientí": 6207,
      "aves": 6208,
      "culti": 6209,
      "serpiente": 6210,
      "##teriores": 6211,
      "dejan": 6212,
      "símbolo": 6213,
      "signos": 6214,
      "santidad": 6215,
      "defini": 6216,
      "extravi": 6217,
      "produce": 6218,
      "diferente": 6219,
      "querer": 6220,
      "romp": 6221,
      "ejerci": 6222,
      "necesitamos": 6223,
      "Tran": 6224,
      "oh": 6225,
      "##cadas": 6226,
      "##pin": 6227,
      "lenguas": 6228,
      "sentimos": 6229,
      "consejo": 6230,
      "original": 6231,
      "Miguel": 6232,
      "',": 6233,
      "09": 6234,
      "Educación": 6235,
      "cóm": 6236,
      "##igu": 6237,
      "##itud": 6238,
      "##raron": 6239,
      "##AL": 6240,
      "##esper": 6241,
      "##aras": 6242,
      "dij": 6243,
      "podríamos": 6244,
      "maldi": 6245,
      "toca": 6246,
      "ilus": 6247,
      "Crónicas": 6248,
      "Título": 6249,
      "tío": 6250,
      "##ivos": 6251,
      "##ID": 6252,
      "##ritus": 6253,
      "desha": 6254,
      "##oraje": 6255,
      "dispar": 6256,
      "##ipsis": 6257,
      "enfad": 6258,
      "actuar": 6259,
      "##écdo": 6260,
      "práctica": 6261,
      "provincia": 6262,
      "??": 6263,
      "fues": 6264,
      "##uales": 6265,
      "##teles": 6266,
      "comidas": 6267,
      "apoder": 6268,
      "Revel": 6269,
      "morada": 6270,
      "Francis": 6271,
      "Profeta": 6272,
      "Norte": 6273,
      "inven": 6274,
      "##dil": 6275,
      "compad": 6276,
      "permanecer": 6277,
      "##gráfico": 6278,
      "Cruz": 6279,
      "Ojalá": 6280,
      "DHH": 6281,
      "Gre": 6282,
      "Oro": 6283,
      "dor": 6284,
      "flor": 6285,
      "rico": 6286,
      "##iales": 6287,
      "##inci": 6288,
      "tumba": 6289,
      "Escri": 6290,
      "cristiana": 6291,
      "barrio": 6292,
      "bendiga": 6293,
      "período": 6294,
      "##dizaje": 6295,
      "carácter": 6296,
      "Glor": 6297,
      "rue": 6298,
      "##AM": 6299,
      "##yendo": 6300,
      "##ónico": 6301,
      "##timiento": 6302,
      "culo": 6303,
      "ans": 6304,
      "reco": 6305,
      "##mbr": 6306,
      "escuchó": 6307,
      "##iestas": 6308,
      "chicos": 6309,
      "pensamiento": 6310,
      "contrib": 6311,
      "Luz": 6312,
      "correr": 6313,
      "investi": 6314,
      "Au": 6315,
      "Coraz": 6316,
      "Dy": 6317,
      "##íritus": 6318,
      "##isod": 6319,
      "dura": 6320,
      "duro": 6321,
      "##glesias": 6322,
      "Sabiduría": 6323,
      "##ioneros": 6324,
      "contentos": 6325,
      "Camino": 6326,
      "beneficio": 6327,
      "beneficios": 6328,
      "Tiempo": 6329,
      "facil": 6330,
      "Pregunta": 6331,
      "##cía": 6332,
      "##frad": 6333,
      "envid": 6334,
      "contras": 6335,
      "##ilar": 6336,
      "##tarlo": 6337,
      "proclam": 6338,
      "Jesus": 6339,
      "magn": 6340,
      "asi": 6341,
      "podéis": 6342,
      "Detrás": 6343,
      "ciudadanos": 6344,
      "hermanas": 6345,
      "##istencia": 6346,
      "preparado": 6347,
      "autén": 6348,
      "desgracia": 6349,
      "Neces": 6350,
      "##ló": 6351,
      "##ñar": 6352,
      "##úan": 6353,
      "##tern": 6354,
      "##dap": 6355,
      "valle": 6356,
      "historias": 6357,
      "creyeron": 6358,
      "##vieran": 6359,
      "cuidar": 6360,
      "Llegó": 6361,
      "supone": 6362,
      "Cristi": 6363,
      "satisfacción": 6364,
      "proporcion": 6365,
      "Otro": 6366,
      "ríos": 6367,
      "sar": 6368,
      "##hor": 6369,
      "##uciones": 6370,
      "##ner": 6371,
      "##citos": 6372,
      "##tral": 6373,
      "varón": 6374,
      "regresó": 6375,
      "actual": 6376,
      "consecuencias": 6377,
      "amistad": 6378,
      "género": 6379,
      "Tend": 6380,
      "equ": 6381,
      "##ate": 6382,
      "suma": 6383,
      "##ecta": 6384,
      "##tion": 6385,
      "acto": 6386,
      "cita": 6387,
      "consum": 6388,
      "temer": 6389,
      "incor": 6390,
      "defin": 6391,
      "entrañas": 6392,
      "elementos": 6393,
      "particular": 6394,
      "tol": 6395,
      "##cán": 6396,
      "haci": 6397,
      "hagamos": 6398,
      "parecer": 6399,
      "simplemente": 6400,
      "pase": 6401,
      "##venida": 6402,
      "sentados": 6403,
      "escritos": 6404,
      "##tilla": 6405,
      "tarea": 6406,
      "sufrir": 6407,
      "Apósto": 6408,
      "##tumbres": 6409,
      "Bet": 6410,
      "EE": 6411,
      "ges": 6412,
      "##itó": 6413,
      "##caron": 6414,
      "proh": 6415,
      "arras": 6416,
      "Rep": 6417,
      "ejecu": 6418,
      "generaciones": 6419,
      "promesas": 6420,
      "clases": 6421,
      "profesion": 6422,
      "juez": 6423,
      "oficial": 6424,
      "popular": 6425,
      "dólares": 6426,
      "Sil": 6427,
      "be": 6428,
      "##amo": 6429,
      "##tagon": 6430,
      "cae": 6431,
      "##pulo": 6432,
      "venga": 6433,
      "ciego": 6434,
      "##ticamente": 6435,
      "pronun": 6436,
      "desafío": 6437,
      "mezcla": 6438,
      "Af": 6439,
      "Ge": 6440,
      "ses": 6441,
      "##túa": 6442,
      "##ála": 6443,
      "une": 6444,
      "##tancias": 6445,
      "pacientes": 6446,
      "##etidos": 6447,
      "vivía": 6448,
      "tercero": 6449,
      "identific": 6450,
      "indígenas": 6451,
      "Apocalipsis": 6452,
      "##af": 6453,
      "##ys": 6454,
      "##rob": 6455,
      "arm": 6456,
      "arca": 6457,
      "decirles": 6458,
      "capitán": 6459,
      "Human": 6460,
      "##emato": 6461,
      "lóg": 6462,
      "##cra": 6463,
      "quie": 6464,
      "acce": 6465,
      "corazon": 6466,
      "escribe": 6467,
      "China": 6468,
      "hoja": 6469,
      "##táculos": 6470,
      "completamente": 6471,
      "##güedad": 6472,
      "profesor": 6473,
      ")?": 6474,
      "Hor": 6475,
      "##gáis": 6476,
      "exig": 6477,
      "policía": 6478,
      "transmisión": 6479,
      "divina": 6480,
      "Peter": 6481,
      "Sem": 6482,
      "odia": 6483,
      "##vientes": 6484,
      "##uma": 6485,
      "nota": 6486,
      "##tres": 6487,
      "peregr": 6488,
      "##dea": 6489,
      "costumbres": 6490,
      "prestar": 6491,
      "##ificación": 6492,
      "signific": 6493,
      "enfermos": 6494,
      "hogares": 6495,
      "interpretación": 6496,
      "Publ": 6497,
      "ídolos": 6498,
      "Atención": 6499,
      "Ama": 6500,
      "Ep": 6501,
      "##ers": 6502,
      "labios": 6503,
      "##edos": 6504,
      "ahi": 6505,
      "listo": 6506,
      "dificultades": 6507,
      "?'": 6508,
      "LA": 6509,
      "hin": 6510,
      "tono": 6511,
      "##ade": 6512,
      "....\"": 6513,
      "##igue": 6514,
      "hayan": 6515,
      "categ": 6516,
      "Comun": 6517,
      "aseguro": 6518,
      "##cisamente": 6519,
      "##____": 6520,
      "Ningún": 6521,
      "semejantes": 6522,
      "premio": 6523,
      "similar": 6524,
      "\")": 6525,
      "Somb": 6526,
      "contiene": 6527,
      "Encuen": 6528,
      "hacerte": 6529,
      "##ísima": 6530,
      "cuerpos": 6531,
      "cinemato": 6532,
      "función": 6533,
      "Tailandés": 6534,
      "corrupción": 6535,
      "adap": 6536,
      "palacio": 6537,
      "##icción": 6538,
      "cayó": 6539,
      "profecía": 6540,
      "Salv": 6541,
      "##azar": 6542,
      "Buenos": 6543,
      "ruinas": 6544,
      "rodillas": 6545,
      "elegir": 6546,
      "adoles": 6547,
      "terreno": 6548,
      "programa": 6549,
      "Pueblo": 6550,
      "Rus": 6551,
      "cr": 6552,
      "estud": 6553,
      "##logo": 6554,
      "resid": 6555,
      "excl": 6556,
      "abor": 6557,
      "corte": 6558,
      "estaría": 6559,
      "histór": 6560,
      "enfermo": 6561,
      "entiende": 6562,
      "pájaro": 6563,
      "Tesal": 6564,
      "consecuencia": 6565,
      "???": 6566,
      "Hac": 6567,
      "aden": 6568,
      "##ane": 6569,
      "##teros": 6570,
      "asc": 6571,
      "recon": 6572,
      "conserv": 6573,
      "construy": 6574,
      "cambios": 6575,
      "humildad": 6576,
      "ofreció": 6577,
      "emocion": 6578,
      "absolu": 6579,
      "económ": 6580,
      "orilla": 6581,
      "Mac": 6582,
      "gig": 6583,
      "##are": 6584,
      "##cidas": 6585,
      "rezar": 6586,
      "cau": 6587,
      "Queremos": 6588,
      "merecen": 6589,
      "estrella": 6590,
      "kilómetros": 6591,
      "coraje": 6592,
      "dada": 6593,
      "fechas": 6594,
      "##gén": 6595,
      "##ky": 6596,
      "##IC": 6597,
      "##TE": 6598,
      "##onas": 6599,
      "pasan": 6600,
      "190": 6601,
      "conoces": 6602,
      "llamas": 6603,
      "llaman": 6604,
      "confes": 6605,
      "##utismo": 6606,
      "empezar": 6607,
      "envía": 6608,
      "envío": 6609,
      "frases": 6610,
      "devuel": 6611,
      "Filip": 6612,
      "04": 6613,
      "53": 6614,
      "Ste": 6615,
      "Wil": 6616,
      "brin": 6617,
      "educ": 6618,
      "##su": 6619,
      "##ática": 6620,
      "##arnos": 6621,
      "##rate": 6622,
      "anécdo": 6623,
      "alegro": 6624,
      "##dicos": 6625,
      "tocar": 6626,
      "tranquil": 6627,
      "artículos": 6628,
      "goles": 6629,
      "correcta": 6630,
      "homenaje": 6631,
      "Francisco": 6632,
      "Blan": 6633,
      "daba": 6634,
      "área": 6635,
      "##ty": 6636,
      "##rarse": 6637,
      "##ft": 6638,
      "##terna": 6639,
      "verán": 6640,
      "pocas": 6641,
      "conflic": 6642,
      "calor": 6643,
      "Diablo": 6644,
      "derram": 6645,
      "mirando": 6646,
      "cometido": 6647,
      "##abas": 6648,
      "##tualmente": 6649,
      "##ced": 6650,
      "entero": 6651,
      "Real": 6652,
      "sínt": 6653,
      "encantan": 6654,
      "participación": 6655,
      "territorio": 6656,
      "Véase": 6657,
      "suya": 6658,
      "comió": 6659,
      "prohi": 6660,
      "sentó": 6661,
      "ponen": 6662,
      "tribus": 6663,
      "resucitó": 6664,
      "piensas": 6665,
      "lanz": 6666,
      "adop": 6667,
      "violencia": 6668,
      "Historia": 6669,
      "Núm": 6670,
      "##mina": 6671,
      "alas": 6672,
      "apell": 6673,
      "malvados": 6674,
      "confies": 6675,
      "llegamos": 6676,
      "cumplimiento": 6677,
      "transmi": 6678,
      "invito": 6679,
      "aprendizaje": 6680,
      "sientan": 6681,
      "sorprend": 6682,
      "intereses": 6683,
      "elegido": 6684,
      "contemp": 6685,
      "actividades": 6686,
      "aconse": 6687,
      "detalles": 6688,
      "Famil": 6689,
      "prac": 6690,
      "##dado": 6691,
      "##idel": 6692,
      "estando": 6693,
      "estés": 6694,
      "cuáles": 6695,
      "Algo": 6696,
      "escal": 6697,
      "segura": 6698,
      "muero": 6699,
      "Poco": 6700,
      "lluvias": 6701,
      "culpable": 6702,
      "figura": 6703,
      "Plan": 6704,
      "boda": 6705,
      "frec": 6706,
      "som": 6707,
      "the": 6708,
      "##cro": 6709,
      "##onic": 6710,
      ".\"[": 6711,
      "##quina": 6712,
      "angus": 6713,
      "preci": 6714,
      "respet": 6715,
      "preguntan": 6716,
      "infiel": 6717,
      "Bajo": 6718,
      "##deciré": 6719,
      "06": 6720,
      "65": 6721,
      "##hem": 6722,
      "##sen": 6723,
      "reti": 6724,
      "Def": 6725,
      "herramientas": 6726,
      "signo": 6727,
      "##tadores": 6728,
      "negó": 6729,
      "##ucir": 6730,
      "condenado": 6731,
      "sobres": 6732,
      "embarazada": 6733,
      "58": 6734,
      "Aun": 6735,
      "Er": 6736,
      "reina": 6737,
      "##tencias": 6738,
      "pref": 6739,
      "##cienda": 6740,
      "campe": 6741,
      "bajar": 6742,
      "forman": 6743,
      "mover": 6744,
      "torre": 6745,
      "acepto": 6746,
      "relato": 6747,
      "mandamientos": 6748,
      "sacrific": 6749,
      "abundancia": 6750,
      "Pelícu": 6751,
      "cám": 6752,
      "##unción": 6753,
      "reinado": 6754,
      "adminis": 6755,
      "maldad": 6756,
      "llamaba": 6757,
      "pecho": 6758,
      "Salmos": 6759,
      "##tillas": 6760,
      "renunci": 6761,
      "modelo": 6762,
      "oyó": 6763,
      "demostró": 6764,
      "1914": 6765,
      "circuns": 6766,
      "Antonio": 6767,
      "lla": 6768,
      "ps": 6769,
      "##ej": 6770,
      "##radas": 6771,
      "##fos": 6772,
      "demo": 6773,
      "suces": 6774,
      "##jera": 6775,
      "2000": 6776,
      "pago": 6777,
      "puesta": 6778,
      "##book": 6779,
      "Existe": 6780,
      "guerras": 6781,
      "especies": 6782,
      "adorar": 6783,
      "experimen": 6784,
      "espaldas": 6785,
      "Misericordia": 6786,
      "Jord": 6787,
      "Muerte": 6788,
      "gira": 6789,
      "##ni": 6790,
      "##nn": 6791,
      "##arias": 6792,
      "##idez": 6793,
      "##iero": 6794,
      "##ritán": 6795,
      "##irán": 6796,
      "##uros": 6797,
      "compon": 6798,
      "##ecidos": 6799,
      "##gase": 6800,
      "comentarios": 6801,
      "frío": 6802,
      "alcanzó": 6803,
      "Bienven": 6804,
      "##tiago": 6805,
      "08": 6806,
      "bu": 6807,
      "ám": 6808,
      "##tz": 6809,
      "##ang": 6810,
      "repe": 6811,
      "##mbol": 6812,
      "consa": 6813,
      "##cionales": 6814,
      "orien": 6815,
      "Compañ": 6816,
      "lecciones": 6817,
      "azúcar": 6818,
      "##mul": 6819,
      "lago": 6820,
      "maneras": 6821,
      "pedido": 6822,
      "llamados": 6823,
      "nacer": 6824,
      "tendría": 6825,
      "preocupa": 6826,
      "empezaron": 6827,
      "ciertas": 6828,
      "acabó": 6829,
      "Cana": 6830,
      "lin": 6831,
      "##iosas": 6832,
      "##ástico": 6833,
      "social": 6834,
      "aplica": 6835,
      "sabéis": 6836,
      "##izá": 6837,
      "consiste": 6838,
      "darles": 6839,
      "finalmente": 6840,
      "Santiago": 6841,
      "terminar": 6842,
      "celebración": 6843,
      "convierten": 6844,
      "2021": 6845,
      "llorar": 6846,
      "instrucciones": 6847,
      "parábola": 6848,
      "300": 6849,
      "Ecles": 6850,
      "##vían": 6851,
      "##resión": 6852,
      "extran": 6853,
      "formación": 6854,
      "mercado": 6855,
      "clientes": 6856,
      "perdonados": 6857,
      "cumplan": 6858,
      "tesoros": 6859,
      "Ambos": 6860,
      "permiso": 6861,
      "Gru": 6862,
      "gar": 6863,
      "leche": 6864,
      "##arme": 6865,
      "##loque": 6866,
      "legado": 6867,
      "##gué": 6868,
      "espíritus": 6869,
      "comport": 6870,
      "sentirse": 6871,
      "vean": 6872,
      "escrituras": 6873,
      "##tiende": 6874,
      "Déj": 6875,
      "Bal": 6876,
      "Templo": 6877,
      "zapa": 6878,
      "##lin": 6879,
      "##LO": 6880,
      "##allas": 6881,
      "desesper": 6882,
      "ingres": 6883,
      "habita": 6884,
      "prote": 6885,
      "protagon": 6886,
      "mate": 6887,
      "decirte": 6888,
      "Asi": 6889,
      "Mary": 6890,
      "inscri": 6891,
      "creyente": 6892,
      "sufrimiento": 6893,
      "obligados": 6894,
      "dedicado": 6895,
      "ambas": 6896,
      "Judas": 6897,
      "oportunidades": 6898,
      "poderosos": 6899,
      "cuestión": 6900,
      "Cuenta": 6901,
      "##kinson": 6902,
      "aspecto": 6903,
      "crédito": 6904,
      "##ibilidad": 6905,
      "##enó": 6906,
      "##goci": 6907,
      "amaba": 6908,
      "##grad": 6909,
      "ahor": 6910,
      "harás": 6911,
      "sujeto": 6912,
      "productos": 6913,
      "restau": 6914,
      "Ber": 6915,
      "Dec": 6916,
      "Llam": 6917,
      "Vay": 6918,
      "##pes": 6919,
      "Aleman": 6920,
      "mató": 6921,
      "Lot": 6922,
      "pregunté": 6923,
      "empu": 6924,
      "estuve": 6925,
      "rojo": 6926,
      "07": 6927,
      "54": 6928,
      "66": 6929,
      "Il": 6930,
      "##amp": 6931,
      "##lex": 6932,
      "pris": 6933,
      "distrib": 6934,
      "Ref": 6935,
      "quedé": 6936,
      "seguían": 6937,
      "tomaron": 6938,
      "pensando": 6939,
      "acuerdas": 6940,
      "comunidades": 6941,
      "discípulo": 6942,
      "mueve": 6943,
      "juegos": 6944,
      "virtudes": 6945,
      "imposible": 6946,
      "!...": 6947,
      "57": 6948,
      "AM": 6949,
      "Ira": 6950,
      "Lá": 6951,
      "Ros": 6952,
      "adi": 6953,
      "{{": 6954,
      "##op": 6955,
      "##gi": 6956,
      "concre": 6957,
      "venía": 6958,
      "Lee": 6959,
      "cop": 6960,
      "fotos": 6961,
      "empresa": 6962,
      "periodo": 6963,
      "Evangelio": 6964,
      "bre": 6965,
      "##gle": 6966,
      "##ash": 6967,
      "##aro": 6968,
      "##ider": 6969,
      "##rie": 6970,
      "casado": 6971,
      "mantuvo": 6972,
      "podamos": 6973,
      "impuestos": 6974,
      "siglas": 6975,
      "Estaba": 6976,
      "Patr": 6977,
      "mandó": 6978,
      "explicó": 6979,
      "sagrado": 6980,
      "enaltecido": 6981,
      "Viaje": 6982,
      "estúpido": 6983,
      "Cier": 6984,
      "Prom": 6985,
      "Sino": 6986,
      "cho": 6987,
      "enorme": 6988,
      "Sea": 6989,
      "##tenta": 6990,
      "##ull": 6991,
      "##edor": 6992,
      "falsos": 6993,
      "incom": 6994,
      "Vers": 6995,
      "DIOS": 6996,
      "sábado": 6997,
      "vál": 6998,
      "##íes": 6999,
      "##ecución": 7000,
      "desm": 7001,
      "sober": 7002,
      "cantar": 7003,
      "cog": 7004,
      "duración": 7005,
      "colores": 7006,
      "sienta": 7007,
      "virtud": 7008,
      "edificio": 7009,
      "escapar": 7010,
      "raíz": 7011,
      "##amblea": 7012,
      "equip": 7013,
      "Jack": 7014,
      "Lí": 7015,
      "móvil": 7016,
      "odio": 7017,
      "##rue": 7018,
      "##ku": 7019,
      "##úd": 7020,
      "##ÓN": 7021,
      "divers": 7022,
      "visita": 7023,
      "##renda": 7024,
      "hebre": 7025,
      "##estión": 7026,
      "dueños": 7027,
      "mantenerse": 7028,
      "Primera": 7029,
      "Galile": 7030,
      "Cinco": 7031,
      "Ara": 7032,
      "Toma": 7033,
      "agar": 7034,
      "círculo": 7035,
      "##tima": 7036,
      "casco": 7037,
      "corona": 7038,
      "irre": 7039,
      "Jose": 7040,
      "volverán": 7041,
      "humildes": 7042,
      "queréis": 7043,
      "##porte": 7044,
      "##juven": 7045,
      "ladrones": 7046,
      "siguiendo": 7047,
      "cinematográfico": 7048,
      "Pac": 7049,
      "cic": 7050,
      "##ode": 7051,
      "##odas": 7052,
      "apos": 7053,
      "arco": 7054,
      "compe": 7055,
      "##edores": 7056,
      "cama": 7057,
      "##lín": 7058,
      "##érf": 7059,
      "Tenía": 7060,
      "América": 7061,
      "tareas": 7062,
      "acercarse": 7063,
      "sujetos": 7064,
      "pene": 7065,
      "James": 7066,
      "##itulo": 7067,
      "Aqui": 7068,
      "ase": 7069,
      "evangelio": 7070,
      "fiestas": 7071,
      "horm": 7072,
      "piso": 7073,
      "usa": 7074,
      "##ires": 7075,
      "##bum": 7076,
      "##mado": 7077,
      "##we": 7078,
      "##inan": 7079,
      "##tesis": 7080,
      "paisa": 7081,
      "compor": 7082,
      "impíos": 7083,
      "conform": 7084,
      "estaré": 7085,
      "encuentras": 7086,
      "buscan": 7087,
      "##menta": 7088,
      "líqu": 7089,
      "increíble": 7090,
      "Gloria": 7091,
      "gana": 7092,
      "##rente": 7093,
      "##ds": 7094,
      "##RA": 7095,
      "##timo": 7096,
      "desin": 7097,
      "desgar": 7098,
      "pasión": 7099,
      "cima": 7100,
      "llamo": 7101,
      "confían": 7102,
      "Ante": 7103,
      "opciones": 7104,
      "valientes": 7105,
      "hablaba": 7106,
      "País": 7107,
      "refiero": 7108,
      "sacrificios": 7109,
      "Consejo": 7110,
      "sinceridad": 7111,
      "Dykinson": 7112,
      "Hol": 7113,
      "ces": 7114,
      "##vé": 7115,
      "##uir": 7116,
      "leyendo": 7117,
      "Respon": 7118,
      "predicar": 7119,
      "Volver": 7120,
      "nietos": 7121,
      "burl": 7122,
      "venganza": 7123,
      "engend": 7124,
      "individu": 7125,
      "textos": 7126,
      "Revelación": 7127,
      "(\"": 7128,
      "##ética": 7129,
      "##rando": 7130,
      "##UE": 7131,
      "despa": 7132,
      "##usa": 7133,
      "resis": 7134,
      "arran": 7135,
      "seguros": 7136,
      "militar": 7137,
      "acompañar": 7138,
      "declaró": 7139,
      "aprobación": 7140,
      "incrédulos": 7141,
      "cuello": 7142,
      "estudios": 7143,
      "Eclesias": 7144,
      "Alemania": 7145,
      "Gab": 7146,
      "duer": 7147,
      "jes": 7148,
      "múlti": 7149,
      "nave": 7150,
      "ál": 7151,
      "##bur": 7152,
      "león": 7153,
      "Sub": 7154,
      "##volución": 7155,
      "pronunci": 7156,
      "mandado": 7157,
      "primo": 7158,
      "explicar": 7159,
      "explicación": 7160,
      "entienden": 7161,
      "trop": 7162,
      "SOY": 7163,
      "césped": 7164,
      "##rer": 7165,
      "##yeron": 7166,
      "##oración": 7167,
      "Isabel": 7168,
      "venida": 7169,
      "##gentes": 7170,
      "respondieron": 7171,
      "chicas": 7172,
      "entraron": 7173,
      "Escuela": 7174,
      "capítulos": 7175,
      "plato": 7176,
      "variedad": 7177,
      "incluye": 7178,
      "reciben": 7179,
      "glorificado": 7180,
      "##eda": 7181,
      "##cara": 7182,
      "##tea": 7183,
      "##ónica": 7184,
      "meta": 7185,
      "sop": 7186,
      "##quito": 7187,
      "ano": 7188,
      "##ezcan": 7189,
      "campos": 7190,
      "2001": 7191,
      "voces": 7192,
      "plaza": 7193,
      "obliga": 7194,
      "Obs": 7195,
      "rincón": 7196,
      "ejemplos": 7197,
      "##tlán": 7198,
      "protección": 7199,
      "síntomas": 7200,
      "Lección": 7201,
      "at": 7202,
      "iglesias": 7203,
      "sól": 7204,
      "##ix": 7205,
      "##tidas": 7206,
      "univers": 7207,
      "estados": 7208,
      "regoci": 7209,
      "##diat": 7210,
      "acud": 7211,
      "sala": 7212,
      "consol": 7213,
      "caminar": 7214,
      "insensa": 7215,
      "##cipes": 7216,
      "importa": 7217,
      "bebidas": 7218,
      "Existen": 7219,
      "divino": 7220,
      "Dejad": 7221,
      "empresas": 7222,
      "descanso": 7223,
      "Éstos": 7224,
      "mentira": 7225,
      "Testigos": 7226,
      "Canaán": 7227,
      "##diatamente": 7228,
      "Juego": 7229,
      "concen": 7230,
      "alb": 7231,
      "dign": 7232,
      "cuyo": 7233,
      "...?": 7234,
      "sabor": 7235,
      "Simón": 7236,
      "abierto": 7237,
      "##cenas": 7238,
      "Mag": 7239,
      "escritas": 7240,
      "##menes": 7241,
      "acompaña": 7242,
      "modos": 7243,
      "pierde": 7244,
      "prometió": 7245,
      "Veamos": 7246,
      "eternamente": 7247,
      "reflexión": 7248,
      "99": 7249,
      "Tus": 7250,
      "fac": 7251,
      "##eñas": 7252,
      "##pec": 7253,
      "##ples": 7254,
      "decl": 7255,
      "##ordi": 7256,
      "conv": 7257,
      "revés": 7258,
      "sigo": 7259,
      "##vitas": 7260,
      "##coh": 7261,
      "##izada": 7262,
      "verdaderamente": 7263,
      "prometida": 7264,
      "pelu": 7265,
      "reunió": 7266,
      "Primero": 7267,
      "riqueza": 7268,
      "electr": 7269,
      "Mayo": 7270,
      "Siete": 7271,
      "ries": 7272,
      "##yecto": 7273,
      "##ted": 7274,
      "##trito": 7275,
      "Eli": 7276,
      "anteriores": 7277,
      "precisamente": 7278,
      "ayude": 7279,
      "fué": 7280,
      "Habla": 7281,
      "permitir": 7282,
      "vuestras": 7283,
      "respetar": 7284,
      "Grande": 7285,
      "predicación": 7286,
      "declaración": 7287,
      "recorrido": 7288,
      "enaltece": 7289,
      "Cualquiera": 7290,
      "##ég": 7291,
      "##cad": 7292,
      "enla": 7293,
      "novio": 7294,
      "##ecé": 7295,
      "alo": 7296,
      "##gular": 7297,
      "##cuador": 7298,
      "asum": 7299,
      "discurso": 7300,
      "artes": 7301,
      "##dice": 7302,
      "encontraron": 7303,
      "defien": 7304,
      "##bilidades": 7305,
      "principales": 7306,
      "Vivir": 7307,
      "moda": 7308,
      "utilizar": 7309,
      "edific": 7310,
      "mentiras": 7311,
      "almend": 7312,
      "Boli": 7313,
      "victoria": 7314,
      "Eclesiastés": 7315,
      "59": 7316,
      "agra": 7317,
      "##tándose": 7318,
      "##anda": 7319,
      "unen": 7320,
      "exc": 7321,
      "casados": 7322,
      "##dentes": 7323,
      "arena": 7324,
      "confirm": 7325,
      "vacaciones": 7326,
      "Mucha": 7327,
      "traslad": 7328,
      "apropi": 7329,
      "gritos": 7330,
      "convertir": 7331,
      "Felipe": 7332,
      "Internet": 7333,
      "evidencia": 7334,
      "Hon": 7335,
      "Jun": 7336,
      "Pap": 7337,
      "Sha": 7338,
      "cod": 7339,
      "hun": 7340,
      "jorn": 7341,
      "puente": 7342,
      "##oh": 7343,
      "##umb": 7344,
      "##ral": 7345,
      "##OD": 7346,
      "##iertos": 7347,
      "Esos": 7348,
      "juro": 7349,
      "tantas": 7350,
      "gui": 7351,
      "##licas": 7352,
      "permitió": 7353,
      "obligado": 7354,
      "suficientes": 7355,
      "misericordiosos": 7356,
      "probar": 7357,
      "##hhhh": 7358,
      "Jonatán": 7359,
      "aconte": 7360,
      "Madrid": 7361,
      "##onicenses": 7362,
      "Sina": 7363,
      "Ur": 7364,
      "Vis": 7365,
      "bro": 7366,
      "}}": 7367,
      "##gio": 7368,
      "##dientes": 7369,
      "##adura": 7370,
      "##manes": 7371,
      "obten": 7372,
      "ayudan": 7373,
      "Mañana": 7374,
      "##ficas": 7375,
      "necesitan": 7376,
      "cambiado": 7377,
      "leyenda": 7378,
      "sufrió": 7379,
      "invitación": 7380,
      "Buena": 7381,
      "manifiesta": 7382,
      "probable": 7383,
      "bíblico": 7384,
      "garantía": 7385,
      "pun": 7386,
      "pér": 7387,
      "##san": 7388,
      "##dente": 7389,
      "##letas": 7390,
      "destruy": 7391,
      "##tua": 7392,
      "trae": 7393,
      "##edas": 7394,
      "posesión": 7395,
      "veh": 7396,
      "##pedes": 7397,
      "negro": 7398,
      "bebida": 7399,
      "ocurrido": 7400,
      "abandonado": 7401,
      "quince": 7402,
      "reúnen": 7403,
      "espiritual": 7404,
      "semillas": 7405,
      "69": 7406,
      "rap": 7407,
      "##ure": 7408,
      "##VI": 7409,
      "##traron": 7410,
      "seren": 7411,
      "Debido": 7412,
      "pobl": 7413,
      "hablamos": 7414,
      "necesidades": 7415,
      "2003": 7416,
      "##apón": 7417,
      "nega": 7418,
      "completa": 7419,
      "permanece": 7420,
      "héroes": 7421,
      "Artículo": 7422,
      "BAD": 7423,
      "Ib": 7424,
      "Nic": 7425,
      "ajus": 7426,
      "ruego": 7427,
      "áreas": 7428,
      "unirse": 7429,
      "conquis": 7430,
      "lea": 7431,
      "##taria": 7432,
      "acor": 7433,
      "Unos": 7434,
      "pais": 7435,
      "cosecha": 7436,
      "vete": 7437,
      "coinci": 7438,
      "denomin": 7439,
      "polvo": 7440,
      "Niños": 7441,
      "eterno": 7442,
      "Guar": 7443,
      "experiencias": 7444,
      "lanzó": 7445,
      "Podemos": 7446,
      "complacer": 7447,
      "menciona": 7448,
      "novela": 7449,
      "Tesalonicenses": 7450,
      "Filipenses": 7451,
      "Nazar": 7452,
      "Vas": 7453,
      "],": 7454,
      "hel": 7455,
      "deudas": 7456,
      "unidos": 7457,
      "##ientan": 7458,
      "##trados": 7459,
      "parecido": 7460,
      "##iere": 7461,
      "iniqu": 7462,
      "cuya": 7463,
      "reserv": 7464,
      "##úsculo": 7465,
      "actitud": 7466,
      "hecha": 7467,
      "huérf": 7468,
      "##umento": 7469,
      "estarás": 7470,
      "defensa": 7471,
      "dudar": 7472,
      "pidiendo": 7473,
      "objetivos": 7474,
      "alimentación": 7475,
      "Colom": 7476,
      "asistir": 7477,
      "Vuelve": 7478,
      "Abi": 7479,
      "Sec": 7480,
      "Vo": 7481,
      "hones": 7482,
      "títulos": 7483,
      "##íe": 7484,
      "pared": 7485,
      "##gulo": 7486,
      "tuyos": 7487,
      "apres": 7488,
      "civil": 7489,
      "Contin": 7490,
      "bautismo": 7491,
      "cola": 7492,
      "caliente": 7493,
      "colección": 7494,
      "plazo": 7495,
      "aguan": 7496,
      "realizado": 7497,
      "presentación": 7498,
      "gobier": 7499,
      "##ública": 7500,
      "arrepiente": 7501,
      "Monte": 7502,
      "tristeza": 7503,
      "tecnología": 7504,
      "demuestra": 7505,
      "Ll": 7506,
      "##lón": 7507,
      "##jón": 7508,
      "##raba": 7509,
      "##emán": 7510,
      "dias": 7511,
      "##use": 7512,
      "##tuvieron": 7513,
      "escond": 7514,
      "reca": 7515,
      "impon": 7516,
      "##nacional": 7517,
      "##zaro": 7518,
      "únicamente": 7519,
      "reconocimiento": 7520,
      "formar": 7521,
      "guarda": 7522,
      "sorpres": 7523,
      "mundial": 7524,
      "listos": 7525,
      "Consejería": 7526,
      "agregó": 7527,
      "Ninguno": 7528,
      "ate": 7529,
      "britán": 7530,
      "dra": 7531,
      "##11": 7532,
      "dedo": 7533,
      "##orp": 7534,
      "seamos": 7535,
      "alcoh": 7536,
      "perci": 7537,
      "##terse": 7538,
      "Señora": 7539,
      "##jaja": 7540,
      "conocimientos": 7541,
      "invita": 7542,
      "enseñarles": 7543,
      "mensajes": 7544,
      "superfici": 7545,
      "celebrar": 7546,
      "parejas": 7547,
      "rostros": 7548,
      "compromiso": 7549,
      "despertó": 7550,
      "etc": 7551,
      "##aventur": 7552,
      "juventud": 7553,
      "Grupo": 7554,
      "Ciertamente": 7555,
      "Cá": 7556,
      "Cara": 7557,
      "Lima": 7558,
      "Mur": 7559,
      "Nación": 7560,
      "Sch": 7561,
      "Tienen": 7562,
      "dí": 7563,
      "trá": 7564,
      "##nis": 7565,
      "##ergía": 7566,
      "quedes": 7567,
      "##ierda": 7568,
      "comb": 7569,
      "##deo": 7570,
      "asign": 7571,
      "hubi": 7572,
      "cartas": 7573,
      "terrib": 7574,
      "##atía": 7575,
      "necesito": 7576,
      "promo": 7577,
      "New": 7578,
      "borra": 7579,
      "avergonzado": 7580,
      "falleció": 7581,
      "eternidad": 7582,
      "Agu": 7583,
      "Tam": 7584,
      "ater": 7585,
      "km": 7586,
      "รอ": 7587,
      "##éla": 7588,
      "##ish": 7589,
      "##eco": 7590,
      "metros": 7591,
      "apenas": 7592,
      "##tólica": 7593,
      "trabaja": 7594,
      "caras": 7595,
      "salvará": 7596,
      "volveré": 7597,
      "planes": 7598,
      "Pueden": 7599,
      "elev": 7600,
      "mandamiento": 7601,
      "##ramento": 7602,
      "Colos": 7603,
      "curso": 7604,
      "posee": 7605,
      "milagro": 7606,
      "recoger": 7607,
      "Belén": 7608,
      "Corazón": 7609,
      "56": 7610,
      "Of": 7611,
      "Red": 7612,
      "eta": 7613,
      "##gica": 7614,
      "##dar": 7615,
      "##onados": 7616,
      "endu": 7617,
      "##tavo": 7618,
      "prove": 7619,
      "animo": 7620,
      "análisis": 7621,
      "crecer": 7622,
      "##gencia": 7623,
      "corto": 7624,
      "darán": 7625,
      "varones": 7626,
      "##vierte": 7627,
      "hiciera": 7628,
      "olvidado": 7629,
      "romper": 7630,
      "Torre": 7631,
      "Recuerda": 7632,
      "actividad": 7633,
      "bis": 7634,
      "##eños": 7635,
      "##OM": 7636,
      "##¡¡": 7637,
      "ense": 7638,
      "miró": 7639,
      "##icaciones": 7640,
      "dejemos": 7641,
      "colegio": 7642,
      "##ándoles": 7643,
      "Div": 7644,
      "continúa": 7645,
      "vivientes": 7646,
      "revela": 7647,
      "oyeron": 7648,
      "circu": 7649,
      "##ssss": 7650,
      "cueva": 7651,
      "sobresal": 7652,
      "Eran": 7653,
      "Ke": 7654,
      "Lin": 7655,
      "##gú": 7656,
      "parientes": 7657,
      "alf": 7658,
      "nuevamente": 7659,
      "llevaban": 7660,
      "nacional": 7661,
      "solamente": 7662,
      "afición": 7663,
      "especí": 7664,
      "terminó": 7665,
      "ocup": 7666,
      "tesoro": 7667,
      "semejante": 7668,
      "perfectamente": 7669,
      "griego": 7670,
      "Jehovah": 7671,
      "Reci": 7672,
      "Vic": 7673,
      "##mir": 7674,
      "##anes": 7675,
      "##eccion": 7676,
      "Cur": 7677,
      "vivido": 7678,
      "##acar": 7679,
      "##partamento": 7680,
      "deseas": 7681,
      "Acom": 7682,
      "##premo": 7683,
      "queridos": 7684,
      "siguieron": 7685,
      "Mujeres": 7686,
      "Gol": 7687,
      "gir": 7688,
      "vér": 7689,
      "##ides": 7690,
      "desv": 7691,
      "desma": 7692,
      "espejo": 7693,
      "entregado": 7694,
      "León": 7695,
      "##rendas": 7696,
      "2004": 7697,
      "clara": 7698,
      "reuniones": 7699,
      "antigua": 7700,
      "engañado": 7701,
      "gotas": 7702,
      "abierta": 7703,
      "##ológico": 7704,
      "recompens": 7705,
      "normal": 7706,
      "##yuge": 7707,
      "vestido": 7708,
      "Tar": 7709,
      "avi": 7710,
      "vuelo": 7711,
      "##lada": 7712,
      "##púsculo": 7713,
      "##UN": 7714,
      "##onte": 7715,
      "desvan": 7716,
      "##bitos": 7717,
      "habido": 7718,
      "Cul": 7719,
      "##ezco": 7720,
      "Invi": 7721,
      "solución": 7722,
      "vivirá": 7723,
      "enviados": 7724,
      "haremos": 7725,
      "ruta": 7726,
      "secretos": 7727,
      "##isodio": 7728,
      "EN": 7729,
      "avis": 7730,
      "fab": 7731,
      "##stru": 7732,
      "##alan": 7733,
      "##tol": 7734,
      "##toño": 7735,
      "desf": 7736,
      "ingen": 7737,
      "Encon": 7738,
      "puedas": 7739,
      "sinónimo": 7740,
      "poca": 7741,
      "##lante": 7742,
      "vuelvan": 7743,
      "invitados": 7744,
      "pienso": 7745,
      "Pequeño": 7746,
      "concedió": 7747,
      "Prod": 7748,
      "Liber": 7749,
      "maravillas": 7750,
      "recompensa": 7751,
      "##tén": 7752,
      "##riel": 7753,
      "reac": 7754,
      "##dez": 7755,
      "##usiones": 7756,
      "##quia": 7757,
      "##icios": 7758,
      "escrú": 7759,
      "##talia": 7760,
      "ponemos": 7761,
      "vuelva": 7762,
      "2005": 7763,
      "##uyó": 7764,
      "Servi": 7765,
      "acabar": 7766,
      "borde": 7767,
      "gobernantes": 7768,
      "estableció": 7769,
      "##quería": 7770,
      "cuantos": 7771,
      "aproximadamente": 7772,
      "circunstancias": 7773,
      "Líbano": 7774,
      "declara": 7775,
      "Colosenses": 7776,
      "Acer": 7777,
      "Lín": 7778,
      "Rel": 7779,
      "tard": 7780,
      "##ucido": 7781,
      "##TO": 7782,
      "##rab": 7783,
      "dió": 7784,
      "integ": 7785,
      "abuelo": 7786,
      "impul": 7787,
      "##ándolos": 7788,
      "presentar": 7789,
      "engaño": 7790,
      "ruido": 7791,
      "descubrir": 7792,
      "Información": 7793,
      "refugio": 7794,
      "plenamente": 7795,
      "despidió": 7796,
      "depende": 7797,
      "absolutamente": 7798,
      "gem": 7799,
      "mam": 7800,
      "##ético": 7801,
      "##zaba": 7802,
      "##zadas": 7803,
      "##cí": 7804,
      "##Ent": 7805,
      "##IA": 7806,
      "##ardo": 7807,
      "##cific": 7808,
      "sede": 7809,
      "dirás": 7810,
      "desan": 7811,
      "design": 7812,
      "##culas": 7813,
      "##teres": 7814,
      "sinago": 7815,
      "##hael": 7816,
      "insis": 7817,
      "recién": 7818,
      "valiente": 7819,
      "Chi": 7820,
      "Habrá": 7821,
      "Verás": 7822,
      "sucedido": 7823,
      "##valu": 7824,
      "propósitos": 7825,
      "Valle": 7826,
      "avergonzados": 7827,
      "empleados": 7828,
      "Juegos": 7829,
      "criaturas": 7830,
      "próximos": 7831,
      "##Entonces": 7832,
      "Cés": 7833,
      "Yu": 7834,
      "vías": 7835,
      "útiles": 7836,
      "##10": 7837,
      "##amin": 7838,
      "##ieras": 7839,
      "requier": 7840,
      "##mpara": 7841,
      "You": 7842,
      "estábamos": 7843,
      "creencia": 7844,
      "sentidos": 7845,
      "Aso": 7846,
      "preocupar": 7847,
      "grito": 7848,
      "rato": 7849,
      "esclavi": 7850,
      "proyección": 7851,
      "Prue": 7852,
      "Francia": 7853,
      "dulces": 7854,
      "Justicia": 7855,
      "Ministerio": 7856,
      "Lázaro": 7857,
      "##égimen": 7858,
      "62": 7859,
      "III": 7860,
      "vos": 7861,
      "viendo": 7862,
      "##ht": 7863,
      "##jando": 7864,
      "Estar": 7865,
      "levitas": 7866,
      "##tumbre": 7867,
      "##ciende": 7868,
      "coron": 7869,
      "frutas": 7870,
      "preparación": 7871,
      "Record": 7872,
      "hambr": 7873,
      "fácilmente": 7874,
      "abiertos": 7875,
      "inteligencia": 7876,
      "Galilea": 7877,
      "72": 7878,
      "Hom": 7879,
      "vía": 7880,
      "##si": 7881,
      "##ben": 7882,
      "##áticos": 7883,
      "##yn": 7884,
      "##rique": 7885,
      "Deber": 7886,
      "##veh": 7887,
      "advir": 7888,
      "Compar": 7889,
      "##iblio": 7890,
      "Salud": 7891,
      "judía": 7892,
      "Char": 7893,
      "profesores": 7894,
      "Barcel": 7895,
      "plena": 7896,
      "producto": 7897,
      "alabanza": 7898,
      "devoción": 7899,
      "Ham": 7900,
      "UN": 7901,
      "aumen": 7902,
      "mierda": 7903,
      "##ah": 7904,
      "##gaba": 7905,
      "##ñez": 7906,
      "enca": 7907,
      "concepto": 7908,
      "##unas": 7909,
      "##eles": 7910,
      "##char": 7911,
      "castillo": 7912,
      "##rump": 7913,
      "cortes": 7914,
      "confío": 7915,
      "carre": 7916,
      "Martín": 7917,
      "descom": 7918,
      "desapro": 7919,
      "crisis": 7920,
      "últimas": 7921,
      "##turales": 7922,
      "muera": 7923,
      "totalidad": 7924,
      "arrepentir": 7925,
      "ventaja": 7926,
      "evidente": 7927,
      "devor": 7928,
      "transform": 7929,
      "afirmó": 7930,
      "Bolivia": 7931,
      "Cuer": 7932,
      "már": 7933,
      "tron": 7934,
      "ung": 7935,
      "##uno": 7936,
      "sabiendo": 7937,
      "##itter": 7938,
      "##graf": 7939,
      "gustado": 7940,
      "ayudarte": 7941,
      "##embra": 7942,
      "religiosos": 7943,
      "liberación": 7944,
      "rendir": 7945,
      "responsabil": 7946,
      "inmor": 7947,
      "método": 7948,
      "poseen": 7949,
      "arrepentirse": 7950,
      "disponible": 7951,
      "acostumb": 7952,
      "Hermanos": 7953,
      "dijiste": 7954,
      "Jordán": 7955,
      "Mt": 7956,
      "Pág": 7957,
      "emi": 7958,
      "pi": 7959,
      "ricos": 7960,
      "trom": 7961,
      "##hos": 7962,
      "##ulación": 7963,
      "##mer": 7964,
      "sepan": 7965,
      "serio": 7966,
      "hipo": 7967,
      "misterio": 7968,
      "anal": 7969,
      "patio": 7970,
      "copa": 7971,
      "regiones": 7972,
      "empieza": 7973,
      "pescado": 7974,
      "olvido": 7975,
      "##ecerá": 7976,
      "bebés": 7977,
      "##ney": 7978,
      "razon": 7979,
      "pierden": 7980,
      "vestidos": 7981,
      "durm": 7982,
      "Yahveh": 7983,
      "rebaño": 7984,
      "escrúpulos": 7985,
      "***": 7986,
      "64": 7987,
      "UU": 7988,
      "gras": 7989,
      "##ume": 7990,
      "##dis": 7991,
      "queb": 7992,
      "##ieren": 7993,
      "##tuoso": 7994,
      "##erop": 7995,
      "##quie": 7996,
      "asal": 7997,
      "##oya": 7998,
      "decimos": 7999,
      "corta": 8000,
      "cabezas": 8001,
      "Espero": 8002,
      "Puedo": 8003,
      "vender": 8004,
      "antigüedad": 8005,
      "oye": 8006,
      "azul": 8007,
      "arrepintió": 8008,
      "príncipe": 8009,
      "reputación": 8010,
      "Apóstoles": 8011,
      "practic": 8012,
      "##idelidad": 8013,
      "'.\"": 8014,
      "400": 8015,
      "tales": 8016,
      "##RO": 8017,
      "##teza": 8018,
      "##ecemos": 8019,
      "##laciones": 8020,
      "matan": 8021,
      "disposición": 8022,
      "Confi": 8023,
      "##risa": 8024,
      "##ísmo": 8025,
      "Islas": 8026,
      "puestos": 8027,
      "escuche": 8028,
      "escuchando": 8029,
      "##undación": 8030,
      "encontrarse": 8031,
      "trabajan": 8032,
      "reconoció": 8033,
      "convirtieron": 8034,
      "abrazo": 8035,
      "Aquellos": 8036,
      "servidores": 8037,
      "faris": 8038,
      "Mejor": 8039,
      "fuese": 8040,
      ".'": 8041,
      "75": 8042,
      "Ecuador": 8043,
      "cientos": 8044,
      "##gla": 8045,
      "##jada": 8046,
      "escu": 8047,
      "Ele": 8048,
      "acog": 8049,
      "trataba": 8050,
      "muchís": 8051,
      "##cesis": 8052,
      "Medi": 8053,
      "##eroso": 8054,
      "ayudado": 8055,
      "impid": 8056,
      "##ganos": 8057,
      "institu": 8058,
      "llegará": 8059,
      "justific": 8060,
      "atrac": 8061,
      "agradable": 8062,
      "luchando": 8063,
      "herederos": 8064,
      "descans": 8065,
      "Mensajero": 8066,
      "huellas": 8067,
      "adultos": 8068,
      "cónyuge": 8069,
      "incapaz": 8070,
      "toler": 8071,
      "Có": 8072,
      "Julio": 8073,
      "Sel": 8074,
      "Vete": 8075,
      "halla": 8076,
      "sensa": 8077,
      "##sal": 8078,
      "##lon": 8079,
      "##gues": 8080,
      "##dal": 8081,
      "##oras": 8082,
      "enorm": 8083,
      "diá": 8084,
      "invol": 8085,
      "seréis": 8086,
      "##tuario": 8087,
      "Entra": 8088,
      "verlo": 8089,
      "citas": 8090,
      "lujo": 8091,
      "huir": 8092,
      "mín": 8093,
      "adue": 8094,
      "##estial": 8095,
      "##roso": 8096,
      "189": 8097,
      "tarje": 8098,
      "##árselo": 8099,
      "objetos": 8100,
      "indul": 8101,
      "pudiera": 8102,
      "añadir": 8103,
      "establecido": 8104,
      "volvemos": 8105,
      "Alej": 8106,
      "##ificar": 8107,
      "fantas": 8108,
      "devolver": 8109,
      "desempeñ": 8110,
      "extremo": 8111,
      "encomend": 8112,
      "Ezequías": 8113,
      "serenidad": 8114,
      "Colombia": 8115,
      "Abre": 8116,
      "For": 8117,
      "Japón": 8118,
      "Oc": 8119,
      "Temp": 8120,
      "Tanto": 8121,
      "Trib": 8122,
      "nav": 8123,
      "oper": 8124,
      "pic": 8125,
      "Noche": 8126,
      "abo": 8127,
      "conoció": 8128,
      "##talidad": 8129,
      "vende": 8130,
      "ventana": 8131,
      "Realmente": 8132,
      "infancia": 8133,
      "colum": 8134,
      "pidieron": 8135,
      "conoceréis": 8136,
      "hechas": 8137,
      "dedicó": 8138,
      "proyectos": 8139,
      "abiertas": 8140,
      "Sueños": 8141,
      "Centro": 8142,
      "conducta": 8143,
      "War": 8144,
      "ran": 8145,
      "sú": 8146,
      "##iri": 8147,
      "##ucion": 8148,
      "##cimo": 8149,
      "##reto": 8150,
      "##taña": 8151,
      "##chivo": 8152,
      "Quin": 8153,
      "caja": 8154,
      "mueran": 8155,
      "inspiración": 8156,
      "grave": 8157,
      "creyó": 8158,
      "arreba": 8159,
      "Cree": 8160,
      "agujeros": 8161,
      "político": 8162,
      "añadió": 8163,
      "bíblicos": 8164,
      "ejércitos": 8165,
      "límite": 8166,
      "revista": 8167,
      "múltiples": 8168,
      "riesgo": 8169,
      "Dime": 8170,
      "Jul": 8171,
      "Oración": 8172,
      "canto": 8173,
      "clan": 8174,
      "ego": 8175,
      "imi": 8176,
      "oj": 8177,
      "vel": 8178,
      "##uz": 8179,
      "##ee": 8180,
      "##MA": 8181,
      "detras": 8182,
      "##dom": 8183,
      "sedu": 8184,
      "creador": 8185,
      "dejen": 8186,
      "velo": 8187,
      "terror": 8188,
      "estuviera": 8189,
      "escucho": 8190,
      "Hacia": 8191,
      "comenzar": 8192,
      "sirvió": 8193,
      "romanos": 8194,
      "echar": 8195,
      "Hubo": 8196,
      "regalos": 8197,
      "garanti": 8198,
      "anuncio": 8199,
      "Foto": 8200,
      "Familia": 8201,
      "##eropuerto": 8202,
      "63": 8203,
      "Fern": 8204,
      "May": 8205,
      "Ram": 8206,
      "crim": 8207,
      "fas": 8208,
      "flo": 8209,
      "grado": 8210,
      "och": 8211,
      "##tbol": 8212,
      "##zarse": 8213,
      "##xil": 8214,
      "##teca": 8215,
      "##tier": 8216,
      "prefer": 8217,
      "bienvenida": 8218,
      "India": 8219,
      "candida": 8220,
      "solos": 8221,
      "pieza": 8222,
      "entrado": 8223,
      "estadoun": 8224,
      "defra": 8225,
      "encarn": 8226,
      "privi": 8227,
      "condenados": 8228,
      "indifer": 8229,
      "##aaaa": 8230,
      "Barcelona": 8231,
      "-¿": 8232,
      "bend": 8233,
      "lic": 8234,
      "láp": 8235,
      "##ose": 8236,
      "deman": 8237,
      "##onía": 8238,
      "##odes": 8239,
      "##ritos": 8240,
      "##rific": 8241,
      "relo": 8242,
      "##uerzo": 8243,
      "sera": 8244,
      "amiga": 8245,
      "anónimo": 8246,
      "creas": 8247,
      "Quédate": 8248,
      "##empla": 8249,
      "enseñando": 8250,
      "esperan": 8251,
      "cuernos": 8252,
      "menospre": 8253,
      "vaso": 8254,
      "continuar": 8255,
      "##izaciones": 8256,
      "hubieran": 8257,
      "nutr": 8258,
      "numero": 8259,
      "apoyar": 8260,
      "culpables": 8261,
      "Diez": 8262,
      "Ésta": 8263,
      "príncipes": 8264,
      "localidad": 8265,
      "jugadores": 8266,
      "evento": 8267,
      "álbum": 8268,
      "\";": 8269,
      "Cro": 8270,
      "Gala": 8271,
      "Sección": 8272,
      "Win": 8273,
      "##bos": 8274,
      "##cés": 8275,
      "esco": 8276,
      "seremos": 8277,
      "##éspedes": 8278,
      "disper": 8279,
      "##tinos": 8280,
      "escrita": 8281,
      "ofrendas": 8282,
      "playa": 8283,
      "especialmente": 8284,
      "vivienda": 8285,
      "Fuera": 8286,
      "considera": 8287,
      "Poder": 8288,
      "brazo": 8289,
      "bíblica": 8290,
      "patrón": 8291,
      "desempeño": 8292,
      "Sinaí": 8293,
      "fariseos": 8294,
      "Aires": 8295,
      "Há": 8296,
      "cán": 8297,
      "##ites": 8298,
      "##zgo": 8299,
      "##pico": 8300,
      "##antil": 8301,
      "conec": 8302,
      "sustitu": 8303,
      "##quinas": 8304,
      "##mpa": 8305,
      "asunto": 8306,
      "Contra": 8307,
      "cereb": 8308,
      "busco": 8309,
      "aparte": 8310,
      "2002": 8311,
      "sector": 8312,
      "masa": 8313,
      "horiz": 8314,
      "encontraban": 8315,
      "estruc": 8316,
      "bienestar": 8317,
      "sosten": 8318,
      "enfermedades": 8319,
      "prácticas": 8320,
      "antiguo": 8321,
      "caballero": 8322,
      "ausencia": 8323,
      "enseño": 8324,
      "bás": 8325,
      "dones": 8326,
      "gor": 8327,
      "##don": 8328,
      "##ñal": 8329,
      "##yen": 8330,
      "patas": 8331,
      "vivimos": 8332,
      "huéspedes": 8333,
      "venían": 8334,
      "suele": 8335,
      "poderes": 8336,
      "Serán": 8337,
      "obstáculos": 8338,
      "dirige": 8339,
      "paredes": 8340,
      "colocar": 8341,
      "cuestiones": 8342,
      "sobrevivir": 8343,
      "constantemente": 8344,
      "peregrinación": 8345,
      "Nazaret": 8346,
      "Av": 8347,
      "AL": 8348,
      "Bat": 8349,
      "Med": 8350,
      "Ren": 8351,
      "gl": 8352,
      "##gente": 8353,
      "##mad": 8354,
      "##rirá": 8355,
      "inú": 8356,
      "inicia": 8357,
      "muros": 8358,
      "##usto": 8359,
      "##cerse": 8360,
      "##terrán": 8361,
      "espl": 8362,
      "aper": 8363,
      "llan": 8364,
      "##torce": 8365,
      "##tallas": 8366,
      "nace": 8367,
      "bendeci": 8368,
      "cultura": 8369,
      "Creador": 8370,
      "mueven": 8371,
      "muchacho": 8372,
      "obedecen": 8373,
      "suplic": 8374,
      "triun": 8375,
      "Testamento": 8376,
      "aprendiendo": 8377,
      "##frica": 8378,
      "amenaza": 8379,
      "raíces": 8380,
      "Sombrero": 8381,
      "equipos": 8382,
      "85": 8383,
      "Cm": 8384,
      "Mamá": 8385,
      "fuentes": 8386,
      "nac": 8387,
      "tren": 8388,
      "diver": 8389,
      "miedos": 8390,
      "##sever": 8391,
      "tiro": 8392,
      "##mano": 8393,
      "ascen": 8394,
      "abuelos": 8395,
      "cabello": 8396,
      "150": 8397,
      "interesa": 8398,
      "##atch": 8399,
      "necesitas": 8400,
      "olor": 8401,
      "roca": 8402,
      "vuestra": 8403,
      "usos": 8404,
      "señala": 8405,
      "deseen": 8406,
      "vivían": 8407,
      "renov": 8408,
      "material": 8409,
      "General": 8410,
      "destinados": 8411,
      "Claro": 8412,
      "negocio": 8413,
      "iniquidad": 8414,
      "superficie": 8415,
      "Alejand": 8416,
      "\"[": 8417,
      "2o": 8418,
      "Dici": 8419,
      "Ví": 8420,
      "ple": 8421,
      "pendientes": 8422,
      "rat": 8423,
      "##vida": 8424,
      "##ép": 8425,
      "##mm": 8426,
      "##IT": 8427,
      "encer": 8428,
      "seca": 8429,
      "##ise": 8430,
      "##ical": 8431,
      "dirigen": 8432,
      "mito": 8433,
      "##quez": 8434,
      "extend": 8435,
      "casó": 8436,
      "##torios": 8437,
      "dejamos": 8438,
      "bañ": 8439,
      "darte": 8440,
      "oposición": 8441,
      "chu": 8442,
      "cristal": 8443,
      "defens": 8444,
      "principios": 8445,
      "publicación": 8446,
      "océ": 8447,
      "elegidos": 8448,
      ".........": 8449,
      "bestia": 8450,
      "Misericord": 8451,
      "Rusia": 8452,
      "ámbito": 8453,
      "César": 8454,
      "77": 8455,
      "Cord": 8456,
      "añ": 8457,
      "atras": 8458,
      "brom": 8459,
      "techo": 8460,
      "##his": 8461,
      "##by": 8462,
      "##dó": 8463,
      "##ny": 8464,
      "##AC": 8465,
      "##12": 8466,
      "##king": 8467,
      "energía": 8468,
      "unión": 8469,
      "ino": 8470,
      "habit": 8471,
      "...!": 8472,
      "sabrán": 8473,
      "impac": 8474,
      "expiación": 8475,
      "faltar": 8476,
      "despues": 8477,
      "acompañan": 8478,
      "pasaje": 8479,
      "Recom": 8480,
      "equival": 8481,
      "contrad": 8482,
      "terminado": 8483,
      "Disfru": 8484,
      "nieve": 8485,
      "diciéndole": 8486,
      "Comenzó": 8487,
      "-.": 8488,
      "Bes": 8489,
      "Bra": 8490,
      "Beb": 8491,
      "Cla": 8492,
      "Ko": 8493,
      "Río": 8494,
      "Vea": 8495,
      "glo": 8496,
      "rayo": 8497,
      "##enos": 8498,
      "estro": 8499,
      "diario": 8500,
      "##chado": 8501,
      "##ille": 8502,
      "Alab": 8503,
      "paciente": 8504,
      "costa": 8505,
      "advers": 8506,
      "vueltas": 8507,
      "Creemos": 8508,
      "torn": 8509,
      "clam": 8510,
      "Manuel": 8511,
      "Judíos": 8512,
      "médicos": 8513,
      "Benj": 8514,
      "Sigue": 8515,
      "usuario": 8516,
      "Trans": 8517,
      "hebreo": 8518,
      "\").": 8519,
      "Bu": 8520,
      "Jav": 8521,
      "Sier": 8522,
      "Tre": 8523,
      "afer": 8524,
      "echa": 8525,
      "rol": 8526,
      "##vame": 8527,
      "##éramos": 8528,
      "##túan": 8529,
      "##ey": 8530,
      "##yan": 8531,
      "##yección": 8532,
      "##red": 8533,
      "miel": 8534,
      "##rano": 8535,
      "##tarnos": 8536,
      "Alf": 8537,
      "podrás": 8538,
      "comprend": 8539,
      "pensamos": 8540,
      "acompañados": 8541,
      "Habéis": 8542,
      "basura": 8543,
      "extraña": 8544,
      "cliente": 8545,
      "Actualmente": 8546,
      "aprenden": 8547,
      "encargado": 8548,
      "niega": 8549,
      "ventajas": 8550,
      "Dicho": 8551,
      "Irak": 8552,
      "68": 8553,
      "Jorge": 8554,
      "Sir": 8555,
      "ais": 8556,
      "cena": 8557,
      "##urez": 8558,
      "##ciéla": 8559,
      "##emia": 8560,
      "ext": 8561,
      "exterior": 8562,
      "veremos": 8563,
      "turis": 8564,
      "precios": 8565,
      "caídos": 8566,
      "obis": 8567,
      "pastores": 8568,
      "Congreso": 8569,
      "abus": 8570,
      "conocida": 8571,
      "Desp": 8572,
      "ponga": 8573,
      "mentir": 8574,
      "escuchen": 8575,
      "hiciste": 8576,
      "Joa": 8577,
      "##pital": 8578,
      "tempor": 8579,
      "idola": 8580,
      "cuestion": 8581,
      "suelen": 8582,
      "##fasis": 8583,
      "orgullo": 8584,
      "cadáveres": 8585,
      "Levítico": 8586,
      "Misericordioso": 8587,
      "\".\"": 8588,
      "'¿": 8589,
      "Lec": 8590,
      "Mel": 8591,
      "Pay": 8592,
      "Vie": 8593,
      "eje": 8594,
      "fama": 8595,
      "régimen": 8596,
      "##sto": 8597,
      "##mio": 8598,
      "##pp": 8599,
      "##plic": 8600,
      "##pendiente": 8601,
      "sug": 8602,
      "##ecías": 8603,
      "requis": 8604,
      "##decido": 8605,
      "habíamos": 8606,
      "hipó": 8607,
      "##cura": 8608,
      "proces": 8609,
      "restos": 8610,
      "excepción": 8611,
      "##tano": 8612,
      "campaña": 8613,
      "embar": 8614,
      "Comer": 8615,
      "##ting": 8616,
      "estuvimos": 8617,
      "vuelvas": 8618,
      "##quiel": 8619,
      "comentario": 8620,
      "hotel": 8621,
      "intento": 8622,
      "convencer": 8623,
      "ataque": 8624,
      "angustia": 8625,
      "consagr": 8626,
      "Agua": 8627,
      "Hel": 8628,
      "Otras": 8629,
      "Tel": 8630,
      "males": 8631,
      "oí": 8632,
      "sana": 8633,
      "tos": 8634,
      "##iten": 8635,
      "##line": 8636,
      "##reras": 8637,
      "##nfasis": 8638,
      "##com": 8639,
      "##pech": 8640,
      "decenas": 8641,
      "##rel": 8642,
      "##isos": 8643,
      "novedad": 8644,
      "estra": 8645,
      "##unal": 8646,
      "perió": 8647,
      "inquie": 8648,
      "##losos": 8649,
      "...,": 8650,
      "sonidos": 8651,
      "traicion": 8652,
      "prendas": 8653,
      "discu": 8654,
      "escen": 8655,
      "presta": 8656,
      "vistas": 8657,
      "vea": 8658,
      "esperamos": 8659,
      "Murió": 8660,
      "morirá": 8661,
      "##piro": 8662,
      "invitó": 8663,
      "perdonó": 8664,
      "pública": 8665,
      "bautizado": 8666,
      "Ezequiel": 8667,
      "cuánto": 8668,
      "eligió": 8669,
      "apellido": 8670,
      "88": 8671,
      "AN": 8672,
      "##lando": 8673,
      "##mó": 8674,
      "##anismo": 8675,
      "conm": 8676,
      "retrib": 8677,
      "rejuven": 8678,
      "##cede": 8679,
      "Alrededor": 8680,
      "tumb": 8681,
      "apun": 8682,
      "##vención": 8683,
      "##gría": 8684,
      "dejas": 8685,
      "caminando": 8686,
      "realiza": 8687,
      "profundo": 8688,
      "aflig": 8689,
      "Dile": 8690,
      "pantalla": 8691,
      "Parte": 8692,
      "perdone": 8693,
      "viajar": 8694,
      "juzgará": 8695,
      "públicos": 8696,
      "jueces": 8697,
      "##ideos": 8698,
      "balón": 8699,
      "oscuro": 8700,
      "Michael": 8701,
      "comportamiento": 8702,
      "líquido": 8703,
      "Italia": 8704,
      "Lab": 8705,
      "ave": 8706,
      "ofer": 8707,
      "tún": 8708,
      "##gin": 8709,
      "descu": 8710,
      "##queo": 8711,
      "dicha": 8712,
      "dispu": 8713,
      "recto": 8714,
      "compra": 8715,
      "abru": 8716,
      "decirlo": 8717,
      "hablaban": 8718,
      "realizó": 8719,
      "Palabras": 8720,
      "específico": 8721,
      "Aaron": 8722,
      "Kar": 8723,
      "Pen": 8724,
      "Sac": 8725,
      "fis": 8726,
      "##vios": 8727,
      "##umo": 8728,
      "deri": 8729,
      "##ueve": 8730,
      "##ald": 8731,
      "contado": 8732,
      "hagáis": 8733,
      "estim": 8734,
      "##leta": 8735,
      "retorno": 8736,
      "Alm": 8737,
      "mag": 8738,
      "mata": 8739,
      "viuda": 8740,
      "##ecida": 8741,
      "cord": 8742,
      "preguntado": 8743,
      "escritor": 8744,
      "insul": 8745,
      "chan": 8746,
      "despis": 8747,
      "puerto": 8748,
      "compañera": 8749,
      "segundos": 8750,
      "liter": 8751,
      "produjo": 8752,
      "reunieron": 8753,
      "desee": 8754,
      "Pascua": 8755,
      "asesino": 8756,
      "políticos": 8757,
      "conocemos": 8758,
      "satisf": 8759,
      "desconf": 8760,
      "asociados": 8761,
      "Policía": 8762,
      "reúne": 8763,
      "hierro": 8764,
      "Perdón": 8765,
      "famoso": 8766,
      "PS": 8767,
      "Za": 8768,
      "fren": 8769,
      "##EL": 8770,
      "##pica": 8771,
      "##erador": 8772,
      "##ormas": 8773,
      "sexto": 8774,
      "setenta": 8775,
      "redi": 8776,
      "tej": 8777,
      "verdu": 8778,
      "##iba": 8779,
      "amabilidad": 8780,
      "##ístico": 8781,
      "cuentos": 8782,
      "seno": 8783,
      "Comien": 8784,
      "##ity": 8785,
      "Abel": 8786,
      "faltas": 8787,
      "##pendo": 8788,
      "humilde": 8789,
      "Parece": 8790,
      "esfor": 8791,
      "sentimiento": 8792,
      "##quilib": 8793,
      "Cuántas": 8794,
      "posibilidades": 8795,
      "acercaron": 8796,
      "sumerg": 8797,
      "efectos": 8798,
      "soportar": 8799,
      "campeón": 8800,
      ");": 8801,
      "82": 8802,
      "Hombres": 8803,
      "Mano": 8804,
      "SU": 8805,
      "fres": 8806,
      "##ood": 8807,
      "##camos": 8808,
      "##xima": 8809,
      "##remo": 8810,
      "noble": 8811,
      "estad": 8812,
      "##lez": 8813,
      "##ánico": 8814,
      "lee": 8815,
      "##quete": 8816,
      "##udar": 8817,
      "amante": 8818,
      "##viamente": 8819,
      "muerde": 8820,
      "##ecimiento": 8821,
      "llevas": 8822,
      "profeti": 8823,
      "toque": 8824,
      "Santos": 8825,
      "desagrad": 8826,
      "fruta": 8827,
      "crucific": 8828,
      "asesinos": 8829,
      "desarrollar": 8830,
      "preocupes": 8831,
      "!!!!!": 8832,
      "sobr": 8833,
      "registro": 8834,
      "beso": 8835,
      "adecuado": 8836,
      "Lengua": 8837,
      "Salvador": 8838,
      "##enómen": 8839,
      "##grafías": 8840,
      "Dr": 8841,
      "Dig": 8842,
      "Mc": 8843,
      "Star": 8844,
      "VI": 8845,
      "fla": 8846,
      "lid": 8847,
      "##bar": 8848,
      "##zón": 8849,
      "##ms": 8850,
      "##EC": 8851,
      "semb": 8852,
      "tienden": 8853,
      "trato": 8854,
      "podremos": 8855,
      "papa": 8856,
      "salvos": 8857,
      "escuelas": 8858,
      "debo": 8859,
      "poten": 8860,
      "Letra": 8861,
      "confiamos": 8862,
      "tendrás": 8863,
      "Direc": 8864,
      "permaneció": 8865,
      "Guía": 8866,
      "arrepienten": 8867,
      "##oooooooo": 8868,
      "bautizados": 8869,
      "firmes": 8870,
      "deshones": 8871,
      "mandato": 8872,
      "##ipedia": 8873,
      "alianza": 8874,
      "prohí": 8875,
      "desaprovech": 8876,
      "ochenta": 8877,
      "Domin": 8878,
      "evangel": 8879,
      "##p3": 8880,
      "##triz": 8881,
      "miran": 8882,
      "proviene": 8883,
      "##terios": 8884,
      "esposas": 8885,
      "asamblea": 8886,
      "pasará": 8887,
      "paseo": 8888,
      "pozo": 8889,
      "peti": 8890,
      "vencer": 8891,
      "cambia": 8892,
      "##licos": 8893,
      "capas": 8894,
      "fuiste": 8895,
      "negar": 8896,
      "##ingü": 8897,
      "errón": 8898,
      "##liam": 8899,
      "publicado": 8900,
      "envuel": 8901,
      "utiliz": 8902,
      "descendió": 8903,
      "Sueño": 8904,
      "pulgadas": 8905,
      "matemá": 8906,
      "Bosque": 8907,
      "Edi": 8908,
      "Flor": 8909,
      "##río": 8910,
      "##mes": 8911,
      "enco": 8912,
      "##isas": 8913,
      "rele": 8914,
      "rega": 8915,
      "reempla": 8916,
      "##terías": 8917,
      "luces": 8918,
      "llamaron": 8919,
      "vencido": 8920,
      "##inato": 8921,
      "propie": 8922,
      "seguido": 8923,
      "poses": 8924,
      "darnos": 8925,
      "Mah": 8926,
      "empecé": 8927,
      "##duca": 8928,
      "reposo": 8929,
      "Prob": 8930,
      "basta": 8931,
      "desean": 8932,
      "Aprend": 8933,
      "muriendo": 8934,
      "echó": 8935,
      "oyentes": 8936,
      "adelan": 8937,
      "distingu": 8938,
      "arrepentimiento": 8939,
      "seducción": 8940,
      "bols": 8941,
      "abundante": 8942,
      "director": 8943,
      "relacionados": 8944,
      "injustos": 8945,
      "identidad": 8946,
      "odian": 8947,
      "colaboración": 8948,
      "Bras": 8949,
      "Fl": 8950,
      "fenómen": 8951,
      "##arca": 8952,
      "unieron": 8953,
      "convi": 8954,
      "##tiz": 8955,
      "despar": 8956,
      "ambi": 8957,
      "prepara": 8958,
      "##gaciones": 8959,
      "pasaron": 8960,
      "llevaba": 8961,
      "Maria": 8962,
      "cocina": 8963,
      "monstru": 8964,
      "gratu": 8965,
      "comentó": 8966,
      "plante": 8967,
      "intentar": 8968,
      "hicieran": 8969,
      "reveló": 8970,
      "contento": 8971,
      "domingo": 8972,
      "descubierto": 8973,
      "Conoces": 8974,
      "conocían": 8975,
      "ubicación": 8976,
      "hermosa": 8977,
      "Jonás": 8978,
      "detalle": 8979,
      "profundamente": 8980,
      "extraviado": 8981,
      "Acompañ": 8982,
      "3D": 8983,
      "Cel": 8984,
      "Puerto": 8985,
      "Tito": 8986,
      "band": 8987,
      "##rará": 8988,
      "##erio": 8989,
      "##asa": 8990,
      "##amín": 8991,
      "##emo": 8992,
      "inci": 8993,
      "muro": 8994,
      "advierte": 8995,
      "quedarán": 8996,
      "ciegos": 8997,
      "empie": 8998,
      "instante": 8999,
      "falso": 9000,
      "mejorar": 9001,
      "repente": 9002,
      "ayudarnos": 9003,
      "bebe": 9004,
      "servido": 9005,
      "levantar": 9006,
      "ciertos": 9007,
      "llorando": 9008,
      "##éndolo": 9009,
      "existir": 9010,
      "patria": 9011,
      "adecuada": 9012,
      "cercano": 9013,
      "similares": 9014,
      "establecer": 9015,
      "musulmanes": 9016,
      "auténtico": 9017,
      "involuc": 9018,
      "Bern": 9019,
      "Lan": 9020,
      "Vid": 9021,
      "sesión": 9022,
      "##iremos": 9023,
      "##ore": 9024,
      "supo": 9025,
      "##isco": 9026,
      "##icul": 9027,
      "sim": 9028,
      "infer": 9029,
      "mism": 9030,
      "Unión": 9031,
      "##imismo": 9032,
      "muerta": 9033,
      "costumbre": 9034,
      "implica": 9035,
      "sentí": 9036,
      "marco": 9037,
      "coño": 9038,
      "188": 9039,
      "irres": 9040,
      "saga": 9041,
      "purific": 9042,
      "Respues": 9043,
      "comparten": 9044,
      "Paso": 9045,
      "sorprendió": 9046,
      "controlar": 9047,
      "Presidente": 9048,
      "Infierno": 9049,
      "propiedades": 9050,
      "##alámbr": 9051,
      "generosidad": 9052,
      "Segunda": 9053,
      "Encuentro": 9054,
      "Asociación": 9055,
      "Cosas": 9056,
      "Up": 9057,
      "Vin": 9058,
      "ced": 9059,
      "dro": 9060,
      "fidelidad": 9061,
      "hero": 9062,
      "pil": 9063,
      "##viste": 9064,
      "##far": 9065,
      "##úho": 9066,
      "##cian": 9067,
      "##alos": 9068,
      "cont": 9069,
      "##mael": 9070,
      "Ali": 9071,
      "Siria": 9072,
      "compuesto": 9073,
      "muertes": 9074,
      "abuela": 9075,
      "pregunte": 9076,
      "encuentren": 9077,
      "##curs": 9078,
      "extraord": 9079,
      "Resul": 9080,
      "resulta": 9081,
      "Casi": 9082,
      "prosper": 9083,
      "simple": 9084,
      "Edén": 9085,
      "Twitter": 9086,
      "William": 9087,
      "pérdida": 9088,
      "95": 9089,
      "bos": 9090,
      "festi": 9091,
      "samar": 9092,
      "tap": 9093,
      "##iana": 9094,
      "##fé": 9095,
      "##tré": 9096,
      "##unes": 9097,
      "##emon": 9098,
      "persever": 9099,
      "desal": 9100,
      "inex": 9101,
      "##uena": 9102,
      "##iego": 9103,
      "##úsculas": 9104,
      "estáis": 9105,
      "estemos": 9106,
      "dejé": 9107,
      "##gancia": 9108,
      "cancion": 9109,
      "pongan": 9110,
      "profecías": 9111,
      "##its": 9112,
      "perdieron": 9113,
      "santific": 9114,
      "aparición": 9115,
      "##cipl": 9116,
      "##uya": 9117,
      "compañías": 9118,
      "extraños": 9119,
      "sufriendo": 9120,
      "regresaron": 9121,
      "barca": 9122,
      "preparar": 9123,
      "##guemos": 9124,
      "funciones": 9125,
      "distintas": 9126,
      "##tendrá": 9127,
      "fallecido": 9128,
      "asustó": 9129,
      "funcionarios": 9130,
      "pondrá": 9131,
      "urbano": 9132,
      "tabla": 9133,
      "describe": 9134,
      "ejercicio": 9135,
      "Bienvenido": 9136,
      "primogén": 9137,
      "almendras": 9138,
      "Código": 9139,
      "samaritan": 9140,
      "600": 9141,
      "Bro": 9142,
      "Oli": 9143,
      "lema": 9144,
      "mic": 9145,
      "Ún": 9146,
      "##tones": 9147,
      "##jaron": 9148,
      "##DA": 9149,
      "##pera": 9150,
      "##ker": 9151,
      "elabor": 9152,
      "unido": 9153,
      "paral": 9154,
      "##ledad": 9155,
      "##cate": 9156,
      "extin": 9157,
      "precip": 9158,
      "matado": 9159,
      "catorce": 9160,
      "##vera": 9161,
      "salto": 9162,
      "##icil": 9163,
      "arma": 9164,
      "sentarse": 9165,
      "##itales": 9166,
      "despla": 9167,
      "motiv": 9168,
      "sacó": 9169,
      "pertenecía": 9170,
      "encontrarte": 9171,
      "pasaría": 9172,
      "Niño": 9173,
      "recuerdan": 9174,
      "renun": 9175,
      "sombrero": 9176,
      "enfrentarse": 9177,
      "Vale": 9178,
      "viejos": 9179,
      "Yahvé": 9180,
      "excelente": 9181,
      "encomiendo": 9182,
      "Claramente": 9183,
      "resolver": 9184,
      "tranquilidad": 9185,
      "AS": 9186,
      "Añad": 9187,
      "Muer": 9188,
      "ceb": 9189,
      "##har": 9190,
      "##vista": 9191,
      "##tn": 9192,
      "##tle": 9193,
      "##zará": 9194,
      "##ji": 9195,
      "##30": 9196,
      "logra": 9197,
      "##tique": 9198,
      "compa": 9199,
      "Español": 9200,
      "##losa": 9201,
      "sociales": 9202,
      "##dención": 9203,
      "asiento": 9204,
      "conocidos": 9205,
      "malh": 9206,
      "termina": 9207,
      "Tener": 9208,
      "capitulo": 9209,
      "botel": 9210,
      "presentan": 9211,
      "##uth": 9212,
      "Ayuda": 9213,
      "expresar": 9214,
      "permanecen": 9215,
      "formado": 9216,
      "cubierta": 9217,
      "asegura": 9218,
      "aseguró": 9219,
      "escapó": 9220,
      "palma": 9221,
      "corriente": 9222,
      "quinto": 9223,
      "Profetas": 9224,
      "Ojala": 9225,
      "absoluto": 9226,
      "period": 9227,
      "usuarios": 9228,
      "huérfanos": 9229,
      "Cordero": 9230,
      "Bre": 9231,
      "Due": 9232,
      "Gan": 9233,
      "Igu": 9234,
      "Tec": 9235,
      "bras": 9236,
      "nerv": 9237,
      "véase": 9238,
      "##zon": 9239,
      "##El": 9240,
      "##ciera": 9241,
      "##trarse": 9242,
      "leal": 9243,
      "Seis": 9244,
      "anda": 9245,
      "tuya": 9246,
      "prud": 9247,
      "##torial": 9248,
      "decidir": 9249,
      "huyó": 9250,
      "ayuden": 9251,
      "sentencia": 9252,
      "Desarrol": 9253,
      "Magn": 9254,
      "reglas": 9255,
      "terremo": 9256,
      "tomo": 9257,
      "atender": 9258,
      "##uyendo": 9259,
      "permitirá": 9260,
      "Herodes": 9261,
      "religiosa": 9262,
      "reconoce": 9263,
      "aprende": 9264,
      "aprendió": 9265,
      "cuarta": 9266,
      "testimonios": 9267,
      "enfrentar": 9268,
      "añade": 9269,
      "gato": 9270,
      "##yyyy": 9271,
      "andar": 9272,
      "inmedia": 9273,
      "ansiedad": 9274,
      "##fradía": 9275,
      "Hal": 9276,
      "Jez": 9277,
      "Tri": 9278,
      "cú": 9279,
      "gr": 9280,
      "##tora": 9281,
      "##gal": 9282,
      "##americ": 9283,
      "desas": 9284,
      "##ceres": 9285,
      "##ilando": 9286,
      "verde": 9287,
      "lleven": 9288,
      "tuvimos": 9289,
      "Debe": 9290,
      "salen": 9291,
      "decidido": 9292,
      "Islam": 9293,
      "Marta": 9294,
      "seguirá": 9295,
      "tortu": 9296,
      "obstáculo": 9297,
      "enviar": 9298,
      "##iki": 9299,
      "guardia": 9300,
      "pudieran": 9301,
      "recuperar": 9302,
      "excelencia": 9303,
      "..\"": 9304,
      "61": 9305,
      "It": 9306,
      "Ken": 9307,
      "King": 9308,
      "Tim": 9309,
      "aé": 9310,
      "otoño": 9311,
      "vano": 9312,
      "##ive": 9313,
      "##rus": 9314,
      "##íd": 9315,
      "##gs": 9316,
      "##ged": 9317,
      "##gaban": 9318,
      "##fras": 9319,
      "##uera": 9320,
      "##esen": 9321,
      "lav": 9322,
      "seco": 9323,
      "##alia": 9324,
      "##icha": 9325,
      "dirán": 9326,
      ".\"\"": 9327,
      "Noticias": 9328,
      "amados": 9329,
      "asen": 9330,
      "propon": 9331,
      "llevarse": 9332,
      "##ína": 9333,
      "##pefac": 9334,
      "coche": 9335,
      "tembl": 9336,
      "santa": 9337,
      "auxil": 9338,
      "atentos": 9339,
      "repro": 9340,
      "##ionero": 9341,
      "observa": 9342,
      "acepta": 9343,
      "horno": 9344,
      "##istentes": 9345,
      "prima": 9346,
      "separación": 9347,
      "autob": 9348,
      "perfecta": 9349,
      "impresión": 9350,
      "##CIÓN": 9351,
      "aspectos": 9352,
      "lámpara": 9353,
      "inmediatamente": 9354,
      "profesionales": 9355,
      "acceder": 9356,
      "categoría": 9357,
      "Déjame": 9358,
      "Gabriel": 9359,
      "##acarías": 9360,
      "Brasil": 9361,
      "Mála": 9362,
      "Ray": 9363,
      "Sr": 9364,
      "US": 9365,
      "Zacarías": 9366,
      "riendas": 9367,
      "uñas": 9368,
      "##tables": 9369,
      "##uri": 9370,
      "deba": 9371,
      "##truye": 9372,
      "parque": 9373,
      "mutu": 9374,
      "lleve": 9375,
      "ancho": 9376,
      "Unas": 9377,
      "##venta": 9378,
      "Asia": 9379,
      "##ceptos": 9380,
      "deberá": 9381,
      "aceptación": 9382,
      "reconocido": 9383,
      "honrar": 9384,
      "cubierto": 9385,
      "gozo": 9386,
      "remo": 9387,
      "Prin": 9388,
      "Presen": 9389,
      "afectados": 9390,
      "heredero": 9391,
      "integr": 9392,
      "Diego": 9393,
      "imperio": 9394,
      "habilidades": 9395,
      "tranquilo": 9396,
      "Número": 9397,
      "Películas": 9398,
      "aplicaciones": 9399,
      "alcohol": 9400,
      "trompe": 9401,
      "Málaga": 9402,
      "Pi": 9403,
      "Wa": 9404,
      "htt": 9405,
      "súp": 9406,
      "##jadas": 9407,
      "##endió": 9408,
      "queden": 9409,
      "sep": 9410,
      "##laje": 9411,
      "desl": 9412,
      "desci": 9413,
      "ingles": 9414,
      "hacernos": 9415,
      "##icias": 9416,
      "Mario": 9417,
      "##adoras": 9418,
      "despier": 9419,
      "tormenta": 9420,
      "##rededores": 9421,
      "desaparecido": 9422,
      "Rojo": 9423,
      "devolvió": 9424,
      "sepulcro": 9425,
      "##ustria": 9426,
      "numerosas": 9427,
      "cerebro": 9428,
      "Bur": 9429,
      "IN": 9430,
      "Lar": 9431,
      "Rod": 9432,
      "Veo": 9433,
      "clic": 9434,
      "fol": 9435,
      "##hía": 9436,
      "altas": 9437,
      "Ens": 9438,
      "amable": 9439,
      "Cuan": 9440,
      "propuestas": 9441,
      "internet": 9442,
      "Habían": 9443,
      "basa": 9444,
      "entendió": 9445,
      "transgres": 9446,
      "permitido": 9447,
      "especiales": 9448,
      "comparación": 9449,
      "##alofr": 9450,
      "Nuevas": 9451,
      "inmens": 9452,
      "miradas": 9453,
      "lectores": 9454,
      "celebra": 9455,
[...]
