{
  "version": "1.0",
  "truncation": null,
  "padding": null,
  "added_tokens": [
    {
      "id": 0,
      "content": "[UNK]",
      "single_word": false,
      "lstrip": false,
      "rstrip": false,
      "normalized": false,
      "special": true
    },
    {
      "id": 1,
      "content": "[PAD]",
      "single_word": false,
      "lstrip": false,
      "rstrip": false,
      "normalized": false,
      "special": true
    },
    {
      "id": 2,
      "content": "[SOS]",
      "single_word": false,
      "lstrip": false,
      "rstrip": false,
      "normalized": false,
      "special": true
    },
    {
      "id": 3,
      "content": "[EOS]",
      "single_word": false,
      "lstrip": false,
      "rstrip": false,
      "normalized": false,
      "special": true
    }
  ],
  "normalizer": null,
  "pre_tokenizer": {
    "type": "Whitespace"
  },
  "post_processor": null,
  "decoder": null,
  "model": {
    "type": "BPE",
    "dropout": null,
    "unk_token": "[UNK]",
    "continuing_subword_prefix": null,
    "end_of_word_suffix": null,
    "fuse_unk": false,
    "byte_fallback": false,
    "ignore_merges": false,
    "vocab": {
      "[UNK]": 0,
      "[PAD]": 1,
      "[SOS]": 2,
      "[EOS]": 3,
      "!": 4,
      "\"": 5,
      "#": 6,
      "$": 7,
      "%": 8,
      "&": 9,
      "'": 10,
      "(": 11,
      ")": 12,
      "*": 13,
      "+": 14,
      ",": 15,
      "-": 16,
      ".": 17,
      "/": 18,
      "0": 19,
      "1": 20,
      "2": 21,
      "3": 22,
      "4": 23,
      "5": 24,
      "6": 25,
      "7": 26,
      "8": 27,
      "9": 28,
      ":": 29,
      ";": 30,
      "<": 31,
      "=": 32,
      ">": 33,
      "?": 34,
      "@": 35,
      "A": 36,
      "B": 37,
      "C": 38,
      "D": 39,
      "E": 40,
      "F": 41,
      "G": 42,
      "H": 43,
      "I": 44,
      "J": 45,
      "K": 46,
      "L": 47,
      "M": 48,
      "N": 49,
      "O": 50,
      "P": 51,
      "Q": 52,
      "R": 53,
      "S": 54,
      "T": 55,
      "U": 56,
      "V": 57,
      "W": 58,
      "X": 59,
      "Y": 60,
      "Z": 61,
      "[": 62,
      "\\": 63,
      "]": 64,
      "^": 65,
      "_": 66,
      "`": 67,
      "a": 68,
      "b": 69,
      "c": 70,
      "d": 71,
      "e": 72,
      "f": 73,
      "g": 74,
      "h": 75,
      "i": 76,
      "j": 77,
      "k": 78,
      "l": 79,
      "m": 80,
      "n": 81,
      "o": 82,
      "p": 83,
      "q": 84,
      "r": 85,
      "s": 86,
      "t": 87,
      "u": 88,
      "v": 89,
      "w": 90,
      "x": 91,
      "y": 92,
      "z": 93,
      "{": 94,
      "|": 95,
      "}": 96,
      "~": 97,
      "¡": 98,
      "¢": 99,
      "£": 100,
      "¦": 101,
      "©": 102,
      "¬": 103,
      "®": 104,
      "°": 105,
      "¶": 106,
      "·": 107,
      "¿": 108,
      "À": 109,
      "Á": 110,
      "Â": 111,
      "Ã": 112,
      "Ä": 113,
      "Å": 114,
      "Æ": 115,
      "Ç": 116,
      "È": 117,
      "É": 118,
      "Ê": 119,
      "Ë": 120,
      "Ì": 121,
      "Í": 122,
      "Î": 123,
      "Ï": 124,
      "Ñ": 125,
      "Ò": 126,
      "Ó": 127,
      "Ô": 128,
      "Õ": 129,
      "×": 130,
      "Ø": 131,
      "Ú": 132,
      "Ü": 133,
      "Ý": 134,
      "Þ": 135,
      "ß": 136,
      "à": 137,
      "á": 138,
      "â": 139,
      "ä": 140,
      "ç": 141,
      "è": 142,
      "é": 143,
      "ê": 144,
      "ë": 145,
      "ì": 146,
      "í": 147,
      "î": 148,
      "ï": 149,
      "ð": 150,
      "ñ": 151,
      "ò": 152,
      "ó": 153,
      "ô": 154,
      "õ": 155,
      "ö": 156,
      "÷": 157,
      "ø": 158,
      "ù": 159,
      "ú": 160,
      "û": 161,
      "ü": 162,
      "ý": 163,
      "þ": 164,
      "ÿ": 165,
      "Ā": 166,
      "ā": 167,
      "Ă": 168,
      "ă": 169,
      "Ą": 170,
      "ą": 171,
      "Ć": 172,
      "ć": 173,
      "Ĉ": 174,
      "ĉ": 175,
      "ċ": 176,
      "Č": 177,
      "č": 178,
      "ď": 179,
      "Đ": 180,
      "đ": 181,
      "Ē": 182,
      "ē": 183,
      "ĕ": 184,
      "ė": 185,
      "ę": 186,
      "Ě": 187,
      "ě": 188,
      "ĝ": 189,
      "Ğ": 190,
      "ğ": 191,
      "ġ": 192,
      "ģ": 193,
      "Ĥ": 194,
      "ĥ": 195,
      "Ħ": 196,
      "ħ": 197,
      "Ĩ": 198,
      "ĩ": 199,
      "Ī": 200,
      "ī": 201,
      "Į": 202,
      "į": 203,
      "İ": 204,
      "ı": 205,
      "ĵ": 206,
      "ķ": 207,
      "ĸ": 208,
      "ĺ": 209,
      "ļ": 210,
      "ľ": 211,
      "Ł": 212,
      "ł": 213,
      "Ń": 214,
      "ń": 215,
      "ņ": 216,
      "Ň": 217,
      "ň": 218,
      "ŋ": 219,
      "Ō": 220,
      "ō": 221,
      "ŏ": 222,
      "Ő": 223,
      "ő": 224,
      "Œ": 225,
      "œ": 226,
      "ŕ": 227,
      "ř": 228,
      "Ś": 229,
      "ś": 230,
      "Ŝ": 231,
      "ŝ": 232,
      "Ş": 233,
      "ş": 234,
      "Š": 235,
      "š": 236,
      "Ţ": 237,
      "ţ": 238,
      "Ť": 239,
      "ť": 240,
      "ũ": 241,
      "Ū": 242,
      "ū": 243,
      "ŭ": 244,
      "ů": 245,
      "ų": 246,
      "ŵ": 247,
      "Ÿ": 248,
      "ź": 249,
      "Ż": 250,
      "ż": 251,
      "Ž": 252,
      "ž": 253,
      "Ɔ": 254,
      "Ɖ": 255,
      "ƌ": 256,
      "Ǝ": 257,
      "Ə": 258,
      "Ɛ": 259,
      "ƒ": 260,
      "Ɨ": 261,
      "ƙ": 262,
      "ƚ": 263,
      "ƛ": 264,
      "Ɲ": 265,
      "ƞ": 266,
      "Ɵ": 267,
      "ơ": 268,
      "Ư": 269,
      "ư": 270,
      "Ʒ": 271,
      "ƿ": 272,
      "ǀ": 273,
      "ǁ": 274,
      "ǂ": 275,
      "ǃ": 276,
      "ǒ": 277,
      "ǝ": 278,
      "ǧ": 279,
      "ǰ": 280,
      "Ǵ": 281,
      "ǵ": 282,
      "Ƿ": 283,
      "ǿ": 284,
      "ȃ": 285,
      "ȇ": 286,
      "ȓ": 287,
      "Ș": 288,
      "ș": 289,
      "ț": 290,
      "Ȝ": 291,
      "ȝ": 292,
      "ȟ": 293,
      "ȩ": 294,
      "ȫ": 295,
      "ȼ": 296,
      "Ƚ": 297,
      "ɐ": 298,
      "ɑ": 299,
      "ɓ": 300,
      "ɔ": 301,
      "ɖ": 302,
      "ɗ": 303,
      "ə": 304,
      "ɛ": 305,
      "ɢ": 306,
      "ɣ": 307,
      "ɥ": 308,
      "ɨ": 309,
      "ɫ": 310,
      "ɬ": 311,
      "ɭ": 312,
      "ɰ": 313,
      "ɱ": 314,
      "ɲ": 315,
      "ɳ": 316,
      "ɸ": 317,
      "ɹ": 318,
      "ɾ": 319,
      "ʂ": 320,
      "ʃ": 321,
      "ʈ": 322,
      "ʉ": 323,
      "ʋ": 324,
      "ʌ": 325,
      "ʎ": 326,
      "ʔ": 327,
      "ʕ": 328,
      "ʗ": 329,
      "ʞ": 330,
      "ʤ": 331,
      "ʦ": 332,
      "ʧ": 333,
      "ʹ": 334,
      "ʻ": 335,
      "ʼ": 336,
      "ʾ": 337,
      "ʿ": 338,
      "ˆ": 339,
      "ˇ": 340,
      "ˈ": 341,
      "ˊ": 342,
      "ː": 343,
      "˓": 344,
      "˻": 345,
      "˼": 346,
      "̀": 347,
      "́": 348,
      "̂": 349,
      "̃": 350,
      "̄": 351,
      "̆": 352,
      "̇": 353,
      "̈": 354,
      "̊": 355,
      "̋": 356,
      "̌": 357,
      "̍": 358,
      "̐": 359,
      "̓": 360,
      "̕": 361,
      "̠": 362,
      "̣": 363,
      "̥": 364,
      "̦": 365,
      "̧": 366,
      "̨": 367,
      "̰": 368,
      "̱": 369,
      "̲": 370,
      "̳": 371,
      "̵": 372,
      "̶": 373,
      "͊": 374,
      "͋": 375,
      "͍": 376,
      "͎": 377,
      "͘": 378,
      "͙": 379,
      "͛": 380,
      "͟": 381,
      "͠": 382,
      "͡": 383,
      "ͬ": 384,
      "Ͳ": 385,
      "Ϳ": 386,
      "Έ": 387,
      "Ό": 388,
      "Α": 389,
      "Β": 390,
      "Γ": 391,
      "Δ": 392,
      "Ε": 393,
      "Ζ": 394,
      "Θ": 395,
      "Ι": 396,
      "Κ": 397,
      "Λ": 398,
      "Μ": 399,
      "Ν": 400,
      "Ο": 401,
      "Π": 402,
      "Ρ": 403,
      "Σ": 404,
      "Τ": 405,
      "Υ": 406,
      "Χ": 407,
      "Ω": 408,
      "ά": 409,
      "έ": 410,
      "ή": 411,
      "ί": 412,
      "α": 413,
      "β": 414,
      "γ": 415,
      "δ": 416,
      "ε": 417,
      "ζ": 418,
      "η": 419,
      "θ": 420,
      "ι": 421,
      "κ": 422,
      "λ": 423,
      "μ": 424,
      "ν": 425,
      "ξ": 426,
      "ο": 427,
      "π": 428,
      "ρ": 429,
      "ς": 430,
      "σ": 431,
      "τ": 432,
      "υ": 433,
      "φ": 434,
      "χ": 435,
      "ψ": 436,
      "ω": 437,
      "ϊ": 438,
      "ό": 439,
      "ύ": 440,
      "ώ": 441,
      "ϭ": 442,
      "Ϯ": 443,
      "Ա": 444,
      "Բ": 445,
      "Գ": 446,
      "Դ": 447,
      "Ե": 448,
      "Զ": 449,
      "Է": 450,
      "Ը": 451,
      "Թ": 452,
      "Ի": 453,
      "Լ": 454,
      "Խ": 455,
      "Ծ": 456,
      "Կ": 457,
      "Հ": 458,
      "Մ": 459,
      "Յ": 460,
      "Ն": 461,
      "Շ": 462,
      "Ո": 463,
      "Պ": 464,
      "Ջ": 465,
      "Ռ": 466,
      "Ս": 467,
      "Վ": 468,
      "Տ": 469,
      "Ր": 470,
      "Ց": 471,
      "Ւ": 472,
      "Փ": 473,
      "Ք": 474,
      "Օ": 475,
      "՝": 476,
      "ա": 477,
      "բ": 478,
      "գ": 479,
      "դ": 480,
      "ե": 481,
      "զ": 482,
      "է": 483,
      "ը": 484,
      "թ": 485,
      "ժ": 486,
      "ի": 487,
      "լ": 488,
      "խ": 489,
      "ծ": 490,
      "կ": 491,
      "հ": 492,
      "ղ": 493,
      "ճ": 494,
      "մ": 495,
      "յ": 496,
      "ն": 497,
      "շ": 498,
      "ո": 499,
      "չ": 500,
      "պ": 501,
      "ջ": 502,
      "ռ": 503,
      "ս": 504,
      "վ": 505,
      "տ": 506,
      "ր": 507,
      "ց": 508,
      "ւ": 509,
      "փ": 510,
      "ք": 511,
      "օ": 512,
      "։": 513,
      "֔": 514,
      "ְ": 515,
      "ֲ": 516,
      "ִ": 517,
      "ַ": 518,
      "ָ": 519,
      "ֹ": 520,
      "ֽ": 521,
      "ׁ": 522,
      "א": 523,
      "ב": 524,
      "ג": 525,
      "ד": 526,
      "ה": 527,
      "ו": 528,
      "ז": 529,
      "ח": 530,
      "ט": 531,
      "י": 532,
      "ך": 533,
      "כ": 534,
      "ל": 535,
      "ם": 536,
      "מ": 537,
      "ן": 538,
      "נ": 539,
      "ס": 540,
      "ע": 541,
      "ף": 542,
      "פ": 543,
      "ץ": 544,
      "צ": 545,
      "ק": 546,
      "ר": 547,
      "ש": 548,
      "ת": 549,
      "ײ": 550,
      "،": 551,
      "ܐ": 552,
      "ܒ": 553,
      "ܓ": 554,
      "ܕ": 555,
      "ܘ": 556,
      "ܚ": 557,
      "ܛ": 558,
      "ܝ": 559,
      "ܠ": 560,
      "ܡ": 561,
      "ܢ": 562,
      "ܣ": 563,
      "ܥ": 564,
      "ܦ": 565,
      "ܩ": 566,
      "ܪ": 567,
      "ܫ": 568,
      "ܬ": 569,
      "ނ": 570,
      "ބ": 571,
      "ފ": 572,
      "ދ": 573,
      "ތ": 574,
      "ލ": 575,
      "ގ": 576,
      "ޞ": 577,
      "ޠ": 578,
      "ަ": 579,
      "ީ": 580,
      "ު": 581,
      "ޭ": 582,
      "ް": 583,
      "ঁ": 584,
      "ঃ": 585,
      "অ": 586,
      "আ": 587,
      "ই": 588,
      "উ": 589,
      "এ": 590,
      "ও": 591,
      "ক": 592,
      "খ": 593,
      "গ": 594,
      "ঙ": 595,
      "চ": 596,
      "ছ": 597,
      "জ": 598,
      "ঞ": 599,
      "ট": 600,
      "ঠ": 601,
      "ড": 602,
      "ণ": 603,
      "ত": 604,
      "দ": 605,
      "ধ": 606,
      "ন": 607,
      "প": 608,
      "ফ": 609,
      "ব": 610,
      "ভ": 611,
      "ম": 612,
      "য": 613,
      "র": 614,
      "ল": 615,
      "শ": 616,
      "ষ": 617,
      "স": 618,
      "হ": 619,
      "়": 620,
      "া": 621,
      "ি": 622,
      "ী": 623,
      "ু": 624,
      "ৃ": 625,
      "ে": 626,
      "ৈ": 627,
      "ো": 628,
      "্": 629,
      "০": 630,
      "১": 631,
      "২": 632,
      "৩": 633,
      "৪": 634,
      "৫": 635,
      "৬": 636,
      "৭": 637,
      "৯": 638,
      "ৰ": 639,
      "ਂ": 640,
      "ਅ": 641,
      "ਆ": 642,
      "ਇ": 643,
      "ਈ": 644,
      "ਉ": 645,
      "ਊ": 646,
      "ਏ": 647,
      "ਐ": 648,
      "ਓ": 649,
      "ਕ": 650,
      "ਖ": 651,
      "ਗ": 652,
      "ਘ": 653,
      "ਚ": 654,
      "ਜ": 655,
      "ਝ": 656,
      "ਟ": 657,
      "ਡ": 658,
      "ਣ": 659,
      "ਤ": 660,
      "ਥ": 661,
      "ਦ": 662,
      "ਧ": 663,
      "ਨ": 664,
      "ਪ": 665,
      "ਫ": 666,
      "ਬ": 667,
      "ਭ": 668,
      "ਮ": 669,
      "ਯ": 670,
      "ਰ": 671,
      "ਲ": 672,
      "ਵ": 673,
      "ਸ": 674,
      "ਹ": 675,
      "਼": 676,
      "ਾ": 677,
      "ਿ": 678,
      "ੀ": 679,
      "ੁ": 680,
      "ੂ": 681,
      "ੇ": 682,
      "ੈ": 683,
      "ੋ": 684,
      "ੌ": 685,
      "੍": 686,
      "ੜ": 687,
      "੦": 688,
      "੧": 689,
      "੨": 690,
      "੩": 691,
      "੪": 692,
      "੫": 693,
      "੬": 694,
      "੮": 695,
      "੯": 696,
      "ੰ": 697,
      "ੱ": 698,
      "ં": 699,
      "અ": 700,
      "આ": 701,
      "ઉ": 702,
      "એ": 703,
      "ક": 704,
      "ગ": 705,
      "ચ": 706,
      "છ": 707,
      "જ": 708,
      "ઝ": 709,
      "ટ": 710,
      "ડ": 711,
      "ણ": 712,
      "ત": 713,
      "થ": 714,
      "દ": 715,
      "ધ": 716,
      "ન": 717,
      "પ": 718,
      "બ": 719,
      "મ": 720,
      "ય": 721,
      "ર": 722,
      "લ": 723,
      "વ": 724,
      "શ": 725,
      "ષ": 726,
      "સ": 727,
      "હ": 728,
      "ા": 729,
      "િ": 730,
      "ી": 731,
      "ુ": 732,
      "ૂ": 733,
      "ે": 734,
      "ૈ": 735,
      "ો": 736,
      "્": 737,
      "૨": 738,
      "ଂ": 739,
      "ଆ": 740,
      "ଇ": 741,
      "ଉ": 742,
      "ଏ": 743,
      "ଓ": 744,
      "କ": 745,
      "ଖ": 746,
      "ଗ": 747,
      "ଘ": 748,
      "ଙ": 749,
      "ଚ": 750,
      "ଜ": 751,
      "ଞ": 752,
      "ଟ": 753,
      "ଡ": 754,
      "ଣ": 755,
      "ତ": 756,
      "ଥ": 757,
      "ନ": 758,
      "ପ": 759,
      "ଫ": 760,
      "ବ": 761,
      "ଭ": 762,
      "ମ": 763,
      "ର": 764,
      "ଲ": 765,
      "ଵ": 766,
      "ଶ": 767,
      "ଷ": 768,
      "ସ": 769,
      "ହ": 770,
      "଼": 771,
      "ା": 772,
      "ି": 773,
      "ୀ": 774,
      "ୁ": 775,
      "ୃ": 776,
      "େ": 777,
      "ୋ": 778,
      "୍": 779,
      "ୟ": 780,
      "୫": 781,
      "ஃ": 782,
      "அ": 783,
      "ஆ": 784,
      "இ": 785,
      "உ": 786,
      "எ": 787,
      "ஏ": 788,
      "ஐ": 789,
      "ஒ": 790,
      "க": 791,
      "ங": 792,
      "ச": 793,
      "ஜ": 794,
      "ஞ": 795,
      "ட": 796,
      "ண": 797,
      "த": 798,
      "ந": 799,
      "ன": 800,
      "ப": 801,
      "ம": 802,
      "ய": 803,
      "ர": 804,
      "ற": 805,
      "ல": 806,
      "ள": 807,
      "ழ": 808,
      "வ": 809,
      "ஷ": 810,
      "ஸ": 811,
      "ஹ": 812,
      "ா": 813,
      "ி": 814,
      "ீ": 815,
      "ு": 816,
      "ூ": 817,
      "ெ": 818,
      "ே": 819,
      "ை": 820,
      "ொ": 821,
      "ோ": 822,
      "ௌ": 823,
      "்": 824,
      "ం": 825,
      "అ": 826,
      "ఆ": 827,
      "ఉ": 828,
      "ఊ": 829,
      "ఒ": 830,
      "క": 831,
      "గ": 832,
      "చ": 833,
      "జ": 834,
      "ట": 835,
      "డ": 836,
      "ణ": 837,
      "త": 838,
      "థ": 839,
      "ద": 840,
      "ధ": 841,
      "న": 842,
      "ప": 843,
      "ఫ": 844,
      "బ": 845,
      "భ": 846,
      "మ": 847,
      "య": 848,
      "ర": 849,
      "ల": 850,
      "ళ": 851,
      "వ": 852,
      "శ": 853,
      "ష": 854,
      "స": 855,
      "హ": 856,
      "ా": 857,
      "ి": 858,
      "ీ": 859,
      "ు": 860,
      "ూ": 861,
      "ె": 862,
      "ే": 863,
      "ై": 864,
      "ొ": 865,
      "ో": 866,
      "్": 867,
      "ಂ": 868,
      "ಅ": 869,
      "ಆ": 870,
      "ಇ": 871,
      "ಉ": 872,
      "ಎ": 873,
      "ಒ": 874,
      "ಕ": 875,
      "ಖ": 876,
      "ಗ": 877,
      "ಚ": 878,
      "ಛ": 879,
      "ಜ": 880,
      "ಟ": 881,
      "ಡ": 882,
      "ಣ": 883,
      "ತ": 884,
      "ದ": 885,
      "ಧ": 886,
      "ನ": 887,
      "ಪ": 888,
      "ಫ": 889,
      "ಬ": 890,
      "ಭ": 891,
      "ಮ": 892,
      "ಯ": 893,
      "ರ": 894,
      "ಲ": 895,
      "ಳ": 896,
      "ವ": 897,
      "ಶ": 898,
      "ಷ": 899,
      "ಸ": 900,
      "ಹ": 901,
      "ಾ": 902,
      "ಿ": 903,
      "ೀ": 904,
      "ು": 905,
      "ೂ": 906,
      "ೃ": 907,
      "ೆ": 908,
      "ೇ": 909,
      "ೈ": 910,
      "ೊ": 911,
      "ೋ": 912,
      "ೌ": 913,
      "್": 914,
      "೧": 915,
      "೨": 916,
      "೪": 917,
      "೮": 918,
      "ം": 919,
      "ഃ": 920,
      "അ": 921,
      "ആ": 922,
      "ഇ": 923,
      "ഈ": 924,
      "ഉ": 925,
      "ഊ": 926,
      "ഋ": 927,
      "എ": 928,
      "ഏ": 929,
      "ഒ": 930,
      "ഓ": 931,
      "ക": 932,
      "ഖ": 933,
      "ഗ": 934,
      "ങ": 935,
      "ച": 936,
      "ഛ": 937,
      "ജ": 938,
      "ഞ": 939,
      "ട": 940,
      "ഡ": 941,
      "ണ": 942,
      "ത": 943,
      "ദ": 944,
      "ധ": 945,
      "ന": 946,
      "പ": 947,
      "ഫ": 948,
      "ബ": 949,
      "ഭ": 950,
      "മ": 951,
      "യ": 952,
      "ര": 953,
      "റ": 954,
      "ല": 955,
      "ള": 956,
      "ഴ": 957,
      "വ": 958,
      "ശ": 959,
      "ഷ": 960,
      "സ": 961,
      "ഹ": 962,
      "ാ": 963,
      "ി": 964,
      "ീ": 965,
      "ു": 966,
      "ൂ": 967,
      "െ": 968,
      "േ": 969,
      "ൈ": 970,
      "ൊ": 971,
      "ോ": 972,
      "്": 973,
      "ൺ": 974,
      "ൻ": 975,
      "ർ": 976,
      "ൽ": 977,
      "ൾ": 978,
      "ං": 979,
      "අ": 980,
      "ආ": 981,
      "ඇ": 982,
      "ඉ": 983,
      "ඊ": 984,
      "උ": 985,
      "එ": 986,
      "ඔ": 987,
      "ක": 988,
      "ග": 989,
      "ඟ": 990,
      "ච": 991,
      "ඡ": 992,
      "ජ": 993,
      "ට": 994,
      "ඩ": 995,
      "ණ": 996,
      "ත": 997,
      "ථ": 998,
      "ද": 999,
      "න": 1000,
      "ප": 1001,
      "බ": 1002,
      "භ": 1003,
      "ම": 1004,
      "ය": 1005,
      "ර": 1006,
      "ල": 1007,
      "ව": 1008,
      "ශ": 1009,
      "ෂ": 1010,
      "ස": 1011,
      "හ": 1012,
      "ෆ": 1013,
      "්": 1014,
      "ා": 1015,
      "ැ": 1016,
      "ෑ": 1017,
      "ි": 1018,
      "ී": 1019,
      "ු": 1020,
      "ූ": 1021,
      "ෙ": 1022,
      "ේ": 1023,
      "ො": 1024,
      "ෝ": 1025,
      "ก": 1026,
      "ข": 1027,
      "ค": 1028,
      "ง": 1029,
      "จ": 1030,
      "ช": 1031,
      "ซ": 1032,
      "ญ": 1033,
      "ฎ": 1034,
      "ฐ": 1035,
      "ณ": 1036,
      "ด": 1037,
      "ต": 1038,
      "ท": 1039,
      "ธ": 1040,
      "น": 1041,
      "บ": 1042,
      "ป": 1043,
      "ผ": 1044,
      "ฝ": 1045,
      "พ": 1046,
      "ฟ": 1047,
      "ภ": 1048,
      "ม": 1049,
      "ย": 1050,
      "ร": 1051,
      "ฤ": 1052,
      "ล": 1053,
      "ว": 1054,
      "ศ": 1055,
      "ษ": 1056,
      "ส": 1057,
      "ห": 1058,
      "อ": 1059,
      "ฮ": 1060,
      "ะ": 1061,
      "ั": 1062,
      "า": 1063,
      "ิ": 1064,
      "ี": 1065,
      "ื": 1066,
      "ุ": 1067,
      "ู": 1068,
      "เ": 1069,
      "แ": 1070,
      "โ": 1071,
      "ใ": 1072,
      "ไ": 1073,
      "็": 1074,
      "่": 1075,
      "้": 1076,
      "์": 1077,
      "ํ": 1078,
      "ກ": 1079,
      "ຂ": 1080,
      "ຄ": 1081,
      "ງ": 1082,
      "ຈ": 1083,
      "ຊ": 1084,
      "ດ": 1085,
      "ນ": 1086,
      "ປ": 1087,
      "ພ": 1088,
      "ມ": 1089,
      "ລ": 1090,
      "ວ": 1091,
      "ສ": 1092,
      "ະ": 1093,
      "ັ": 1094,
      "າ": 1095,
      "ິ": 1096,
      "ຸ": 1097,
      "ູ": 1098,
      "ົ": 1099,
      "ເ": 1100,
      "ແ": 1101,
      "ໄ": 1102,
      "່": 1103,
      "້": 1104,
      "໌": 1105,
      "་": 1106,
      "།": 1107,
      "༔": 1108,
      "ཁ": 1109,
      "ག": 1110,
      "ང": 1111,
      "ཉ": 1112,
      "ཏ": 1113,
      "པ": 1114,
      "མ": 1115,
      "ཟ": 1116,
      "ར": 1117,
      "ལ": 1118,
      "ས": 1119,
      "ི": 1120,
      "ུ": 1121,
      "ེ": 1122,
      "ོ": 1123,
      "ྐ": 1124,
      "ྫ": 1125,
      "ྱ": 1126,
      "က": 1127,
      "ခ": 1128,
      "ဂ": 1129,
      "င": 1130,
      "စ": 1131,
      "ဆ": 1132,
      "ဇ": 1133,
      "ဉ": 1134,
      "ည": 1135,
      "တ": 1136,
      "ထ": 1137,
      "ဒ": 1138,
      "ဓ": 1139,
      "န": 1140,
      "ပ": 1141,
      "ဖ": 1142,
      "ဗ": 1143,
      "ဘ": 1144,
      "မ": 1145,
      "ယ": 1146,
      "ရ": 1147,
      "လ": 1148,
      "ဝ": 1149,
      "သ": 1150,
      "ဟ": 1151,
      "အ": 1152,
      "ဥ": 1153,
      "ါ": 1154,
      "ာ": 1155,
      "ိ": 1156,
      "ီ": 1157,
      "ု": 1158,
      "ူ": 1159,
      "ေ": 1160,
      "ဲ": 1161,
      "ံ": 1162,
      "့": 1163,
      "း": 1164,
      "္": 1165,
      "်": 1166,
      "ျ": 1167,
      "ြ": 1168,
      "ွ": 1169,
      "ှ": 1170,
      "၊": 1171,
      "ၠ": 1172,
      "ၤ": 1173,
      "ၧ": 1174,
      "ၲ": 1175,
      "ႊ": 1176,
      "ႏ": 1177,
      "ა": 1178,
      "ბ": 1179,
      "გ": 1180,
      "დ": 1181,
      "ე": 1182,
      "ვ": 1183,
      "ზ": 1184,
      "თ": 1185,
      "ი": 1186,
      "კ": 1187,
      "ლ": 1188,
      "მ": 1189,
      "ნ": 1190,
      "ო": 1191,
      "პ": 1192,
      "ჟ": 1193,
      "რ": 1194,
      "ს": 1195,
      "ტ": 1196,
      "უ": 1197,
      "ფ": 1198,
      "ქ": 1199,
      "ღ": 1200,
      "ყ": 1201,
      "შ": 1202,
      "ჩ": 1203,
      "ც": 1204,
      "ძ": 1205,
      "წ": 1206,
      "ჭ": 1207,
      "ხ": 1208,
      "ჯ": 1209,
      "ჰ": 1210,
      "ሂ": 1211,
      "ሃ": 1212,
      "ህ": 1213,
      "ለ": 1214,
      "ሊ": 1215,
      "ላ": 1216,
      "ሌ": 1217,
      "ል": 1218,
      "ሎ": 1219,
      "ሐ": 1220,
      "መ": 1221,
      "ሚ": 1222,
      "ማ": 1223,
      "ም": 1224,
      "ሥ": 1225,
      "ረ": 1226,
      "ሪ": 1227,
      "ራ": 1228,
      "ር": 1229,
      "ሮ": 1230,
      "ሰ": 1231,
      "ሳ": 1232,
      "ስ": 1233,
      "ሶ": 1234,
      "ሸ": 1235,
      "ቀ": 1236,
      "ቁ": 1237,
      "ቃ": 1238,
      "ቅ": 1239,
      "ቋ": 1240,
      "በ": 1241,
      "ቡ": 1242,
      "ቢ": 1243,
      "ባ": 1244,
      "ብ": 1245,
      "ቪ": 1246,
      "ቫ": 1247,
      "ተ": 1248,
      "ቲ": 1249,
      "ታ": 1250,
      "ቴ": 1251,
      "ት": 1252,
      "ቶ": 1253,
      "ች": 1254,
      "ነ": 1255,
      "ኑ": 1256,
      "ኒ": 1257,
      "ን": 1258,
      "ኖ": 1259,
      "ኛ": 1260,
      "አ": 1261,
      "ኢ": 1262,
      "ኣ": 1263,
      "ኤ": 1264,
      "እ": 1265,
      "ኦ": 1266,
      "ከ": 1267,
      "ካ": 1268,
      "ክ": 1269,
      "ኮ": 1270,
      "ኳ": 1271,
      "ዊ": 1272,
      "ው": 1273,
      "ዓ": 1274,
      "ዕ": 1275,
      "ዘ": 1276,
      "ዛ": 1277,
      "ዜ": 1278,
      "የ": 1279,
      "ዩ": 1280,
      "ያ": 1281,
      "ይ": 1282,
      "ዮ": 1283,
      "ዲ": 1284,
      "ዳ": 1285,
      "ድ": 1286,
      "ጅ": 1287,
      "ገ": 1288,
      "ግ": 1289,
      "ጎ": 1290,
      "ጠ": 1291,
      "ጣ": 1292,
      "ጥ": 1293,
      "ጦ": 1294,
      "ፀ": 1295,
      "ፅ": 1296,
      "ፈ": 1297,
      "ፊ": 1298,
      "ፍ": 1299,
      "ፎ": 1300,
      "ፔ": 1301,
      "ፖ": 1302,
      "ᐃ": 1303,
      "ᐄ": 1304,
      "ᐅ": 1305,
      "ᐊ": 1306,
      "ᐋ": 1307,
      "ᐣ": 1308,
      "ᐤ": 1309,
      "ᐦ": 1310,
      "ᐧ": 1311,
      "ᐩ": 1312,
      "ᐱ": 1313,
      "ᐲ": 1314,
      "ᐸ": 1315,
      "ᐹ": 1316,
      "ᑊ": 1317,
      "ᑎ": 1318,
      "ᑐ": 1319,
      "ᑕ": 1320,
      "ᑦ": 1321,
      "ᑫ": 1322,
      "ᑭ": 1323,
      "ᑯ": 1324,
      "ᑲ": 1325,
      "ᑳ": 1326,
      "ᒃ": 1327,
      "ᒋ": 1328,
      "ᒍ": 1329,
      "ᒐ": 1330,
      "ᒥ": 1331,
      "ᒪ": 1332,
      "ᒻ": 1333,
      "ᓂ": 1334,
      "ᓄ": 1335,
      "ᓇ": 1336,
      "ᓈ": 1337,
      "ᓐ": 1338,
      "ᓗ": 1339,
      "ᓚ": 1340,
      "ᓪ": 1341,
      "ᓯ": 1342,
      "ᓱ": 1343,
      "ᓴ": 1344,
      "ᓵ": 1345,
      "ᔅ": 1346,
      "ᔓ": 1347,
      "ᔥ": 1348,
      "ᔨ": 1349,
      "ᔪ": 1350,
      "ᔭ": 1351,
      "ᔮ": 1352,
      "ᕆ": 1353,
      "ᕐ": 1354,
      "ᕗ": 1355,
      "ᕙ": 1356,
      "ᕿ": 1357,
      "ᖃ": 1358,
      "ᖄ": 1359,
      "ᖅ": 1360,
      "ᖓ": 1361,
      "ក": 1362,
      "ខ": 1363,
      "គ": 1364,
      "ង": 1365,
      "ច": 1366,
      "ជ": 1367,
      "ញ": 1368,
      "ដ": 1369,
      "ឌ": 1370,
      "ណ": 1371,
      "ត": 1372,
      "ថ": 1373,
      "ទ": 1374,
      "ធ": 1375,
      "ន": 1376,
      "ប": 1377,
      "ផ": 1378,
      "ភ": 1379,
      "ម": 1380,
      "រ": 1381,
      "ល": 1382,
      "វ": 1383,
      "ស": 1384,
      "ហ": 1385,
      "អ": 1386,
      "ឧ": 1387,
      "ា": 1388,
      "ិ": 1389,
      "ី": 1390,
      "ុ": 1391,
      "ូ": 1392,
      "ើ": 1393,
      "េ": 1394,
      "ែ": 1395,
      "ៃ": 1396,
      "ោ": 1397,
      "៉": 1398,
      "៊": 1399,
      "់": 1400,
      "៍": 1401,
      "័": 1402,
      "្": 1403,
      "០": 1404,
      "១": 1405,
      "២": 1406,
      "៧": 1407,
      "ᥲ": 1408,
      "ᴚ": 1409,
      "ᵽ": 1410,
      "ᵾ": 1411,
      "ḁ": 1412,
      "Ḍ": 1413,
      "ḍ": 1414,
      "Ḏ": 1415,
      "ḏ": 1416,
      "ḑ": 1417,
      "ḣ": 1418,
      "Ḥ": 1419,
      "ḥ": 1420,
      "ḧ": 1421,
      "Ḩ": 1422,
      "Ḫ": 1423,
      "ḫ": 1424,
      "ḵ": 1425,
      "ḷ": 1426,
      "ḻ": 1427,
      "ṁ": 1428,
      "ṃ": 1429,
      "ṅ": 1430,
      "ṇ": 1431,
      "ṉ": 1432,
      "ṓ": 1433,
      "ṕ": 1434,
      "ṛ": 1435,
      "ṝ": 1436,
      "ṟ": 1437,
      "ṡ": 1438,
      "Ṣ": 1439,
      "ṣ": 1440,
      "Ṭ": 1441,
      "ṭ": 1442,
      "ṯ": 1443,
      "ṳ": 1444,
      "ẏ": 1445,
      "Ẓ": 1446,
      "ẓ": 1447,
      "ẕ": 1448,
      "ẖ": 1449,
      "ạ": 1450,
      "Ả": 1451,
      "ả": 1452,
      "ấ": 1453,
      "ầ": 1454,
      "ẫ": 1455,
      "ậ": 1456,
      "ắ": 1457,
      "Ẹ": 1458,
      "ẹ": 1459,
      "Ẽ": 1460,
      "ẽ": 1461,
      "ế": 1462,
      "ề": 1463,
      "ể": 1464,
      "ễ": 1465,
      "ệ": 1466,
      "ỉ": 1467,
      "ị": 1468,
      "Ọ": 1469,
      "ọ": 1470,
      "ỏ": 1471,
      "ố": 1472,
      "ồ": 1473,
      "ổ": 1474,
      "ộ": 1475,
      "ớ": 1476,
      "ờ": 1477,
      "ợ": 1478,
      "ụ": 1479,
      "ủ": 1480,
      "ứ": 1481,
      "ừ": 1482,
      "ử": 1483,
      "ữ": 1484,
      "ự": 1485,
      "ỹ": 1486,
      "ἀ": 1487,
      "Ᾱ": 1488,
      "‐": 1489,
      "‒": 1490,
      "―": 1491,
      "‖": 1492,
      "‛": 1493,
      "‟": 1494,
      "†": 1495,
      "‡": 1496,
      "•": 1497,
      "‣": 1498,
      "‧": 1499,
      "‰": 1500,
      "′": 1501,
      "‹": 1502,
      "›": 1503,
      "※": 1504,
      "‿": 1505,
      "⁄": 1506,
      "⁎": 1507,
      "₠": 1508,
      "₡": 1509,
      "€": 1510,
      "₹": 1511,
      "℗": 1512,
      "←": 1513,
      "↑": 1514,
      "→": 1515,
      "↓": 1516,
      "↔": 1517,
      "↙": 1518,
      "↦": 1519,
      "↵": 1520,
      "⇒": 1521,
      "∀": 1522,
      "∅": 1523,
      "∆": 1524,
      "∑": 1525,
      "−": 1526,
      "∙": 1527,
      "√": 1528,
      "∞": 1529,
      "∨": 1530,
      "∫": 1531,
      "∼": 1532,
      "≠": 1533,
      "≡": 1534,
      "≤": 1535,
      "≥": 1536,
      "≫": 1537,
      "⊙": 1538,
      "⋅": 1539,
      "⋆": 1540,
      "⋙": 1541,
      "⌨": 1542,
      "⎨": 1543,
      "␣": 1544,
      "─": 1545,
      "│": 1546,
      "┐": 1547,
      "└": 1548,
      "┬": 1549,
      "═": 1550,
      "╝": 1551,
      "▌": 1552,
      "▓": 1553,
      "■": 1554,
      "□": 1555,
      "▢": 1556,
      "▪": 1557,
      "▭": 1558,
      "▲": 1559,
      "▶": 1560,
      "▷": 1561,
      "▸": 1562,
      "►": 1563,
      "▼": 1564,
      "▽": 1565,
      "▾": 1566,
      "◄": 1567,
      "◆": 1568,
      "◇": 1569,
      "◊": 1570,
      "○": 1571,
      "●": 1572,
      "◕": 1573,
      "◠": 1574,
      "◽": 1575,
      "☀": 1576,
      "☂": 1577,
      "★": 1578,
      "☆": 1579,
      "☎": 1580,
      "☓": 1581,
      "☕": 1582,
      "☝": 1583,
      "☞": 1584,
      "☪": 1585,
      "☺": 1586,
      "☼": 1587,
      "♀": 1588,
      "♂": 1589,
      "♋": 1590,
      "♎": 1591,
      "♑": 1592,
      "♓": 1593,
      "♔": 1594,
      "♛": 1595,
      "♠": 1596,
      "♡": 1597,
      "♣": 1598,
      "♥": 1599,
      "♦": 1600,
      "♪": 1601,
      "♫": 1602,
      "♬": 1603,
      "♭": 1604,
      "⚑": 1605,
      "⚘": 1606,
      "⚪": 1607,
      "⛓": 1608,
      "⛔": 1609,
      "⛰": 1610,
      "✅": 1611,
      "✊": 1612,
      "✌": 1613,
      "✍": 1614,
      "✎": 1615,
      "✏": 1616,
      "✓": 1617,
      "✔": 1618,
      "✝": 1619,
      "✡": 1620,
      "✧": 1621,
      "✨": 1622,
      "✩": 1623,
      "✭": 1624,
      "✮": 1625,
      "✴": 1626,
      "❃": 1627,
      "❄": 1628,
      "❌": 1629,
      "❖": 1630,
      "❗": 1631,
      "❣": 1632,
      "❤": 1633,
      "❶": 1634,
      "➜": 1635,
      "➡": 1636,
      "➤": 1637,
      "➨": 1638,
      "⟨": 1639,
      "⟩": 1640,
      "⠀": 1641,
      "⠅": 1642,
      "⠍": 1643,
      "⠚": 1644,
      "⠝": 1645,
      "⠧": 1646,
      "⠱": 1647,
      "⠻": 1648,
      "⨟": 1649,
      "⫷": 1650,
      "⫸": 1651,
      "⭐": 1652,
      "ⱡ": 1653,
      "、": 1654,
      "。": 1655,
      "《": 1656,
      "》": 1657,
      "「": 1658,
      "」": 1659,
      "『": 1660,
      "』": 1661,
      "【": 1662,
      "】": 1663,
      "〒": 1664,
      "〔": 1665,
      "〕": 1666,
      "〜": 1667,
      "゙": 1668,
      "゚": 1669,
      "・": 1670,
      "ー": 1671,
      "꒳": 1672,
      "꞉": 1673,
      "ꞌ": 1674,
      "ꦏ": 1675,
      "ꦠ": 1676,
      "ꦤ": 1677,
      "ꦥ": 1678,
      "ꦩ": 1679,
      "ꦪ": 1680,
      "ꦫ": 1681,
      "ꦮ": 1682,
      "ꦲ": 1683,
      "ꦶ": 1684,
      "ꦾ": 1685,
      "꧀": 1686,
      "ꪮ": 1687,
      "︎": 1688,
      "️": 1689,
      "�": 1690,
      "🇧": 1691,
      "🇪": 1692,
      "🇫": 1693,
      "🇮": 1694,
      "🇰": 1695,
      "🇳": 1696,
      "🇵": 1697,
      "🇷": 1698,
      "🇸": 1699,
      "🇺": 1700,
      "🇿": 1701,
      "🌀": 1702,
      "🌇": 1703,
      "🌊": 1704,
      "🌌": 1705,
      "🌍": 1706,
      "🌎": 1707,
      "🌞": 1708,
      "🌟": 1709,
      "🌠": 1710,
      "🌴": 1711,
      "🌶": 1712,
      "🌸": 1713,
      "🌹": 1714,
      "🌺": 1715,
      "🌾": 1716,
      "🌿": 1717,
      "🍀": 1718,
      "🍁": 1719,
      "🍃": 1720,
      "🍏": 1721,
      "🍴": 1722,
      "🍷": 1723,
      "🍺": 1724,
      "🍼": 1725,
      "🎁": 1726,
      "🎉": 1727,
      "🎤": 1728,
      "🎧": 1729,
      "🎨": 1730,
      "🎬": 1731,
      "🎯": 1732,
      "🎵": 1733,
      "🎶": 1734,
      "🎷": 1735,
      "🎸": 1736,
      "🎼": 1737,
      "🏞": 1738,
      "🏠": 1739,
      "🏡": 1740,
      "🏧": 1741,
      "🏻": 1742,
      "🏼": 1743,
      "🏽": 1744,
      "🐆": 1745,
      "🐫": 1746,
      "🐶": 1747,
      "🐸": 1748,
      "🐼": 1749,
      "👀": 1750,
      "👆": 1751,
      "👇": 1752,
      "👈": 1753,
      "👉": 1754,
      "👋": 1755,
      "👌": 1756,
      "👍": 1757,
      "👏": 1758,
      "👒": 1759,
      "👣": 1760,
      "👤": 1761,
      "👨": 1762,
      "👩": 1763,
      "👪": 1764,
      "👯": 1765,
      "👶": 1766,
      "👹": 1767,
      "👻": 1768,
      "👼": 1769,
      "💃": 1770,
      "💄": 1771,
      "💇": 1772,
      "💊": 1773,
      "💕": 1774,
      "💖": 1775,
      "💗": 1776,
      "💘": 1777,
      "💙": 1778,
      "💚": 1779,
      "💛": 1780,
      "💜": 1781,
      "💝": 1782,
      "💞": 1783,
      "💥": 1784,
      "💧": 1785,
      "💪": 1786,
      "📅": 1787,
      "📌": 1788,
      "📚": 1789,
      "📤": 1790,
      "📥": 1791,
      "📲": 1792,
      "📷": 1793,
      "📹": 1794,
      "🔉": 1795,
      "🔋": 1796,
      "🔍": 1797,
      "🔝": 1798,
      "🔥": 1799,
      "🔴": 1800,
      "🔵": 1801,
      "🔹": 1802,
      "🕛": 1803,
      "🗓": 1804,
      "🗣": 1805,
      "🗺": 1806,
      "😀": 1807,
      "😁": 1808,
      "😂": 1809,
      "😃": 1810,
      "😄": 1811,
      "😆": 1812,
      "😇": 1813,
      "😈": 1814,
      "😉": 1815,
      "😊": 1816,
      "😋": 1817,
      "😍": 1818,
      "😎": 1819,
      "😏": 1820,
      "😒": 1821,
      "😔": 1822,
      "😕": 1823,
      "😘": 1824,
      "😚": 1825,
      "😛": 1826,
      "😜": 1827,
      "😝": 1828,
      "😠": 1829,
      "😤": 1830,
      "😥": 1831,
      "😦": 1832,
      "😬": 1833,
      "😭": 1834,
      "😰": 1835,
      "😱": 1836,
      "😷": 1837,
      "😺": 1838,
      "🙁": 1839,
      "🙂": 1840,
      "🙄": 1841,
      "🙈": 1842,
      "🙋": 1843,
      "🙏": 1844,
      "🚚": 1845,
      "🛒": 1846,
      "🤎": 1847,
      "🤑": 1848,
      "🤓": 1849,
      "🤔": 1850,
      "🤗": 1851,
      "🤙": 1852,
      "🤝": 1853,
      "🤞": 1854,
      "🤟": 1855,
      "🤣": 1856,
      "🤦": 1857,
      "🤧": 1858,
      "🤪": 1859,
      "🤭": 1860,
      "🤮": 1861,
      "🤸": 1862,
      "🥀": 1863,
      "🥄": 1864,
      "🥈": 1865,
      "🥣": 1866,
      "🥩": 1867,
      "🥪": 1868,
      "🥰": 1869,
      "🥺": 1870,
      "🦙": 1871,
      "🦨": 1872,
      "🧐": 1873,
      "🧘": 1874,
      "an": 1875,
      "ch": 1876,
      "ta": 1877,
      "un": 1878,
      "ay": 1879,
      "pa": 1880,
      "in": 1881,
      "qa": 1882,
      "una": 1883,
      "ll": 1884,
      "ka": 1885,
      "pi": 1886,
      "man": 1887,
      "ku": 1888,
      "sh": 1889,
      "ma": 1890,
      "mi": 1891,
      "ri": 1892,
      "kuna": 1893,
      "wa": 1894,
      "lla": 1895,
      "cha": 1896,
      "chi": 1897,
      "chu": 1898,
      "ya": 1899,
      "ca": 1900,
      "ra": 1901,
      "ki": 1902,
      "ti": 1903,
      "ni": 1904,
      "qan": 1905,
      "wan": 1906,
      "sa": 1907,
      "ru": 1908,
      "si": 1909,
      "su": 1910,
      "Ch": 1911,
      "ina": 1912,
      "mana": 1913,
      "chay": 1914,
      "ana": 1915,
      "spa": 1916,
      "manta": 1917,
      "qu": 1918,
      "kan": 1919,
      "cu": 1920,
      "tu": 1921,
      "sqa": 1922,
      "io": 1923,
      "yu": 1924,
      "pu": 1925,
      "nin": 1926,
      "na": 1927,
      "cuna": 1928,
      "hu": 1929,
      "paq": 1930,
      "pas": 1931,
      "ga": 1932,
      "ha": 1933,
      "kuy": 1934,
      "kay": 1935,
      "Chay": 1936,
      "kun": 1937,
      "Dio": 1938,
      "all": 1939,
      "pay": 1940,
      "ña": 1941,
      "mu": 1942,
      "on": 1943,
      "en": 1944,
      "runa": 1945,
      "sqan": 1946,
      "la": 1947,
      "pis": 1948,
      "ran": 1949,
      "li": 1950,
      "tin": 1951,
      "er": 1952,
      "taq": 1953,
      "qui": 1954,
      "may": 1955,
      "kunata": 1956,
      "ima": 1957,
      "wi": 1958,
      "chik": 1959,
      "pan": 1960,
      "rqan": 1961,
      "rqa": 1962,
      "re": 1963,
      "tan": 1964,
      "ray": 1965,
      "sha": 1966,
      "sta": 1967,
      "da": 1968,
      "Pi": 1969,
      "Je": 1970,
      "pun": 1971,
      "is": 1972,
      "hina": 1973,
      "can": 1974,
      "rin": 1975,
      "ñu": 1976,
      "mun": 1977,
      "Dios": 1978,
      "qay": 1979,
      "ju": 1980,
      "..": 1981,
      "yacha": 1982,
      "as": 1983,
      "te": 1984,
      "yan": 1985,
      "qta": 1986,
      "ja": 1987,
      "or": 1988,
      "pacha": 1989,
      "el": 1990,
      "ar": 1991,
      "way": 1992,
      "chis": 1993,
      "to": 1994,
      "shpa": 1995,
      "taj": 1996,
      "es": 1997,
      "chan": 1998,
      "di": 1999,
      "gu": 2000,
      "paj": 2001,
      "os": 2002,
      "wata": 2003,
      "kin": 2004,
      "chin": 2005,
      "anta": 2006,
      "kama": 2007,
      "pika": 2008,
      "allin": 2009,
      "say": 2010,
      "nispa": 2011,
      "ptin": 2012,
      "yana": 2013,
      "ci": 2014,
      "llan": 2015,
      "che": 2016,
      "cay": 2017,
      "llu": 2018,
      "cunata": 2019,
      "no": 2020,
      "Pa": 2021,
      "shu": 2022,
      "yay": 2023,
      "yta": 2024,
      "kaq": 2025,
      "kunaqa": 2026,
      "tun": 2027,
      "Ima": 2028,
      "alli": 2029,
      "qo": 2030,
      "kaw": 2031,
      "sun": 2032,
      "Pay": 2033,
      "muna": 2034,
      "tsi": 2035,
      "Ka": 2036,
      "de": 2037,
      "shi": 2038,
      "llam": 2039,
      "ro": 2040,
      "war": 2041,
      "qi": 2042,
      "Jesu": 2043,
      "vi": 2044,
      "mp": 2045,
      "anqa": 2046,
      "shca": 2047,
      "Mana": 2048,
      "tam": 2049,
      "shan": 2050,
      "hi": 2051,
      "rura": 2052,
      "chun": 2053,
      "oq": 2054,
      "Diospa": 2055,
      "sin": 2056,
      "Wa": 2057,
      "huk": 2058,
      "Ma": 2059,
      "kunan": 2060,
      "lli": 2061,
      "raq": 2062,
      "pä": 2063,
      "yuq": 2064,
      "cun": 2065,
      "niy": 2066,
      "Sa": 2067,
      "ayta": 2068,
      "rayku": 2069,
      "Ta": 2070,
      "pita": 2071,
      "jina": 2072,
      "willa": 2073,
      "tukuy": 2074,
      "riku": 2075,
      "llaqta": 2076,
      "Kay": 2077,
      "chej": 2078,
      "ris": 2079,
      "shka": 2080,
      "llapa": 2081,
      "runakuna": 2082,
      "oj": 2083,
      "chus": 2084,
      "nu": 2085,
      "Cha": 2086,
      "le": 2087,
      "ñi": 2088,
      "ruwa": 2089,
      "riy": 2090,
      "20": 2091,
      "ho": 2092,
      "lu": 2093,
      "kuq": 2094,
      "nisqa": 2095,
      "lo": 2096,
      "am": 2097,
      "shun": 2098,
      "uk": 2099,
      "wañu": 2100,
      "puy": 2101,
      "aq": 2102,
      "anku": 2103,
      "sqanta": 2104,
      "suti": 2105,
      "do": 2106,
      "apa": 2107,
      "ur": 2108,
      "hua": 2109,
      "co": 2110,
      "bi": 2111,
      "uya": 2112,
      "saq": 2113,
      "llay": 2114,
      "par": 2115,
      "va": 2116,
      "mayna": 2117,
      "qha": 2118,
      "ati": 2119,
      "...": 2120,
      "kta": 2121,
      "kuti": 2122,
      "rca": 2123,
      "aya": 2124,
      "kachu": 2125,
      "san": 2126,
      "ba": 2127,
      "llata": 2128,
      ",\"": 2129,
      "rima": 2130,
      "inki": 2131,
      "cio": 2132,
      "cä": 2133,
      "gan": 2134,
      "manam": 2135,
      "chaqa": 2136,
      ").": 2137,
      "taqa": 2138,
      "sqanku": 2139,
      "19": 2140,
      "sapa": 2141,
      "se": 2142,
      "bli": 2143,
      "sqay": 2144,
      "ita": 2145,
      "kunapi": 2146,
      "emp": 2147,
      "qam": 2148,
      "karqa": 2149,
      "imata": 2150,
      "Ya": 2151,
      "shina": 2152,
      "rik": 2153,
      "ancha": 2154,
      "span": 2155,
      "con": 2156,
      "ayki": 2157,
      "min": 2158,
      "tsu": 2159,
      "ama": 2160,
      "pash": 2161,
      "rka": 2162,
      ".\"": 2163,
      "Bi": 2164,
      "warmi": 2165,
      "Tu": 2166,
      "simi": 2167,
      "hay": 2168,
      "suyu": 2169,
      "Ju": 2170,
      "pin": 2171,
      "pish": 2172,
      "chö": 2173,
      "china": 2174,
      "mpa": 2175,
      "Chaymi": 2176,
      "uq": 2177,
      "manda": 2178,
      "suma": 2179,
      "chkan": 2180,
      "pak": 2181,
      "kamachi": 2182,
      "Jeho": 2183,
      "wasi": 2184,
      "he": 2185,
      "yar": 2186,
      "yachachi": 2187,
      "mas": 2188,
      "Chu": 2189,
      "go": 2190,
      "al": 2191,
      "No": 2192,
      "car": 2193,
      "chka": 2194,
      "cuy": 2195,
      "rqanku": 2196,
      "munan": 2197,
      "hinaspa": 2198,
      "puni": 2199,
      "cur": 2200,
      "Bibli": 2201,
      "uy": 2202,
      "10": 2203,
      "chaw": 2204,
      "cion": 2205,
      "qkuna": 2206,
      "Is": 2207,
      "tiya": 2208,
      "qe": 2209,
      "jta": 2210,
      "pe": 2211,
      "yanapa": 2212,
      "sutiyuq": 2213,
      "fi": 2214,
      "Diosta": 2215,
      "Lla": 2216,
      "waq": 2217,
      "Wi": 2218,
      "tari": 2219,
      "du": 2220,
      "llqa": 2221,
      "aswan": 2222,
      "Qu": 2223,
      "taqmi": 2224,
      "cho": 2225,
      "anan": 2226,
      "kunawan": 2227,
      "yachan": 2228,
      "tiemp": 2229,
      "May": 2230,
      "ce": 2231,
      "mama": 2232,
      "00": 2233,
      "Runa": 2234,
      "kani": 2235,
      "kunamanta": 2236,
      "Tayta": 2237,
      "chas": 2238,
      "run": 2239,
      "kunam": 2240,
      "Su": 2241,
      "pai": 2242,
      "llapi": 2243,
      "kawsa": 2244,
      "Si": 2245,
      "quin": 2246,
      "ts": 2247,
      "ami": 2248,
      "11": 2249,
      "kunapa": 2250,
      "tuku": 2251,
      "kanqa": 2252,
      "ne": 2253,
      "piqa": 2254,
      "me": 2255,
      "ñaw": 2256,
      "tana": 2257,
      "tsik": 2258,
      "karqan": 2259,
      "chayta": 2260,
      "pim": 2261,
      "ninta": 2262,
      "llamk": 2263,
      "nö": 2264,
      "pii": 2265,
      "15": 2266,
      "guna": 2267,
      "son": 2268,
      "yuya": 2269,
      "Biblia": 2270,
      "12": 2271,
      "mo": 2272,
      "Co": 2273,
      "chasqa": 2274,
      "pata": 2275,
      "tiempo": 2276,
      "uj": 2277,
      "ash": 2278,
      "sya": 2279,
      "kawsay": 2280,
      "18": 2281,
      "hun": 2282,
      "tsa": 2283,
      "Se": 2284,
      "sti": 2285,
      "llapan": 2286,
      "tiyan": 2287,
      "ruwan": 2288,
      "Ha": 2289,
      "chari": 2290,
      "anpaq": 2291,
      "kichi": 2292,
      "kunaman": 2293,
      "pipas": 2294,
      "kall": 2295,
      "maña": 2296,
      "mb": 2297,
      "mon": 2298,
      "imayna": 2299,
      "tra": 2300,
      "ska": 2301,
      "rimay": 2302,
      "rqani": 2303,
      "asta": 2304,
      "gui": 2305,
      "Ñu": 2306,
      "gi": 2307,
      "huan": 2308,
      "ko": 2309,
      "po": 2310,
      "kusi": 2311,
      "14": 2312,
      "riya": 2313,
      "so": 2314,
      "ey": 2315,
      "ali": 2316,
      "per": 2317,
      "rael": 2318,
      "In": 2319,
      "ura": 2320,
      "Ni": 2321,
      "cris": 2322,
      "uu": 2323,
      "kaa": 2324,
      "hatun": 2325,
      "Jehov": 2326,
      "chura": 2327,
      "nisqaqa": 2328,
      "usa": 2329,
      "kuyta": 2330,
      "Diosqa": 2331,
      "qillqa": 2332,
      "manan": 2333,
      "qaqa": 2334,
      "yuyay": 2335,
      "kuya": 2336,
      "yki": 2337,
      "sal": 2338,
      "apuy": 2339,
      "kar": 2340,
      "anqaman": 2341,
      "ari": 2342,
      "yachay": 2343,
      "13": 2344,
      "llaki": 2345,
      "Jesus": 2346,
      "chiy": 2347,
      "ninku": 2348,
      "ayqui": 2349,
      "kha": 2350,
      "17": 2351,
      "icha": 2352,
      "wakin": 2353,
      "nan": 2354,
      "Mo": 2355,
      "wanmi": 2356,
      "shqa": 2357,
      "unan": 2358,
      "ak": 2359,
      "ñiq": 2360,
      "tapu": 2361,
      "chiq": 2362,
      "kasqan": 2363,
      "tata": 2364,
      "rina": 2365,
      "Ku": 2366,
      "kuspa": 2367,
      "Hina": 2368,
      "pre": 2369,
      "Ti": 2370,
      "qsi": 2371,
      "An": 2372,
      "unchay": 2373,
      "Hu": 2374,
      "munay": 2375,
      "iskay": 2376,
      "kunapaq": 2377,
      "cui": 2378,
      "imay": 2379,
      "mancha": 2380,
      "rqaku": 2381,
      "16": 2382,
      "qati": 2383,
      "muy": 2384,
      "Ichaqa": 2385,
      "ish": 2386,
      "tay": 2387,
      "All": 2388,
      "Pika": 2389,
      "us": 2390,
      "tapis": 2391,
      "Imayna": 2392,
      "chij": 2393,
      "sqayki": 2394,
      "pti": 2395,
      "Ca": 2396,
      "shna": 2397,
      "Chaymanta": 2398,
      "caj": 2399,
      "nir": 2400,
      "pikachu": 2401,
      "kasqanta": 2402,
      "aw": 2403,
      "nishpa": 2404,
      "que": 2405,
      "hawa": 2406,
      "ruran": 2407,
      "runacuna": 2408,
      "ichaqa": 2409,
      "Israel": 2410,
      "iman": 2411,
      "ño": 2412,
      "lan": 2413,
      "kunay": 2414,
      "mar": 2415,
      "kana": 2416,
      "qalla": 2417,
      "ter": 2418,
      "Ja": 2419,
      "payta": 2420,
      "kasu": 2421,
      "llaq": 2422,
      "chana": 2423,
      "qawa": 2424,
      "shcata": 2425,
      "tuta": 2426,
      "rí": 2427,
      "kanki": 2428,
      "qon": 2429,
      "jun": 2430,
      "im": 2431,
      "han": 2432,
      "ón": 2433,
      "ankupaq": 2434,
      "chaya": 2435,
      "chwa": 2436,
      "chayna": 2437,
      "Huk": 2438,
      "watapi": 2439,
      "ruray": 2440,
      "ñan": 2441,
      "kipi": 2442,
      "Ri": 2443,
      "pasa": 2444,
      "jatun": 2445,
      "pag": 2446,
      "pro": 2447,
      "kanan": 2448,
      "ruway": 2449,
      "pac": 2450,
      "ser": 2451,
      "inan": 2452,
      "raj": 2453,
      "kë": 2454,
      "pachapi": 2455,
      "Ama": 2456,
      "Pe": 2457,
      "wawa": 2458,
      "San": 2459,
      "kashan": 2460,
      "shuk": 2461,
      "allinta": 2462,
      "Chi": 2463,
      "aqa": 2464,
      "ñay": 2465,
      "chá": 2466,
      "parla": 2467,
      "chayqa": 2468,
      "ñor": 2469,
      "manmi": 2470,
      "Mois": 2471,
      "puri": 2472,
      "ir": 2473,
      "diya": 2474,
      "mpi": 2475,
      "Dyu": 2476,
      "cama": 2477,
      "kuta": 2478,
      "win": 2479,
      "aj": 2480,
      "atin": 2481,
      "Tata": 2482,
      "ptinmi": 2483,
      "Señor": 2484,
      "khu": 2485,
      "astawan": 2486,
      "bra": 2487,
      "ke": 2488,
      "ritu": 2489,
      "tar": 2490,
      "kunapas": 2491,
      "suq": 2492,
      "erqa": 2493,
      "za": 2494,
      "runakunata": 2495,
      "Tukuy": 2496,
      "cash": 2497,
      "illa": 2498,
      "gra": 2499,
      "cre": 2500,
      "rana": 2501,
      "wam": 2502,
      "ente": 2503,
      "ve": 2504,
      "Pu": 2505,
      "nam": 2506,
      "dio": 2507,
      "manchu": 2508,
      "cunaca": 2509,
      "Com": 2510,
      "punchaw": 2511,
      "vid": 2512,
      "kuchu": 2513,
      "ricu": 2514,
      "kichik": 2515,
      "Mu": 2516,
      "waj": 2517,
      "Mi": 2518,
      "kanku": 2519,
      "ata": 2520,
      "mus": 2521,
      "llakta": 2522,
      "Shina": 2523,
      "para": 2524,
      "Jehová": 2525,
      "kusqan": 2526,
      "(←": 2527,
      "kur": 2528,
      "inkikuna": 2529,
      "yä": 2530,
      "tapas": 2531,
      "kikin": 2532,
      "ji": 2533,
      "kichu": 2534,
      "quy": 2535,
      "pura": 2536,
      "kachkan": 2537,
      "nuna": 2538,
      "qnin": 2539,
      "chic": 2540,
      "pipi": 2541,
      "armi": 2542,
      "je": 2543,
      "ia": 2544,
      "dya": 2545,
      "ano": 2546,
      "pam": 2547,
      "21": 2548,
      "achka": 2549,
      "uqmi": 2550,
      "tigu": 2551,
      "rey": 2552,
      "Na": 2553,
      "tayta": 2554,
      "uyari": 2555,
      "karan": 2556,
      "kacha": 2557,
      "sutin": 2558,
      "22": 2559,
      "dis": 2560,
      "ichu": 2561,
      "mons": 2562,
      "llaqtan": 2563,
      "Commons": 2564,
      "yun": 2565,
      "pana": 2566,
      "Jes": 2567,
      "kichis": 2568,
      "tá": 2569,
      "ut": 2570,
      "tiguriya": 2571,
      "mä": 2572,
      "qhawa": 2573,
      "ten": 2574,
      "paqmi": 2575,
      "sonqo": 2576,
      "yupay": 2577,
      "ero": 2578,
      "Chayna": 2579,
      "nina": 2580,
      "jucha": 2581,
      "lti": 2582,
      "qun": 2583,
      "Tsay": 2584,
      "paqa": 2585,
      "chispa": 2586,
      "pusa": 2587,
      "Jesú": 2588,
      "kunku": 2589,
      "niyoq": 2590,
      "sqanchik": 2591,
      "muqkuna": 2592,
      "Chai": 2593,
      "Pai": 2594,
      "kayta": 2595,
      "enti": 2596,
      "qanta": 2597,
      "nirqa": 2598,
      "sacha": 2599,
      "kita": 2600,
      "kurqa": 2601,
      "qhi": 2602,
      "masin": 2603,
      "kanman": 2604,
      "kasha": 2605,
      "Manam": 2606,
      "wak": 2607,
      "juk": 2608,
      "chinka": 2609,
      "Say": 2610,
      "niran": 2611,
      "allpa": 2612,
      "cunaga": 2613,
      "wasin": 2614,
      "chaypi": 2615,
      "juc": 2616,
      "cia": 2617,
      "24": 2618,
      "sir": 2619,
      "hamu": 2620,
      "inkimuqkuna": 2621,
      "sumaq": 2622,
      "Mar": 2623,
      "bo": 2624,
      "ayllu": 2625,
      "killa": 2626,
      "cheqa": 2627,
      "lib": 2628,
      "Jehova": 2629,
      "kapuy": 2630,
      "anaq": 2631,
      "ñam": 2632,
      "chunka": 2633,
      "cunan": 2634,
      "nacion": 2635,
      "Qa": 2636,
      "anchik": 2637,
      "pampa": 2638,
      "puk": 2639,
      "anam": 2640,
      "kau": 2641,
      "dan": 2642,
      "kipidiya": 2643,
      "kaj": 2644,
      "qanku": 2645,
      "chisqa": 2646,
      "lin": 2647,
      "paqqa": 2648,
      "Lu": 2649,
      "manami": 2650,
      "së": 2651,
      "res": 2652,
      "23": 2653,
      "Diosmanta": 2654,
      "maq": 2655,
      "causa": 2656,
      "ñau": 2657,
      "Da": 2658,
      "Wikipidiya": 2659,
      "Diosnin": 2660,
      "Qan": 2661,
      "Jesucris": 2662,
      "cta": 2663,
      "Jesús": 2664,
      "unay": 2665,
      "kra": 2666,
      "Piru": 2667,
      "kuynin": 2668,
      "usha": 2669,
      "blo": 2670,
      "dad": 2671,
      "kunayuqmi": 2672,
      "au": 2673,
      "Jo": 2674,
      "tr": 2675,
      "wanqa": 2676,
      "Es": 2677,
      "kim": 2678,
      "amili": 2679,
      "llll": 2680,
      "ani": 2681,
      "kaptin": 2682,
      "cas": 2683,
      "ad": 2684,
      "Pii": 2685,
      "ñawpaq": 2686,
      "Iman": 2687,
      "llaqui": 2688,
      "multi": 2689,
      "allita": 2690,
      "Re": 2691,
      "mpu": 2692,
      "Payqa": 2693,
      "sqankuta": 2694,
      "qhe": 2695,
      "nisqan": 2696,
      "midya": 2697,
      "kapuynin": 2698,
      "pisi": 2699,
      "Chayrayku": 2700,
      "multimidya": 2701,
      "paykuna": 2702,
      "kï": 2703,
      "qayku": 2704,
      "Ru": 2705,
      "kapuyninkunayuqmi": 2706,
      "pru": 2707,
      "Jesuspa": 2708,
      "gel": 2709,
      "Jina": 2710,
      "Chan": 2711,
      "yoq": 2712,
      "Ay": 2713,
      "Man": 2714,
      "spay": 2715,
      "25": 2716,
      "mantaqa": 2717,
      "bu": 2718,
      "tawan": 2719,
      "chaq": 2720,
      "saj": 2721,
      "pien": 2722,
      "Ki": 2723,
      "kum": 2724,
      "qtin": 2725,
      "llami": 2726,
      "pica": 2727,
      "kʼ": 2728,
      "wiñay": 2729,
      "tucu": 2730,
      "qana": 2731,
      "noqa": 2732,
      "Kunan": 2733,
      "chuuu": 2734,
      "Juan": 2735,
      "200": 2736,
      "AN": 2737,
      "Pikachu": 2738,
      "uma": 2739,
      "niyoj": 2740,
      "wanchik": 2741,
      "ayay": 2742,
      "yaku": 2743,
      "tami": 2744,
      "pimi": 2745,
      "ria": 2746,
      "As": 2747,
      "waran": 2748,
      "uku": 2749,
      "urana": 2750,
      "chai": 2751,
      "servi": 2752,
      "fe": 2753,
      "riman": 2754,
      "ala": 2755,
      "killapi": 2756,
      "sara": 2757,
      "Jesusqa": 2758,
      "Imana": 2759,
      "ñiqin": 2760,
      "David": 2761,
      "ach": 2762,
      "sinchi": 2763,
      "Diosmi": 2764,
      "kill": 2765,
      "kä": 2766,
      "ver": 2767,
      "Tsë": 2768,
      "kurqan": 2769,
      "kaqta": 2770,
      "niyuq": 2771,
      "esta": 2772,
      "ap": 2773,
      "mantam": 2774,
      "cuti": 2775,
      "yo": 2776,
      "payqa": 2777,
      "wall": 2778,
      "paykunata": 2779,
      "30": 2780,
      "gam": 2781,
      "Ro": 2782,
      "paya": 2783,
      "ninmi": 2784,
      "tanta": 2785,
      "laya": 2786,
      "nirqan": 2787,
      "Kan": 2788,
      "cai": 2789,
      "shamu": 2790,
      "rispa": 2791,
      "phi": 2792,
      "tsë": 2793,
      "kuni": 2794,
      "Rurana": 2795,
      "quilla": 2796,
      "api": 2797,
      "llampa": 2798,
      "lay": 2799,
      "lä": 2800,
      "antacha": 2801,
      "atiy": 2802,
      "ara": 2803,
      "piña": 2804,
      "canqui": 2805,
      "cristi": 2806,
      "shimi": 2807,
      "ranku": 2808,
      "kallpan": 2809,
      "000": 2810,
      "Wakin": 2811,
      "kata": 2812,
      "qatiq": 2813,
      "her": 2814,
      "yach": 2815,
      "elqa": 2816,
      "Ji": 2817,
      "famili": 2818,
      "?\"": 2819,
      "!!": 2820,
      "rë": 2821,
      "puncha": 2822,
      "Imata": 2823,
      "Uma": 2824,
      "Nu": 2825,
      "cor": 2826,
      "28": 2827,
      "kunaka": 2828,
      "risqa": 2829,
      "mayu": 2830,
      "yi": 2831,
      "raykun": 2832,
      "ñuna": 2833,
      "äpa": 2834,
      "kunatam": 2835,
      "Sal": 2836,
      "jcuna": 2837,
      "mantapas": 2838,
      "waw": 2839,
      "allp": 2840,
      "raqmi": 2841,
      "runata": 2842,
      "Yacha": 2843,
      "hinalla": 2844,
      "kawsan": 2845,
      "raynin": 2846,
      "kanta": 2847,
      "26": 2848,
      "nirca": 2849,
      "chaski": 2850,
      "Allin": 2851,
      "chpa": 2852,
      "yanapan": 2853,
      "kunatapas": 2854,
      "winsya": 2855,
      "jay": 2856,
      "canchi": 2857,
      "entien": 2858,
      "sqam": 2859,
      "hucha": 2860,
      "anqakunam": 2861,
      "ras": 2862,
      "shpan": 2863,
      "sumaj": 2864,
      "kunataqa": 2865,
      "tiy": 2866,
      "runas": 2867,
      "rkan": 2868,
      "Di": 2869,
      "ge": 2870,
      "paypa": 2871,
      "Katiguriya": 2872,
      "llaqtapi": 2873,
      "caran": 2874,
      "tucui": 2875,
      "otaq": 2876,
      "inkimun": 2877,
      "\"¿": 2878,
      "it": 2879,
      "ninchik": 2880,
      "Jesusta": 2881,
      "Yu": 2882,
      "spanku": 2883,
      "riq": 2884,
      "at": 2885,
      "taki": 2886,
      "shpami": 2887,
      "anqamanqa": 2888,
      "27": 2889,
      "ñuca": 2890,
      "Hatun": 2891,
      "iñi": 2892,
      "Ash": 2893,
      "charin": 2894,
      "sis": 2895,
      "sqanmanta": 2896,
      "chaymi": 2897,
      "cushi": 2898,
      "panta": 2899,
      "OS": 2900,
      "cam": 2901,
      "chaymanta": 2902,
      "iñiq": 2903,
      "Alli": 2904,
      "rumi": 2905,
      "spaqa": 2906,
      "cunapis": 2907,
      "Qam": 2908,
      "kunqa": 2909,
      "llank": 2910,
      "kas": 2911,
      "ćhu": 2912,
      "kaaa": 2913,
      "pen": 2914,
      "pipis": 2915,
      "angel": 2916,
      "Noqa": 2917,
      "canan": 2918,
      "rij": 2919,
      "Pro": 2920,
      "runakunaqa": 2921,
      "juj": 2922,
      "pruwinsya": 2923,
      "pitaq": 2924,
      "cag": 2925,
      "La": 2926,
      "rä": 2927,
      "manaña": 2928,
      "kawa": 2929,
      "muni": 2930,
      "Al": 2931,
      "chwan": 2932,
      "jap": 2933,
      "kichej": 2934,
      "canga": 2935,
      "ción": 2936,
      "aykipaq": 2937,
      "Yaya": 2938,
      "ac": 2939,
      "sasacha": 2940,
      "shpaca": 2941,
      "shuj": 2942,
      "29": 2943,
      "He": 2944,
      "Yapa": 2945,
      "yupa": 2946,
      "Ar": 2947,
      "wañ": 2948,
      "rusal": 2949,
      "kunanku": 2950,
      "pikapi": 2951,
      "Pun": 2952,
      "pusqa": 2953,
      "Kachu": 2954,
      "Llaqta": 2955,
      "Chaynu": 2956,
      "jan": 2957,
      "runaqa": 2958,
      "ía": 2959,
      "Mama": 2960,
      "kasti": 2961,
      "hinam": 2962,
      "churin": 2963,
      "hayna": 2964,
      "kaman": 2965,
      "kari": 2966,
      "Cu": 2967,
      "kushi": 2968,
      "Pacha": 2969,
      "Jos": 2970,
      "kanchik": 2971,
      "we": 2972,
      "mayta": 2973,
      "pari": 2974,
      "vo": 2975,
      "teo": 2976,
      "kunaq": 2977,
      "achi": 2978,
      "mari": 2979,
      "punta": 2980,
      "jo": 2981,
      "Jerusal": 2982,
      "Pablo": 2983,
      "ganta": 2984,
      "Diosman": 2985,
      "Kun": 2986,
      "tʼ": 2987,
      "Dyus": 2988,
      "wanpas": 2989,
      "Chayta": 2990,
      "yqa": 2991,
      "simipi": 2992,
      "marka": 2993,
      "qanchik": 2994,
      "Ñaw": 2995,
      "kusun": 2996,
      "ion": 2997,
      "llun": 2998,
      "Chaqa": 2999,
      "tak": 3000,
      "tariku": 3001,
      "espi": 3002,
      "kasqa": 3003,
      "rurana": 3004,
      "piikachu": 3005,
      "mos": 3006,
      "llulla": 3007,
      "Ra": 3008,
      "Qha": 3009,
      "Jesucristo": 3010,
      "Paymi": 3011,
      "llana": 3012,
      "suya": 3013,
      "',": 3014,
      "ptinqa": 3015,
      "hanaq": 3016,
      "kam": 3017,
      "wawan": 3018,
      "men": 3019,
      "pha": 3020,
      "ayku": 3021,
      "anima": 3022,
      "rimana": 3023,
      "riqsi": 3024,
      "pusha": 3025,
      "dro": 3026,
      "ñataqmi": 3027,
      "be": 3028,
      "llajta": 3029,
      "estu": 3030,
      "ayu": 3031,
      "ñuka": 3032,
      "Ño": 3033,
      "kaynin": 3034,
      "lliw": 3035,
      "pakta": 3036,
      "Abra": 3037,
      "rica": 3038,
      "CH": 3039,
      "qaq": 3040,
      "noga": 3041,
      "Jisu": 3042,
      "muyu": 3043,
      "AS": 3044,
      "wasun": 3045,
      "Cris": 3046,
      "eli": 3047,
      "rir": 3048,
      "Kama": 3049,
      "cush": 3050,
      "Manachu": 3051,
      "iy": 3052,
      "tarin": 3053,
      "äta": 3054,
      "Qulla": 3055,
      "Can": 3056,
      "llataj": 3057,
      "shuti": 3058,
      "Yapasqa": 3059,
      "juna": 3060,
      "rega": 3061,
      "gip": 3062,
      "hapi": 3063,
      "Qhi": 3064,
      "Manan": 3065,
      "má": 3066,
      "cunaman": 3067,
      "Chashna": 3068,
      "cawa": 3069,
      "imatapas": 3070,
      "don": 3071,
      "tol": 3072,
      "inti": 3073,
      "wiya": 3074,
      "kalla": 3075,
      "kamu": 3076,
      "kausay": 3077,
      "kapu": 3078,
      "yura": 3079,
      "ranti": 3080,
      "Warmi": 3081,
      "uti": 3082,
      "taca": 3083,
      "gapaj": 3084,
      "pë": 3085,
      "yapa": 3086,
      "Cay": 3087,
      "hin": 3088,
      "imapas": 3089,
      "tante": 3090,
      "qen": 3091,
      "acha": 3092,
      "ty": 3093,
      "Con": 3094,
      "musuq": 3095,
      "por": 3096,
      "vin": 3097,
      "mash": 3098,
      "kusisqa": 3099,
      "karu": 3100,
      "cos": 3101,
      "cunapa": 3102,
      "ñawi": 3103,
      "gon": 3104,
      "llki": 3105,
      "cri": 3106,
      "wallpa": 3107,
      "kuk": 3108,
      "yanapay": 3109,
      "yapi": 3110,
      "ene": 3111,
      "chiyta": 3112,
      "caycan": 3113,
      "mik": 3114,
      "wanpis": 3115,
      "puñu": 3116,
      "cont": 3117,
      "Qullasuyu": 3118,
      "Egip": 3119,
      "musya": 3120,
      "tas": 3121,
      "Taita": 3122,
      "sqanman": 3123,
      "masi": 3124,
      "rikun": 3125,
      "shkan": 3126,
      "wiña": 3127,
      "tahuan": 3128,
      "mira": 3129,
      "mk": 3130,
      "aypaq": 3131,
      "qucha": 3132,
      "kiy": 3133,
      "qoy": 3134,
      "qanchis": 3135,
      "imarayku": 3136,
      "31": 3137,
      "tiempopi": 3138,
      "enqa": 3139,
      "qhichwa": 3140,
      "kaspa": 3141,
      "chömi": 3142,
      "law": 3143,
      "willay": 3144,
      "rej": 3145,
      "lun": 3146,
      "Sapa": 3147,
      "cristiano": 3148,
      "jallp": 3149,
      "enga": 3150,
      "quita": 3151,
      "yaq": 3152,
      "unchaw": 3153,
      "bier": 3154,
      "Way": 3155,
      "kanchu": 3156,
      "dia": 3157,
      "kapak": 3158,
      "cul": 3159,
      "Li": 3160,
      "churi": 3161,
      "qin": 3162,
      "llachu": 3163,
      "ej": 3164,
      "wana": 3165,
      "sqataq": 3166,
      "antapis": 3167,
      "manqa": 3168,
      "mantami": 3169,
      "ñachu": 3170,
      "cunami": 3171,
      "th": 3172,
      "tina": 3173,
      "tha": 3174,
      "kapi": 3175,
      "kusa": 3176,
      "yaqa": 3177,
      "rata": 3178,
      "quillaje": 3179,
      "Isa": 3180,
      "den": 3181,
      "ñawpa": 3182,
      "kuska": 3183,
      "riyi": 3184,
      "del": 3185,
      "án": 3186,
      "Arí": 3187,
      "waqa": 3188,
      "gapa": 3189,
      "Ñuca": 3190,
      "Wasi": 3191,
      "imatapis": 3192,
      "gay": 3193,
      "kuyu": 3194,
      "nish": 3195,
      "ota": 3196,
      "asti": 3197,
      "wanu": 3198,
      "niyan": 3199,
      "kaypi": 3200,
      "kamachiy": 3201,
      "Llapan": 3202,
      "mai": 3203,
      "espa": 3204,
      "lig": 3205,
      "gun": 3206,
      "quiquin": 3207,
      "reqsi": 3208,
      "Chaura": 3209,
      "ner": 3210,
      "libro": 3211,
      "Pedro": 3212,
      "casara": 3213,
      "Peru": 3214,
      "gue": 3215,
      "zo": 3216,
      "animal": 3217,
      "waqay": 3218,
      "din": 3219,
      "runacunata": 3220,
      "cuya": 3221,
      "tac": 3222,
      "piensa": 3223,
      "der": 3224,
      "niyta": 3225,
      "rirqan": 3226,
      "chanin": 3227,
      "ol": 3228,
      "tritu": 3229,
      "chä": 3230,
      "ham": 3231,
      "utaq": 3232,
      "ukhu": 3233,
      "Le": 3234,
      "willakuy": 3235,
      "chuu": 3236,
      "qhepa": 3237,
      "tapi": 3238,
      "kimsa": 3239,
      "koj": 3240,
      "chista": 3241,
      "kallpancha": 3242,
      "yá": 3243,
      "ninpi": 3244,
      "warqan": 3245,
      "qos": 3246,
      "fa": 3247,
      "iu": 3248,
      "shaj": 3249,
      "chinan": 3250,
      "33": 3251,
      "yachatsi": 3252,
      "of": 3253,
      "kananpaq": 3254,
      "nog": 3255,
      "dä": 3256,
      "niki": 3257,
      "Ne": 3258,
      "captin": 3259,
      "Jerusalen": 3260,
      "mantan": 3261,
      "War": 3262,
      "rikch": 3263,
      "lar": 3264,
      "Satana": 3265,
      "Chaypi": 3266,
      "De": 3267,
      "gar": 3268,
      "tik": 3269,
      "sqankumanta": 3270,
      "rika": 3271,
      "Paykunaqa": 3272,
      "ven": 3273,
      "kachun": 3274,
      "Egipto": 3275,
      "sol": 3276,
      "apu": 3277,
      "nerqa": 3278,
      "changa": 3279,
      "të": 3280,
      "cacha": 3281,
      "wañuy": 3282,
      "nas": 3283,
      "cin": 3284,
      "rikä": 3285,
      "cani": 3286,
      "Hay": 3287,
      "Un": 3288,
      "kuru": 3289,
      "snin": 3290,
      "yachi": 3291,
      "curan": 3292,
      "qill": 3293,
      "ton": 3294,
      "ñoqa": 3295,
      "los": 3296,
      "Hinaspa": 3297,
      "kuman": 3298,
      "Tay": 3299,
      "ini": 3300,
      "waway": 3301,
      "papi": 3302,
      "jinata": 3303,
      "40": 3304,
      "maman": 3305,
      "cuer": 3306,
      "Imarayku": 3307,
      "qmi": 3308,
      "sasachakuy": 3309,
      "wallpaper": 3310,
      "Gam": 3311,
      "paykunaqa": 3312,
      "qaku": 3313,
      "50": 3314,
      "Wañu": 3315,
      "Chantá": 3316,
      "Fi": 3317,
      "coj": 3318,
      "manaraq": 3319,
      "cuen": 3320,
      "uywa": 3321,
      "qqa": 3322,
      "shkata": 3323,
      "Shu": 3324,
      "mamay": 3325,
      "):": 3326,
      "kak": 3327,
      "mpaq": 3328,
      "chqa": 3329,
      "Simi": 3330,
      "niyki": 3331,
      "ćha": 3332,
      "sonqon": 3333,
      "ëki": 3334,
      "alläpa": 3335,
      "ck": 3336,
      "tri": 3337,
      "kausa": 3338,
      "blu": 3339,
      "raeli": 3340,
      "nisha": 3341,
      "onqa": 3342,
      "wanki": 3343,
      "punin": 3344,
      "salva": 3345,
      "want": 3346,
      "stad": 3347,
      "llum": 3348,
      "kunap": 3349,
      "suy": 3350,
      "nata": 3351,
      "kamay": 3352,
      "nima": 3353,
      "nis": 3354,
      "huñuna": 3355,
      "predi": 3356,
      "qar": 3357,
      "aru": 3358,
      "Te": 3359,
      "llaña": 3360,
      "cana": 3361,
      "iñiy": 3362,
      "tur": 3363,
      "yachachin": 3364,
      "warmin": 3365,
      "aklla": 3366,
      "isk": 3367,
      "TA": 3368,
      "cer": 3369,
      "tor": 3370,
      "päcun": 3371,
      "kunki": 3372,
      "for": 3373,
      "lis": 3374,
      "elo": 3375,
      "eqa": 3376,
      "ag": 3377,
      "qayki": 3378,
      "rimu": 3379,
      "chikta": 3380,
      "canchij": 3381,
      "Cristo": 3382,
      "32": 3383,
      "runakunapa": 3384,
      "yachachikuy": 3385,
      "warqa": 3386,
      "des": 3387,
      "gä": 3388,
      "cunawan": 3389,
      "ichi": 3390,
      "kaqmanta": 3391,
      "yanqa": 3392,
      "puna": 3393,
      "asqa": 3394,
      "cunatapis": 3395,
      "raykum": 3396,
      "herman": 3397,
      "cangui": 3398,
      "llapallan": 3399,
      "rio": 3400,
      "milla": 3401,
      "chita": 3402,
      "qelqa": 3403,
      "chasqui": 3404,
      "kasqanmanta": 3405,
      "mikhu": 3406,
      "orqo": 3407,
      "sipas": 3408,
      "Kunanqa": 3409,
      "kancu": 3410,
      "chata": 3411,
      "tucuy": 3412,
      "Moises": 3413,
      "Go": 3414,
      "qhari": 3415,
      "sina": 3416,
      "tawa": 3417,
      "will": 3418,
      "[[": 3419,
      "llaqtam": 3420,
      "thu": 3421,
      "yuyari": 3422,
      "uni": 3423,
      "sunqu": 3424,
      "kunataq": 3425,
      "cien": 3426,
      "pala": 3427,
      "tru": 3428,
      "gente": 3429,
      "ley": 3430,
      "34": 3431,
      "shay": 3432,
      "imana": 3433,
      "Pitaq": 3434,
      "huañu": 3435,
      "pï": 3436,
      "distritu": 3437,
      "kiti": 3438,
      "mpis": 3439,
      "sip": 3440,
      "Cai": 3441,
      "Me": 3442,
      "punlla": 3443,
      "iñiqmasin": 3444,
      "sut": 3445,
      "yacu": 3446,
      "raycu": 3447,
      "grega": 3448,
      "cunataca": 3449,
      "Kaw": 3450,
      "cayan": 3451,
      "hunt": 3452,
      "rini": 3453,
      "kusqa": 3454,
      "Chas": 3455,
      "Imanasqataq": 3456,
      "llo": 3457,
      "manachu": 3458,
      "]]": 3459,
      "chuy": 3460,
      "jamu": 3461,
      "rani": 3462,
      "koq": 3463,
      "kunanpaq": 3464,
      "Jehovä": 3465,
      "wañun": 3466,
      "millay": 3467,
      "chikqa": 3468,
      "phu": 3469,
      "hap": 3470,
      "gregacion": 3471,
      "kunami": 3472,
      "pani": 3473,
      "Tik": 3474,
      "lloq": 3475,
      "kutin": 3476,
      "tä": 3477,
      "imaymana": 3478,
      "eq": 3479,
      "tsay": 3480,
      "tupa": 3481,
      "chuuuu": 3482,
      "ren": 3483,
      "sita": 3484,
      "Imataq": 3485,
      "Qhichwa": 3486,
      "kushpa": 3487,
      "Imatam": 3488,
      "anchata": 3489,
      "ligion": 3490,
      "ćh": 3491,
      "ninqa": 3492,
      "rcur": 3493,
      "kura": 3494,
      "chuk": 3495,
      "Chaymantapas": 3496,
      "noqan": 3497,
      "päcu": 3498,
      "és": 3499,
      "Yana": 3500,
      "yalli": 3501,
      "kastilla": 3502,
      "36": 3503,
      "ñataq": 3504,
      "jman": 3505,
      "mat": 3506,
      "nal": 3507,
      "Qi": 3508,
      "agra": 3509,
      "Chun": 3510,
      "Imaynatam": 3511,
      "ushan": 3512,
      "shä": 3513,
      "spi": 3514,
      "Po": 3515,
      "apay": 3516,
      "chikchu": 3517,
      "ninmanta": 3518,
      "qillqakuna": 3519,
      "Mateo": 3520,
      "respe": 3521,
      "sqayta": 3522,
      "'.": 3523,
      "cunapaj": 3524,
      "qallari": 3525,
      "kara": 3526,
      "Piruw": 3527,
      "spanmi": 3528,
      "Yachay": 3529,
      "kupi": 3530,
      "shgan": 3531,
      "ik": 3532,
      "Ba": 3533,
      "mis": 3534,
      "yachana": 3535,
      "hui": 3536,
      "paka": 3537,
      "onta": 3538,
      "imaynata": 3539,
      "ben": 3540,
      "chʼ": 3541,
      "Kaa": 3542,
      "estudi": 3543,
      "El": 3544,
      "Kë": 3545,
      "naq": 3546,
      "ninwan": 3547,
      "ostol": 3548,
      "huarmi": 3549,
      "askha": 3550,
      "sana": 3551,
      "Kasti": 3552,
      "qä": 3553,
      "runakunam": 3554,
      "maqana": 3555,
      "watamanta": 3556,
      "yaya": 3557,
      "pitapis": 3558,
      "kachi": 3559,
      "Chayqa": 3560,
      "35": 3561,
      "Icha": 3562,
      "asi": 3563,
      "maki": 3564,
      "purin": 3565,
      "llaqtanqa": 3566,
      "bre": 3567,
      "chejta": 3568,
      "__": 3569,
      "qari": 3570,
      "ye": 3571,
      "marca": 3572,
      "sunman": 3573,
      "kallpacha": 3574,
      "wanan": 3575,
      "wañuchi": 3576,
      "up": 3577,
      "kash": 3578,
      "Yaqa": 3579,
      "churan": 3580,
      "jpi": 3581,
      "tum": 3582,
      "To": 3583,
      "rachi": 3584,
      "cump": 3585,
      "Apu": 3586,
      "ES": 3587,
      "katiguriya": 3588,
      "gunata": 3589,
      "imanö": 3590,
      "pachan": 3591,
      "shaq": 3592,
      "cashcata": 3593,
      "uta": 3594,
      "qol": 3595,
      "Qui": 3596,
      "kunatan": 3597,
      "sasa": 3598,
      "yuta": 3599,
      "rikhu": 3600,
      "Noga": 3601,
      "shayqui": 3602,
      "religion": 3603,
      "piika": 3604,
      "Rey": 3605,
      "willan": 3606,
      "Tawa": 3607,
      "llamanta": 3608,
      "Bu": 3609,
      "jana": 3610,
      "junt": 3611,
      "niqui": 3612,
      "Iskay": 3613,
      "Muna": 3614,
      "munani": 3615,
      "hinan": 3616,
      "lta": 3617,
      "nuqa": 3618,
      "haw": 3619,
      "deci": 3620,
      "las": 3621,
      "traba": 3622,
      "Ñuka": 3623,
      "cel": 3624,
      "rmi": 3625,
      "bran": 3626,
      "kiqa": 3627,
      "Ho": 3628,
      "makin": 3629,
      "lam": 3630,
      "chinapaq": 3631,
      "phiña": 3632,
      "cü": 3633,
      "inta": 3634,
      "chikmi": 3635,
      "??": 3636,
      "israeli": 3637,
      "Jaco": 3638,
      "kusqanta": 3639,
      "pusapusqa": 3640,
      "kuyan": 3641,
      "contran": 3642,
      "nampaq": 3643,
      "qh": 3644,
      "aywa": 3645,
      "én": 3646,
      "ankuta": 3647,
      "jaq": 3648,
      "tura": 3649,
      "paywan": 3650,
      "nun": 3651,
      "nömi": 3652,
      "kuyqa": 3653,
      "rqachu": 3654,
      "yawar": 3655,
      "chayman": 3656,
      "kurqaku": 3657,
      "Ajina": 3658,
      "wasipi": 3659,
      "paschá": 3660,
      "dana": 3661,
      "tucun": 3662,
      "tex": 3663,
      "sunchik": 3664,
      "chispaq": 3665,
      "Gu": 3666,
      "payman": 3667,
      "rupa": 3668,
      "llanu": 3669,
      "was": 3670,
      "tori": 3671,
      "profe": 3672,
      "Ami": 3673,
      "alla": 3674,
      "kriyi": 3675,
      "yanapas": 3676,
      "ly": 3677,
      "Suyu": 3678,
      "entiende": 3679,
      "pichu": 3680,
      "ninman": 3681,
      "kawsaq": 3682,
      "kachka": 3683,
      "liw": 3684,
      "urqu": 3685,
      "mara": 3686,
      "rim": 3687,
      "tuy": 3688,
      "fo": 3689,
      "wanku": 3690,
      "lata": 3691,
      "Bo": 3692,
      "iya": 3693,
      "tsic": 3694,
      "shungu": 3695,
      "wila": 3696,
      "congregacion": 3697,
      "capi": 3698,
      "chiri": 3699,
      "Qalla": 3700,
      "ber": 3701,
      "raymi": 3702,
      "mbre": 3703,
      "Vi": 3704,
      "kus": 3705,
      "fu": 3706,
      "les": 3707,
      "casti": 3708,
      "sipyu": 3709,
      "anchis": 3710,
      "pachaman": 3711,
      "shkay": 3712,
      "tos": 3713,
      "rikuy": 3714,
      "sach": 3715,
      "rikuchi": 3716,
      "rai": 3717,
      "nishca": 3718,
      "muq": 3719,
      "shunqui": 3720,
      "cashan": 3721,
      "ripu": 3722,
      "Shuk": 3723,
      "cherqa": 3724,
      "cap": 3725,
      "tikra": 3726,
      "Hua": 3727,
      "imp": 3728,
      "unki": 3729,
      "tilla": 3730,
      "Chayno": 3731,
      "ab": 3732,
      "më": 3733,
      "yuk": 3734,
      "llatak": 3735,
      "wayku": 3736,
      "wis": 3737,
      "jar": 3738,
      "yapay": 3739,
      "carca": 3740,
      "chipa": 3741,
      "niq": 3742,
      "nä": 3743,
      "chinga": 3744,
      "kunankupaq": 3745,
      "katiguriyapi": 3746,
      "Pikapi": 3747,
      "chanta": 3748,
      "ela": 3749,
      "ías": 3750,
      "yayku": 3751,
      "hinallataq": 3752,
      "riyan": 3753,
      "ninkuta": 3754,
      "Llu": 3755,
      "llqi": 3756,
      "kiki": 3757,
      "Bibliaqa": 3758,
      "Dyuspa": 3759,
      "chashna": 3760,
      "sar": 3761,
      "maypi": 3762,
      "kina": 3763,
      "tro": 3764,
      "upi": 3765,
      "tes": 3766,
      "sunki": 3767,
      "ruwayta": 3768,
      "pami": 3769,
      "pʼ": 3770,
      "kashpa": 3771,
      "Uni": 3772,
      "Imaraykun": 3773,
      "ayllun": 3774,
      "watakuna": 3775,
      "shumaq": 3776,
      "Inti": 3777,
      "tia": 3778,
      "kuran": 3779,
      "ristu": 3780,
      "shpi": 3781,
      "ayan": 3782,
      "har": 3783,
      "wayta": 3784,
      "qellqa": 3785,
      "Asta": 3786,
      "Par": 3787,
      "gobier": 3788,
      "nisqanman": 3789,
      "Juk": 3790,
      "ñuqa": 3791,
      "Chasna": 3792,
      "Tan": 3793,
      "taka": 3794,
      "lloj": 3795,
      "tuq": 3796,
      "chishpa": 3797,
      "cunatapish": 3798,
      "rishpa": 3799,
      "Ña": 3800,
      "dar": 3801,
      "Diosca": 3802,
      "pachata": 3803,
      "pämi": 3804,
      "confi": 3805,
      "nece": 3806,
      "cunapi": 3807,
      "rurar": 3808,
      "og": 3809,
      "cuad": 3810,
      "ai": 3811,
      "palla": 3812,
      "nisqanta": 3813,
      "cau": 3814,
      "pachamanta": 3815,
      "cambi": 3816,
      "SA": 3817,
      "kuqa": 3818,
      "kaya": 3819,
      "tï": 3820,
      "mush": 3821,
      "chhi": 3822,
      "imaraykuchus": 3823,
      "ayi": 3824,
      "nisqapi": 3825,
      "shin": 3826,
      "richi": 3827,
      "manpas": 3828,
      "paita": 3829,
      "korqa": 3830,
      "Tikraynin": 3831,
      "unancha": 3832,
      "Ancha": 3833,
      "kashka": 3834,
      "quim": 3835,
      "Sin": 3836,
      "Uj": 3837,
      "Car": 3838,
      "riyta": 3839,
      "ninan": 3840,
      "Wan": 3841,
      "uca": 3842,
      "Chanka": 3843,
      "AQ": 3844,
      "lon": 3845,
      "kayqa": 3846,
      "ipi": 3847,
      "Aw": 3848,
      "ram": 3849,
      "qolqe": 3850,
      "qantsik": 3851,
      "umalli": 3852,
      "llanta": 3853,
      "kunanchik": 3854,
      "38": 3855,
      "wamran": 3856,
      "Pero": 3857,
      "watan": 3858,
      "puchu": 3859,
      "kinsa": 3860,
      "caycä": 3861,
      "Jacob": 3862,
      "\"¡": 3863,
      "Be": 3864,
      "chï": 3865,
      "kaptinqa": 3866,
      "chayamu": 3867,
      "44": 3868,
      "ry": 3869,
      "chak": 3870,
      "suk": 3871,
      "huahua": 3872,
      "sqaykita": 3873,
      "israel": 3874,
      "dios": 3875,
      "Shi": 3876,
      "cen": 3877,
      "kapun": 3878,
      "cunqui": 3879,
      "LU": 3880,
      "ban": 3881,
      "jisk": 3882,
      "tio": 3883,
      "nami": 3884,
      "Manda": 3885,
      "En": 3886,
      "pachak": 3887,
      "suyupi": 3888,
      "ric": 3889,
      "kunapis": 3890,
      "llataq": 3891,
      "yuyan": 3892,
      "puë": 3893,
      "Imanir": 3894,
      "tsin": 3895,
      "chishka": 3896,
      "tukun": 3897,
      "tie": 3898,
      "Qhapaq": 3899,
      "um": 3900,
      "hinaqa": 3901,
      "tiempon": 3902,
      "ichanga": 3903,
      "ruru": 3904,
      "wik": 3905,
      "taytan": 3906,
      "uyan": 3907,
      "chayri": 3908,
      "Willa": 3909,
      "Canan": 3910,
      "cuj": 3911,
      "Ñawpaq": 3912,
      "CAS": 3913,
      "wanchis": 3914,
      "kananta": 3915,
      "Tama": 3916,
      "shpay": 3917,
      "Sichus": 3918,
      "wiñaypaq": 3919,
      "Fu": 3920,
      "calla": 3921,
      "fiyupa": 3922,
      "!\"": 3923,
      "dun": 3924,
      "aman": 3925,
      "manana": 3926,
      "Diospi": 3927,
      "cheqap": 3928,
      "chaynataq": 3929,
      "Imanö": 3930,
      "karqanku": 3931,
      "musyan": 3932,
      "198": 3933,
      "ishkay": 3934,
      "munisipyu": 3935,
      "IN": 3936,
      "pina": 3937,
      "qallay": 3938,
      "ashtahuan": 3939,
      "ron": 3940,
      "ñucanchi": 3941,
      "sumaqta": 3942,
      "ble": 3943,
      "patsa": 3944,
      "huna": 3945,
      "simin": 3946,
      "kurqani": 3947,
      "Imay": 3948,
      "llawan": 3949,
      "sama": 3950,
      "Per": 3951,
      "Achka": 3952,
      "wayna": 3953,
      "MA": 3954,
      "Por": 3955,
      "hayka": 3956,
      "iku": 3957,
      "mal": 3958,
      "mill": 3959,
      "emplo": 3960,
      "ñaupa": 3961,
      "37": 3962,
      "kuptin": 3963,
      "cuyta": 3964,
      "yoj": 3965,
      "cunatami": 3966,
      "warma": 3967,
      "rqu": 3968,
      "casa": 3969,
      "nirka": 3970,
      "chaki": 3971,
      "qhapaq": 3972,
      "lloqsi": 3973,
      "runam": 3974,
      "ruwasqa": 3975,
      "ptiqui": 3976,
      "So": 3977,
      "amistad": 3978,
      "qkunaqa": 3979,
      "squ": 3980,
      "yachayta": 3981,
      "Kastillanu": 3982,
      "kayku": 3983,
      "Tsaynog": 3984,
      "chaylla": 3985,
      "Fara": 3986,
      "chichu": 3987,
      "achca": 3988,
      "asha": 3989,
      "shqai": 3990,
      "Aar": 3991,
      "kuypi": 3992,
      "parl": 3993,
      "Eli": 3994,
      "watu": 3995,
      "ñak": 3996,
      "nuy": 3997,
      "Bibliata": 3998,
      "call": 3999,
      "kawan": 4000,
      "erra": 4001,
      "riki": 4002,
      "yargan": 4003,
      "llacta": 4004,
      "tinqa": 4005,
      "rikuspa": 4006,
      "Job": 4007,
      "chakra": 4008,
      "huilla": 4009,
      "karqaku": 4010,
      "cheqaq": 4011,
      "ove": 4012,
      "chuya": 4013,
      "Qallariy": 4014,
      "paran": 4015,
      "karka": 4016,
      "das": 4017,
      "cunataga": 4018,
      "Abraham": 4019,
      "qocha": 4020,
      ".)": 4021,
      "yku": 4022,
      "bibli": 4023,
      "runan": 4024,
      "ks": 4025,
      "ëta": 4026,
      "testi": 4027,
      "Paqa": 4028,
      "39": 4029,
      "day": 4030,
      "masta": 4031,
      "kanchi": 4032,
      "199": 4033,
      "apostol": 4034,
      "cajta": 4035,
      "nitaq": 4036,
      "Pipi": 4037,
      "imatachus": 4038,
      "Lucas": 4039,
      "paca": 4040,
      "suwa": 4041,
      "imaypis": 4042,
      "ajlla": 4043,
      "jahua": 4044,
      "wayra": 4045,
      "bin": 4046,
      "sen": 4047,
      "qankuna": 4048,
      "chöqa": 4049,
      "Jatun": 4050,
      "Imatataq": 4051,
      "unu": 4052,
      "tuna": 4053,
      "chisha": 4054,
      "ruwasqan": 4055,
      "Salo": 4056,
      "tenga": 4057,
      "Aswan": 4058,
      "ypi": 4059,
      "nï": 4060,
      "qanqa": 4061,
      "uru": 4062,
      "anpaj": 4063,
      "pon": 4064,
      "usu": 4065,
      "chkanku": 4066,
      "israelita": 4067,
      "sion": 4068,
      "...]": 4069,
      "rimaq": 4070,
      "TE": 4071,
      "chua": 4072,
      "lag": 4073,
      "dos": 4074,
      "sirvi": 4075,
      "Iraq": 4076,
      "chisun": 4077,
      "urma": 4078,
      "nitaj": 4079,
      "Diospaj": 4080,
      "kunapak": 4081,
      "[...]": 4082,
      "rishka": 4083,
      "quir": 4084,
      "ashkha": 4085,
      "tapuy": 4086,
      "tsikta": 4087,
      "raya": 4088,
      "qtinmi": 4089,
      "gana": 4090,
      "il": 4091,
      "qashqai": 4092,
      "tantiya": 4093,
      "uyarin": 4094,
      "sajra": 4095,
      "nasyun": 4096,
      "tachu": 4097,
      "kach": 4098,
      "panka": 4099,
      "waquin": 4100,
      "chishca": 4101,
      "allinmi": 4102,
      "kallpa": 4103,
      "chischu": 4104,
      "kayan": 4105,
      "chani": 4106,
      "idi": 4107,
      "....": 4108,
      "lesi": 4109,
      "et": 4110,
      "ush": 4111,
      "maquillaje": 4112,
      "imas": 4113,
      "kaqpi": 4114,
      "nöpis": 4115,
      "kawsayta": 4116,
      "cati": 4117,
      "tel": 4118,
      "KU": 4119,
      "imachus": 4120,
      "qhaway": 4121,
      "ich": 4122,
      "rurë": 4123,
      "tinku": 4124,
      "ashwan": 4125,
      "kaqkunata": 4126,
      "luta": 4127,
      "Que": 4128,
      "),": 4129,
      "qullqi": 4130,
      "cumpli": 4131,
      "Au": 4132,
      "pitaj": 4133,
      "kap": 4134,
      "kuspan": 4135,
      "Ap": 4136,
      "waranqa": 4137,
      "fiesta": 4138,
      "ñawin": 4139,
      "IOS": 4140,
      "kasun": 4141,
      "nircami": 4142,
      "lor": 4143,
      "nana": 4144,
      "dado": 4145,
      "Llapa": 4146,
      "pukyuta": 4147,
      "imi": 4148,
      "rurashpa": 4149,
      "mantapacha": 4150,
      "Lo": 4151,
      "mag": 4152,
      "pusaq": 4153,
      "Chaywanpis": 4154,
      "saya": 4155,
      "aki": 4156,
      "tya": 4157,
      "ui": 4158,
      "tantana": 4159,
      "washa": 4160,
      "Pas": 4161,
      "çhu": 4162,
      "cra": 4163,
      "ĉha": 4164,
      "kai": 4165,
      "ispi": 4166,
      "apaq": 4167,
      "huau": 4168,
      "Chuuu": 4169,
      "ere": 4170,
      "qhu": 4171,
      "nishka": 4172,
      "Ci": 4173,
      "bot": 4174,
      "shon": 4175,
      "ninkuna": 4176,
      "hora": 4177,
      "ruraq": 4178,
      "cog": 4179,
      "AP": 4180,
      "kasqanku": 4181,
      "tis": 4182,
      "Tamajaq": 4183,
      "Pë": 4184,
      "śh": 4185,
      "anci": 4186,
      "quë": 4187,
      "llammat": 4188,
      "Tawallammat": 4189,
      "rer": 4190,
      "vide": 4191,
      "leey": 4192,
      "munqa": 4193,
      "gayqui": 4194,
      "jinan": 4195,
      "runapa": 4196,
      "ruwarqa": 4197,
      "änan": 4198,
      "paymi": 4199,
      "aypa": 4200,
      "päpis": 4201,
      "qallariy": 4202,
      "Ali": 4203,
      "ado": 4204,
      "kush": 4205,
      "quiqui": 4206,
      "cäsu": 4207,
      "qawachi": 4208,
      "?,\"": 4209,
      "wasqanchik": 4210,
      "chall": 4211,
      "puriy": 4212,
      "kuywan": 4213,
      "ankupaj": 4214,
      "imë": 4215,
      "Sayno": 4216,
      "chilla": 4217,
      "cus": 4218,
      "rurash": 4219,
      "chaskin": 4220,
      "Ayllu": 4221,
      "tsan": 4222,
      "kuwan": 4223,
      "cree": 4224,
      "öra": 4225,
      "tiyay": 4226,
      "cunamanta": 4227,
      "prome": 4228,
      "cuador": 4229,
      "Cor": 4230,
      "rqanki": 4231,
      "qawachin": 4232,
      "iñiqmasinchik": 4233,
      "&#": 4234,
      "kunman": 4235,
      "chunmi": 4236,
      "qillqasqa": 4237,
      "Imatan": 4238,
      "wica": 4239,
      "gri": 4240,
      "uqa": 4241,
      "runasta": 4242,
      "llumpay": 4243,
      "ul": 4244,
      "kumanta": 4245,
      "qayta": 4246,
      "kutichi": 4247,
      "churana": 4248,
      "rqam": 4249,
      "kusha": 4250,
      "paqpas": 4251,
      "kaqkuna": 4252,
      "kapa": 4253,
      "juz": 4254,
      "Allpa": 4255,
      "LUCAS": 4256,
      "sam": 4257,
      "kunchik": 4258,
      "kamachin": 4259,
      "lluqsi": 4260,
      "tinpi": 4261,
      "Pipas": 4262,
      "niya": 4263,
      "imasta": 4264,
      "contra": 4265,
      "Chhayna": 4266,
      "41": 4267,
      "dece": 4268,
      "Churin": 4269,
      "manchari": 4270,
      "kuyman": 4271,
      "Paypa": 4272,
      "kati": 4273,
      "raki": 4274,
      "sas": 4275,
      "ele": 4276,
      "Ad": 4277,
      "asun": 4278,
      "tal": 4279,
      "ruta": 4280,
      "pikaa": 4281,
      "wo": 4282,
      "Kusi": 4283,
      "nay": 4284,
      "Espi": 4285,
      "maquin": 4286,
      "nachu": 4287,
      "wka": 4288,
      "CO": 4289,
      "ing": 4290,
      "kusqanku": 4291,
      "hall": 4292,
      "rkansapa": 4293,
      "ñispa": 4294,
      "Qusqu": 4295,
      "py": 4296,
      "chim": 4297,
      "Ecuador": 4298,
      "uman": 4299,
      "Paykuna": 4300,
      "qhay": 4301,
      "kanka": 4302,
      "ritun": 4303,
      "aska": 4304,
      "shanku": 4305,
      "chunca": 4306,
      "kamachiq": 4307,
      "kupas": 4308,
      "nace": 4309,
      "bar": 4310,
      "wañusqa": 4311,
      "yanu": 4312,
      "impu": 4313,
      "chapa": 4314,
      "kanqanta": 4315,
      "Manami": 4316,
      "Bibliamanta": 4317,
      "ex": 4318,
      "the": 4319,
      "chakuq": 4320,
      "Mari": 4321,
      "caway": 4322,
      "kuykuna": 4323,
      "nichpa": 4324,
      "seña": 4325,
      "Piika": 4326,
      "iti": 4327,
      "kiya": 4328,
      "Imaynatan": 4329,
      "ACH": 4330,
      "gen": 4331,
      "anchay": 4332,
      "sumpa": 4333,
      "kushka": 4334,
      "miraynin": 4335,
      "nia": 4336,
      "kanankupaq": 4337,
      "Wawa": 4338,
      "manchachi": 4339,
      "shuc": 4340,
      "kunayki": 4341,
      "allinchu": 4342,
      "Moisespa": 4343,
      "chhayna": 4344,
      "rar": 4345,
      "kuychu": 4346,
      "Maquillaje": 4347,
      "net": 4348,
      "papa": 4349,
      "dona": 4350,
      "Salomon": 4351,
      "gos": 4352,
      "jkuna": 4353,
      "imashina": 4354,
      "ishcay": 4355,
      "opi": 4356,
      "onqo": 4357,
      "huata": 4358,
      "saqe": 4359,
      "aswanqa": 4360,
      "kon": 4361,
      "runakunaman": 4362,
      "cashganta": 4363,
      "Mush": 4364,
      "imaynatachus": 4365,
      "simita": 4366,
      "hamuq": 4367,
      "risha": 4368,
      "rurqa": 4369,
      "pra": 4370,
      "chayan": 4371,
      "Suma": 4372,
      "rikätsi": 4373,
      "quichej": 4374,
      "piikaa": 4375,
      "aku": 4376,
      "caman": 4377,
      "saqui": 4378,
      "punim": 4379,
      "janaj": 4380,
      "quiman": 4381,
      "Ab": 4382,
      "rig": 4383,
      "wamb": 4384,
      "qani": 4385,
      "Pin": 4386,
      "än": 4387,
      "kasqankuta": 4388,
      "Chaynaqa": 4389,
      "Ashtahuan": 4390,
      "//": 4391,
      "=\"": 4392,
      "cusha": 4393,
      "Yachan": 4394,
      "mikhun": 4395,
      "kami": 4396,
      "bauti": 4397,
      "chöpis": 4398,
      "yanapawasun": 4399,
      "chiqa": 4400,
      "lip": 4401,
      "Bibliapi": 4402,
      "Hinaspan": 4403,
      "Adan": 4404,
      "aspa": 4405,
      "non": 4406,
      "llaman": 4407,
      "kunanqa": 4408,
      "temp": 4409,
      "Run": 4410,
      "esti": 4411,
      "hukman": 4412,
      "com": 4413,
      "wamra": 4414,
      "huauqui": 4415,
      "zu": 4416,
      "kal": 4417,
      "milag": 4418,
      "paykunaman": 4419,
      "Payga": 4420,
      "Jesusmi": 4421,
      "atun": 4422,
      "punku": 4423,
      ".*": 4424,
      "cachi": 4425,
      "kiman": 4426,
      "hayk": 4427,
      "kuraq": 4428,
      "rirca": 4429,
      "áy": 4430,
      "chaykunata": 4431,
      "paykunawan": 4432,
      "pushak": 4433,
      "tí": 4434,
      "cunahuan": 4435,
      "predica": 4436,
      "awan": 4437,
      "bio": 4438,
      "ïta": 4439,
      "paga": 4440,
      "manamá": 4441,
      "quichu": 4442,
      "van": 4443,
      "llankay": 4444,
      "\">": 4445,
      "anapaq": 4446,
      "versi": 4447,
      "texto": 4448,
      "ez": 4449,
      "japi": 4450,
      "Am": 4451,
      "Para": 4452,
      "42": 4453,
      "maya": 4454,
      "Pablu": 4455,
      "rikuchin": 4456,
      "Bibliapa": 4457,
      "rinku": 4458,
      "judio": 4459,
      "rkakuna": 4460,
      "45": 4461,
      "Cunan": 4462,
      "wina": 4463,
      "llaj": 4464,
      "huñu": 4465,
      "cushca": 4466,
      "ñaka": 4467,
      "sqanchis": 4468,
      "parti": 4469,
      "cheq": 4470,
      "änampaq": 4471,
      "lapan": 4472,
      "req": 4473,
      "Shinapash": 4474,
      "dor": 4475,
      "fri": 4476,
      "ira": 4477,
      "kachari": 4478,
      "esqa": 4479,
      "llayta": 4480,
      "kis": 4481,
      "chaypas": 4482,
      "Samu": 4483,
      "trg": 4484,
      "ukupi": 4485,
      "mien": 4486,
      "cuida": 4487,
      "cal": 4488,
      "llamkay": 4489,
      "3pi": 4490,
      "43": 4491,
      "ajina": 4492,
      "shga": 4493,
      "sur": 4494,
      "gta": 4495,
      "pí": 4496,
      "cunä": 4497,
      "cional": 4498,
      "hermano": 4499,
      "killapa": 4500,
      "rinan": 4501,
      "tanam": 4502,
      "Hech": 4503,
      "Nä": 4504,
      "mita": 4505,
      "cuela": 4506,
      "kunchu": 4507,
      "llanpi": 4508,
      "perdon": 4509,
      "agradece": 4510,
      "Qo": 4511,
      "yam": 4512,
      "iq": 4513,
      "unqu": 4514,
      "rishca": 4515,
      "Pala": 4516,
      "pitami": 4517,
      "Noqaqa": 4518,
      "kachamu": 4519,
      "spapas": 4520,
      "rikuri": 4521,
      "kutimuy": 4522,
      "cis": 4523,
      "Punta": 4524,
      "Pre": 4525,
      "llaktapi": 4526,
      "llataqmi": 4527,
      "char": 4528,
      "cashca": 4529,
      "Chin": 4530,
      "apamu": 4531,
      "Tse": 4532,
      "ph": 4533,
      "Ñau": 4534,
      "mantsik": 4535,
      "llaqtayuq": 4536,
      "nisqapaq": 4537,
      "llaqtakunapi": 4538,
      "huchalli": 4539,
      "llaqtaman": 4540,
      "autori": 4541,
      "mosoq": 4542,
      "Furqan": 4543,
      "qachu": 4544,
      "wanchu": 4545,
      "kangi": 4546,
      "qatiqnin": 4547,
      "Dani": 4548,
      "Hi": 4549,
      "jam": 4550,
      "ptiy": 4551,
      "tiempu": 4552,
      "cug": 4553,
      "197": 4554,
      "Huklla": 4555,
      "taytay": 4556,
      "munar": 4557,
      "chkani": 4558,
      "Moisés": 4559,
      "yanapana": 4560,
      "bendi": 4561,
      "änu": 4562,
      "Chantapis": 4563,
      "quina": 4564,
      "quimsa": 4565,
      "amu": 4566,
      "ayni": 4567,
      "chikuna": 4568,
      "yära": 4569,
      "?...": 4570,
      "awi": 4571,
      "churay": 4572,
      "48": 4573,
      "ucha": 4574,
      "shinami": 4575,
      "JU": 4576,
      "chaj": 4577,
      "qonqa": 4578,
      "ayayayay": 4579,
      "wat": 4580,
      "lee": 4581,
      "Prover": 4582,
      "repara": 4583,
      "Nircur": 4584,
      "Piikachu": 4585,
      "Pan": 4586,
      "caya": 4587,
      "peqa": 4588,
      "Mas": 4589,
      "cutin": 4590,
      "Chasa": 4591,
      "ashi": 4592,
      "ges": 4593,
      "rita": 4594,
      "paypi": 4595,
      "cial": 4596,
      "ayquipaj": 4597,
      "qkunata": 4598,
      "liti": 4599,
      "parlan": 4600,
      "wau": 4601,
      "wasiman": 4602,
      "musyay": 4603,
      "Chaimantami": 4604,
      "karun": 4605,
      "machu": 4606,
      "2012": 4607,
      "carcel": 4608,
      "glesi": 4609,
      "pasan": 4610,
      "munanku": 4611,
      "kawsari": 4612,
      "sor": 4613,
      "wacha": 4614,
      "llapis": 4615,
      "canguna": 4616,
      "ukhupi": 4617,
      "unquy": 4618,
      "riksi": 4619,
      "sumajta": 4620,
      "ashtawan": 4621,
      "más": 4622,
      "Ko": 4623,
      "mata": 4624,
      "chikpaq": 4625,
      "vista": 4626,
      "musuqchasqa": 4627,
      "mikhuna": 4628,
      "guta": 4629,
      "khuya": 4630,
      "cerdo": 4631,
      "Nuna": 4632,
      "cuyan": 4633,
      "Ñuqa": 4634,
      "lle": 4635,
      "Imaynata": 4636,
      "Aaron": 4637,
      "cielo": 4638,
      "Runaway": 4639,
      "Do": 4640,
      "saki": 4641,
      "patapi": 4642,
      "Kawsay": 4643,
      "apan": 4644,
      "uray": 4645,
      "rishun": 4646,
      "lluy": 4647,
      "munash": 4648,
      "kunawanmi": 4649,
      "amanta": 4650,
      "mani": 4651,
      "kusqay": 4652,
      "maqa": 4653,
      "rag": 4654,
      "chikpi": 4655,
      "juchay": 4656,
      "ptinpis": 4657,
      "rak": 4658,
      "kankuna": 4659,
      "escri": 4660,
      "llatami": 4661,
      "yachachiy": 4662,
      "Mayu": 4663,
      "Ñawpa": 4664,
      "päga": 4665,
      "atiyniyoq": 4666,
      "Min": 4667,
      "supay": 4668,
      "watam": 4669,
      "yanam": 4670,
      "aykillapa": 4671,
      "ciones": 4672,
      "Tsëmi": 4673,
      "Jan": 4674,
      "yumb": 4675,
      "mayqen": 4676,
      "espiritu": 4677,
      "cpi": 4678,
      "kunalla": 4679,
      "kunapaqmi": 4680,
      "my": 4681,
      "mil": 4682,
      "nio": 4683,
      "Che": 4684,
      "sqanrayku": 4685,
      "cher": 4686,
      "puquy": 4687,
      "hinachu": 4688,
      "noqaqa": 4689,
      "llllllll": 4690,
      "kakuna": 4691,
      "wakichi": 4692,
      "hinaspam": 4693,
      "Santu": 4694,
      "paymanta": 4695,
      "mur": 4696,
      "rcacuna": 4697,
      "Corin": 4698,
      "qami": 4699,
      "wapi": 4700,
      "alaba": 4701,
      "yuyu": 4702,
      "Roma": 4703,
      "Hinan": 4704,
      "krey": 4705,
      "tuk": 4706,
      "mayá": 4707,
      "huasi": 4708,
      "Tuta": 4709,
      "soldado": 4710,
      "Taytan": 4711,
      "46": 4712,
      "=>": 4713,
      "uyariy": 4714,
      "kulla": 4715,
      "gachu": 4716,
      "ranchu": 4717,
      "śha": 4718,
      "lamar": 4719,
      "perdona": 4720,
      "II": 4721,
      "ñin": 4722,
      "kunankama": 4723,
      "196": 4724,
      "kawsak": 4725,
      "kanqan": 4726,
      "Paycuna": 4727,
      "rimanakuy": 4728,
      "Apo": 4729,
      "ego": 4730,
      "imapis": 4731,
      "ñaupaj": 4732,
      "manchay": 4733,
      "caycaj": 4734,
      "yarina": 4735,
      "embre": 4736,
      "nillan": 4737,
      "sukaman": 4738,
      "llur": 4739,
      "atipan": 4740,
      "ykita": 4741,
      "ñun": 4742,
      "anchu": 4743,
      "rus": 4744,
      "shani": 4745,
      "rimayta": 4746,
      "taga": 4747,
      "mapis": 4748,
      "pur": 4749,
      "lado": 4750,
      "precur": 4751,
      "parlay": 4752,
      "Mushtaq": 4753,
      "ces": 4754,
      "Dioswan": 4755,
      "apachinapaq": 4756,
      "musuqchasqapura": 4757,
      "yë": 4758,
      "zha": 4759,
      "tupi": 4760,
      "mayqan": 4761,
      "riqsisqa": 4762,
      "kanchis": 4763,
      "iyu": 4764,
      "chaykuna": 4765,
      "mayo": 4766,
      "hukchasqa": 4767,
      "mandami": 4768,
      "Maypitaq": 4769,
      "tsun": 4770,
      "tse": 4771,
      "llin": 4772,
      "siente": 4773,
      "ninkunata": 4774,
      "laq": 4775,
      "wir": 4776,
      "kajta": 4777,
      "yari": 4778,
      "caq": 4779,
      "Jujman": 4780,
      "saqi": 4781,
      "era": 4782,
      "chakuy": 4783,
      "Cheqa": 4784,
      "LA": 4785,
      "jus": 4786,
      "korqanku": 4787,
      "cla": 4788,
      "aymi": 4789,
      "warmita": 4790,
      "agu": 4791,
      "ninchis": 4792,
      "Tsaynö": 4793,
      "familian": 4794,
      "anciano": 4795,
      "Hukchasqa": 4796,
      "Salmo": 4797,
      "\"-": 4798,
      "ctor": 4799,
      "imam": 4800,
      "watakama": 4801,
      "pichus": 4802,
      "chaytaqa": 4803,
      "Payka": 4804,
      "guichi": 4805,
      "Musuq": 4806,
      "ayuda": 4807,
      "Hukllachasqa": 4808,
      "yaj": 4809,
      "kamachej": 4810,
      "anchikpaq": 4811,
      "kayman": 4812,
      "rispan": 4813,
      "taku": 4814,
      "qaya": 4815,
      "ruwaq": 4816,
      "uyarina": 4817,
      "kasqanrayku": 4818,
      "wanchej": 4819,
      "cunapish": 4820,
      "yachani": 4821,
      "qespi": 4822,
      "kanmi": 4823,
      "humilla": 4824,
      "chinqa": 4825,
      "alita": 4826,
      "Imanötaq": 4827,
      "49": 4828,
      "IS": 4829,
      "huchan": 4830,
      "muru": 4831,
      "Juc": 4832,
      "wawakuna": 4833,
      "Diosninchi": 4834,
      "rnin": 4835,
      "cada": 4836,
      "Sumaq": 4837,
      "bios": 4838,
      "imamanta": 4839,
      "chiran": 4840,
      "Inka": 4841,
      "Moisesta": 4842,
      "sunchis": 4843,
      "Sara": 4844,
      "shkami": 4845,
      "suyun": 4846,
      "hampi": 4847,
      "sumak": 4848,
      "Kanan": 4849,
      "uchu": 4850,
      "wal": 4851,
      "tani": 4852,
      "llapachu": 4853,
      "Moisesqa": 4854,
      "mpusqa": 4855,
      "ñanta": 4856,
      "Faraon": 4857,
      "maqta": 4858,
      "spas": 4859,
      "naqa": 4860,
      "tsikï": 4861,
      "Jose": 4862,
      "Gobier": 4863,
      "RE": 4864,
      "mandaj": 4865,
      "kamachikuy": 4866,
      "kaptinpas": 4867,
      "SAN": 4868,
      "sul": 4869,
      "cheqan": 4870,
      "kunapiqa": 4871,
      "55": 4872,
      "mantawan": 4873,
      "hamun": 4874,
      "Proverbios": 4875,
      "kanqaku": 4876,
      "ariy": 4877,
      "bur": 4878,
      "chha": 4879,
      "huer": 4880,
      "piii": 4881,
      "manku": 4882,
      "cayä": 4883,
      "Jesusca": 4884,
      "Hinaptinmi": 4885,
      "muyun": 4886,
      "yupaycha": 4887,
      "pukllay": 4888,
      "servichi": 4889,
      "Gri": 4890,
      "manos": 4891,
      "chiki": 4892,
      "wawqi": 4893,
      "niyanmi": 4894,
      "manpis": 4895,
      "publi": 4896,
      "sayari": 4897,
      "tukuyta": 4898,
      "runakunaq": 4899,
      "waki": 4900,
      "rum": 4901,
      "unchaypi": 4902,
      "munaycha": 4903,
      "Nätan": 4904,
      "pawan": 4905,
      "sqachu": 4906,
      "janan": 4907,
      "Jesuk": 4908,
      "pusampusqa": 4909,
      "!!!": 4910,
      "Mamallakta": 4911,
      "reg": 4912,
      "cunga": 4913,
      "yanapaq": 4914,
      "llapanta": 4915,
      "paman": 4916,
      "yuri": 4917,
      "runakunan": 4918,
      "kunapim": 4919,
      "conse": 4920,
      "piwan": 4921,
      "matata": 4922,
      "wawas": 4923,
      "promete": 4924,
      "Ran": 4925,
      "paycuna": 4926,
      "captinpis": 4927,
      "watayuq": 4928,
      "nisqata": 4929,
      "atipa": 4930,
      "charina": 4931,
      "lluk": 4932,
      "ora": 4933,
      "ze": 4934,
      "pue": 4935,
      "ñakari": 4936,
      "Imanasqam": 4937,
      "aycha": 4938,
      "paqchu": 4939,
      "liq": 4940,
      "wira": 4941,
      "yachaq": 4942,
      "yarpacha": 4943,
      "necesita": 4944,
      "Hanaq": 4945,
      "pic": 4946,
      "shcä": 4947,
      "wasinman": 4948,
      "Za": 4949,
      "ní": 4950,
      "spam": 4951,
      "yanga": 4952,
      "-¿": 4953,
      "chqan": 4954,
      "yachin": 4955,
      "shimin": 4956,
      "sutiyoq": 4957,
      "familia": 4958,
      "cerdote": 4959,
      "semana": 4960,
      "Davidpa": 4961,
      "kunqaku": 4962,
      "Qanqa": 4963,
      "pat": 4964,
      "llapas": 4965,
      "rasumpa": 4966,
      "rqaniku": 4967,
      "rijch": 4968,
      "Fran": 4969,
      "chru": 4970,
      "paiguna": 4971,
      "Ach": 4972,
      "anga": 4973,
      "kurqanku": 4974,
      "llakiy": 4975,
      "Imanirtaq": 4976,
      "oveja": 4977,
      "buj": 4978,
      "dí": 4979,
      "rra": 4980,
      "Ñan": 4981,
      "picha": 4982,
      "chasa": 4983,
      "runaq": 4984,
      "wampis": 4985,
      "cayta": 4986,
      "noka": 4987,
      "mit": 4988,
      "huas": 4989,
      "Kar": 4990,
      "xi": 4991,
      "inter": 4992,
      "chimu": 4993,
      "shcataca": 4994,
      "Daniel": 4995,
      "lluq": 4996,
      "Mai": 4997,
      "Wiñay": 4998,
      "gamcuna": 4999,
      "kananku": 5000,
      "killka": 5001,
      "aywan": 5002,
      "yakuta": 5003,
      "canman": 5004,
      "cuta": 5005,
      "tota": 5006,
      "guerra": 5007,
      "ejemplo": 5008,
      "Palabran": 5009,
      "tinta": 5010,
      "chöga": 5011,
      "Timo": 5012,
      "sinchita": 5013,
      "kull": 5014,
      "chaynu": 5015,
      "imanir": 5016,
      "47": 5017,
      "asuy": 5018,
      "mushuk": 5019,
      "tej": 5020,
      "Paycunaga": 5021,
      "haykapipas": 5022,
      "Uq": 5023,
      "awa": 5024,
      "manataj": 5025,
      "rurai": 5026,
      "paqari": 5027,
      "Was": 5028,
      "ñana": 5029,
      "qawan": 5030,
      "siy": 5031,
      "tarinki": 5032,
      "Santa": 5033,
      "cashna": 5034,
      "lik": 5035,
      "teron": 5036,
      "JUAN": 5037,
      "Day": 5038,
      "Jallp": 5039,
      "pipash": 5040,
      "kunanta": 5041,
      "via": 5042,
      "yuyai": 5043,
      "onqoy": 5044,
      "quill": 5045,
      "kaqtin": 5046,
      "Waquin": 5047,
      "kasukuq": 5048,
      "Mayta": 5049,
      "gusta": 5050,
      "carpis": 5051,
      "nissan": 5052,
      "Tra": 5053,
      "cawan": 5054,
      "chayrayku": 5055,
      "shinallatak": 5056,
      "carga": 5057,
      "Kim": 5058,
      "Rima": 5059,
      "pillu": 5060,
      "Chayri": 5061,
      "sqanqa": 5062,
      "Mat": 5063,
      "Kaypi": 5064,
      "kuchkan": 5065,
      "Tsaymi": 5066,
      "junaj": 5067,
      "HE": 5068,
      "cö": 5069,
      "mashi": 5070,
      "yag": 5071,
      "yarqan": 5072,
      "cushun": 5073,
      "Payta": 5074,
      "Unay": 5075,
      "Sha": 5076,
      "Dioska": 5077,
      "waqchu": 5078,
      "Corinti": 5079,
      "Chaypita": 5080,
      "chunku": 5081,
      "warmikuna": 5082,
      "llakisqa": 5083,
      "Aya": 5084,
      "qpa": 5085,
      "qara": 5086,
      "Chuu": 5087,
      "yumbay": 5088,
      "Ish": 5089,
      "Mun": 5090,
      "kasqay": 5091,
      "cashpa": 5092,
      "ral": 5093,
      "rato": 5094,
      "wataqa": 5095,
      "Dius": 5096,
      "ëkipaq": 5097,
      "Babi": 5098,
      "Samuel": 5099,
      "ringa": 5100,
      "Kikin": 5101,
      "%.": 5102,
      "wanna": 5103,
      "imakuna": 5104,
      "revista": 5105,
      "isquir": 5106,
      "chunga": 5107,
      "mbaq": 5108,
      "RO": 5109,
      "Machu": 5110,
      "chejchu": 5111,
      "Hinaspapas": 5112,
      "kuymanta": 5113,
      "tanpi": 5114,
      "nacionpi": 5115,
      "ramu": 5116,
      "mask": 5117,
      "Noe": 5118,
      "chhika": 5119,
      "cum": 5120,
      "arca": 5121,
      "wakcha": 5122,
      "kuchi": 5123,
      "qoll": 5124,
      "miray": 5125,
      "walla": 5126,
      "cancuna": 5127,
      "llanku": 5128,
      "Waq": 5129,
      "2011": 5130,
      "munaynin": 5131,
      "New": 5132,
      "jtin": 5133,
      "kaspan": 5134,
      "willakun": 5135,
      "60": 5136,
      "Famili": 5137,
      "casha": 5138,
      "eno": 5139,
      "rurayta": 5140,
      "Kin": 5141,
      "Kall": 5142,
      "upa": 5143,
      "Tucui": 5144,
      "kallpay": 5145,
      "Sun": 5146,
      "llä": 5147,
      "tim": 5148,
      "kuyay": 5149,
      "100": 5150,
      "tron": 5151,
      "quichis": 5152,
      "kunataj": 5153,
      "jutsa": 5154,
      "2017": 5155,
      "ananpaq": 5156,
      "Taytay": 5157,
      "sqanchikta": 5158,
      "KA": 5159,
      "cto": 5160,
      "dur": 5161,
      "spaña": 5162,
      "gus": 5163,
      "watayoq": 5164,
      "aykita": 5165,
      "mänu": 5166,
      ".-": 5167,
      "umuy": 5168,
      "riran": 5169,
      "chaspa": 5170,
      "chala": 5171,
      "rasun": 5172,
      "runacunaga": 5173,
      "José": 5174,
      "nenqa": 5175,
      "orqa": 5176,
      "chicha": 5177,
      "tiyki": 5178,
      "libra": 5179,
      "cipu": 5180,
      "shumag": 5181,
      "wañupu": 5182,
      "chanapaq": 5183,
      "Umalli": 5184,
      "ćhü": 5185,
      "ats": 5186,
      "llar": 5187,
      "sunqun": 5188,
      "qamkuna": 5189,
      "vida": 5190,
      "pashmi": 5191,
      "iuia": 5192,
      "dina": 5193,
      "yai": 5194,
      "kaynata": 5195,
      "runakunawan": 5196,
      "Kichwa": 5197,
      "chaysi": 5198,
      "oqa": 5199,
      "zar": 5200,
      "shaya": 5201,
      "chikuq": 5202,
      "ñoqanchik": 5203,
      "escribi": 5204,
      "mallki": 5205,
      "Maria": 5206,
      "TEO": 5207,
      "Inu": 5208,
      "aqta": 5209,
      "sapi": 5210,
      "sil": 5211,
      "Pisi": 5212,
      "Babilo": 5213,
      "Kënöpis": 5214,
      "ajinata": 5215,
      "cru": 5216,
      "mantaj": 5217,
      "tulo": 5218,
      "Inter": 5219,
      "nunakuna": 5220,
      "castiga": 5221,
      "llojsi": 5222,
      "gü": 5223,
      "tre": 5224,
      "kuspay": 5225,
      "Chaynuy": 5226,
      "cuerpo": 5227,
      "70": 5228,
      "jin": 5229,
      "llama": 5230,
      "hatari": 5231,
      "jinachu": 5232,
      "amigo": 5233,
      "kanapaq": 5234,
      "jayk": 5235,
      "wara": 5236,
      "Dyusta": 5237,
      "Davidqa": 5238,
      "Munay": 5239,
      "paqarin": 5240,
      "NA": 5241,
      "cuyay": 5242,
      "Tuku": 5243,
      "munanki": 5244,
      "piensan": 5245,
      "invi": 5246,
      "ñuqanchik": 5247,
      "still": 5248,
      "qillqasqan": 5249,
      "dru": 5250,
      "manaraj": 5251,
      "Chaywanpas": 5252,
      "jui": 5253,
      "Corintios": 5254,
      "munda": 5255,
      "Kayqa": 5256,
      "chasna": 5257,
      "Quechua": 5258,
      "tai": 5259,
      "qaway": 5260,
      "mantaq": 5261,
      "cil": 5262,
      "munarqa": 5263,
      "villa": 5264,
      "Eva": 5265,
      "uyu": 5266,
      "Kaymi": 5267,
      "Noqan": 5268,
      "llumpayta": 5269,
      "bautiza": 5270,
      "níy": 5271,
      "yaĉha": 5272,
      "cunam": 5273,
      "lami": 5274,
      "aqpas": 5275,
      "kamachikuq": 5276,
      "Ari": 5277,
      "ses": 5278,
      "kullki": 5279,
      "Tsënö": 5280,
      "atina": 5281,
      "tran": 5282,
      "canta": 5283,
      "ninkupi": 5284,
      "Hechos": 5285,
      "Tin": 5286,
      "huchay": 5287,
      "Chayshina": 5288,
      "culo": 5289,
      "Wam": 5290,
      "chawpi": 5291,
      "idiö": 5292,
      "Ati": 5293,
      "Lima": 5294,
      "sanku": 5295,
      "pacien": 5296,
      "nini": 5297,
      "hinata": 5298,
      "yachanki": 5299,
      "enemi": 5300,
      "cua": 5301,
      "qaylla": 5302,
      "kaykuna": 5303,
      "cuentata": 5304,
      "waka": 5305,
      "sari": 5306,
      "sqanpi": 5307,
      "tinmi": 5308,
      "saqku": 5309,
      "kutimu": 5310,
      "entienden": 5311,
      "chum": 5312,
      "Israelpa": 5313,
      "juntʼ": 5314,
      "Marcos": 5315,
      "Ñoqa": 5316,
      "Satanas": 5317,
      "nik": 5318,
      "yanapä": 5319,
      "respeta": 5320,
      "iglesi": 5321,
      "paqtaq": 5322,
      "shamun": 5323,
      "qallarisqa": 5324,
      "sutinta": 5325,
      "kïta": 5326,
      "phuyu": 5327,
      "pta": 5328,
      "wawata": 5329,
      "preci": 5330,
      "tarpu": 5331,
      "admira": 5332,
      "qillqay": 5333,
      "masha": 5334,
      "kunmi": 5335,
      "camacä": 5336,
      "kusqanmanta": 5337,
      "píritu": 5338,
      "Asi": 5339,
      "tta": 5340,
      "tian": 5341,
      "sqas": 5342,
      "panda": 5343,
      "Bibliam": 5344,
      "atinchu": 5345,
      "rejsi": 5346,
      "captenga": 5347,
      "shqan": 5348,
      "rikuna": 5349,
      "kantun": 5350,
      "liy": 5351,
      "chinku": 5352,
      "llatac": 5353,
      "quega": 5354,
      "chispas": 5355,
      "ruraj": 5356,
      "dioma": 5357,
      "kaug": 5358,
      "Ur": 5359,
      "tt": 5360,
      "kushan": 5361,
      "sami": 5362,
      "muchu": 5363,
      "ñukanchik": 5364,
      "watata": 5365,
      "ojta": 5366,
      "pacta": 5367,
      "kënö": 5368,
      "chirca": 5369,
      "cias": 5370,
      "Manaraq": 5371,
      "kuqmi": 5372,
      "minis": 5373,
      "porqa": 5374,
      "tion": 5375,
      "nishan": 5376,
      "tantea": 5377,
      "Esta": 5378,
      "Kayta": 5379,
      "iki": 5380,
      "rapi": 5381,
      "til": 5382,
      "siya": 5383,
      "peru": 5384,
      "markä": 5385,
      "Hayka": 5386,
      "sacerdote": 5387,
      "llayki": 5388,
      "sapallan": 5389,
      "ywan": 5390,
      "kag": 5391,
      "rikcha": 5392,
      "uyarispa": 5393,
      "tyimpu": 5394,
      "bel": 5395,
      "mantsa": 5396,
      "kipa": 5397,
      "sienti": 5398,
      "kaymanta": 5399,
      "palabran": 5400,
      "nincuna": 5401,
      "Llan": 5402,
      "chaka": 5403,
      "erto": 5404,
      "2013": 5405,
      "Chunka": 5406,
      "sapan": 5407,
      "kaqkunaqa": 5408,
      "imatataq": 5409,
      "ms": 5410,
      "siu": 5411,
      "enta": 5412,
      "alab": 5413,
      "Plan": 5414,
      "Yo": 5415,
      "qall": 5416,
      "nishu": 5417,
      "Chaysi": 5418,
      "wasita": 5419,
      "paipac": 5420,
      "karqani": 5421,
      "ruranan": 5422,
      "causan": 5423,
      "nil": 5424,
      "kansapa": 5425,
      "wij": 5426,
      "jawa": 5427,
      "demo": 5428,
      "paicuna": 5429,
      "cuenta": 5430,
      "vas": 5431,
      "Chayraykun": 5432,
      "rqataj": 5433,
      "Churi": 5434,
      "mantaca": 5435,
      "nispas": 5436,
      "usana": 5437,
      "Cana": 5438,
      "EL": 5439,
      "asa": 5440,
      "ill": 5441,
      "kuyana": 5442,
      "altar": 5443,
      "Kuti": 5444,
      "contranpi": 5445,
      "profeta": 5446,
      "Apa": 5447,
      "Dis": 5448,
      "jor": 5449,
      "pulun": 5450,
      "allllll": 5451,
      "canchic": 5452,
      "wañuchin": 5453,
      "Ak": 5454,
      "Ana": 5455,
      "by": 5456,
      "vis": 5457,
      "yasqa": 5458,
      "cara": 5459,
      "cunapita": 5460,
      "Hebre": 5461,
      "Dia": 5462,
      "quna": 5463,
      "qëki": 5464,
      "chir": 5465,
      "chimpa": 5466,
      "casta": 5467,
      "kimi": 5468,
      "nispanku": 5469,
      "munakuy": 5470,
      "shunta": 5471,
      "Amirika": 5472,
      "sho": 5473,
      "nita": 5474,
      "pajta": 5475,
      "tapukuy": 5476,
      "pos": 5477,
      "mak": 5478,
      "lluj": 5479,
      "päcuy": 5480,
      "creen": 5481,
      "discipu": 5482,
      "Kuya": 5483,
      "çha": 5484,
      "cari": 5485,
      "kawsana": 5486,
      "chayamun": 5487,
      "ñaupaq": 5488,
      "TI": 5489,
      "ás": 5490,
      "allan": 5491,
      "imalla": 5492,
      "tantya": 5493,
      "yayta": 5494,
      "niykichej": 5495,
      "LI": 5496,
      "taita": 5497,
      "data": 5498,
      "rurasqa": 5499,
      "ukhun": 5500,
      "kuspaqa": 5501,
      "Lliw": 5502,
      "The": 5503,
      "ykuna": 5504,
      "tipi": 5505,
      "escuela": 5506,
      "chinapaj": 5507,
      "Josu": 5508,
      "impor": 5509,
      "isquirbi": 5510,
      "Ai": 5511,
      "ayway": 5512,
      "wanka": 5513,
      "paykunamanta": 5514,
      "Wak": 5515,
      "sqankuman": 5516,
      "rimanku": 5517,
      "utu": 5518,
      "rurak": 5519,
      "rurashca": 5520,
      "juchata": 5521,
      "Ver": 5522,
      "hon": 5523,
      "śhan": 5524,
      "tatan": 5525,
      "sutʼ": 5526,
      "sqanmi": 5527,
      "wiki": 5528,
      "rinki": 5529,
      "Hinaptinqa": 5530,
      "Rimay": 5531,
      "isqa": 5532,
      "mapa": 5533,
      "mantachu": 5534,
      "qhipa": 5535,
      "allpapi": 5536,
      "Wañusqa": 5537,
      "Qillqa": 5538,
      "Testi": 5539,
      "vor": 5540,
      "wn": 5541,
      "pir": 5542,
      "llakichi": 5543,
      "chish": 5544,
      "wantin": 5545,
      "ytaqa": 5546,
      "costu": 5547,
      "huñunakuy": 5548,
      "tiona": 5549,
      "Ex": 5550,
      "khayna": 5551,
      "kapti": 5552,
      "llaraq": 5553,
      "Pitaj": 5554,
      "kunaqam": 5555,
      "amba": 5556,
      "paipa": 5557,
      "cunanpaj": 5558,
      "fes": 5559,
      "haya": 5560,
      "ucu": 5561,
      "ín": 5562,
      "imano": 5563,
      "Timoteo": 5564,
      "Rut": 5565,
      "valor": 5566,
      "Espiritu": 5567,
      "80": 5568,
      "cacion": 5569,
      "Chanta": 5570,
      "randi": 5571,
      "munaq": 5572,
      "ñiqi": 5573,
      "chinata": 5574,
      "aypaj": 5575,
      "kancha": 5576,
      "Piluta": 5577,
      "rinqa": 5578,
      "hinaspapas": 5579,
      "rirqa": 5580,
      "chisapa": 5581,
      "Chaychina": 5582,
      "shuya": 5583,
      "huklla": 5584,
      "jinalla": 5585,
      "Jerusalén": 5586,
      "video": 5587,
      "--": 5588,
      "CC": 5589,
      "chikuy": 5590,
      "chaytan": 5591,
      "jamun": 5592,
      "runakunapas": 5593,
      "nishpami": 5594,
      "Romanos": 5595,
      "cananpaj": 5596,
      "aykupaq": 5597,
      "ofren": 5598,
      "QA": 5599,
      "chiqui": 5600,
      "willakuq": 5601,
      "rikusqa": 5602,
      "Tiemp": 5603,
      "adu": 5604,
      "nispan": 5605,
      "Waw": 5606,
      "niyku": 5607,
      "yanapawanchik": 5608,
      "Runakuna": 5609,
      "2009": 5610,
      "qollqe": 5611,
      "pill": 5612,
      "mish": 5613,
      "nali": 5614,
      "tandana": 5615,
      "pachaqa": 5616,
      "pachapipas": 5617,
      "ciata": 5618,
      "qatipa": 5619,
      "ika": 5620,
      "calip": 5621,
      "rac": 5622,
      "hinaspan": 5623,
      "ruwanku": 5624,
      "María": 5625,
      "kicha": 5626,
      "kayna": 5627,
      "yanapak": 5628,
      "cargan": 5629,
      "ruwana": 5630,
      "iye": 5631,
      "sca": 5632,
      "sug": 5633,
      "cuptin": 5634,
      "juchan": 5635,
      "tsënö": 5636,
      "Ichapas": 5637,
      "aka": 5638,
      "maqui": 5639,
      "rup": 5640,
      "kanayki": 5641,
      "yanqui": 5642,
      "llantaq": 5643,
      "Takuya": 5644,
      "yachachiq": 5645,
      "shpankuna": 5646,
      "Apocalip": 5647,
      "pasqa": 5648,
      "munasqanta": 5649,
      "lea": 5650,
      "Han": 5651,
      "uspa": 5652,
      "niwa": 5653,
      "hawan": 5654,
      "payka": 5655,
      "sinti": 5656,
      "salv": 5657,
      "qhawari": 5658,
      "Imaraykutaj": 5659,
      "karuncha": 5660,
      "Apocalipsis": 5661,
      "kunapipas": 5662,
      "Paica": 5663,
      "bendicion": 5664,
      "dre": 5665,
      "mbi": 5666,
      "pall": 5667,
      "mir": 5668,
      "niyu": 5669,
      "rurqaku": 5670,
      "siq": 5671,
      "panman": 5672,
      "Pichu": 5673,
      "oqha": 5674,
      "Mamay": 5675,
      "2018": 5676,
      "Ashtahuanpish": 5677,
      "wari": 5678,
      "tero": 5679,
      "MAN": 5680,
      "në": 5681,
      "uch": 5682,
      "tariy": 5683,
      "kunachu": 5684,
      "ruk": 5685,
      "tiyaq": 5686,
      "khuska": 5687,
      "cashanta": 5688,
      "rerqa": 5689,
      "imapi": 5690,
      "munaspa": 5691,
      "amigon": 5692,
      "kʼaj": 5693,
      "Perú": 5694,
      "51": 5695,
      "anka": 5696,
      "llapaq": 5697,
      "raz": 5698,
      "kit": 5699,
      "kich": 5700,
      "ruy": 5701,
      "llaqtamanta": 5702,
      "2019": 5703,
      "EN": 5704,
      "Yay": 5705,
      "igu": 5706,
      "lë": 5707,
      "cab": 5708,
      "Chaypin": 5709,
      "2016": 5710,
      "Jesuska": 5711,
      "warmiqa": 5712,
      "Yuyay": 5713,
      "Qos": 5714,
      "kurka": 5715,
      "cushan": 5716,
      "rantin": 5717,
      "llanmi": 5718,
      "noqayku": 5719,
      "pitapas": 5720,
      "kamayuq": 5721,
      "rü": 5722,
      "manu": 5723,
      "cham": 5724,
      "tanka": 5725,
      "watapim": 5726,
      "ptinku": 5727,
      "imatataj": 5728,
      "sus": 5729,
      "chayrí": 5730,
      "nejta": 5731,
      "mänan": 5732,
      "CA": 5733,
      "Chaypina": 5734,
      "rayqui": 5735,
      "sham": 5736,
      "caycaran": 5737,
      "qhawan": 5738,
      "Rik": 5739,
      "Qankunaqa": 5740,
      "MATEO": 5741,
      "lanta": 5742,
      "mer": 5743,
      "chayka": 5744,
      "yani": 5745,
      "cuynin": 5746,
      "guichij": 5747,
      "ós": 5748,
      "curca": 5749,
      "allpata": 5750,
      "limpi": 5751,
      "runakunamanta": 5752,
      "Saymi": 5753,
      "acra": 5754,
      "LO": 5755,
      "jita": 5756,
      "chau": 5757,
      "qanman": 5758,
      "haq": 5759,
      "raqchu": 5760,
      "hayt": 5761,
      "Anti": 5762,
      "Gene": 5763,
      "qʼ": 5764,
      "nira": 5765,
      "mundu": 5766,
      "jaqi": 5767,
      "est": 5768,
      "lugar": 5769,
      "curmi": 5770,
      "qell": 5771,
      "mozo": 5772,
      "rqanichu": 5773,
      "koqa": 5774,
      "chaynapi": 5775,
      "Ruraq": 5776,
      "ij": 5777,
      "pla": 5778,
      "mikuy": 5779,
      "mantataq": 5780,
      "Chaytaqa": 5781,
      "runasqa": 5782,
      "chismi": 5783,
      "Patsa": 5784,
      "aqtaq": 5785,
      "conga": 5786,
      "Jesucristu": 5787,
      "pudi": 5788,
      "munayninta": 5789,
      "pʼunchay": 5790,
      "Wallpa": 5791,
      "ino": 5792,
      "kachan": 5793,
      "kusqayki": 5794,
      "cata": 5795,
      "sai": 5796,
      "cup": 5797,
      "tsuraq": 5798,
      "pero": 5799,
      "Yaqapaschá": 5800,
      "YACH": 5801,
      "kalin": 5802,
      "causana": 5803,
      "runaka": 5804,
      "yachasun": 5805,
      "minish": 5806,
      "aswanpas": 5807,
      "manataq": 5808,
      "ninchej": 5809,
      "kutita": 5810,
      "wasinpi": 5811,
      "Shuj": 5812,
      "palabra": 5813,
      "syi": 5814,
      "and": 5815,
      "kasa": 5816,
      "tita": 5817,
      "qankunaqa": 5818,
      "silla": 5819,
      "Chaynö": 5820,
      "canchu": 5821,
      "ruwasqanta": 5822,
      "cuyninta": 5823,
      "precursor": 5824,
      "Ale": 5825,
      "fal": 5826,
      "kriy": 5827,
      "mpaj": 5828,
      "pá": 5829,
      "st": 5830,
      "kuwa": 5831,
      "sqaku": 5832,
      "Tura": 5833,
      "kunapaqqa": 5834,
      "Jona": 5835,
      "?,": 5836,
      "glo": 5837,
      "waqya": 5838,
      "pampacha": 5839,
      "qtintaq": 5840,
      "jpica": 5841,
      "nü": 5842,
      "puyu": 5843,
      "napaq": 5844,
      "willana": 5845,
      "punzha": 5846,
      "Santo": 5847,
      "52": 5848,
      "Or": 5849,
      "sy": 5850,
      "kunamatata": 5851,
      "sic": 5852,
      "yuraq": 5853,
      "quishpi": 5854,
      "2020": 5855,
      "utili": 5856,
      "rö": 5857,
      "ayqe": 5858,
      "qapa": 5859,
      "suyukunata": 5860,
      "rpa": 5861,
      "pitam": 5862,
      "chikan": 5863,
      "pantay": 5864,
      "tantari": 5865,
      "ñucanchij": 5866,
      "caycanqui": 5867,
      "rurashka": 5868,
      "Ge": 5869,
      "Uru": 5870,
      "uyay": 5871,
      "kuraj": 5872,
      "Jud": 5873,
      "Juj": 5874,
      "goy": 5875,
      "tukui": 5876,
      "yuyarin": 5877,
      "libru": 5878,
      "hallp": 5879,
      "Kimsa": 5880,
      "cupaj": 5881,
      "tullu": 5882,
      "nintin": 5883,
      "mayan": 5884,
      "shita": 5885,
      "carta": 5886,
      "chinkapak": 5887,
      "riqsin": 5888,
      "yman": 5889,
      "manga": 5890,
      "raqa": 5891,
      "yanaparqa": 5892,
      "tiempopiqa": 5893,
      "preso": 5894,
      "paqarisqa": 5895,
      "Testigo": 5896,
      "Qhawa": 5897,
      "km": 5898,
      "rï": 5899,
      "tiq": 5900,
      "cushpa": 5901,
      "Saq": 5902,
      "Huay": 5903,
      "aran": 5904,
      "bas": 5905,
      "criyi": 5906,
      "gran": 5907,
      "mba": 5908,
      "richun": 5909,
      "cachun": 5910,
      "sitan": 5911,
      "kunatami": 5912,
      "panchi": 5913,
      "puntata": 5914,
      "llaqtap": 5915,
      "mañakuy": 5916,
      "Paqarisqa": 5917,
      "KAQ": 5918,
      "ulla": 5919,
      "intin": 5920,
      "kaspay": 5921,
      "kushun": 5922,
      "shanki": 5923,
      "Wata": 5924,
      "llimp": 5925,
      "2015": 5926,
      "saqchu": 5927,
      "hayñi": 5928,
      "Ñoqaqa": 5929,
      "Suk": 5930,
      "ctu": 5931,
      "antam": 5932,
      "atinman": 5933,
      "Boli": 5934,
      "fara": 5935,
      "cuspa": 5936,
      "gara": 5937,
      "ast": 5938,
      "ptinsi": 5939,
      "yanapayta": 5940,
      "rimaykuna": 5941,
      "karmi": 5942,
      "isi": 5943,
      "chayuq": 5944,
      "nintsik": 5945,
      "runaspa": 5946,
      "kunatawan": 5947,
      "chinanpaq": 5948,
      "karanku": 5949,
      "Jinapis": 5950,
      "cristiänu": 5951,
      "misk": 5952,
      "Buliw": 5953,
      "idiöma": 5954,
      "Nan": 5955,
      "ichá": 5956,
      "chkaq": 5957,
      "ayqa": 5958,
      "kachay": 5959,
      "kasqayta": 5960,
      "yak": 5961,
      "qantam": 5962,
      "quï": 5963,
      "lluc": 5964,
      "Her": 5965,
      "wu": 5966,
      "éne": 5967,
      "caru": 5968,
      "Diospaq": 5969,
      "maskha": 5970,
      "wawqen": 5971,
      "ymanta": 5972,
      "nau": 5973,
      "kaymantam": 5974,
      "mayman": 5975,
      "qayllay": 5976,
      "waya": 5977,
      "rurashan": 5978,
      "phax": 5979,
      "HECH": 5980,
      "Bar": 5981,
      "Mus": 5982,
      "pipish": 5983,
      "kichwa": 5984,
      "sichus": 5985,
      "imatam": 5986,
      "shami": 5987,
      "hatunchasqa": 5988,
      "Chayraykum": 5989,
      "Plantilla": 5990,
      "horqo": 5991,
      "nilla": 5992,
      "runaga": 5993,
      "ork": 5994,
      "ayquita": 5995,
      "tacmi": 5996,
      "HECHOS": 5997,
      "his": 5998,
      "ishun": 5999,
      "runaman": 6000,
      "rqanchu": 6001,
      "antaqa": 6002,
      "CP": 6003,
      "hor": 6004,
      "takin": 6005,
      "kaku": 6006,
      "rish": 6007,
      "puqu": 6008,
      "punchawmi": 6009,
      "kaska": 6010,
      "Chayraycu": 6011,
      "runasimi": 6012,
      "kashanku": 6013,
      "daryu": 6014,
      "bis": 6015,
      "kunapaj": 6016,
      "captinmi": 6017,
      "seño": 6018,
      "jil": 6019,
      "].": 6020,
      "hoq": 6021,
      "squi": 6022,
      "lapi": 6023,
      "ispa": 6024,
      "sayay": 6025,
      "shkada": 6026,
      "kunamantaqa": 6027,
      "qallarin": 6028,
      "mäshun": 6029,
      "Hayk": 6030,
      "ujta": 6031,
      "katin": 6032,
      "gaj": 6033,
      "uda": 6034,
      "miku": 6035,
      "tupan": 6036,
      "watas": 6037,
      "ampa": 6038,
      "huaquin": 6039,
      "usqhay": 6040,
      "wiñaypaj": 6041,
      "Ñoqan": 6042,
      "trabaja": 6043,
      "Ajinamanta": 6044,
      "Tri": 6045,
      "akun": 6046,
      "uchilla": 6047,
      "yy": 6048,
      "tag": 6049,
      "tajrí": 6050,
      "shcai": 6051,
      "creey": 6052,
      "rëkur": 6053,
      "rämi": 6054,
      "Imaraykutaq": 6055,
      "Ayu": 6056,
      "iña": 6057,
      "lláy": 6058,
      "chiwan": 6059,
      "allä": 6060,
      "Pikaa": 6061,
      "yachatsikï": 6062,
      "ruwasqanku": 6063,
      "hunta": 6064,
      "uyarinakunatapas": 6065,
      "Uya": 6066,
      "coq": 6067,
      "thi": 6068,
      "incha": 6069,
      "ricun": 6070,
      "Chaypis": 6071,
      "llatataj": 6072,
      "tarikun": 6073,
      "Jallpʼ": 6074,
      "Ichanga": 6075,
      "ópi": 6076,
      "lluta": 6077,
      "Rimana": 6078,
      "crei": 6079,
      "atac": 6080,
      "imanasqa": 6081,
      "cheqni": 6082,
      "PA": 6083,
      "Temp": 6084,
      "ros": 6085,
      "imataq": 6086,
      "tanqa": 6087,
      "Tapu": 6088,
      "shpaykichi": 6089,
      "Géne": 6090,
      "r2": 6091,
      "sï": 6092,
      "var": 6093,
      "chkanki": 6094,
      "kawsanan": 6095,
      "autoridad": 6096,
      "Génesis": 6097,
      "akuq": 6098,
      "qis": 6099,
      "yn": 6100,
      "pich": 6101,
      "kuypaq": 6102,
      "judi": 6103,
      "kashani": 6104,
      "piensay": 6105,
      "uka": 6106,
      "kusqankuta": 6107,
      "yachachina": 6108,
      "Kal": 6109,
      "Saul": 6110,
      "fier": 6111,
      "kaykunata": 6112,
      "allimi": 6113,
      "Kam": 6114,
      "uyway": 6115,
      "yupachi": 6116,
      "Haq": 6117,
      "uc": 6118,
      "chkarqa": 6119,
      "gas": 6120,
      "wit": 6121,
      "Chaita": 6122,
      "suticha": 6123,
      "kichista": 6124,
      "pensa": 6125,
      "Tantana": 6126,
      "kalindaryu": 6127,
      "wpi": 6128,
      "mikuna": 6129,
      "llatam": 6130,
      "lia": 6131,
      "lica": 6132,
      "qhipaq": 6133,
      "qel": 6134,
      "ypa": 6135,
      "mam": 6136,
      "kankichi": 6137,
      "cuinta": 6138,
      "kunatapis": 6139,
      "Pampa": 6140,
      "kawë": 6141,
      "amï": 6142,
      "atiyta": 6143,
      "Runasimi": 6144,
      "ruwanan": 6145,
      "yuyayniyoq": 6146,
      "Jisuk": 6147,
      "Nin": 6148,
      "sku": 6149,
      "llah": 6150,
      "chaywan": 6151,
      "rayan": 6152,
      "Pipis": 6153,
      "qori": 6154,
      "niykita": 6155,
      "Tawantin": 6156,
      "llapapaq": 6157,
      "horas": 6158,
      "kananchik": 6159,
      "2008": 6160,
      "qhepaman": 6161,
      "pikuna": 6162,
      "rit": 6163,
      "runaway": 6164,
      "tanda": 6165,
      "chunchu": 6166,
      "kananmanta": 6167,
      "Pabloqa": 6168,
      "Chuuuu": 6169,
      "IL": 6170,
      "Jinan": 6171,
      "situ": 6172,
      "yarpä": 6173,
      "paipaj": 6174,
      "ayquipä": 6175,
      "japʼ": 6176,
      "Wayna": 6177,
      "reqsin": 6178,
      "kunapin": 6179,
      "llas": 6180,
      "ruhua": 6181,
      "chikpas": 6182,
      "rqankuchu": 6183,
      "Isaac": 6184,
      "importante": 6185,
      "Khu": 6186,
      "hn": 6187,
      "kasqayki": 6188,
      "ricay": 6189,
      "qankunata": 6190,
      "mayin": 6191,
      "kunanchis": 6192,
      "pitaga": 6193,
      "causaita": 6194,
      "serviqnin": 6195,
      "gobierno": 6196,
      "chika": 6197,
      "kil": 6198,
      "rayta": 6199,
      "allilla": 6200,
      "saqer": 6201,
      "kwa": 6202,
      "ninpa": 6203,
      "shaspa": 6204,
      "vidad": 6205,
      "chuscu": 6206,
      "shungun": 6207,
      "ayudan": 6208,
      "dere": 6209,
      "Imaraykuchus": 6210,
      "Mandaj": 6211,
      "Estad": 6212,
      "aicha": 6213,
      "yachaj": 6214,
      "munashan": 6215,
      "kunamantapas": 6216,
      "nej": 6217,
      "Dyusqa": 6218,
      "llaqtanpi": 6219,
      "Tanta": 6220,
      "than": 6221,
      "llatapis": 6222,
      "spankum": 6223,
      "Llamk": 6224,
      "puklla": 6225,
      "cï": 6226,
      "caw": 6227,
      "sim": 6228,
      "hara": 6229,
      "Chaypim": 6230,
      "runamasin": 6231,
      "chanku": 6232,
      "allinpaq": 6233,
      "llaqtata": 6234,
      "chejpaj": 6235,
      "rqakuchu": 6236,
      "tenqa": 6237,
      "wawqe": 6238,
      "óstol": 6239,
      "Qhe": 6240,
      "RA": 6241,
      "ace": 6242,
      "yarqay": 6243,
      "qhelqa": 6244,
      "chaqui": 6245,
      "qantsikta": 6246,
      "cuar": 6247,
      "risqay": 6248,
      "Wiki": 6249,
      "Nue": 6250,
      "punllacuna": 6251,
      "puëdin": 6252,
      "testigon": 6253,
      "Ec": 6254,
      "Los": 6255,
      "Mos": 6256,
      "Uy": 6257,
      "achu": 6258,
      "len": 6259,
      "stu": 6260,
      "chichun": 6261,
      "cunacho": 6262,
      "huanmi": 6263,
      "runacunapa": 6264,
      "Paicunaca": 6265,
      "atiyniyoj": 6266,
      "maypichus": 6267,
      "casado": 6268,
      "Ñatac": 6269,
      "pal": 6270,
      "ricar": 6271,
      "chirqan": 6272,
      "rashca": 6273,
      "kikuna": 6274,
      "sumä": 6275,
      "pul": 6276,
      "paycunata": 6277,
      "ford": 6278,
      "siudä": 6279,
      "Tiempo": 6280,
      "TU": 6281,
      "Yar": 6282,
      "omi": 6283,
      "anu": 6284,
      "kasaq": 6285,
      "chiku": 6286,
      "rurun": 6287,
      "gami": 6288,
      "yachaspa": 6289,
      "Pam": 6290,
      "sqankurayku": 6291,
      "empre": 6292,
      "kusikuy": 6293,
      "shcatami": 6294,
      "kankichis": 6295,
      "puñuy": 6296,
      "precisaq": 6297,
      "Tar": 6298,
      "atu": 6299,
      "tataq": 6300,
      "munana": 6301,
      "Diosga": 6302,
      "stitu": 6303,
      "Ñuqaqa": 6304,
      "Imaynatá": 6305,
      "hark": 6306,
      "ömi": 6307,
      "suf": 6308,
      "manaqa": 6309,
      "shuq": 6310,
      "Angel": 6311,
      "jark": 6312,
      "fru": 6313,
      "manjina": 6314,
      "ruq": 6315,
      "mantataj": 6316,
      "liku": 6317,
      "Karu": 6318,
      "yarpay": 6319,
      "Dic": 6320,
      "juzga": 6321,
      "ripun": 6322,
      "chikun": 6323,
      "sata": 6324,
      "alleq": 6325,
      "payan": 6326,
      "bir": 6327,
      "kuticherqa": 6328,
      "Llakta": 6329,
      "chaynata": 6330,
      "llukshi": 6331,
      "PI": 6332,
      "miti": 6333,
      "yaćha": 6334,
      "wants": 6335,
      "tupu": 6336,
      "Imam": 6337,
      "Maña": 6338,
      "yarpa": 6339,
      "Nacional": 6340,
      "Kamasqa": 6341,
      "waqaycha": 6342,
      "Estado": 6343,
      "shanta": 6344,
      "kunaj": 6345,
      "yap": 6346,
      "rab": 6347,
      "Chaymanda": 6348,
      "Waran": 6349,
      "Maman": 6350,
      "pampaman": 6351,
      "Salva": 6352,
      "Josey": 6353,
      "ipa": 6354,
      "pit": 6355,
      "chimk": 6356,
      "cachay": 6357,
      "nikun": 6358,
      "manañam": 6359,
      "gunada": 6360,
      "bout": 6361,
      "akuna": 6362,
      "sman": 6363,
      "maj": 6364,
      "sqata": 6365,
      "jurca": 6366,
      "juez": 6367,
      "llaqtaqa": 6368,
      "ruwaj": 6369,
      "kankichik": 6370,
      "servin": 6371,
      "2007": 6372,
      "Jehoväqa": 6373,
      "ninmantaq": 6374,
      "arin": 6375,
      "apusqa": 6376,
      "zan": 6377,
      "chiqkuna": 6378,
      "puka": 6379,
      "images": 6380,
      "shpaka": 6381,
      "akra": 6382,
      "cashgan": 6383,
      "kachkanku": 6384,
      "Chaynulla": 6385,
      "kusala": 6386,
      "Satanasqa": 6387,
      "milagro": 6388,
      "3Pi": 6389,
      "ejta": 6390,
      "ii": 6391,
      "ias": 6392,
      "kuri": 6393,
      "tiyana": 6394,
      "judí": 6395,
      "kuqkuna": 6396,
      "wañuyta": 6397,
      "ashtaca": 6398,
      "Askha": 6399,
      "kullkita": 6400,
      "56": 6401,
      "Ley": 6402,
      "pichqa": 6403,
      "llara": 6404,
      "murqan": 6405,
      "imakunata": 6406,
      "tera": 6407,
      "diyan": 6408,
      "qamqa": 6409,
      "pamba": 6410,
      "mano": 6411,
      "chayay": 6412,
      "aspi": 6413,
      "chanqa": 6414,
      "yachayniyoq": 6415,
      "imayca": 6416,
      "Allinta": 6417,
      "Wasin": 6418,
      "Umalliq": 6419,
      "Abi": 6420,
      "tapish": 6421,
      "niptin": 6422,
      "kanqanku": 6423,
      "hur": 6424,
      "jinataj": 6425,
      "willakï": 6426,
      "Ñucanchi": 6427,
      "llaqtanta": 6428,
      ":)": 6429,
      "China": 6430,
      "cull": 6431,
      "kunta": 6432,
      "astasqa": 6433,
      "llakipaya": 6434,
      "junag": 6435,
      "chinanpaj": 6436,
      "CCS": 6437,
      "Gen": 6438,
      "buy": 6439,
      "cca": 6440,
      "inka": 6441,
      "ñakʼ": 6442,
      "Tatay": 6443,
      "2010": 6444,
      "log": 6445,
      "mamallakta": 6446,
      "Kaaa": 6447,
      "Jor": 6448,
      "dam": 6449,
      "chisqay": 6450,
      "llankʼ": 6451,
      "yanapawan": 6452,
      "juchalli": 6453,
      "ñawpaqta": 6454,
      "2001": 6455,
      "Suyukuna": 6456,
      "dy": 6457,
      "ic": 6458,
      "patron": 6459,
      "qata": 6460,
      "shwan": 6461,
      "mamanta": 6462,
      "chikunata": 6463,
      "nim": 6464,
      "eronta": 6465,
      "dici": 6466,
      "ytawan": 6467,
      "rurasha": 6468,
      "qamkunaqa": 6469,
      "tëru": 6470,
      "tumkuy": 6471,
      "CPCCS": 6472,
      "ken": 6473,
      "wanta": 6474,
      "kankunata": 6475,
      "Chaypacha": 6476,
      "kunka": 6477,
      "guy": 6478,
      "rurag": 6479,
      "Llaq": 6480,
      "kallari": 6481,
      "99": 6482,
      "Jere": 6483,
      "NI": 6484,
      "eo": 6485,
      "kuwaq": 6486,
      "chakuna": 6487,
      "tanti": 6488,
      "huknin": 6489,
      "Quiquin": 6490,
      "Sumaj": 6491,
      "aqtasqa": 6492,
      "ok": 6493,
      "ćhay": 6494,
      "paw": 6495,
      "papis": 6496,
      "raw": 6497,
      "runaguna": 6498,
      "shcacuna": 6499,
      "ukninmantaq": 6500,
      "wañunan": 6501,
      "hermanos": 6502,
      "templo": 6503,
      ".'": 6504,
      "Eu": 6505,
      "Killa": 6506,
      "yachakun": 6507,
      "munasqanman": 6508,
      "cunchu": 6509,
      "duc": 6510,
      "hatunchakuq": 6511,
      "Diosninsi": 6512,
      "Aswanqa": 6513,
      "KUY": 6514,
      "Ir": 6515,
      "Sar": 6516,
      "ukuna": 6517,
      "vel": 6518,
      "äpaj": 6519,
      "pasaq": 6520,
      "micu": 6521,
      "yum": 6522,
      "munasqan": 6523,
      "pagina": 6524,
      "Nogaga": 6525,
      "ikuna": 6526,
      "manqui": 6527,
      "qankunaman": 6528,
      "sia": 6529,
      "anata": 6530,
      "kaynu": 6531,
      "pachaj": 6532,
      "imaynachus": 6533,
      "Imaynataq": 6534,
      "you": 6535,
      "yaqapaschá": 6536,
      "Idioma": 6537,
      "khi": 6538,
      "kuspanku": 6539,
      "raqui": 6540,
      "sufri": 6541,
      "pismi": 6542,
      "ristuta": 6543,
      "musyar": 6544,
      "qunqa": 6545,
      "shujtaj": 6546,
      "millon": 6547,
      "Internet": 6548,
      "Diablo": 6549,
      "risun": 6550,
      "kunapash": 6551,
      "llalla": 6552,
      "chara": 6553,
      "sapaq": 6554,
      "pasay": 6555,
      "shalla": 6556,
      "hinataq": 6557,
      "ted": 6558,
      "pachaq": 6559,
      "jinaman": 6560,
      "ruwaspa": 6561,
      "urku": 6562,
      "Llaki": 6563,
      "qhawariy": 6564,
      "guesh": 6565,
      "testigo": 6566,
      "Babilonia": 6567,
      "Ben": 6568,
      "pishi": 6569,
      "shcanqui": 6570,
      "samin": 6571,
      "gapi": 6572,
      "harka": 6573,
      "guel": 6574,
      "kunaypaq": 6575,
      "pampachay": 6576,
      "estudia": 6577,
      "lawpi": 6578,
      "mikhuy": 6579,
      "paciencia": 6580,
      "ah": 6581,
      "jlla": 6582,
      "intra": 6583,
      "shuy": 6584,
      "wañuchisqa": 6585,
      "Noey": 6586,
      "rimaypi": 6587,
      "guichu": 6588,
      "Kushi": 6589,
      "Astawan": 6590,
      "litiku": 6591,
      "Muy": 6592,
      "hana": 6593,
      "ños": 6594,
      "taya": 6595,
      "one": 6596,
      "staj": 6597,
      "rinka": 6598,
      "waychu": 6599,
      "lutan": 6600,
      "bal": 6601,
      "Pachapi": 6602,
      "nishqan": 6603,
      "gentecunaca": 6604,
      "challwa": 6605,
      "Phu": 6606,
      "pel": 6607,
      "cura": 6608,
      "natsu": 6609,
      "rurasqan": 6610,
      "niykichis": 6611,
      "Sama": 6612,
      "parki": 6613,
      "kuyarqan": 6614,
      "kitilli": 6615,
      "ususin": 6616,
      "ayaq": 6617,
      "kamun": 6618,
      "mampis": 6619,
      "chishun": 6620,
      "paytaqa": 6621,
      "lak": 6622,
      "sinch": 6623,
      "sani": 6624,
      "yanapakuy": 6625,
      "kunamanmi": 6626,
      "nanay": 6627,
      "Nuqa": 6628,
      "Imaynan": 6629,
      "DO": 6630,
      "JE": 6631,
      "iñ": 6632,
      "qho": 6633,
      "kuranku": 6634,
      "kunas": 6635,
      "aykichipa": 6636,
      "confia": 6637,
      "që": 6638,
      "uri": 6639,
      "tica": 6640,
      "reta": 6641,
      "jatari": 6642,
      "yänan": 6643,
      "Piii": 6644,
      "maqanakuy": 6645,
      "Wallpaper": 6646,
      "Estados": 6647,
      "cchu": 6648,
      "qispi": 6649,
      "rray": 6650,
      "waptin": 6651,
      "chapi": 6652,
      "wantaj": 6653,
      "topi": 6654,
      "ñisqa": 6655,
      "tiyaj": 6656,
      "rurayan": 6657,
      "Sayna": 6658,
      "killanta": 6659,
      "Satanaspa": 6660,
      "willayta": 6661,
      "shiminta": 6662,
      "Ber": 6663,
      "RI": 6664,
      "sanqa": 6665,
      "unta": 6666,
      "qanmanta": 6667,
      "ame": 6668,
      "Jesusman": 6669,
      "shimita": 6670,
      "pri": 6671,
      "kananqa": 6672,
      "tukuq": 6673,
      "juch": 6674,
      "uras": 6675,
      "ykipi": 6676,
      "engaña": 6677,
      "tantanakuy": 6678,
      "anpa": 6679,
      "anqay": 6680,
      "anjil": 6681,
      "unayta": 6682,
      "chimi": 6683,
      "kishpi": 6684,
      "payqui": 6685,
      "pächu": 6686,
      "Shinallata": 6687,
      "tros": 6688,
      "Piikaa": 6689,
      "yachanapaq": 6690,
      "COR": 6691,
      "Hebreos": 6692,
      "90": 6693,
      "indi": 6694,
      "timpu": 6695,
      "mantapis": 6696,
      "kunataka": 6697,
      "jinallataj": 6698,
      "Mayna": 6699,
      "ptikiqa": 6700,
      "Imatataj": 6701,
      "kriyiq": 6702,
      "54": 6703,
      "gäta": 6704,
      "muran": 6705,
      "pancha": 6706,
      "yupaychana": 6707,
      "tucuita": 6708,
      "Abrahan": 6709,
      "akllasqa": 6710,
      "Unidos": 6711,
      "57": 6712,
      "Qay": 6713,
      "Uk": 6714,
      "Urqu": 6715,
      "thun": 6716,
      "ine": 6717,
      "jama": 6718,
      "simiman": 6719,
      "Juda": 6720,
      "kamachikuynin": 6721,
      "Chaymantataq": 6722,
      "punchawpi": 6723,
      "qallaykurqa": 6724,
      "Mancha": 6725,
      "Puk": 6726,
      "iqa": 6727,
      "vu": 6728,
      "xt": 6729,
      "runakunap": 6730,
      "spayki": 6731,
      "cuerpon": 6732,
      "invita": 6733,
      "Amayá": 6734,
      "mor": 6735,
      "shana": 6736,
      "chac": 6737,
      "salu": 6738,
      "manapuni": 6739,
      "manataqmi": 6740,
      "much": 6741,
      "laqa": 6742,
      "Paita": 6743,
      "hieronta": 6744,
      "kutimun": 6745,
      "chawpin": 6746,
      "charishca": 6747,
      "pagmi": 6748,
      "reyqa": 6749,
      "Qawa": 6750,
      "rikuyta": 6751,
      "mura": 6752,
      "mayor": 6753,
      "qosqa": 6754,
      "llatachu": 6755,
      "kamachiyta": 6756,
      "hena": 6757,
      "rikunki": 6758,
      "Qati": 6759,
      "cá": 6760,
      "iyo": 6761,
      "‹‹": 6762,
      "manchi": 6763,
      "churiy": 6764,
      "yarqa": 6765,
      "Diosníy": 6766,
      "allinkunata": 6767,
      "anqaqa": 6768,
      "kawsakuy": 6769,
      "Sinchi": 6770,
      "Ata": 6771,
      "Ina": 6772,
      "usqa": 6773,
      "wä": 6774,
      "chupa": 6775,
      "muspa": 6776,
      "imamantapas": 6777,
      "ñukanchi": 6778,
      "mundo": 6779,
      "2014": 6780,
      "puriq": 6781,
      "kachkani": 6782,
      "Lev": 6783,
      "apana": 6784,
      "itsa": 6785,
      "ofi": 6786,
      "usaq": 6787,
      "sak": 6788,
      "ñami": 6789,
      "yacharqa": 6790,
      "cuyä": 6791,
      "kanqachu": 6792,
      "soldad": 6793,
      "Porqui": 6794,
      "consejo": 6795,
      "Bra": 6796,
      "fra": 6797,
      "lio": 6798,
      "paqta": 6799,
      "runauna": 6800,
      "puncu": 6801,
      "Tari": 6802,
      "chkaptin": 6803,
      "casarasqa": 6804,
      "achik": 6805,
      "runap": 6806,
      "juti": 6807,
      "oqmi": 6808,
      "vale": 6809,
      "munanchu": 6810,
      "kikillan": 6811,
      "58": 6812,
      "Yuya": 6813,
      "ptë": 6814,
      "anmanta": 6815,
      "nica": 6816,
      "sacri": 6817,
      "kunkichu": 6818,
      "shunki": 6819,
      "peci": 6820,
      "kichimk": 6821,
      "Hul": 6822,
      "Imaynam": 6823,
      "lawman": 6824,
      "Jerusalenman": 6825,
      "causay": 6826,
      "hatunchakuqqa": 6827,
      "DE": 6828,
      "MI": 6829,
      "Phi": 6830,
      "apas": 6831,
      "iwka": 6832,
      "mina": 6833,
      "ona": 6834,
      "nirqaku": 6835,
      "niwanchik": 6836,
      "mayuq": 6837,
      "munasqa": 6838,
      "sano": 6839,
      "Yaku": 6840,
      "këkä": 6841,
      "kashaspa": 6842,
      "Ce": 6843,
      "DIOS": 6844,
      "bä": 6845,
      "yali": 6846,
      "cupi": 6847,
      "rinanpaq": 6848,
      "rurarqa": 6849,
      "shkamanta": 6850,
      "nuka": 6851,
      "Chawpi": 6852,
      "ashqa": 6853,
      "yupaychan": 6854,
      "corgan": 6855,
      "warqanki": 6856,
      "Judá": 6857,
      "Eze": 6858,
      "amayá": 6859,
      "eta": 6860,
      "uchan": 6861,
      "anmi": 6862,
      "ayuq": 6863,
      "ratu": 6864,
      "nimpi": 6865,
      "suqta": 6866,
      "kaycu": 6867,
      "juya": 6868,
      "inkisqa": 6869,
      "precis": 6870,
      "kichischu": 6871,
      "Espíritu": 6872,
      "rikhuri": 6873,
      "kalindaryukama": 6874,
      "'?": 6875,
      "66": 6876,
      "Va": 6877,
      "kwir": 6878,
      "qas": 6879,
      "niwan": 6880,
      "quenga": 6881,
      "panqui": 6882,
      "hinallam": 6883,
      "yachaju": 6884,
      "jatu": 6885,
      "päna": 6886,
      "sapakama": 6887,
      "tsina": 6888,
      "amily": 6889,
      "pacü": 6890,
      "Ester": 6891,
      "rkancu": 6892,
      "tʼuku": 6893,
      "aglla": 6894,
      "necesitan": 6895,
      "tiemponpi": 6896,
      "Ajinata": 6897,
      "höra": 6898,
      "chini": 6899,
      "cashantapis": 6900,
      "Diosninchipa": 6901,
      "Chauraga": 6902,
      "minishti": 6903,
      "'¿": 6904,
      "cˈ": 6905,
      "iyan": 6906,
      "wasqan": 6907,
      "chiya": 6908,
      "ranmi": 6909,
      "ranllapa": 6910,
      "argan": 6911,
      "dibuj": 6912,
      "runku": 6913,
      "qonqay": 6914,
      "aja": 6915,
      "ccha": 6916,
      "fer": 6917,
      "janaq": 6918,
      "mku": 6919,
      "chirqa": 6920,
      "qanmi": 6921,
      "cula": 6922,
      "paypaq": 6923,
      "wayin": 6924,
      "watakunapi": 6925,
      "gani": 6926,
      "Santia": 6927,
      "heren": 6928,
      "Apostol": 6929,
      "khaynata": 6930,
      "Rasun": 6931,
      "gs": 6932,
      "gor": 6933,
      "anti": 6934,
      "ries": 6935,
      "risaq": 6936,
      "yaw": 6937,
      "sqar": 6938,
      "cunacta": 6939,
      "paykunapa": 6940,
      "kaqnin": 6941,
      "chusku": 6942,
      "imatapash": 6943,
      "ykichis": 6944,
      "Jisusqa": 6945,
      "Isaías": 6946,
      "Vide": 6947,
      "mëtsi": 6948,
      "Lot": 6949,
      "Minis": 6950,
      "53": 6951,
      "Ala": 6952,
      "dë": 6953,
      "wich": 6954,
      "qkunapa": 6955,
      "rinata": 6956,
      "tutamanta": 6957,
      "Chaynata": 6958,
      "pusaj": 6959,
      "Hotel": 6960,
      "raicu": 6961,
      "riyanka": 6962,
      "qhulla": 6963,
      "miento": 6964,
      "bri": 6965,
      "kú": 6966,
      "llku": 6967,
      "carka": 6968,
      "tus": 6969,
      "panpi": 6970,
      "sqayku": 6971,
      "yuyaycha": 6972,
      "junaq": 6973,
      "cüra": 6974,
      "cunapac": 6975,
      "runami": 6976,
      "allinqa": 6977,
      "chkanchik": 6978,
      "trata": 6979,
      "khuyapay": 6980,
      "tarpuy": 6981,
      "reypa": 6982,
      "llajtapi": 6983,
      "asamb": 6984,
      "zi": 6985,
      "kachasqa": 6986,
      "llapuni": 6987,
      "witu": 6988,
      "shutin": 6989,
      "kaqqa": 6990,
      "yuyaymana": 6991,
      "ptiquega": 6992,
      "Puka": 6993,
      "Luc": 6994,
      "qaykuqa": 6995,
      "entiendi": 6996,
      "Chaymandaqam": 6997,
      "micuy": 6998,
      "chakin": 6999,
      "inata": 7000,
      "kunapish": 7001,
      "ninkuman": 7002,
      "ushakä": 7003,
      "Warkay": 7004,
      "orqanku": 7005,
      "chuna": 7006,
      "chwata": 7007,
      "waqan": 7008,
      "llaqa": 7009,
      "runamanta": 7010,
      "rikuq": 7011,
      "ruwaran": 7012,
      "segu": 7013,
      "yachanichu": 7014,
      "nergan": 7015,
      "QU": 7016,
      "aa": 7017,
      "capäcun": 7018,
      "huay": 7019,
      "kutitam": 7020,
      "tiyanku": 7021,
      "iskaynin": 7022,
      "junta": 7023,
      "iacha": 7024,
      "kausan": 7025,
      "corga": 7026,
      "Llapallan": 7027,
      "discipulon": 7028,
      "01": 7029,
      "Fo": 7030,
      "TO": 7031,
      "iwa": 7032,
      "kñ": 7033,
      "macha": 7034,
      "chira": 7035,
      "nikita": 7036,
      "tukuna": 7037,
      "witsan": 7038,
      "pacham": 7039,
      "Bipim": 7040,
      "Aswanmi": 7041,
      "espiritun": 7042,
      "kausayta": 7043,
      "tilde": 7044,
      "Jay": 7045,
      "kte": 7046,
      "anman": 7047,
      "chirka": 7048,
      "hab": 7049,
      "kuyku": 7050,
      "panqa": 7051,
      "pajtaj": 7052,
      "sinö": 7053,
      "camba": 7054,
      "Lib": 7055,
      "Cananga": 7056,
      "chiqap": 7057,
      "Genesis": 7058,
      "Har": 7059,
      "Sta": 7060,
      "ashka": 7061,
      "anki": 7062,
      "kashkata": 7063,
      "rasha": 7064,
      "puru": 7065,
      "napay": 7066,
      "laqui": 7067,
      "tele": 7068,
      "jampi": 7069,
      "tsurin": 7070,
      "unchaymi": 7071,
      "runacunapis": 7072,
      "trä": 7073,
      "parlana": 7074,
      "versidad": 7075,
      "Jisukristu": 7076,
      "rraylin": 7077,
      ",'": 7078,
      "skan": 7079,
      "samay": 7080,
      "manas": 7081,
      "yuyarina": 7082,
      "Chaywampis": 7083,
      "Manaña": 7084,
      "Waj": 7085,
      "zoo": 7086,
      "wallpapers": 7087,
      "cienci": 7088,
      "SAL": 7089,
      "Chaynöpami": 7090,
      "Dictiona": 7091,
      "Tsen": 7092,
      "af": 7093,
      "cti": 7094,
      "ee": 7095,
      "ky": 7096,
      "oll": 7097,
      "ukun": 7098,
      "anos": 7099,
      "kaptinmi": 7100,
      "Chaypiqa": 7101,
      "quicuna": 7102,
      "chikmanta": 7103,
      "tanman": 7104,
      "wayi": 7105,
      "atiene": 7106,
      "santo": 7107,
      "suyumanta": 7108,
      "qepa": 7109,
      "kunampaq": 7110,
      "Fili": 7111,
      "ñakariy": 7112,
      "costumb": 7113,
      "Win": 7114,
      "zhu": 7115,
      "manay": 7116,
      "cashpaca": 7117,
      "kaymi": 7118,
      "runawan": 7119,
      "imapaq": 7120,
      "chikpa": 7121,
      "pajqa": 7122,
      "munarqan": 7123,
      "lula": 7124,
      "qesh": 7125,
      "yachanchik": 7126,
      "ruwanki": 7127,
      "quyllur": 7128,
      "cose": 7129,
      "yanapasunki": 7130,
      "imëpis": 7131,
      "Ox": 7132,
      "uran": 7133,
      "nishcata": 7134,
      "sión": 7135,
      "spataq": 7136,
      "wita": 7137,
      "pangui": 7138,
      "qipa": 7139,
      "rikurin": 7140,
      "runakunaka": 7141,
      "warmiwan": 7142,
      "Hamuq": 7143,
      "iskayray": 7144,
      "anisqa": 7145,
      "Zarqa": 7146,
      "Ej": 7147,
      "gina": 7148,
      "ymi": 7149,
      "sull": 7150,
      "chaywanpas": 7151,
      "muptin": 7152,
      "llaqtakuna": 7153,
      "imaynatam": 7154,
      "astawanqa": 7155,
      "kusqanqa": 7156,
      "Shimi": 7157,
      "Chhaynaqa": 7158,
      "huerta": 7159,
      "08": 7160,
      "ua": 7161,
      "chur": 7162,
      "saru": 7163,
      "cuchun": 7164,
      "garin": 7165,
      "kunatapash": 7166,
      "akllay": 7167,
      "ricuchin": 7168,
      "dyablu": 7169,
      "Qanchis": 7170,
      "Jerusalenpi": 7171,
      "huiña": 7172,
      "suldä": 7173,
      "Hulyanu": 7174,
      "MU": 7175,
      "Munan": 7176,
      "Nina": 7177,
      "kaka": 7178,
      "yaanisqa": 7179,
      "gua": 7180,
      "leyi": 7181,
      "Jehoväta": 7182,
      "hinallataqmi": 7183,
      "Cielo": 7184,
      "caball": 7185,
      "kat": 7186,
      "turi": 7187,
      "kaytaqa": 7188,
      "tincu": 7189,
      "disi": 7190,
      "mamallaqta": 7191,
      "sqaykichis": 7192,
      "libre": 7193,
      "cristianokunaqa": 7194,
      "yaanisqatsi": 7195,
      "York": 7196,
      "dï": 7197,
      "ed": 7198,
      "ichik": 7199,
      "qallu": 7200,
      "kasan": 7201,
      "wach": 7202,
      "yaĉ": 7203,
      "wank": 7204,
      "siel": 7205,
      "tumpa": 7206,
      "allintam": 7207,
      "Jucha": 7208,
      "waqninchik": 7209,
      "imaynan": 7210,
      "causai": 7211,
      "Jesucristuta": 7212,
      "spaykiqa": 7213,
      "Jesustaj": 7214,
      "chwanchu": 7215,
      "hapipa": 7216,
      "Isaias": 7217,
      "Paqarin": 7218,
      "On": 7219,
      "aywar": 7220,
      "pashun": 7221,
      "pipa": 7222,
      "rien": 7223,
      "enteron": 7224,
      "Pikunataq": 7225,
      "punan": 7226,
      "pachapis": 7227,
      "says": 7228,
      "caycaptenga": 7229,
      "shuptiqui": 7230,
      "munanichu": 7231,
      "Ispi": 7232,
      "neq": 7233,
      "ejemp": 7234,
      "Betel": 7235,
      "Jesukristuta": 7236,
      "pecies": 7237,
      "77": 7238,
      "abu": 7239,
      "jas": 7240,
      "pt": 7241,
      "unchayta": 7242,
      "kucha": 7243,
      "cawanan": 7244,
      "daqa": 7245,
      "qayllanpi": 7246,
      "arch": 7247,
      "osto": 7248,
      "shukta": 7249,
      "kaqmi": 7250,
      "sunchu": 7251,
      "willapa": 7252,
      "comp": 7253,
      "karkan": 7254,
      "Qaway": 7255,
      "Diosnintsi": 7256,
      "gobiernon": 7257,
      "INT": 7258,
      "qawachirqa": 7259,
      "alläpam": 7260,
      "Feli": 7261,
      "dh": 7262,
      "Wajman": 7263,
      "ishpi": 7264,
      "atinichu": 7265,
      "cristianokuna": 7266,
      "congregacionpi": 7267,
      "INTIOS": 7268,
      "Son": 7269,
      "mï": 7270,
      "umi": 7271,
      "ento": 7272,
      "runaj": 7273,
      "yanpi": 7274,
      "rikurqan": 7275,
      "Yawar": 7276,
      "wasikunapi": 7277,
      "paihua": 7278,
      "Chaymantataj": 7279,
      "prof": 7280,
      "nunakunata": 7281,
      "takiy": 7282,
      "charini": 7283,
      "pitanam": 7284,
      "manca": 7285,
      "mall": 7286,
      "niman": 7287,
      "sqankuna": 7288,
      "isrraylin": 7289,
      "munä": 7290,
      "jutin": 7291,
      "allicha": 7292,
      "kuqqa": 7293,
      "apachinapaj": 7294,
      "saqra": 7295,
      "cartata": 7296,
      "pataman": 7297,
      "ayquipag": 7298,
      "wikch": 7299,
      "Ara": 7300,
      "Efe": 7301,
      "NO": 7302,
      "achic": 7303,
      "bamba": 7304,
      "eu": 7305,
      "khan": 7306,
      "mes": 7307,
      "cunapash": 7308,
      "hasta": 7309,
      "punki": 7310,
      "tea": 7311,
      "tsiyä": 7312,
      "viuda": 7313,
      "tukuynin": 7314,
      "kusisqam": 7315,
      "Jehoväpa": 7316,
      "churasqa": 7317,
      "Prov": 7318,
      "Arhin": 7319,
      "Oxford": 7320,
      "CAP": 7321,
      "Raymi": 7322,
      "WA": 7323,
      "ws": 7324,
      "kunapita": 7325,
      "camä": 7326,
      "rachu": 7327,
      "cancu": 7328,
      "ampi": 7329,
      "llatapas": 7330,
      "mast": 7331,
      "Will": 7332,
      "këkan": 7333,
      "Heb": 7334,
      "vino": 7335,
      "apaykacha": 7336,
      "abri": 7337,
      "ntilde": 7338,
      "qq": 7339,
      "ëpa": 7340,
      "makana": 7341,
      "mañan": 7342,
      "llañam": 7343,
      "camp": 7344,
      "nij": 7345,
      "sali": 7346,
      "paypas": 7347,
      "rinman": 7348,
      "robot": 7349,
      "Wawan": 7350,
      "niyqa": 7351,
      "ruwanayki": 7352,
      "Hinallataq": 7353,
      "karupi": 7354,
      "masiy": 7355,
      "warqanchik": 7356,
      "Teyta": 7357,
      "Ñawi": 7358,
      "aun": 7359,
      "kwin": 7360,
      "chrü": 7361,
      "kunachö": 7362,
      "daq": 7363,
      "cuni": 7364,
      "bien": 7365,
      "anpaqmi": 7366,
      "kasqanman": 7367,
      "Hinaqtinmi": 7368,
      "Luis": 7369,
      "Kamachi": 7370,
      "Gamcuna": 7371,
      "ite": 7372,
      "llak": 7373,
      "yata": 7374,
      "rado": 7375,
      "chayar": 7376,
      "allqu": 7377,
      "willapä": 7378,
      "atipana": 7379,
      "llataña": 7380,
      "Tucuy": 7381,
      "Wikis": 7382,
      "ichapas": 7383,
      "kasqanchikta": 7384,
      "tatas": 7385,
      "sutinqa": 7386,
      "TULO": 7387,
      "Arhintina": 7388,
      "59": 7389,
      "Cre": 7390,
      "śhay": 7391,
      "wakay": 7392,
      "sipi": 7393,
      "Chaynam": 7394,
      "testa": 7395,
      "rimarka": 7396,
      "chaska": 7397,
      "Shinallataj": 7398,
      "capitulo": 7399,
      "upalla": 7400,
      "tarina": 7401,
      "kuchun": 7402,
      "chaupi": 7403,
      "ruptin": 7404,
      "suce": 7405,
      "anami": 7406,
      "Chaytan": 7407,
      "quipaj": 7408,
      "carmi": 7409,
      "kunamantam": 7410,
      "Chaymantam": 7411,
      "wasinta": 7412,
      "Hinaspam": 7413,
      "diciembre": 7414,
      "Pur": 7415,
      "papä": 7416,
      "lll": 7417,
      "piti": 7418,
      "shganta": 7419,
      "riptin": 7420,
      "nikichik": 7421,
      "rupha": 7422,
      "jura": 7423,
      "Sau": 7424,
      "sqantaqa": 7425,
      "qampita": 7426,
      "tukukuy": 7427,
      "ñoqaqa": 7428,
      "runasman": 7429,
      "anqayuqmi": 7430,
      "Sina": 7431,
      "gre": 7432,
      "jra": 7433,
      "tara": 7434,
      "chikkuna": 7435,
      "rqanmi": 7436,
      "pitachus": 7437,
      "parra": 7438,
      "cänan": 7439,
      "anchatam": 7440,
      "punichu": 7441,
      "Señorpa": 7442,
      "cagta": 7443,
      "kastiga": 7444,
      "Qhari": 7445,
      "decidi": 7446,
      "wijch": 7447,
      "Wikispecies": 7448,
      "03": 7449,
      "jer": 7450,
      "kh": 7451,
      "rgan": 7452,
      "chen": 7453,
      "innaq": 7454,
      "kasqankumanta": 7455,
      "puq": 7456,
      "kuychis": 7457,
      "qtaqa": 7458,
      "toq": 7459,
      "kamachis": 7460,
      "jinataq": 7461,
      "willakuyta": 7462,
      "kutichiy": 7463,
      "yarpar": 7464,
      "aswanmi": 7465,
      "niranku": 7466,
      "llampachu": 7467,
      "kichejchu": 7468,
      "khuyapaya": 7469,
      "juchayoj": 7470,
      "Cen": 7471,
      "bü": 7472,
      "ëlu": 7473,
      "śhun": 7474,
      "kaspaqa": 7475,
      "teri": 7476,
      "chinki": 7477,
      "llik": 7478,
      "Samanta": 7479,
      "wasikuna": 7480,
      "qallarirqan": 7481,
      "ujtawan": 7482,
      "?'": 7483,
      "Bel": 7484,
      "fen": 7485,
      "aypi": 7486,
      "qat": 7487,
      "kawak": 7488,
      "chuqa": 7489,
      "huq": 7490,
      "kuychik": 7491,
      "kunchis": 7492,
      "mandashca": 7493,
      "runakunataqa": 7494,
      "achkha": 7495,
      "paykunataqa": 7496,
      "kapuq": 7497,
      "sonqonta": 7498,
      "Kastilla": 7499,
      "Ke": 7500,
      "Lin": 7501,
      "MOS": 7502,
      "umanta": 7503,
      "karay": 7504,
      "waray": 7505,
      "Kai": 7506,
      "Kalla": 7507,
      "cosas": 7508,
      "chöna": 7509,
      "Runaqa": 7510,
      "ñucata": 7511,
      "muyuy": 7512,
      "rikätsikun": 7513,
      "?.": 7514,
      "Gali": 7515,
      "Nor": 7516,
      "em": 7517,
      "ski": 7518,
      "chisqan": 7519,
      "panku": 7520,
      "noti": 7521,
      "rimapaya": 7522,
      "imatata": 7523,
      "Israeli": 7524,
      "yapamanta": 7525,
      "Ñukaka": 7526,
      "qolqeta": 7527,
      "humillakuq": 7528,
      ".›": 7529,
      "buna": 7530,
      "nor": 7531,
      "llapaj": 7532,
      "chapak": 7533,
      "rakina": 7534,
      "nirqanku": 7535,
      "qanwan": 7536,
      "wantaq": 7537,
      "quran": 7538,
      "ranki": 7539,
      "arma": 7540,
      "rom": 7541,
      "aqmi": 7542,
      "qampa": 7543,
      "kichita": 7544,
      "Anto": 7545,
      "keqa": 7546,
      "jirca": 7547,
      "tikraynin": 7548,
      "gayquita": 7549,
      "apusqakuna": 7550,
      "precisan": 7551,
      "rqay": 7552,
      "kupa": 7553,
      "chaita": 7554,
      "chaykunaqa": 7555,
      "quq": 7556,
      "purina": 7557,
      "ninki": 7558,
      "pachapiqa": 7559,
      "esto": 7560,
      "spanqa": 7561,
      "kunawanqa": 7562,
      "proble": 7563,
      "pampapi": 7564,
      "Huañu": 7565,
      "Huaquin": 7566,
      "Jesukristu": 7567,
      "razon": 7568,
      "04": 7569,
      "aca": 7570,
      "ocu": 7571,
      "plan": 7572,
      "chawan": 7573,
      "samana": 7574,
      "inapaq": 7575,
      "yuru": 7576,
      "ent": 7577,
      "pantaq": 7578,
      "copi": 7579,
      "Jesuswan": 7580,
      "Jesucristupa": 7581,
      "rijsi": 7582,
      "mkristu": 7583,
      "món": 7584,
      "kashqa": 7585,
      "siti": 7586,
      "kanaypaq": 7587,
      "ranta": 7588,
      "shak": 7589,
      "espe": 7590,
      "sunmanchu": 7591,
      "prepara": 7592,
      "këta": 7593,
      "sutinpi": 7594,
      "hawkalla": 7595,
      "Jun": 7596,
      "WIL": 7597,
      "baq": 7598,
      "ct": 7599,
      "kuchwan": 7600,
      "tic": 7601,
      "musha": 7602,
      "kaqlla": 7603,
      "cäli": 7604,
      "Quaqtaq": 7605,
      "kanampaq": 7606,
      "Ashkha": 7607,
      "iñiyniyoq": 7608,
      "huañushca": 7609,
      "ushya": 7610,
      "Rura": 7611,
      "Ste": 7612,
      "jcunaca": 7613,
      "aysa": 7614,
      "aymara": 7615,
      "kunkuchu": 7616,
      "qaypi": 7617,
      "Papa": 7618,
      "kutim": 7619,
      "maskʼ": 7620,
      "discï": 7621,
      "sonqowan": 7622,
      "Kamachiy": 7623,
      "reqsisqa": 7624,
      "Poli": 7625,
      "humillasqam": 7626,
      "Inuinnaq": 7627,
      "Inuinnaqtun": 7628,
      "aqu": 7629,
      "quri": 7630,
      "puku": 7631,
      "kayninta": 7632,
      "ruwawaq": 7633,
      "qkunam": 7634,
      "jtaca": 7635,
      "Qucha": 7636,
      "Qanmi": 7637,
      "Jacobpa": 7638,
      "Dictionaries": 7639,
      "aynin": 7640,
      "unaq": 7641,
      "sallqa": 7642,
      "punqa": 7643,
      "kunankuta": 7644,
      "kuqnin": 7645,
      "compa": 7646,
      "chinkachisqa": 7647,
      "Rumi": 7648,
      "noqanchej": 7649,
      "kreyi": 7650,
      "Tawantinsuyu": 7651,
      "Santiago": 7652,
      "Dan": 7653,
      "ica": 7654,
      "nen": 7655,
      "ñä": 7656,
      "taw": 7657,
      "manachus": 7658,
      "manañan": 7659,
      "chaynuy": 7660,
      "kunaykipaq": 7661,
      "imasa": 7662,
      "rqanchik": 7663,
      "tey": 7664,
      "yanan": 7665,
      "cayman": 7666,
      "Paywan": 7667,
      "ruwasqay": 7668,
      "ankumanta": 7669,
      "yuyayta": 7670,
      "cajman": 7671,
      "Yanapa": 7672,
      "Tseno": 7673,
      "fis": 7674,
      "sarun": 7675,
      "Char": 7676,
      "runakunapaq": 7677,
      "doctor": 7678,
      "mandag": 7679,
      "munanpaq": 7680,
      "tanami": 7681,
      "nacionmanta": 7682,
      "prue": 7683,
      "Ashwanmi": 7684,
      "pukllaykuna": 7685,
      "qallë": 7686,
      "Apachiy": 7687,
      "Sur": 7688,
      "ptï": 7689,
      "swan": 7690,
      "trun": 7691,
      "mala": 7692,
      "titu": 7693,
      "allay": 7694,
      "runapaj": 7695,
      "maymanta": 7696,
      "chikman": 7697,
      "reparan": 7698,
      "juñuna": 7699,
      "Pacay": 7700,
      "llamkaq": 7701,
      "pital": 7702,
      "Runacuna": 7703,
      "Supay": 7704,
      "Kanmi": 7705,
      "spankupas": 7706,
      "Warmikuna": 7707,
      "tikray": 7708,
      "Filis": 7709,
      "cayanqui": 7710,
      "hawkay": 7711,
      "Koyaanisqatsi": 7712,
      "psi": 7713,
      "pakasqa": 7714,
      "humil": 7715,
      "hakunamatata": 7716,
      "tanö": 7717,
      "rayki": 7718,
      "ojtin": 7719,
      "huasha": 7720,
      "Suti": 7721,
      "sqaykimanta": 7722,
      "parais": 7723,
      "ñawpaqen": 7724,
      "Astawanpis": 7725,
      "tejmanta": 7726,
      "Samaria": 7727,
      "Gén": 7728,
      "Puna": 7729,
      "Rin": 7730,
      "cc": 7731,
      "iñu": 7732,
      "napi": 7733,
      "huar": 7734,
      "allu": 7735,
      "niyog": 7736,
      "iskayninku": 7737,
      "uyariyta": 7738,
      "Qankuna": 7739,
      "Llaqtapata": 7740,
      "kururqa": 7741,
      "watanpi": 7742,
      "Asa": 7743,
      "Ispaña": 7744,
      "fon": 7745,
      "xa": 7746,
      "úl": 7747,
      "mapi": 7748,
      "chuq": 7749,
      "nogan": 7750,
      "Paytaj": 7751,
      "willarqa": 7752,
      "ruwarqanku": 7753,
      "Pachamama": 7754,
      "Gamcunaga": 7755,
      "cusca": 7756,
      "05": 7757,
      "Family": 7758,
      "Hun": 7759,
      "yasha": 7760,
      "niraj": 7761,
      "spataj": 7762,
      "cuyana": 7763,
      "paycunaga": 7764,
      "wataña": 7765,
      "shumaqta": 7766,
      "Sam": 7767,
      "karqachu": 7768,
      "ñoqan": 7769,
      "atinku": 7770,
      "mento": 7771,
      "unchawpi": 7772,
      "señal": 7773,
      "Atiy": 7774,
      "Nis": 7775,
      "ds": 7776,
      "iri": 7777,
      "isa": 7778,
      "ëgu": 7779,
      "llpa": 7780,
      "kusaq": 7781,
      "maw": 7782,
      "pullan": 7783,
      "wiñ": 7784,
      "justi": 7785,
      "sayan": 7786,
      "allim": 7787,
      "alliman": 7788,
      "Mariya": 7789,
      "sanga": 7790,
      "fir": 7791,
      "kichikchu": 7792,
      "Chaynapim": 7793,
      "CORINTIOS": 7794,
      "06": 7795,
      "ater": 7796,
      "crij": 7797,
      "ayoq": 7798,
      "watuku": 7799,
      "cach": 7800,
      "kuyänampaq": 7801,
      "Taki": 7802,
      "Yaw": 7803,
      "Chaymantaqa": 7804,
      "qhawasqa": 7805,
      "kʼacha": 7806,
      "gamcunaga": 7807,
      "kusunman": 7808,
      "chäga": 7809,
      "carcelpi": 7810,
      "Euro": 7811,
      "UN": 7812,
      "We": 7813,
      "qankuchu": 7814,
      "wanun": 7815,
      "wiñan": 7816,
      "Wik": 7817,
      "wajya": 7818,
      "2006": 7819,
      "suyakuy": 7820,
      "Buliwya": 7821,
      "SALMOS": 7822,
      "loq": 7823,
      "anpi": 7824,
      "inqa": 7825,
      "riju": 7826,
      "Chuya": 7827,
      "hai": 7828,
      "nispaqa": 7829,
      "yaykuy": 7830,
      "yachanku": 7831,
      "tapuran": 7832,
      "kasqanchik": 7833,
      "trï": 7834,
      "spaymi": 7835,
      "yog": 7836,
      "rispaqa": 7837,
      "Diuspa": 7838,
      "cushilla": 7839,
      "Piruwpi": 7840,
      "Mandac": 7841,
      "shpayni": 7842,
      "WILLA": 7843,
      "Lli": 7844,
      "pes": 7845,
      "ÍAS": 7846,
      "tataj": 7847,
      "karin": 7848,
      "shqam": 7849,
      "tupana": 7850,
      "purqan": 7851,
      "Chayman": 7852,
      "alle": 7853,
      "liya": 7854,
      "imatan": 7855,
      "allinpuni": 7856,
      "dena": 7857,
      "vie": 7858,
      "Waway": 7859,
      "soqta": 7860,
      "creeq": 7861,
      "ñaupan": 7862,
      "gamcunata": 7863,
      "gentecuna": 7864,
      "kitipi": 7865,
      "impe": 7866,
      "huchayoq": 7867,
      "Leví": 7868,
      "Ezequi": 7869,
      "Jana": 7870,
      "ÍTULO": 7871,
      "rirka": 7872,
      "ruwar": 7873,
      "gata": 7874,
      "kunanmanta": 7875,
      "Tapuy": 7876,
      "1914": 7877,
      "Anta": 7878,
      "Imanaqtintaq": 7879,
      "Kankuna": 7880,
      "atiyniyuq": 7881,
      "ninchikta": 7882,
      "hawka": 7883,
      "Día": 7884,
      "mpita": 7885,
      "yg": 7886,
      "unchu": 7887,
      "ayri": 7888,
      "miayi": 7889,
      "pus": 7890,
      "chantá": 7891,
      "wañuchina": 7892,
      "qamkunata": 7893,
      "yachachishca": 7894,
      "riyarqan": 7895,
      "shnami": 7896,
      "kashanki": 7897,
      "tenta": 7898,
      "web": 7899,
      "predican": 7900,
      "publicacion": 7901,
      "ptenga": 7902,
      "vio": 7903,
      "manka": 7904,
      "rikar": 7905,
      "kunai": 7906,
      "kiyapi": 7907,
      "ninchi": 7908,
      "hampa": 7909,
      "Pien": 7910,
      "Pila": 7911,
      "yachai": 7912,
      "cocha": 7913,
      "kamachikuk": 7914,
      "nejpi": 7915,
      "mañaku": 7916,
      "ptiki": 7917,
      "angelkuna": 7918,
      "Cutin": 7919,
      "kusalata": 7920,
      "Deu": 7921,
      "forma": 7922,
      "umalliq": 7923,
      "ajllasqa": 7924,
      "llaqtakunapipas": 7925,
      "At": 7926,
      "paray": 7927,
      "cuchu": 7928,
      "maylla": 7929,
      "reqi": 7930,
      "Pata": 7931,
      "qorqa": 7932,
      "ñit": 7933,
      "ruwarqan": 7934,
      "saqen": 7935,
      "haywa": 7936,
      "tiyak": 7937,
      "llatajmi": 7938,
      "ángel": 7939,
      "Ñucaca": 7940,
      "sasachakuypi": 7941,
      "bendeci": 7942,
      "wambra": 7943,
      "wambran": 7944,
      "milagru": 7945,
      "CAPÍTULO": 7946,
      "Fa": 7947,
      "Pru": 7948,
      "Us": 7949,
      "gh": 7950,
      "imanta": 7951,
      "ishcai": 7952,
      "lana": 7953,
      "nanta": 7954,
      "cac": 7955,
      "payki": 7956,
      "tant": 7957,
      "shachu": 7958,
      "jach": 7959,
      "shkakuna": 7960,
      "Juch": 7961,
      "mbra": 7962,
      "yachayqa": 7963,
      "Paicuna": 7964,
      "Dyusmi": 7965,
      "willakuykuna": 7966,
      "chaniyuq": 7967,
      "Hero": 7968,
      "Itsa": 7969,
      "YTA": 7970,
      "iapa": 7971,
      "kashpan": 7972,
      "risir": 7973,
      "chaku": 7974,
      "chiqan": 7975,
      "nisqanku": 7976,
      "huch": 7977,
      "kunatataq": 7978,
      "panmi": 7979,
      "dapi": 7980,
      "rinchu": 7981,
      "chispi": 7982,
      "chantapis": 7983,
      "munarqani": 7984,
      "seo": 7985,
      "Ñucanchij": 7986,
      "kanam": 7987,
      "allpaman": 7988,
      "canguichij": 7989,
      "trucanga": 7990,
      "07": 7991,
      "jnin": 7992,
      "kos": 7993,
      "xu": 7994,
      "infier": 7995,
      "pulu": 7996,
      "enten": 7997,
      "mayqin": 7998,
      "jata": 7999,
      "allinkuna": 8000,
      "Kamay": 8001,
      "ñiy": 8002,
      "vali": 8003,
      "rimashca": 8004,
      "shinallata": 8005,
      "contesta": 8006,
      "yachachisqan": 8007,
      "Ñuqanchik": 8008,
      "Casara": 8009,
      "Israelcuna": 8010,
      "tsëmi": 8011,
      "rësu": 8012,
      "corre": 8013,
      "wawqin": 8014,
      "mosoj": 8015,
      "regalo": 8016,
      "noqantsik": 8017,
      "Pëqa": 8018,
      "Kinsa": 8019,
      "Efesi": 8020,
      "Ini": 8021,
      "kali": 8022,
      "mashna": 8023,
      "ricash": 8024,
      "wakan": 8025,
      "chula": 8026,
      "cachari": 8027,
      "saman": 8028,
      "sqanchista": 8029,
      "arí": 8030,
      "llaqtapiqa": 8031,
      "uyasha": 8032,
      "atiq": 8033,
      "qampaq": 8034,
      "kawsarimu": 8035,
      "nölla": 8036,
      "munayniyoj": 8037,
      "kasharqa": 8038,
      "Qamkunaqa": 8039,
      "lliwmanta": 8040,
      "shunquipaj": 8041,
      "sirviente": 8042,
      "chhasku": 8043,
      "llujshi": 8044,
      "Brasil": 8045,
      "65": 8046,
      "Aruna": 8047,
      "Gra": 8048,
      "Qe": 8049,
      "rcani": 8050,
      "lly": 8051,
      "chayayta": 8052,
      "puran": 8053,
      "hinaptinmi": 8054,
      "pachamama": 8055,
      "watapis": 8056,
      "tunu": 8057,
      "Chuqi": 8058,
      "hunu": 8059,
      "imaynam": 8060,
      "Huñuna": 8061,
      "astawanraq": 8062,
      "Escuela": 8063,
      "israelitas": 8064,
      "kalyan": 8065,
      "Qosqo": 8066,
      "humillakuqñataqmi": 8067,
      "02": 8068,
      "tapun": 8069,
      "she": 8070,
      "mach": 8071,
      "camay": 8072,
      "kiku": 8073,
      "tico": 8074,
      "watapa": 8075,
      "kamasqa": 8076,
      "Kaq": 8077,
      "mandata": 8078,
      "Llam": 8079,
      "tarikunku": 8080,
      "manchakuy": 8081,
      "estudio": 8082,
      "Israelita": 8083,
      "Edu": 8084,
      "Im": 8085,
      "ashca": 8086,
      "yqui": 8087,
      "{{": 8088,
      "rimanan": 8089,
      "cunalla": 8090,
      "Chaypaqqa": 8091,
      "wiyay": 8092,
      "kamam": 8093,
      "lum": 8094,
      "wasimanta": 8095,
      "tsara": 8096,
      "nacionniyoq": 8097,
      "qhepata": 8098,
      "llkillampa": 8099,
      "canguichi": 8100,
      "gloria": 8101,
      "69": 8102,
      "Apun": 8103,
      "lya": 8104,
      "manña": 8105,
      "rap": 8106,
      "killan": 8107,
      "niña": 8108,
      "manara": 8109,
      "tano": 8110,
      "Dioslla": 8111,
      "rispita": 8112,
      "concienci": 8113,
      "simikuna": 8114,
      "yachachikuynin": 8115,
      "yanapawa": 8116,
      "yachaykuna": 8117,
      "kikinpa": 8118,
      "sirwe": 8119,
      "Jisusta": 8120,
      "nm": 8121,
      "nila": 8122,
      "rqankichik": 8123,
      "teqnin": 8124,
      "dica": 8125,
      "oso": 8126,
      "parte": 8127,
      "hehe": 8128,
      "aswanta": 8129,
      "premi": 8130,
      "ishki": 8131,
      "Chiqa": 8132,
      "Wakinpiqa": 8133,
      "punllacunapi": 8134,
      "päcula": 8135,
      "kachkaptin": 8136,
      "Ban": 8137,
      "Qh": 8138,
      "acu": 8139,
      "ime": 8140,
      "maka": 8141,
      "rican": 8142,
      "chaypiqa": 8143,
      "tuman": 8144,
      "allí": 8145,
      "runataqa": 8146,
      "yachasi": 8147,
      "chiska": 8148,
      "shpapish": 8149,
      "qichwa": 8150,
      "kuqku": 8151,
      "rikchana": 8152,
      "tiempota": 8153,
      "yuyaywan": 8154,
      "ykiman": 8155,
      "kasushpa": 8156,
      "ankupaqmi": 8157,
      "këkaq": 8158,
      "John": 8159,
      "Kunanmi": 8160,
      "serviq": 8161,
      "kaqtam": 8162,
      "nogaga": 8163,
      "Cristi": 8164,
      "Qhichwata": 8165,
      "cruz": 8166,
      ".]": 8167,
      "Ga": 8168,
      "Ser": 8169,
      "ena": 8170,
      "gla": 8171,
      "gaya": 8172,
      "oqta": 8173,
      "ula": 8174,
      "}}": 8175,
      "kaway": 8176,
      "chishan": 8177,
      "yachina": 8178,
      "chikwan": 8179,
      "kaqpas": 8180,
      "rikuk": 8181,
      "amo": 8182,
      "wañuq": 8183,
      "tiempopipas": 8184,
      "manchapa": 8185,
      "pantasqa": 8186,
      "mail": 8187,
      "maijan": 8188,
      "trigo": 8189,
      "furqan": 8190,
      "pachakwata": 8191,
      "idiömachöqa": 8192,
      "amana": 8193,
      "rkani": 8194,
      "äpaq": 8195,
      "mañana": 8196,
      "rama": 8197,
      "wanji": 8198,
      "kanmanchu": 8199,
      "yus": 8200,
      "Pachan": 8201,
      "munasqay": 8202,
      "qil": 8203,
      "Satan": 8204,
      "rikusha": 8205,
      "Siñu": 8206,
      "charij": 8207,
      "Niptinmi": 8208,
      "salvan": 8209,
      "atinmanchu": 8210,
      "Llulla": 8211,
      "Griëgu": 8212,
      "enemigon": 8213,
      "Tantanakuy": 8214,
      "Pamyu": 8215,
      "09": 8216,
      "Shin": 8217,
      "Than": 8218,
      "fami": 8219,
      "ld": 8220,
      "paña": 8221,
      "inin": 8222,
      "pi3": 8223,
      "llac": 8224,
      "pulitiku": 8225,
      "mutsu": 8226,
      "Paykunan": 8227,
      "Yala": 8228,
      "chawwan": 8229,
      "morqa": 8230,
      "kankichej": 8231,
      "sqanchikman": 8232,
      "wilacuyninta": 8233,
      "88": 8234,
      "Jam": 8235,
      "mü": 8236,
      "ull": 8237,
      "shkanta": 8238,
      "chamu": 8239,
      "sapanka": 8240,
      "kunmanchu": 8241,
      "ende": 8242,
      "maykan": 8243,
      "rayä": 8244,
      "cunatapash": 8245,
      "niypi": 8246,
      "bash": 8247,
      "aykipaj": 8248,
      "ninkumanta": 8249,
      "kasqanraykum": 8250,
      "kunayku": 8251,
      "gapajca": 8252,
      "agosto": 8253,
      "ofrenda": 8254,
      "antsik": 8255,
      "pachi": 8256,
      "mandan": 8257,
      "rilla": 8258,
      "payga": 8259,
      "wiwa": 8260,
      "panin": 8261,
      "pachaw": 8262,
      "noqay": 8263,
      "Papi": 8264,
      "munaj": 8265,
      "kunapiwan": 8266,
      "shinataj": 8267,
      "conträ": 8268,
      "minta": 8269,
      "kawsaynin": 8270,
      "churaj": 8271,
      "kusqanrayku": 8272,
      "kikinta": 8273,
      "kushishqa": 8274,
      "yanapasun": 8275,
      "adora": 8276,
      "elec": 8277,
      "Espiritun": 8278,
      "MANTA": 8279,
      "Sol": 8280,
      "tapash": 8281,
      "ripi": 8282,
      "cir": 8283,
      "sunkichis": 8284,
      "Noé": 8285,
      "chkaspa": 8286,
      "chiqllapa": 8287,
      "puriyta": 8288,
      "Shinallatak": 8289,
      "Jehovaj": 8290,
      "jaywa": 8291,
      "cananga": 8292,
      "nerqanku": 8293,
      "estudian": 8294,
      "Home": 8295,
      "biblia": 8296,
      "aguanta": 8297,
      "judío": 8298,
      "Video": 8299,
      "risirwa": 8300,
      "?.\"": 8301,
      "HA": 8302,
      "duna": 8303,
      "tapa": 8304,
      "aywaran": 8305,
      "tusu": 8306,
      "kuymi": 8307,
      "wiyar": 8308,
      "ret": 8309,
      "Pichus": 8310,
      "yanka": 8311,
      "riyku": 8312,
      "sutichasqa": 8313,
      "yachachiwanchik": 8314,
      "cursal": 8315,
      "Llaqui": 8316,
      "wakinqa": 8317,
      "awqa": 8318,
      "chaynulla": 8319,
      "markäkï": 8320,
      "Ejemplo": 8321,
      "US": 8322,
      "Ve": 8323,
      "glla": 8324,
      "smanta": 8325,
      "Ñá": 8326,
      "ïnu": 8327,
      "anqui": 8328,
      "qapari": 8329,
      "kuychej": 8330,
      "Chaywanmi": 8331,
      "pachami": 8332,
      "kamaqa": 8333,
      "kamachina": 8334,
      "kunanmi": 8335,
      "alpa": 8336,
      "allintachu": 8337,
      "Aymara": 8338,
      "Imanaqtinmi": 8339,
      "Salmos": 8340,
      "Kamachiq": 8341,
      "señala": 8342,
      "YACHACH": 8343,
      "esa": 8344,
      "uñi": 8345,
      "ösu": 8346,
      "tau": 8347,
      "pirqa": 8348,
      "kushqa": 8349,
      "Chaypaqmi": 8350,
      "lish": 8351,
      "wicay": 8352,
      "allintan": 8353,
      "sinchʼ": 8354,
      "willawanchik": 8355,
      "ganchis": 8356,
      "Moab": 8357,
      "reynin": 8358,
      "Paipaj": 8359,
      "kurqachu": 8360,
      "Manamá": 8361,
      "qosan": 8362,
      "ninanda": 8363,
      "iru": 8364,
      "ksha": 8365,
      "prësu": 8366,
      "shkani": 8367,
      "marqan": 8368,
      "richin": 8369,
      "chap": 8370,
      "chaypaq": 8371,
      "cusi": 8372,
      "put": 8373,
      "llani": 8374,
      "tamya": 8375,
      "cionta": 8376,
      "ruwanqa": 8377,
      "ruwananku": 8378,
      "Ñukanchik": 8379,
      "Jesusmanta": 8380,
      "ishkë": 8381,
      "progra": 8382,
      "iaspa": 8383,
      "line": 8384,
      "kusunchik": 8385,
      "wisq": 8386,
      "mänucuna": 8387,
      "syilu": 8388,
      "Bolivia": 8389,
      "About": 8390,
      "Ishaq": 8391,
      "Yan": 8392,
      "smi": 8393,
      "skay": 8394,
      "kima": 8395,
      "niraq": 8396,
      "mayi": 8397,
      "terio": 8398,
      "Imatá": 8399,
      "Paykunaka": 8400,
      "leen": 8401,
      "mera": 8402,
      "kuyakuq": 8403,
      "sirbi": 8404,
      "tucurca": 8405,
      "läya": 8406,
      "huchasapa": 8407,
      "???": 8408,
      "Wanka": 8409,
      "Jobqa": 8410,
      "imëka": 8411,
      "Ut": 8412,
      "arqa": 8413,
      "ruspan": 8414,
      "yuki": 8415,
      "pasun": 8416,
      "muray": 8417,
      "panki": 8418,
      "kaqtinqa": 8419,
      "shcamanta": 8420,
      "kunanpas": 8421,
      "Chaq": 8422,
      "ganan": 8423,
      "seishun": 8424,
      "wasiy": 8425,
      "Search": 8426,
      "perqa": 8427,
      "kusqanman": 8428,
      "Abrahampa": 8429,
      "Maijan": 8430,
      "Antonio": 8431,
      "prueba": 8432,
      "500": 8433,
      "Ye": 8434,
      "Yun": 8435,
      "illay": 8436,
      "oh": 8437,
      "uwi": 8438,
      "tapuna": 8439,
      "ayqi": 8440,
      "chipi": 8441,
      "pulla": 8442,
      "noqanchis": 8443,
      "munaspaqa": 8444,
      "Mag": 8445,
      "apamun": 8446,
      "Niptin": 8447,
      "Imaynapin": 8448,
      "Casa": 8449,
      "Jinarcur": 8450,
      "Egiptomanta": 8451,
      "wawayki": 8452,
      "ćhaya": 8453,
      "Awya": 8454,
      "munashanta": 8455,
      "aguan": 8456,
      "umuyku": 8457,
      "Nueva": 8458,
      "Noq": 8459,
      "Wo": 8460,
      "iz": 8461,
      "mision": 8462,
      "chiwa": 8463,
      "Chaytaj": 8464,
      "quichic": 8465,
      "reci": 8466,
      "iski": 8467,
      "ñukata": 8468,
      "diri": 8469,
      "llapaqa": 8470,
      "Bibliaq": 8471,
      "Maypi": 8472,
      "kaniku": 8473,
      "kajkuna": 8474,
      "ushaj": 8475,
      "Yupay": 8476,
      "Jesucristopi": 8477,
      "Jisumkristu": 8478,
      "shajtin": 8479,
      "yacuta": 8480,
      "versiculo": 8481,
      "pueblo": 8482,
      "Më": 8483,
      "USA": 8484,
      "khe": 8485,
      "unku": 8486,
      "kasapa": 8487,
      "llatan": 8488,
      "chiman": 8489,
      "qankunawan": 8490,
      "spaq": 8491,
      "tuqa": 8492,
      "yup": 8493,
      "naw": 8494,
      "kayä": 8495,
      "kaykay": 8496,
      "lita": 8497,
      "imawan": 8498,
      "wicha": 8499,
      "reall": 8500,
      "shiku": 8501,
      "nisqamanta": 8502,
      "ruwananchik": 8503,
      "ishqui": 8504,
      "Chaynatam": 8505,
      "Paiguna": 8506,
      "qtinqa": 8507,
      "jallpʼ": 8508,
      "Ishkay": 8509,
      "KI": 8510,
      "arqan": 8511,
      "pallan": 8512,
      "chig": 8513,
      "niwarqa": 8514,
      "sica": 8515,
      "kanchita": 8516,
      "qayllan": 8517,
      "jur": 8518,
      "wayllu": 8519,
      "king": 8520,
      "kunantsik": 8521,
      "Saúl": 8522,
      "jinaqa": 8523,
      "ampay": 8524,
      "sutiyki": 8525,
      "ganpita": 8526,
      "qkunawan": 8527,
      "Wira": 8528,
      "poder": 8529,
      "tucushca": 8530,
      "llajtaman": 8531,
      "Canguna": 8532,
      "Waylla": 8533,
      "qillqan": 8534,
      "parlayta": 8535,
      "faraon": 8536,
      "Kura": 8537,
      "apun": 8538,
      "ramun": 8539,
      "Chaykunata": 8540,
      "mucha": 8541,
      "sqanwan": 8542,
      "witi": 8543,
      "canka": 8544,
      "allinnin": 8545,
      "caycashan": 8546,
      "amaña": 8547,
      "qawasun": 8548,
      "tarikurqa": 8549,
      "rejsin": 8550,
      "mikhunata": 8551,
      "Gobiernon": 8552,
      "Satanás": 8553,
      ".):": 8554,
      "ida": 8555,
      "ibi": 8556,
      "phawa": 8557,
      "kukuna": 8558,
      "kump": 8559,
      "michiq": 8560,
      "cawar": 8561,
      "sik": 8562,
      "nah": 8563,
      "allcha": 8564,
      "runaca": 8565,
      "wichan": 8566,
      "rurarqan": 8567,
      "aykichis": 8568,
      "yuyaq": 8569,
      "quechua": 8570,
      "Shinami": 8571,
      "kajman": 8572,
      "Estu": 8573,
      "faris": 8574,
      "ćhasqui": 8575,
      "TAYTA": 8576,
      "Llullu": 8577,
      "wasqanchikta": 8578,
      "llucshi": 8579,
      "BI": 8580,
      "EF": 8581,
      "bus": 8582,
      "pwi": 8583,
      "planta": 8584,
      "caca": 8585,
      "nisqay": 8586,
      "rea": 8587,
      "canganta": 8588,
      "yayayayayay": 8589,
      "llika": 8590,
      "fica": 8591,
      "kawsaymanta": 8592,
      "karpis": 8593,
      "Riku": 8594,
      "kunankupaj": 8595,
      "Chashnami": 8596,
      "wañuymanta": 8597,
      "videota": 8598,
      "Llank": 8599,
      "Llaqtan": 8600,
      "Jeremi": 8601,
      "shuktak": 8602,
      "illapa": 8603,
      "odo": 8604,
      "chhu": 8605,
      "tama": 8606,
      "charik": 8607,
      "nisunman": 8608,
      "rupi": 8609,
      "hurqu": 8610,
      "rqataqmi": 8611,
      "chey": 8612,
      "Imapas": 8613,
      "llaqtayoq": 8614,
      "mini": 8615,
      "Willay": 8616,
      "paicunaca": 8617,
      "kunamanpas": 8618,
      "astawanmi": 8619,
      "nirmi": 8620,
      "käyan": 8621,
      "kaspapas": 8622,
      "salvasqa": 8623,
      "picchu": 8624,
      "atska": 8625,
      "Des": 8626,
      "nqa": 8627,
      "kawar": 8628,
      "kamuy": 8629,
      "kiri": 8630,
      "kici": 8631,
      "tista": 8632,
      "cuc": 8633,
      "kayshina": 8634,
      "Diospita": 8635,
      "yachachis": 8636,
      "qtam": 8637,
      "jacha": 8638,
      "kamataq": 8639,
      "caycash": 8640,
      "hukkunata": 8641,
      "chejqa": 8642,
      "yachachiyta": 8643,
      "Mayqan": 8644,
      "Simin": 8645,
      "llakikuy": 8646,
      "ptikichi": 8647,
      "illaj": 8648,
      "Chaimi": 8649,
      "qhelli": 8650,
      "Rosa": 8651,
      "Allita": 8652,
      "Joseqa": 8653,
      "tïgu": 8654,
      "winaq": 8655,
      "lluqsin": 8656,
      "Noqw": 8657,
      "Cam": 8658,
      "Ita": 8659,
      "unata": 8660,
      "pisqa": 8661,
      "llakin": 8662,
      "chikunapa": 8663,
      "ñahui": 8664,
      "maygan": 8665,
      "ringi": 8666,
      "yachak": 8667,
      "allichay": 8668,
      "ciona": 8669,
      "waqmi": 8670,
      "Runakunaqa": 8671,
      "pukyu": 8672,
      "respetan": 8673,
      "Dyuspaq": 8674,
      "Mariaqa": 8675,
      "hukmanya": 8676,
      "Suy": 8677,
      "Éx": 8678,
      "chë": 8679,
      "union": 8680,
      "watejmanta": 8681,
      "yachiy": 8682,
      "ruquenga": 8683,
      "chayno": 8684,
      "curi": 8685,
      "kunichu": 8686,
      "ñatacmi": 8687,
      "munashca": 8688,
      "shanchis": 8689,
      "päcunan": 8690,
      "lees": 8691,
      "nisqawan": 8692,
      "Bible": 8693,
      "Biblian": 8694,
      "Diostam": 8695,
      "yachanmi": 8696,
      "yachanchis": 8697,
      "Punku": 8698,
      "68": 8699,
      "ïdu": 8700,
      "tad": 8701,
      "kasqaykita": 8702,
      "kuptinqa": 8703,
      "masqa": 8704,
      "waman": 8705,
      "tigra": 8706,
      "samanta": 8707,
      "kanpak": 8708,
      "panpa": 8709,
      "tema": 8710,
      "jati": 8711,
      "apachi": 8712,
      "urca": 8713,
      "qhawar": 8714,
      "rikchaq": 8715,
      "maskay": 8716,
      "kichikmi": 8717,
      "puram": 8718,
      "Moiseswan": 8719,
      "imanasqataq": 8720,
      "SAMU": 8721,
      "ctubre": 8722,
      "Efesios": 8723,
      "SAMUEL": 8724,
      "Tes": 8725,
      "dri": 8726,
      "spe": 8727,
      "tapuni": 8728,
      "llasqa": 8729,
      "spalla": 8730,
      "tuma": 8731,
      "tucha": 8732,
      "tucuna": 8733,
      "Chaykuna": 8734,
      "lim": 8735,
      "orqho": 8736,
      "chinman": 8737,
      "yanapar": 8738,
      "sunquy": 8739,
      "shanpita": 8740,
      "curcur": 8741,
      "kawsaypi": 8742,
      "ranam": 8743,
      "qhawarin": 8744,
      "ćhä": 8745,
      "Burqa": 8746,
      "phaxsi": 8747,
      "Muni": 8748,
      "Shun": 8749,
      "YES": 8750,
      "achay": 8751,
      "allapa": 8752,
      "fle": 8753,
      "iqi": 8754,
      "mkuq": 8755,
      "rru": 8756,
      "uchay": 8757,
      "wer": 8758,
      "micha": 8759,
      "nipi": 8760,
      "kanpi": 8761,
      "cuyargan": 8762,
      "muk": 8763,
      "lima": 8764,
      "liyi": 8765,
      "qayman": 8766,
      "Washä": 8767,
      "willaran": 8768,
      "Chakra": 8769,
      "cäman": 8770,
      "waqqa": 8771,
      "iskayraya": 8772,
      "ñanpi": 8773,
      "nunacuna": 8774,
      "Carlos": 8775,
      "ataq": 8776,
      "illu": 8777,
      "kor": 8778,
      "tz": 8779,
      "llalli": 8780,
      "kantsik": 8781,
      "cunachu": 8782,
      "paylla": 8783,
      "teq": 8784,
      "watapaq": 8785,
      "Mara": 8786,
      "Mashna": 8787,
      "kutipi": 8788,
      "uywan": 8789,
      "atinkuchu": 8790,
      "armiayi": 8791,
      "jaykʼaj": 8792,
      "Aliman": 8793,
      "ruphay": 8794,
      "pudir": 8795,
      "Ray": 8796,
      "cina": 8797,
      "epi": 8798,
      "om": 8799,
      "umay": 8800,
      "vos": 8801,
      "chenqa": 8802,
      "shuna": 8803,
      "kunawa": 8804,
      "ratsi": 8805,
      "niska": 8806,
      "ruspa": 8807,
      "tuwan": 8808,
      "yuka": 8809,
      "runapas": 8810,
      "ciëlu": 8811,
      "llanqa": 8812,
      "Imapaqtaq": 8813,
      "Siria": 8814,
      "kichisqa": 8815,
      "qillqaq": 8816,
      "kanankama": 8817,
      "graba": 8818,
      "shimipi": 8819,
      "janpi": 8820,
      "cushcä": 8821,
      "____": 8822,
      "llactapi": 8823,
      "Cheqaq": 8824,
      "juicio": 8825,
      "intindi": 8826,
      "años": 8827,
      "edu": 8828,
      "gin": 8829,
      "lmi": 8830,
      "piê": 8831,
      "wasan": 8832,
      "yat": 8833,
      "kiwan": 8834,
      "punkuta": 8835,
      "japin": 8836,
      "munai": 8837,
      "shunllapa": 8838,
      "vacuna": 8839,
      "sapachu": 8840,
      "Hap": 8841,
      "charishka": 8842,
      "kuytapas": 8843,
      "runacunami": 8844,
      "ruwaykunata": 8845,
      "llaktakunapi": 8846,
      "Manu": 8847,
      "rerqanku": 8848,
      "Ñaupa": 8849,
      "Francis": 8850,
      "kaptimpis": 8851,
      "Bau": 8852,
      "Ikwa": 8853,
      "NM": 8854,
      "gio": 8855,
      "ps": 8856,
      "yna": 8857,
      "pachä": 8858,
      "kul": 8859,
      "mami": 8860,
      "yawan": 8861,
      "ticra": 8862,
      "sue": 8863,
      "chayllapi": 8864,
      "quwiki": 8865,
      "Chaypa": 8866,
      "wichay": 8867,
      "pachacho": 8868,
      "Imashina": 8869,
      "Kasha": 8870,
      "aytaqa": 8871,
      "willarkansapa": 8872,
      "kuyakuy": 8873,
      "juchasapa": 8874,
      "churinkuna": 8875,
      "willaykunata": 8876,
      "Tsaynogpis": 8877,
      "(\"": 8878,
      "ikra": 8879,
      "yama": 8880,
      "rurin": 8881,
      "hata": 8882,
      "allpan": 8883,
      "payay": 8884,
      "chikllapa": 8885,
      "teu": 8886,
      "arreg": 8887,
      "carkan": 8888,
      "yachanchu": 8889,
      "Maytaq": 8890,
      "kurmi": 8891,
      "2005": 8892,
      "Nuka": 8893,
      "kapurqan": 8894,
      "Kawsa": 8895,
      "änanpä": 8896,
      "Griego": 8897,
      "rasunpa": 8898,
      "Canaán": 8899,
      "Filistea": 8900,
      "YACHACHI": 8901,
      "MB": 8902,
      "Villa": 8903,
      "jai": 8904,
      "dom": 8905,
      ".\"*": 8906,
      "tsikoq": 8907,
      "Bibliapita": 8908,
      "angelnin": 8909,
      "kunanchikpaq": 8910,
      "discïpulun": 8911,
      "CR": 8912,
      "XO": 8913,
      "gpa": 8914,
      "oc": 8915,
      "övin": 8916,
      "pati": 8917,
      "inga": 8918,
      "yara": 8919,
      "kish": 8920,
      "siempre": 8921,
      "purun": 8922,
      "ninpiqa": 8923,
      "payku": 8924,
      "escu": 8925,
      "Paqta": 8926,
      "alliyachi": 8927,
      "riska": 8928,
      "ruwarqaku": 8929,
      "yuyashpa": 8930,
      "monqa": 8931,
      "ykichej": 8932,
      "yachaynin": 8933,
      "Rikä": 8934,
      "Kunanka": 8935,
      "qarqu": 8936,
      "Pascua": 8937,
      "ćhümi": 8938,
      "pikunachus": 8939,
      "Mosoq": 8940,
      "Cas": 8941,
      "z̈": 8942,
      "ayca": 8943,
      "pasha": 8944,
      "unara": 8945,
      "malla": 8946,
      "riri": 8947,
      "ribi": 8948,
      "chu3": 8949,
      "caita": 8950,
      "nirqani": 8951,
      "sisa": 8952,
      "paschu": 8953,
      "lati": 8954,
      "watasta": 8955,
      "Manataqmi": 8956,
      "urá": 8957,
      "riksin": 8958,
      "cuypa": 8959,
      "curso": 8960,
      "filis": 8961,
      "tukupay": 8962,
      "Cada": 8963,
      "kuyninpi": 8964,
      "tiyqa": 8965,
      "qhepamanmi": 8966,
      "Moisesca": 8967,
      "Ikwadur": 8968,
      "Bus": 8969,
      "Ura": 8970,
      "uyana": 8971,
      "mikun": 8972,
      "yash": 8973,
      "chaykunamanta": 8974,
      "lapa": 8975,
      "live": 8976,
      "imapipas": 8977,
      "chanki": 8978,
      "watayoj": 8979,
      "kamaq": 8980,
      "nisqaman": 8981,
      "Hakuna": 8982,
      "Jesusga": 8983,
      "camapis": 8984,
      "yänampaq": 8985,
      "cristianos": 8986,
      "Ashwan": 8987,
      "diablo": 8988,
      "autoridä": 8989,
      "internet": 8990,
      "famill": 8991,
      "Ejemplopaq": 8992,
      "ei": 8993,
      "edi": 8994,
      "iñin": 8995,
      "sninta": 8996,
      "usay": 8997,
      "ÉXO": 8998,
      "llina": 8999,
      "maqan": 9000,
      "rimun": 9001,
      "iscay": 9002,
      "divor": 9003,
      "kamachik": 9004,
      "kawsanku": 9005,
      "dera": 9006,
      "Makin": 9007,
      "tukuykuna": 9008,
      "sqankuqa": 9009,
      "curnin": 9010,
      "mamakuna": 9011,
      "alisca": 9012,
      "Davidta": 9013,
      "tantakuy": 9014,
      "upya": 9015,
      "Tsaynöllam": 9016,
      "judiyu": 9017,
      "frudu": 9018,
      "samincha": 9019,
      "Qatiqnin": 9020,
      "ganiza": 9021,
      "ÉXODO": 9022,
      "(@": 9023,
      "España": 9024,
      "Wall": 9025,
      "id": 9026,
      "uli": 9027,
      "takuya": 9028,
      "patan": 9029,
      "kashi": 9030,
      "kashkan": 9031,
      "kagta": 9032,
      "maru": 9033,
      "churis": 9034,
      "suyan": 9035,
      "yuj": 9036,
      "rqantsu": 9037,
      "shamuna": 9038,
      "guë": 9039,
      "ptinchikqa": 9040,
      "nuqaqa": 9041,
      "urmay": 9042,
      "tser": 9043,
      "ujnin": 9044,
      "Manchäga": 9045,
      "contro": 9046,
      "Wasipi": 9047,
      "Satanasta": 9048,
      "qelqakunata": 9049,
      "willka": 9050,
      "hinantin": 9051,
      "Guerra": 9052,
      "shkayni": 9053,
      "cunquichu": 9054,
      "igual": 9055,
      "Illa": 9056,
      "key": 9057,
      "sel": 9058,
      "uwa": 9059,
      "unpi": 9060,
      "mañay": 9061,
      "rikuni": 9062,
      "chuta": 9063,
      "cat": 9064,
      "tiyar": 9065,
      "kanay": 9066,
      "cushaj": 9067,
      "hat": 9068,
      "mut": 9069,
      "hinapin": 9070,
      "Imataj": 9071,
      "leon": 9072,
      "bali": 9073,
      "kamachisqan": 9074,
      "Hawa": 9075,
      "kuyaq": 9076,
      "kasqanpi": 9077,
      "tayá": 9078,
      "Qawasun": 9079,
      "iñiqmasi": 9080,
      "warminta": 9081,
      "hallch": 9082,
      "chqanda": 9083,
      "bunal": 9084,
      "'¡": 9085,
      ");": 9086,
      "400": 9087,
      "Qelqa": 9088,
      "hen": 9089,
      "stru": 9090,
      "ëwa": 9091,
      "unam": 9092,
      "katsi": 9093,
      "kurun": 9094,
      "waqta": 9095,
      "chulla": 9096,
      "capa": 9097,
      "rusqa": 9098,
      "gal": 9099,
      "laman": 9100,
      "ting": 9101,
      "erte": 9102,
      "ñuqayku": 9103,
      "Diosniy": 9104,
      "yachaku": 9105,
      "shpapash": 9106,
      "ytapas": 9107,
      "munaran": 9108,
      "hich": 9109,
      "ruraspa": 9110,
      "yuqmi": 9111,
      "rispi": 9112,
      "riychis": 9113,
      "lub": 9114,
      "nego": 9115,
      "anpaqqa": 9116,
      "rimaykunata": 9117,
      "akllan": 9118,
      "sirwi": 9119,
      "caskanta": 9120,
      "Qhaway": 9121,
      "yachachikuykuna": 9122,
      "Piruwpa": 9123,
      "ENS": 9124,
      "Gala": 9125,
      "Pall": 9126,
      "nta": 9127,
      "aykuna": 9128,
      "rituta": 9129,
      "chat": 9130,
      "chash": 9131,
      "chaytam": 9132,
      "tusuy": 9133,
      "yur": 9134,
      "onqanku": 9135,
      "runapaq": 9136,
      "mayur": 9137,
      "tantata": 9138,
      "chinkay": 9139,
      "2021": 9140,
      "aykichispaq": 9141,
      "amar": 9142,
      "qkunapaq": 9143,
      "yanaparqan": 9144,
      "Sir": 9145,
      "yuyayman": 9146,
      "wakinkuna": 9147,
      "llaqtaq": 9148,
      "Miguel": 9149,
      "nunakunaqa": 9150,
      "kajtin": 9151,
      "nisqanqa": 9152,
      "Jesucristopa": 9153,
      "Pedroqa": 9154,
      "Ashtahuangarin": 9155,
      "REYES": 9156,
      "Janaj": 9157,
      "Luq": 9158,
      "tsapa": 9159,
      "qash": 9160,
      "kaña": 9161,
      "kichari": 9162,
      "nichwan": 9163,
      "satana": 9164,
      "chaypim": 9165,
      "chayllachu": 9166,
      "paypak": 9167,
      "yanta": 9168,
      "rurashun": 9169,
      "tukuylla": 9170,
      "kawsarichi": 9171,
      "ruwanankupaq": 9172,
      "poli": 9173,
      "Ped": 9174,
      "Chaimanta": 9175,
      "layata": 9176,
      "tsëta": 9177,
      "sipaskuna": 9178,
      "Imanirtaj": 9179,
      "juntʼa": 9180,
      "Du": 9181,
      "Priyanka": 9182,
      "Urin": 9183,
      "prim": 9184,
      "uchuy": 9185,
      "wta": 9186,
      "uncha": 9187,
      "paki": 9188,
      "salo": 9189,
      "ruri": 9190,
      "chaypin": 9191,
      "tuki": 9192,
      "pasaypa": 9193,
      "llullu": 9194,
      "vision": 9195,
      "Mal": 9196,
      "come": 9197,
      "Seño": 9198,
      "kuspam": 9199,
      "ishcan": 9200,
      "llaktamanta": 9201,
      "Shinapish": 9202,
      "apóstol": 9203,
      "yachatsikun": 9204,
      "tiksi": 9205,
      "Apan": 9206,
      "Cla": 9207,
      "Kristu": 9208,
      "cía": 9209,
      "zhi": 9210,
      "chwanmi": 9211,
      "inman": 9212,
      "shta": 9213,
      "ricä": 9214,
      "sqaña": 9215,
      "pudin": 9216,
      "shaga": 9217,
      "yanapash": 9218,
      "llumpa": 9219,
      "munashgan": 9220,
      "jinaspa": 9221,
      "kamachisqanta": 9222,
      "tiyakoj": 9223,
      "tiyanchu": 9224,
      "akoj": 9225,
      "Tim": 9226,
      "kurnin": 9227,
      "Jehovaqa": 9228,
      "nacionman": 9229,
      "anchikta": 9230,
      "pukllaq": 9231,
      "cagman": 9232,
      "Cushi": 9233,
      "libropi": 9234,
      "kashpaka": 9235,
      "barco": 9236,
      "Faraonpa": 9237,
      "teronomi": 9238,
      "demonio": 9239,
      "punllacunapica": 9240,
      "Deuteronomi": 9241,
      "-¡": 9242,
      "Esa": 9243,
      "pele": 9244,
      "wah": 9245,
      "wawi": 9246,
      "cazu": 9247,
      "suwan": 9248,
      "qullu": 9249,
      "kanchej": 9250,
      "hapin": 9251,
      "kayu": 9252,
      "rqanllapa": 9253,
      "estru": 9254,
      "caynog": 9255,
      "yayayay": 9256,
      "wañura": 9257,
      "shinapash": 9258,
      "yachachisqa": 9259,
      "ananchik": 9260,
      "charirca": 9261,
      "Kuraq": 9262,
      "creyi": 9263,
      "ricuchi": 9264,
      "ushacä": 9265,
      "Kill": 9266,
      "estudiaq": 9267,
      "[...].": 9268,
      "kapchiy": 9269,
      "Salomonpa": 9270,
      "precurso": 9271,
      "konqa": 9272,
      "qateqnin": 9273,
      "kachpa": 9274,
      "kuqta": 9275,
      "macana": 9276,
      "kiyan": 9277,
      "niptinmi": 9278,
      "sachi": 9279,
      "chaypis": 9280,
      "juchas": 9281,
      "chanan": 9282,
      "Images": 9283,
      "llamkayta": 9284,
      "shcami": 9285,
      "wañuchiyta": 9286,
      "sapallay": 9287,
      "yachanaykipaq": 9288,
      "Titi": 9289,
      "chaynachu": 9290,
      "kajtaj": 9291,
      "servic": 9292,
      "Wakinqa": 9293,
      "Constitu": 9294,
      "Hinaspas": 9295,
      "panicuna": 9296,
      "Tiksi": 9297,
      "cambia": 9298,
      "cunquiman": 9299,
      "Mon": 9300,
      "Qari": 9301,
      "rqayku": 9302,
      "rishpami": 9303,
      "wati": 9304,
      "rat": 9305,
      "ninpis": 9306,
      "rqantaq": 9307,
      "Picchu": 9308,
      "Paykunata": 9309,
      "deq": 9310,
      "llampu": 9311,
      "lulay": 9312,
      "kuqkunaqa": 9313,
      "ganga": 9314,
      "warmim": 9315,
      "yanapamantsik": 9316,
      "jatuncha": 9317,
      "wiñaypaqmi": 9318,
      "2004": 9319,
      "Puno": 9320,
      "gapaca": 9321,
      "Ñucata": 9322,
      "Warma": 9323,
      "Ichapis": 9324,
      "cherqanku": 9325,
      "cullqui": 9326,
      "qëkita": 9327,
      "ENSES": 9328,
      "Atuq": 9329,
      "nos": 9330,
      "chpaqa": 9331,
      "unmi": 9332,
      "kuspanmi": 9333,
      "rira": 9334,
      "nipa": 9335,
      "nijpi": 9336,
      "quz": 9337,
      "puma": 9338,
      "dash": 9339,
      "dadu": 9340,
      "cayno": 9341,
      "rurachun": 9342,
      "rimaspa": 9343,
      "rikë": 9344,
      "yachachikuk": 9345,
      "llapim": 9346,
      "Bibliapica": 9347,
      "gracias": 9348,
      "Puyu": 9349,
      "llaquicuy": 9350,
      "yanapanqa": 9351,
      "tukunchu": 9352,
      "Eclesi": 9353,
      "Kanta": 9354,
      "ON": 9355,
      "Sh": 9356,
      "Tur": 9357,
      "aqaqa": 9358,
      "idio": 9359,
      "wen": 9360,
      "take": 9361,
      "kup": 9362,
      "rurqani": 9363,
      "yuyana": 9364,
      "ñas": 9365,
      "2000": 9366,
      "luq": 9367,
      "yanapakun": 9368,
      "due": 9369,
      "manchakuychu": 9370,
      "joven": 9371,
      "llajtata": 9372,
      "pëqa": 9373,
      "umalliqnin": 9374,
      "yagpis": 9375,
      "YACHACHIKUY": 9376,
      "LE": 9377,
      "Las": 9378,
      "ev": 9379,
      "rá": 9380,
      "tawka": 9381,
      "pakay": 9382,
      "pilla": 9383,
      "kuku": 9384,
      "makipi": 9385,
      "ripuy": 9386,
      "yapu": 9387,
      "kik": 9388,
      "huy": 9389,
      "teqa": 9390,
      "pachapaq": 9391,
      "guin": 9392,
      "Pab": 9393,
      "willaq": 9394,
      "masnin": 9395,
      "porqanku": 9396,
      "kusikuni": 9397,
      "manchashpa": 9398,
      "Muyu": 9399,
      "Republi": 9400,
      "Kananqa": 9401,
      "Ashtawan": 9402,
      "Congregacion": 9403,
      "vence": 9404,
      "cachamu": 9405,
      "tucunga": 9406,
      "amistadnin": 9407,
      "Chinchay": 9408,
      "trïbu": 9409,
      "Aman": 9410,
      "ER": 9411,
      "Fe": 9412,
      "Gre": 9413,
      "Kha": 9414,
      "Last": 9415,
      "ñis": 9416,
      "tado": 9417,
      "aychan": 9418,
      "kaqa": 9419,
      "kasara": 9420,
      "challa": 9421,
      "yakun": 9422,
      "nic": 9423,
      "samari": 9424,
      "sucursal": 9425,
      "tellan": 9426,
      "sayki": 9427,
      "ciasta": 9428,
      "qorqan": 9429,
      "tsita": 9430,
      "Tatan": 9431,
      "rikushpa": 9432,
      "mingo": 9433,
      "warmipa": 9434,
      "Judio": 9435,
      "gober": 9436,
      "chasquin": 9437,
      "paicunata": 9438,
      "Kuyu": 9439,
      "imanuy": 9440,
      "wakllan": 9441,
      "wañuyman": 9442,
      "Gamga": 9443,
      "shkaykichi": 9444,
      "kurqaniku": 9445,
      "rurëta": 9446,
      "hukmanyasqa": 9447,
      "hukllawa": 9448,
      "pachawwan": 9449,
      "filisteo": 9450,
      "anza": 9451,
      "machi": 9452,
      "chuê": 9453,
      "capac": 9454,
      "qul": 9455,
      "kancuna": 9456,
      "nar": 9457,
      "wichiy": 9458,
      "punchay": 9459,
      "punllapi": 9460,
      "munë": 9461,
      "aspan": 9462,
      "chinkanqa": 9463,
      "cayal": 9464,
      "shunchij": 9465,
      "kamachisqa": 9466,
      "yachananchik": 9467,
      "guichic": 9468,
      "ruranku": 9469,
      "ñoqayku": 9470,
      "sonqoy": 9471,
      "imaraykutaq": 9472,
      "kusata": 9473,
      "chayllaraq": 9474,
      "śhä": 9475,
      "carcelman": 9476,
      "mallkiq": 9477,
      "Bis": 9478,
      "Hanan": 9479,
      "Suq": 9480,
      "danan": 9481,
      "fun": 9482,
      "kku": 9483,
      "ädu": 9484,
      "unawan": 9485,
      "qanpi": 9486,
      "muyta": 9487,
      "ñucanchic": 9488,
      "jara": 9489,
      "kamachinan": 9490,
      "yanampa": 9491,
      "Paw": 9492,
      "num": 9493,
      "saqmi": 9494,
      "saqes": 9495,
      "rikorqa": 9496,
      "yuyariy": 9497,
      "tiempomanta": 9498,
      "Kupa": 9499,
      "ishq": 9500,
      "ptiembre": 9501,
      "chaynam": 9502,
      "sutinmi": 9503,
      "kashaq": 9504,
      "nisqanpi": 9505,
      "qtinku": 9506,
      "noqamanta": 9507,
      "Rom": 9508,
      "huchapa": 9509,
      "qillqana": 9510,
      "watukuq": 9511,
      "Adanpa": 9512,
      "huchallikuq": 9513,
      "chalapa": 9514,
      "Iñiq": 9515,
      "Mis": 9516,
      "cn": 9517,
      "ichic": 9518,
      "ppa": 9519,
      "çh": 9520,
      "kuchka": 9521,
      "wash": 9522,
      "qannö": 9523,
      "cuman": 9524,
      "Chaykunaqa": 9525,
      "Chaynü": 9526,
      "Chayurá": 9527,
      "qayna": 9528,
      "ptinkuna": 9529,
      "yayan": 9530,
      "nisqakunaqa": 9531,
      "kutiy": 9532,
      "cäga": 9533,
      "mandaca": 9534,
      "alma": 9535,
      "Diostaqa": 9536,
      "qillqata": 9537,
      "rinapaq": 9538,
      "try": 9539,
      "Wayra": 9540,
      "iui": 9541,
      "allah": 9542,
      "phaxsin": 9543,
      "cˈuya": 9544,
      "warqanku": 9545,
      "cawayta": 9546,
      "nichkan": 9547,
      "rue": 9548,
      "cuyu": 9549,
      "maypipas": 9550,
      "tajmi": 9551,
      "cunatam": 9552,
      "wañurqan": 9553,
      "sqantapas": 9554,
      "Diostaj": 9555,
      "ashqha": 9556,
      "cajcuna": 9557,
      "ñol": 9558,
      "kutapas": 9559,
      "kasharan": 9560,
      "Diosninchita": 9561,
      "cinpi": 9562,
      "kancuta": 9563,
      "miski": 9564,
      "unancharqa": 9565,
      "Eno": 9566,
      "edad": 9567,
      "ny": 9568,
      "rt": 9569,
      "sä": 9570,
      "sniy": 9571,
      "angi": 9572,
      "pawa": 9573,
      "kumpa": 9574,
      "micuna": 9575,
      "niwaq": 9576,
      "quel": 9577,
      "kanaykipaq": 9578,
      "push": 9579,
      "puwan": 9580,
      "ninchiq": 9581,
      "hatu": 9582,
      "kuychi": 9583,
      "taqsi": 9584,
      "panan": 9585,
      "sharqanku": 9586,
      "canchis": 9587,
      "sayk": 9588,
      "munashcata": 9589,
      "willaj": 9590,
      "rikukun": 9591,
      "riyä": 9592,
      "carro": 9593,
      "Maymanta": 9594,
      "manchakuq": 9595,
      "wawakunata": 9596,
      "charinki": 9597,
      "pensan": 9598,
      "pensë": 9599,
      "Arma": 9600,
      "ruranapaq": 9601,
      "favor": 9602,
      "makinta": 9603,
      "shunguhuan": 9604,
      "callawalla": 9605,
      "yaĉhachi": 9606,
      "isrraylinu": 9607,
      "blë": 9608,
      "naya": 9609,
      "piy": 9610,
      "ripa": 9611,
      "rirqani": 9612,
      "waska": 9613,
      "nie": 9614,
      "niyargan": 9615,
      "ruhu": 9616,
      "chayam": 9617,
      "yush": 9618,
      "huë": 9619,
      "Chaytam": 9620,
      "Diosni": 9621,
      "cita": 9622,
      "allichu": 9623,
      "vita": 9624,
      "ruraran": 9625,
      "lliu": 9626,
      "runakunatan": 9627,
      "qhapa": 9628,
      "shinaca": 9629,
      "hatunmi": 9630,
      "kunapaqpas": 9631,
      "chijchu": 9632,
      "achkallaña": 9633,
      "Navidad": 9634,
      "män": 9635,
      "piensanku": 9636,
      "chaipi": 9637,
      "familianta": 9638,
      "penqa": 9639,
      "llajtayoj": 9640,
      "Abrah": 9641,
      "Tsemi": 9642,
      "Imaynatachus": 9643,
      "Cheqap": 9644,
      "72": 9645,
      "Ame": 9646,
      "Kuna": 9647,
      "Men": 9648,
      "Pri": 9649,
      "are": 9650,
      "lí": 9651,
      "uchun": 9652,
      "tien": 9653,
      "encia": 9654,
      "lawan": 9655,
      "pischu": 9656,
      "quimi": 9657,
      "isin": 9658,
      "cancha": 9659,
      "wayk": 9660,
      "ciyapi": 9661,
      "viaj": 9662,
      "Sasacha": 9663,
      "qhasi": 9664,
      "tiyakun": 9665,
      "ruwanapaq": 9666,
      "muychis": 9667,
      "rurananchik": 9668,
      "wawaqa": 9669,
      "ricushpa": 9670,
      "wanqaku": 9671,
      "noqata": 9672,
      "ANA": 9673,
      "rimani": 9674,
      "agradeci": 9675,
      "Ajinapi": 9676,
      "Babiloni": 9677,
      "shuypaqa": 9678,
      "amp": 9679,
      "qö": 9680,
      "rpis": 9681,
      "upu": 9682,
      "kuma": 9683,
      "mikuyta": 9684,
      "chacha": 9685,
      "yah": 9686,
      "rakin": 9687,
      "saqa": 9688,
      "maychus": 9689,
      "wiy": 9690,
      "reunion": 9691,
      "cierto": 9692,
      "cunatawan": 9693,
      "munasqayki": 9694,
      "päsa": 9695,
      "jinamanta": 9696,
      "llapata": 9697,
      "lec": 9698,
      "comuni": 9699,
      "kutiri": 9700,
      "1919": 9701,
      "minu": 9702,
      "qkunamanta": 9703,
      "paicunapaj": 9704,
      "tiyanan": 9705,
      "preocu": 9706,
      "nishpaca": 9707,
      "kunkuman": 9708,
      "sqanchikmanta": 9709,
      "Qamqa": 9710,
      "ninanmi": 9711,
      "Imaynatataq": 9712,
      "pawqar": 9713,
      "Washäcuj": 9714,
      "61": 9715,
      "clä": 9716,
      "kpi": 9717,
      "rqun": 9718,
      "aychata": 9719,
      "qapaq": 9720,
      "chaca": 9721,
      "chaia": 9722,
      "chishaj": 9723,
      "sit": 9724,
      "surin": 9725,
      "manata": 9726,
      "cujcuna": 9727,
      "tucur": 9728,
      "kaywan": 9729,
      "asqay": 9730,
      "escla": 9731,
      "ruwakun": 9732,
      "sqankupi": 9733,
      "yachanan": 9734,
      "Maypim": 9735,
      "nejman": 9736,
      "nintapas": 9737,
      "tiempoqa": 9738,
      "rimayqa": 9739,
      "tapui": 9740,
      "wawasnin": 9741,
      "Chaimandami": 9742,
      "jucniqui": 9743,
      "causac": 9744,
      "nisqanmanta": 9745,
      "niyuqmi": 9746,
      "cangapaj": 9747,
      "Pablopa": 9748,
      "mosqoy": 9749,
      "port": 9750,
      "Yaqachu": 9751,
      "Shuklla": 9752,
      "Apóstol": 9753,
      "kushwan": 9754,
      "Siñurnin": 9755,
      "75": 9756,
      "Tun": 9757,
      "cy": 9758,
      "iwal": 9759,
      "tle": 9760,
      "malli": 9761,
      "kunak": 9762,
      "chiru": 9763,
      "sawan": 9764,
      "qura": 9765,
      "cuita": 9766,
      "puj": 9767,
      "puñun": 9768,
      "hak": 9769,
      "shag": 9770,
      "ñuñu": 9771,
      "qayllapi": 9772,
      "ytam": 9773,
      "warme": 9774,
      "qkunapas": 9775,
      "001": 9776,
      "nintapis": 9777,
      "Colo": 9778,
      "imaynatan": 9779,
      "poqoy": 9780,
      "pipipipi": 9781,
      "corka": 9782,
      "spankuqa": 9783,
      "wawanta": 9784,
      "sanampa": 9785,
      "rikhurin": 9786,
[...]
