{
  "version": "1.0",
  "truncation": null,
  "padding": null,
  "added_tokens": [
    {
      "id": 0,
      "content": "[UNK]",
      "single_word": false,
      "lstrip": false,
      "rstrip": false,
      "normalized": false,
      "special": true
    },
    {
      "id": 1,
      "content": "[PAD]",
      "single_word": false,
      "lstrip": false,
      "rstrip": false,
      "normalized": false,
      "special": true
    },
    {
      "id": 2,
      "content": "[SOS]",
      "single_word": false,
      "lstrip": false,
      "rstrip": false,
      "normalized": false,
      "special": true
    },
    {
      "id": 3,
      "content": "[EOS]",
      "single_word": false,
      "lstrip": false,
      "rstrip": false,
      "normalized": false,
      "special": true
    }
  ],
  "normalizer": null,
  "pre_tokenizer": {
    "type": "Whitespace"
  },
  "post_processor": null,
  "decoder": null,
  "model": {
    "type": "BPE",
    "dropout": null,
    "unk_token": "[UNK]",
    "continuing_subword_prefix": null,
    "end_of_word_suffix": null,
    "fuse_unk": false,
    "byte_fallback": false,
    "ignore_merges": false,
    "vocab": {
      "[UNK]": 0,
      "[PAD]": 1,
      "[SOS]": 2,
      "[EOS]": 3,
      "!": 4,
      "%": 5,
      "(": 6,
      ")": 7,
      "*": 8,
      ",": 9,
      "-": 10,
      ".": 11,
      "/": 12,
      "0": 13,
      "1": 14,
      "2": 15,
      "3": 16,
      "4": 17,
      "5": 18,
      "6": 19,
      "7": 20,
      "8": 21,
      "9": 22,
      ":": 23,
      ";": 24,
      ">": 25,
      "?": 26,
      "A": 27,
      "B": 28,
      "C": 29,
      "D": 30,
      "E": 31,
      "F": 32,
      "G": 33,
      "H": 34,
      "I": 35,
      "J": 36,
      "K": 37,
      "L": 38,
      "M": 39,
      "N": 40,
      "O": 41,
      "P": 42,
      "Q": 43,
      "R": 44,
      "S": 45,
      "T": 46,
      "U": 47,
      "V": 48,
      "W": 49,
      "X": 50,
      "Y": 51,
      "Z": 52,
      "[": 53,
      "]": 54,
      "a": 55,
      "b": 56,
      "c": 57,
      "d": 58,
      "e": 59,
      "f": 60,
      "g": 61,
      "h": 62,
      "i": 63,
      "j": 64,
      "k": 65,
      "l": 66,
      "m": 67,
      "n": 68,
      "o": 69,
      "p": 70,
      "q": 71,
      "r": 72,
      "s": 73,
      "t": 74,
      "u": 75,
      "v": 76,
      "w": 77,
      "x": 78,
      "y": 79,
      "z": 80,
      "|": 81,
      "¡": 82,
      "©": 83,
      "«": 84,
      "­": 85,
      "°": 86,
      "·": 87,
      "»": 88,
      "¿": 89,
      "Á": 90,
      "É": 91,
      "Í": 92,
      "Ñ": 93,
      "Ó": 94,
      "Ú": 95,
      "à": 96,
      "á": 97,
      "ã": 98,
      "ä": 99,
      "å": 100,
      "æ": 101,
      "ç": 102,
      "è": 103,
      "é": 104,
      "ë": 105,
      "í": 106,
      "ï": 107,
      "ñ": 108,
      "ó": 109,
      "ô": 110,
      "ö": 111,
      "ú": 112,
      "ü": 113,
      "ý": 114,
      "ā": 115,
      "ł": 116,
      "ō": 117,
      "Š": 118,
      "š": 119,
      "ů": 120,
      "ż": 121,
      "ׁ": 122,
      "ה": 123,
      "ו": 124,
      "י": 125,
      "נ": 126,
      "פ": 127,
      "ש": 128,
      "​": 129,
      "–": 130,
      "—": 131,
      "‘": 132,
      "’": 133,
      "“": 134,
      "”": 135,
      "•": 136,
      "…": 137,
      "›": 138,
      "⁠": 139,
      "□": 140,
      "▪": 141,
      "▸": 142,
      "◇": 143,
      "●": 144,
      "☞": 145,
      "os": 146,
      "es": 147,
      "en": 148,
      "de": 149,
      "er": 150,
      "ar": 151,
      "qu": 152,
      "la": 153,
      "an": 154,
      "on": 155,
      "que": 156,
      "as": 157,
      "or": 158,
      "ci": 159,
      "re": 160,
      "el": 161,
      "ad": 162,
      "al": 163,
      "un": 164,
      "tr": 165,
      "di": 166,
      "te": 167,
      "ti": 168,
      "se": 169,
      "to": 170,
      "con": 171,
      "do": 172,
      "am": 173,
      "los": 174,
      "in": 175,
      "su": 176,
      "ab": 177,
      "lo": 178,
      "le": 179,
      "om": 180,
      "cu": 181,
      "em": 182,
      "pr": 183,
      "ón": 184,
      "si": 185,
      "vi": 186,
      "li": 187,
      "ho": 188,
      "par": 189,
      "ri": 190,
      "est": 191,
      "ía": 192,
      "ac": 193,
      "por": 194,
      "las": 195,
      "per": 196,
      "no": 197,
      "mi": 198,
      "nos": 199,
      "pu": 200,
      "aci": 201,
      "Je": 202,
      "vá": 203,
      "Jeho": 204,
      "Jehová": 205,
      "ios": 206,
      "dad": 207,
      "ent": 208,
      "da": 209,
      "ec": 210,
      "com": 211,
      "tu": 212,
      "bi": 213,
      "po": 214,
      "gu": 215,
      "mo": 216,
      "ra": 217,
      "para": 218,
      "ás": 219,
      "mu": 220,
      "ente": 221,
      "ob": 222,
      "ta": 223,
      "ten": 224,
      "Dios": 225,
      "man": 226,
      "mos": 227,
      "ado": 228,
      "”.": 229,
      "amos": 230,
      "im": 231,
      "una": 232,
      "ca": 233,
      "ando": 234,
      "emos": 235,
      "des": 236,
      "del": 237,
      "me": 238,
      "res": 239,
      "ay": 240,
      "fi": 241,
      "nu": 242,
      "pre": 243,
      "más": 244,
      "ación": 245,
      "ser": 246,
      "estr": 247,
      "tan": 248,
      "ones": 249,
      "us": 250,
      "ver": 251,
      "án": 252,
      "sus": 253,
      "era": 254,
      "qui": 255,
      "dos": 256,
      "pi": 257,
      "tar": 258,
      "les": 259,
      "son": 260,
      "bli": 261,
      "go": 262,
      "ch": 263,
      "hab": 264,
      "Jes": 265,
      "pro": 266,
      "ma": 267,
      "cri": 268,
      "nuestr": 269,
      "otr": 270,
      "jo": 271,
      "Por": 272,
      "aba": 273,
      "ús": 274,
      "is": 275,
      "fu": 276,
      "Jesús": 277,
      "dic": 278,
      "como": 279,
      "pa": 280,
      "hac": 281,
      "én": 282,
      "ter": 283,
      "Qu": 284,
      "En": 285,
      "so": 286,
      "qué": 287,
      "gr": 288,
      "ex": 289,
      "ve": 290,
      "der": 291,
      "ero": 292,
      "dar": 293,
      "vo": 294,
      "cas": 295,
      "pue": 296,
      "hi": 297,
      "Es": 298,
      "co": 299,
      "idad": 300,
      "cos": 301,
      "ómo": 302,
      "enci": 303,
      "ción": 304,
      "ro": 305,
      "ayu": 306,
      "Qué": 307,
      "tes": 308,
      "ambi": 309,
      "ir": 310,
      "emp": 311,
      "Bi": 312,
      "tos": 313,
      "lar": 314,
      "demos": 315,
      "person": 316,
      "él": 317,
      "Bibli": 318,
      "Biblia": 319,
      "gun": 320,
      "deb": 321,
      "her": 322,
      "ada": 323,
      "sti": 324,
      "esp": 325,
      "ha": 326,
      "ni": 327,
      "ían": 328,
      "tra": 329,
      "du": 330,
      "car": 331,
      "io": 332,
      "deci": 333,
      "for": 334,
      "ej": 335,
      "bu": 336,
      "lu": 337,
      "tas": 338,
      "El": 339,
      "ino": 340,
      "hacer": 341,
      "ami": 342,
      "cor": 343,
      "lle": 344,
      "lab": 345,
      "bre": 346,
      "La": 347,
      "cuando": 348,
      "otros": 349,
      "dis": 350,
      "herman": 351,
      "gar": 352,
      "ens": 353,
      "ados": 354,
      "ambién": 355,
      "mis": 356,
      "ritu": 357,
      "eron": 358,
      "añ": 359,
      "sto": 360,
      "stian": 361,
      "sab": 362,
      "cristian": 363,
      "gi": 364,
      "ento": 365,
      "tien": 366,
      "segu": 367,
      "vida": 368,
      "sob": 369,
      "Si": 370,
      "ras": 371,
      "cer": 372,
      "za": 373,
      "pas": 374,
      "eces": 375,
      "ante": 376,
      "ales": 377,
      "Pero": 378,
      "jos": 379,
      "much": 380,
      "mente": 381,
      "ce": 382,
      "todo": 383,
      "personas": 384,
      "reg": 385,
      "den": 386,
      "hu": 387,
      "és": 388,
      "pe": 389,
      "pli": 390,
      "buen": 391,
      "ías": 392,
      "señ": 393,
      "sobre": 394,
      "ven": 395,
      "Cómo": 396,
      "Cu": 397,
      "bien": 398,
      "tor": 399,
      "amente": 400,
      "día": 401,
      "pres": 402,
      "encia": 403,
      "ara": 404,
      "también": 405,
      "ador": 406,
      "este": 407,
      "eli": 408,
      "ejemp": 409,
      "sí": 410,
      "esta": 411,
      "endo": 412,
      "eso": 413,
      "das": 414,
      "pon": 415,
      "muy": 416,
      "cre": 417,
      "tal": 418,
      "zar": 419,
      "tiem": 420,
      "No": 421,
      "fec": 422,
      "aciones": 423,
      "gos": 424,
      "demás": 425,
      "pren": 426,
      "fe": 427,
      "tiempo": 428,
      "dijo": 429,
      "ba": 430,
      "todos": 431,
      "aban": 432,
      "cosas": 433,
      "quien": 434,
      "Re": 435,
      "gui": 436,
      "dr": 437,
      "vir": 438,
      "tener": 439,
      "mun": 440,
      "cono": 441,
      "De": 442,
      "puede": 443,
      "ombre": 444,
      "ejemplo": 445,
      "enti": 446,
      "fr": 447,
      "gan": 448,
      "nuestra": 449,
      "pos": 450,
      "hor": 451,
      "sal": 452,
      "ablo": 453,
      "cómo": 454,
      "ayudar": 455,
      "había": 456,
      "Al": 457,
      "mas": 458,
      "sin": 459,
      "neces": 460,
      "erra": 461,
      "cho": 462,
      "podemos": 463,
      "vez": 464,
      "está": 465,
      "pero": 466,
      "vos": 467,
      "cristianos": 468,
      "hay": 469,
      "min": 470,
      "impor": 471,
      "va": 472,
      "hermanos": 473,
      "ún": 474,
      "lan": 475,
      "predic": 476,
      "enseñ": 477,
      "trar": 478,
      "ue": 479,
      "eran": 480,
      "años": 481,
      "han": 482,
      "pues": 483,
      "cia": 484,
      "estu": 485,
      "dice": 486,
      "ga": 487,
      "var": 488,
      "br": 489,
      "mar": 490,
      "fue": 491,
      "mundo": 492,
      ").": 493,
      "adre": 494,
      "nosotros": 495,
      "dej": 496,
      "lla": 497,
      "entes": 498,
      "can": 499,
      "pó": 500,
      "amor": 501,
      "tad": 502,
      "nuestro": 503,
      "enta": 504,
      "ia": 505,
      "ellos": 506,
      "az": 507,
      "uni": 508,
      "pec": 509,
      "amili": 510,
      "..": 511,
      "dio": 512,
      "debemos": 513,
      "ces": 514,
      "don": 515,
      "pens": 516,
      "Los": 517,
      "famili": 518,
      "reci": 519,
      "zo": 520,
      "greg": 521,
      "prob": 522,
      "mej": 523,
      "alidad": 524,
      "Cuando": 525,
      "íritu": 526,
      "je": 527,
      "prim": 528,
      "ali": 529,
      "cur": 530,
      "uste": 531,
      "Pablo": 532,
      "antes": 533,
      "hijos": 534,
      "senti": 535,
      "espíritu": 536,
      "congreg": 537,
      "na": 538,
      "empre": 539,
      "”,": 540,
      "algun": 541,
      "importan": 542,
      "ciones": 543,
      "gran": 544,
      "palab": 545,
      "así": 546,
      "ble": 547,
      "esti": 548,
      "mal": 549,
      "ya": 550,
      "mejor": 551,
      "solo": 552,
      "ben": 553,
      "estar": 554,
      "fer": 555,
      "Ti": 556,
      "espi": 557,
      "ese": 558,
      "cio": 559,
      "mucho": 560,
      "siempre": 561,
      "asta": 562,
      "cen": 563,
      "entos": 564,
      "esper": 565,
      "porque": 566,
      "Se": 567,
      "hec": 568,
      "mismo": 569,
      "fin": 570,
      "pregun": 571,
      "espiritu": 572,
      "val": 573,
      "hora": 574,
      "tiene": 575,
      "nue": 576,
      "tó": 577,
      "able": 578,
      "sig": 579,
      "congregación": 580,
      "esa": 581,
      "fuer": 582,
      "gente": 583,
      "decir": 584,
      "verdad": 585,
      "resu": 586,
      "oso": 587,
      "tro": 588,
      "san": 589,
      "posi": 590,
      "quier": 591,
      "ju": 592,
      "cla": 593,
      "bí": 594,
      "jus": 595,
      "aron": 596,
      "gún": 597,
      "toda": 598,
      "quienes": 599,
      "apren": 600,
      "pués": 601,
      "human": 602,
      "lib": 603,
      "hecho": 604,
      "quer": 605,
      "Com": 606,
      "unque": 607,
      "ores": 608,
      "ará": 609,
      "bíbli": 610,
      "coraz": 611,
      "elo": 612,
      "osa": 613,
      "eci": 614,
      "sa": 615,
      "tí": 616,
      "sier": 617,
      "dese": 618,
      "Con": 619,
      "cion": 620,
      "Reino": 621,
      "muer": 622,
      "seguir": 623,
      "cul": 624,
      "Así": 625,
      "gra": 626,
      "medi": 627,
      "ayuda": 628,
      "traba": 629,
      "entre": 630,
      "sión": 631,
      "cción": 632,
      "cam": 633,
      "corazón": 634,
      "hombre": 635,
      "nuestros": 636,
      "apó": 637,
      "cum": 638,
      "almente": 639,
      "prom": 640,
      "familia": 641,
      "inter": 642,
      "hasta": 643,
      "rela": 644,
      "conse": 645,
      "fiel": 646,
      "pueden": 647,
      "tir": 648,
      "gen": 649,
      "Además": 650,
      "ase": 651,
      "tri": 652,
      "estaba": 653,
      "miento": 654,
      "muchos": 655,
      "mor": 656,
      "mil": 657,
      "palabras": 658,
      "vol": 659,
      "cí": 660,
      "adres": 661,
      "inci": 662,
      "apósto": 663,
      "ol": 664,
      "tenemos": 665,
      "tado": 666,
      "au": 667,
      "yo": 668,
      "acti": 669,
      "Como": 670,
      "Para": 671,
      "dió": 672,
      "arse": 673,
      "cuer": 674,
      "anza": 675,
      "acer": 676,
      "ión": 677,
      "dur": 678,
      "parte": 679,
      "Sin": 680,
      "escri": 681,
      "podr": 682,
      "tras": 683,
      "tanto": 684,
      "ido": 685,
      "uno": 686,
      "Tierra": 687,
      "Sa": 688,
      "obe": 689,
      "siervos": 690,
      "confi": 691,
      "testi": 692,
      "ne": 693,
      "lugar": 694,
      "cada": 695,
      "estos": 696,
      "tienen": 697,
      "padres": 698,
      "estas": 699,
      "usted": 700,
      "están": 701,
      "van": 702,
      "raz": 703,
      "sigui": 704,
      "tru": 705,
      "recibi": 706,
      "hizo": 707,
      "len": 708,
      "algo": 709,
      "19": 710,
      "bar": 711,
      "enten": 712,
      "algunos": 713,
      "respon": 714,
      "importante": 715,
      "may": 716,
      "cier": 717,
      "necesi": 718,
      "fun": 719,
      "ace": 720,
      "uti": 721,
      "princi": 722,
      "tamos": 723,
      "proble": 724,
      "cel": 725,
      "cípu": 726,
      "sta": 727,
      "discípu": 728,
      "dan": 729,
      "tenía": 730,
      "Cri": 731,
      "ño": 732,
      "eros": 733,
      "manera": 734,
      "aque": 735,
      "culo": 736,
      "ella": 737,
      "lí": 738,
      "ple": 739,
      "anim": 740,
      "pueb": 741,
      "vivir": 742,
      "clar": 743,
      "casa": 744,
      "poder": 745,
      "estudi": 746,
      "escu": 747,
      "anos": 748,
      "todas": 749,
      "muchas": 750,
      "ina": 751,
      "mon": 752,
      "vas": 753,
      "Cristo": 754,
      "fal": 755,
      "feli": 756,
      "fici": 757,
      "expli": 758,
      "buenas": 759,
      "tanás": 760,
      "Satanás": 761,
      "después": 762,
      "cumpli": 763,
      "men": 764,
      "discípulos": 765,
      "unca": 766,
      "pueblo": 767,
      "forma": 768,
      "hablar": 769,
      "fí": 770,
      "lidad": 771,
      "otras": 772,
      "artí": 773,
      "aje": 774,
      "íamos": 775,
      "hace": 776,
      "Él": 777,
      "propi": 778,
      "dir": 779,
      "dó": 780,
      "bres": 781,
      "alab": 782,
      "verda": 783,
      "cambi": 784,
      "adu": 785,
      "iz": 786,
      "00": 787,
      "cual": 788,
      "persona": 789,
      "Sal": 790,
      "anci": 791,
      "nombre": 792,
      "of": 793,
      "onces": 794,
      "días": 795,
      "nifi": 796,
      "otro": 797,
      "dado": 798,
      "ed": 799,
      "...": 800,
      "lor": 801,
      "muerte": 802,
      "inc": 803,
      "guien": 804,
      "permi": 805,
      "sea": 806,
      "poco": 807,
      "avi": 808,
      "sino": 809,
      "fru": 810,
      "modo": 811,
      "dí": 812,
      "tud": 813,
      "bo": 814,
      "arnos": 815,
      "adas": 816,
      "alguien": 817,
      "ér": 818,
      "stan": 819,
      "cuenta": 820,
      "fri": 821,
      "muestr": 822,
      "servir": 823,
      "empe": 824,
      "cil": 825,
      "sac": 826,
      "lus": 827,
      "reuni": 828,
      "esto": 829,
      "adi": 830,
      "predicar": 831,
      "apóstol": 832,
      "paci": 833,
      "Le": 834,
      "contra": 835,
      "parec": 836,
      "tran": 837,
      "espiritual": 838,
      "cab": 839,
      "bus": 840,
      "nuestras": 841,
      "dido": 842,
      "embar": 843,
      "reli": 844,
      "Mi": 845,
      "perfec": 846,
      "año": 847,
      "embargo": 848,
      "zas": 849,
      "remos": 850,
      "lea": 851,
      "sabi": 852,
      "signifi": 853,
      "hermano": 854,
      "Ju": 855,
      "mayor": 856,
      "acep": 857,
      "To": 858,
      "nunca": 859,
      "rey": 860,
      "unto": 861,
      "ario": 862,
      "testigos": 863,
      "veces": 864,
      "respe": 865,
      "aquel": 866,
      "siones": 867,
      "caso": 868,
      "minis": 869,
      "ale": 870,
      "Aunque": 871,
      "agu": 872,
      "zó": 873,
      "hom": 874,
      "ja": 875,
      "posible": 876,
      "Padre": 877,
      "publi": 878,
      "hon": 879,
      "[...": 880,
      "super": 881,
      "situ": 882,
      "hijo": 883,
      "ís": 884,
      "pañ": 885,
      "tió": 886,
      "“¿": 887,
      "[...]": 888,
      "También": 889,
      "ig": 890,
      "llam": 891,
      "sufri": 892,
      "problemas": 893,
      "taba": 894,
      "encon": 895,
      "pensar": 896,
      "be": 897,
      "jer": 898,
      "ungi": 899,
      "conocer": 900,
      "escuch": 901,
      "div": 902,
      "edad": 903,
      "mom": 904,
      "tados": 905,
      "bió": 906,
      "artículo": 907,
      "santo": 908,
      "turas": 909,
      "aría": 910,
      "esposa": 911,
      "llegar": 912,
      "lé": 913,
      "Davi": 914,
      "otra": 915,
      "David": 916,
      "actu": 917,
      "pá": 918,
      "ele": 919,
      "public": 920,
      "resul": 921,
      "conoci": 922,
      "anti": 923,
      "paz": 924,
      "debe": 925,
      "valor": 926,
      "ocu": 927,
      "prue": 928,
      "eter": 929,
      "som": 930,
      "justi": 931,
      "pen": 932,
      "úl": 933,
      "tomar": 934,
      "15": 935,
      "ándo": 936,
      "Ahora": 937,
      "ins": 938,
      "bas": 939,
      "nin": 940,
      "mujer": 941,
      "he": 942,
      "mí": 943,
      "unos": 944,
      "terio": 945,
      "hombres": 946,
      "jó": 947,
      "encias": 948,
      "tribu": 949,
      "unidad": 950,
      "obede": 951,
      "Las": 952,
      "cir": 953,
      "din": 954,
      "Lo": 955,
      "tem": 956,
      "form": 957,
      "Di": 958,
      "comple": 959,
      "raeli": 960,
      "israeli": 961,
      "14": 962,
      "có": 963,
      "hemos": 964,
      "cont": 965,
      "Palab": 966,
      "hoy": 967,
      "Palabra": 968,
      "lado": 969,
      "pri": 970,
      "teri": 971,
      "lleg": 972,
      "rec": 973,
      "ern": 974,
      "verdader": 975,
      "adores": 976,
      "mens": 977,
      "ocas": 978,
      "tamente": 979,
      "demostr": 980,
      "princip": 981,
      "imon": 982,
      "ancianos": 983,
      "Me": 984,
      "bra": 985,
      "efec": 986,
      "Ent": 987,
      "durante": 988,
      "Des": 989,
      "trimon": 990,
      "servi": 991,
      "matrimon": 992,
      "haci": 993,
      "nada": 994,
      "gel": 995,
      "igu": 996,
      "donde": 997,
      "padre": 998,
      "12": 999,
      "bene": 1000,
      "ru": 1001,
      "curs": 1002,
      "Hi": 1003,
      "apo": 1004,
      "llevar": 1005,
      "Is": 1006,
      "cielo": 1007,
      "termin": 1008,
      "libro": 1009,
      "ahora": 1010,
      "jar": 1011,
      "untos": 1012,
      "israelitas": 1013,
      "rá": 1014,
      "teo": 1015,
      "logr": 1016,
      "Ve": 1017,
      "guna": 1018,
      "ias": 1019,
      "tres": 1020,
      "fieles": 1021,
      "bon": 1022,
      "cha": 1023,
      "nor": 1024,
      "Jer": 1025,
      "comi": 1026,
      "mantener": 1027,
      "puesto": 1028,
      "ungidos": 1029,
      "fa": 1030,
      "difí": 1031,
      "amigos": 1032,
      "sacri": 1033,
      "quiere": 1034,
      "bauti": 1035,
      "deben": 1036,
      "ustedes": 1037,
      "edro": 1038,
      "compren": 1039,
      "Pedro": 1040,
      "cti": 1041,
      "visi": 1042,
      "pecado": 1043,
      "liber": 1044,
      "xi": 1045,
      "tierra": 1046,
      "port": 1047,
      "demostrar": 1048,
      "léase": 1049,
      "dedic": 1050,
      "tuvo": 1051,
      "desde": 1052,
      "sido": 1053,
      "rael": 1054,
      "primero": 1055,
      "vivi": 1056,
      "acias": 1057,
      "Israel": 1058,
      "”?": 1059,
      "Escri": 1060,
      "será": 1061,
      "habían": 1062,
      "entras": 1063,
      "An": 1064,
      "evi": 1065,
      "obra": 1066,
      "Su": 1067,
      "oy": 1068,
      "Un": 1069,
      "fir": 1070,
      "país": 1071,
      "prote": 1072,
      "ego": 1073,
      "aunque": 1074,
      "duda": 1075,
      "saber": 1076,
      "luso": 1077,
      "Mo": 1078,
      "ley": 1079,
      "humanos": 1080,
      "estamos": 1081,
      "sir": 1082,
      "justicia": 1083,
      "plan": 1084,
      "jas": 1085,
      "consi": 1086,
      "gue": 1087,
      "siguiente": 1088,
      "entar": 1089,
      "Ma": 1090,
      "gamos": 1091,
      "escla": 1092,
      "duc": 1093,
      "Escrituras": 1094,
      "trabajo": 1095,
      "prome": 1096,
      "segui": 1097,
      "reuniones": 1098,
      "enfer": 1099,
      "oración": 1100,
      "seres": 1101,
      "ste": 1102,
      "organ": 1103,
      "momento": 1104,
      "damos": 1105,
      "bier": 1106,
      "Jos": 1107,
      "ech": 1108,
      "Hijo": 1109,
      "Una": 1110,
      "his": 1111,
      "Porque": 1112,
      "bíblicos": 1113,
      "ló": 1114,
      "recor": 1115,
      "vio": 1116,
      "bondad": 1117,
      "Mu": 1118,
      "ños": 1119,
      "difer": 1120,
      "nuevas": 1121,
      "ros": 1122,
      "disfru": 1123,
      "pla": 1124,
      "10": 1125,
      "inten": 1126,
      "Este": 1127,
      "udad": 1128,
      "entender": 1129,
      "esas": 1130,
      "comen": 1131,
      "mensaje": 1132,
      "fortal": 1133,
      "aten": 1134,
      "ud": 1135,
      "diri": 1136,
      "sentido": 1137,
      "volun": 1138,
      "significa": 1139,
      "matrimonio": 1140,
      "gri": 1141,
      "cualidad": 1142,
      "ministerio": 1143,
      "somos": 1144,
      "especi": 1145,
      "vista": 1146,
      "iones": 1147,
      "cias": 1148,
      "futu": 1149,
      "hici": 1150,
      "buena": 1151,
      "nuevo": 1152,
      "escribió": 1153,
      "algunas": 1154,
      "preguntas": 1155,
      "ciudad": 1156,
      "esposo": 1157,
      "últi": 1158,
      "haber": 1159,
      "isés": 1160,
      "ayudará": 1161,
      "aprender": 1162,
      "Moisés": 1163,
      "vía": 1164,
      "exper": 1165,
      "tendr": 1166,
      "predicación": 1167,
      "esperanza": 1168,
      "err": 1169,
      "muestra": 1170,
      "cui": 1171,
      "parti": 1172,
      "Po": 1173,
      "gin": 1174,
      "ge": 1175,
      "cierto": 1176,
      "expres": 1177,
      "enseña": 1178,
      "sent": 1179,
      "envi": 1180,
      "puesta": 1181,
      "at": 1182,
      "ín": 1183,
      "prepar": 1184,
      "vers": 1185,
      "igual": 1186,
      "decisiones": 1187,
      "bros": 1188,
      "Ad": 1189,
      "deber": 1190,
      "bendi": 1191,
      "ano": 1192,
      "humil": 1193,
      "actitud": 1194,
      "situación": 1195,
      "imi": 1196,
      "fuera": 1197,
      "ángel": 1198,
      "11": 1199,
      "profe": 1200,
      "exis": 1201,
      "venes": 1202,
      "sentir": 1203,
      "histor": 1204,
      "agra": 1205,
      "estaban": 1206,
      "jóvenes": 1207,
      "Testi": 1208,
      "pes": 1209,
      "fueron": 1210,
      "podría": 1211,
      "obern": 1212,
      "vor": 1213,
      "anto": 1214,
      "alizar": 1215,
      "organiz": 1216,
      "ur": 1217,
      "dia": 1218,
      "Entonces": 1219,
      "dieron": 1220,
      "futuro": 1221,
      "sito": 1222,
      "mer": 1223,
      "13": 1224,
      "oport": 1225,
      "encion": 1226,
      "fá": 1227,
      "acto": 1228,
      "llev": 1229,
      "cal": 1230,
      "Esto": 1231,
      "invi": 1232,
      "propó": 1233,
      "alim": 1234,
      "rió": 1235,
      "dinero": 1236,
      "benefici": 1237,
      "uel": 1238,
      "pio": 1239,
      "poner": 1240,
      "cualquier": 1241,
      "In": 1242,
      "servicio": 1243,
      "amar": 1244,
      "ger": 1245,
      "20": 1246,
      "ellas": 1247,
      "quiz": 1248,
      "tido": 1249,
      "consu": 1250,
      "Qui": 1251,
      "tom": 1252,
      "mir": 1253,
      "palabra": 1254,
      "consejos": 1255,
      "cap": 1256,
      "ama": 1257,
      "preocu": 1258,
      "gas": 1259,
      "esfor": 1260,
      "dose": 1261,
      "ár": 1262,
      "difi": 1263,
      "dejar": 1264,
      "stante": 1265,
      "habla": 1266,
      "istad": 1267,
      "labor": 1268,
      "bios": 1269,
      "úni": 1270,
      "lación": 1271,
      "compañ": 1272,
      "madre": 1273,
      "tivo": 1274,
      "dades": 1275,
      "voluntad": 1276,
      "tación": 1277,
      "inf": 1278,
      "religi": 1279,
      "ide": 1280,
      "ren": 1281,
      "leer": 1282,
      "fácil": 1283,
      "relación": 1284,
      "adie": 1285,
      "mes": 1286,
      "cumplir": 1287,
      "Juan": 1288,
      "amistad": 1289,
      "Abra": 1290,
      "hán": 1291,
      "incluso": 1292,
      "autor": 1293,
      "propósito": 1294,
      "Abrahán": 1295,
      "llos": 1296,
      "mencion": 1297,
      "ál": 1298,
      "gobier": 1299,
      "queremos": 1300,
      "ácti": 1301,
      "vieron": 1302,
      "mientos": 1303,
      "realidad": 1304,
      "perdon": 1305,
      "present": 1306,
      "primer": 1307,
      "tura": 1308,
      "tenían": 1309,
      "cristo": 1310,
      "tratar": 1311,
      "cristiano": 1312,
      "ima": 1313,
      "precurs": 1314,
      "culos": 1315,
      "pul": 1316,
      "obedecer": 1317,
      "efecto": 1318,
      "cado": 1319,
      "abi": 1320,
      "ecer": 1321,
      "judí": 1322,
      "recibir": 1323,
      "debi": 1324,
      "quería": 1325,
      "sacrifi": 1326,
      "idi": 1327,
      "siglo": 1328,
      "nación": 1329,
      "esfuer": 1330,
      "conti": 1331,
      "dor": 1332,
      "equi": 1333,
      "inform": 1334,
      "dé": 1335,
      "tent": 1336,
      "vemos": 1337,
      "tis": 1338,
      "cin": 1339,
      "indi": 1340,
      "necesidad": 1341,
      "Much": 1342,
      "ucristo": 1343,
      "recu": 1344,
      "Jesucristo": 1345,
      "decisión": 1346,
      "arlo": 1347,
      "joven": 1348,
      "favor": 1349,
      "Adán": 1350,
      "agr": 1351,
      "destru": 1352,
      "enseñar": 1353,
      "oportunidad": 1354,
      "idiom": 1355,
      "sol": 1356,
      "tur": 1357,
      "cualidades": 1358,
      "caus": 1359,
      "algún": 1360,
      "che": 1361,
      "estudiar": 1362,
      "tiemp": 1363,
      "tiempos": 1364,
      "prácti": 1365,
      "entonces": 1366,
      "razón": 1367,
      "cciones": 1368,
      "gios": 1369,
      "Isa": 1370,
      "dera": 1371,
      "emi": 1372,
      "op": 1373,
      "miem": 1374,
      "mientras": 1375,
      "llen": 1376,
      "autoridad": 1377,
      "ense": 1378,
      "rección": 1379,
      "quién": 1380,
      "ojos": 1381,
      "completo": 1382,
      "Nos": 1383,
      "delan": 1384,
      "Cor": 1385,
      "cemos": 1386,
      "bueno": 1387,
      "principio": 1388,
      "imo": 1389,
      "Algun": 1390,
      "espirituales": 1391,
      "ran": 1392,
      "reb": 1393,
      "medio": 1394,
      "produ": 1395,
      "Después": 1396,
      "ez": 1397,
      "fle": 1398,
      "cuidad": 1399,
      "come": 1400,
      "hacen": 1401,
      "humanidad": 1402,
      "mediante": 1403,
      "Cre": 1404,
      "conci": 1405,
      "misma": 1406,
      "menos": 1407,
      "eza": 1408,
      "ini": 1409,
      "tores": 1410,
      "interes": 1411,
      "gracias": 1412,
      "historia": 1413,
      "venci": 1414,
      "profun": 1415,
      "Esta": 1416,
      "pasado": 1417,
      "18": 1418,
      "lim": 1419,
      "pedir": 1420,
      "peque": 1421,
      "primera": 1422,
      "aj": 1423,
      "bamos": 1424,
      "lones": 1425,
      "nadie": 1426,
      "sería": 1427,
      "piens": 1428,
      "profec": 1429,
      "unci": 1430,
      "tarde": 1431,
      "asegu": 1432,
      "pan": 1433,
      "alén": 1434,
      "cua": 1435,
      "usalén": 1436,
      "prueba": 1437,
      "principios": 1438,
      "Jerusalén": 1439,
      "inar": 1440,
      "ove": 1441,
      "suce": 1442,
      "pudi": 1443,
      "podía": 1444,
      "mé": 1445,
      "quiera": 1446,
      "quizás": 1447,
      "naci": 1448,
      "volver": 1449,
      "17": 1450,
      "alcan": 1451,
      "difícil": 1452,
      "esos": 1453,
      "ningún": 1454,
      "gobern": 1455,
      "Ten": 1456,
      "hal": 1457,
      "apar": 1458,
      "preci": 1459,
      "influ": 1460,
      "ocur": 1461,
      "estudio": 1462,
      "camino": 1463,
      "gres": 1464,
      "seri": 1465,
      "gru": 1466,
      "cari": 1467,
      "fuerte": 1468,
      "ífi": 1469,
      "ece": 1470,
      "respuesta": 1471,
      "deseo": 1472,
      "olvi": 1473,
      "celesti": 1474,
      "alguna": 1475,
      "contro": 1476,
      "publicaciones": 1477,
      "organización": 1478,
      "tú": 1479,
      "enseñan": 1480,
      "apoy": 1481,
      "Hoy": 1482,
      "enemi": 1483,
      "hacerlo": 1484,
      "alegr": 1485,
      "judíos": 1486,
      "información": 1487,
      "ana": 1488,
      "Salmo": 1489,
      "Más": 1490,
      "bri": 1491,
      "gir": 1492,
      "visto": 1493,
      "ofre": 1494,
      "evitar": 1495,
      "emple": 1496,
      "haya": 1497,
      "feliz": 1498,
      "respeto": 1499,
      "enfr": 1500,
      "compar": 1501,
      "duría": 1502,
      "temos": 1503,
      "leg": 1504,
      "sabiduría": 1505,
      "instru": 1506,
      "sabemos": 1507,
      "claro": 1508,
      "falta": 1509,
      "Tal": 1510,
      "consejo": 1511,
      "apóstoles": 1512,
      "estado": 1513,
      "mayoría": 1514,
      "osos": 1515,
      "fo": 1516,
      "felices": 1517,
      "Pu": 1518,
      "confianza": 1519,
      "esclavo": 1520,
      "Testigos": 1521,
      "tando": 1522,
      "realmente": 1523,
      "utili": 1524,
      "José": 1525,
      "ela": 1526,
      "rom": 1527,
      "ables": 1528,
      "estre": 1529,
      "capaci": 1530,
      "eterna": 1531,
      "dón": 1532,
      "asis": 1533,
      "ello": 1534,
      "prov": 1535,
      "Diablo": 1536,
      "consider": 1537,
      "celestial": 1538,
      "16": 1539,
      "pron": 1540,
      "explica": 1541,
      "recuer": 1542,
      "pasar": 1543,
      "responsabi": 1544,
      "Todos": 1545,
      "temp": 1546,
      "ocasión": 1547,
      "buenos": 1548,
      "millones": 1549,
      "religios": 1550,
      "reino": 1551,
      "ago": 1552,
      "responsabilidad": 1553,
      "taron": 1554,
      "ment": 1555,
      "inti": 1556,
      "extra": 1557,
      "partici": 1558,
      "cons": 1559,
      "ayudó": 1560,
      "encontrar": 1561,
      "cación": 1562,
      "orar": 1563,
      "hubi": 1564,
      "familiar": 1565,
      "profeta": 1566,
      "leal": 1567,
      "acab": 1568,
      "pod": 1569,
      "amiento": 1570,
      "sabía": 1571,
      "tradu": 1572,
      "emo": 1573,
      "habi": 1574,
      "encontr": 1575,
      "agrad": 1576,
      "dente": 1577,
      "peli": 1578,
      "pró": 1579,
      "delante": 1580,
      "uestr": 1581,
      "tivos": 1582,
      "aún": 1583,
      "cristiana": 1584,
      "trabaj": 1585,
      "peligr": 1586,
      "Hay": 1587,
      "sim": 1588,
      "miembros": 1589,
      "mero": 1590,
      "tá": 1591,
      "íso": 1592,
      "sex": 1593,
      "hermana": 1594,
      "necesario": 1595,
      "cultad": 1596,
      "ovejas": 1597,
      "ion": 1598,
      "nú": 1599,
      "yu": 1600,
      "ña": 1601,
      "stin": 1602,
      "acerca": 1603,
      "gobierno": 1604,
      "guía": 1605,
      "seguro": 1606,
      "resuci": 1607,
      "trans": 1608,
      "atención": 1609,
      "té": 1610,
      "llegó": 1611,
      "naciones": 1612,
      "salud": 1613,
      "sacrificio": 1614,
      "activi": 1615,
      "parece": 1616,
      "EN": 1617,
      "He": 1618,
      "Mateo": 1619,
      "erta": 1620,
      "tex": 1621,
      "sean": 1622,
      "amientos": 1623,
      "punto": 1624,
      "ítu": 1625,
      "elos": 1626,
      "dial": 1627,
      "indic": 1628,
      "luego": 1629,
      "clase": 1630,
      "propio": 1631,
      "capítu": 1632,
      "llo": 1633,
      "entr": 1634,
      "uego": 1635,
      "hicieron": 1636,
      "mem": 1637,
      "cerca": 1638,
      "dando": 1639,
      "rar": 1640,
      "cuanto": 1641,
      "tum": 1642,
      "imitar": 1643,
      "hos": 1644,
      "segun": 1645,
      "bíblico": 1646,
      "razones": 1647,
      "clu": 1648,
      "dencia": 1649,
      "tiva": 1650,
      "problema": 1651,
      "experi": 1652,
      "cuidado": 1653,
      "Rom": 1654,
      "hacemos": 1655,
      "gener": 1656,
      "Veamos": 1657,
      "cambio": 1658,
      "verdadero": 1659,
      "religión": 1660,
      "afir": 1661,
      "cía": 1662,
      "nom": 1663,
      "zado": 1664,
      "arro": 1665,
      "resca": 1666,
      "dejó": 1667,
      "sabe": 1668,
      "continu": 1669,
      "sos": 1670,
      "ves": 1671,
      "ye": 1672,
      "oraciones": 1673,
      "refle": 1674,
      "imperfec": 1675,
      "Pue": 1676,
      "haciendo": 1677,
      "conciencia": 1678,
      "tel": 1679,
      "reac": 1680,
      "bíblicas": 1681,
      "ene": 1682,
      "ani": 1683,
      "distin": 1684,
      "probable": 1685,
      "justo": 1686,
      "hará": 1687,
      "sor": 1688,
      "descen": 1689,
      "Señ": 1690,
      "enferme": 1691,
      "gn": 1692,
      "tus": 1693,
      "dici": 1694,
      "ángeles": 1695,
      "Creador": 1696,
      "acu": 1697,
      "desea": 1698,
      "morir": 1699,
      "Isaías": 1700,
      "eras": 1701,
      "AS": 1702,
      "dere": 1703,
      "fuerzas": 1704,
      "todavía": 1705,
      "satis": 1706,
      "empezar": 1707,
      "circ": 1708,
      "pesar": 1709,
      "Algunos": 1710,
      "quedar": 1711,
      "siste": 1712,
      "acuer": 1713,
      "mara": 1714,
      "obje": 1715,
      "valios": 1716,
      "Job": 1717,
      "vesti": 1718,
      "arre": 1719,
      "contrar": 1720,
      "promesa": 1721,
      "obedi": 1722,
      "Señor": 1723,
      "glor": 1724,
      "lá": 1725,
      "declar": 1726,
      "conduc": 1727,
      "dolor": 1728,
      "tenido": 1729,
      "amigo": 1730,
      "buscar": 1731,
      "conocimiento": 1732,
      "normas": 1733,
      "ío": 1734,
      "encar": 1735,
      "mismos": 1736,
      "pecados": 1737,
      "sion": 1738,
      "noche": 1739,
      "Que": 1740,
      "sentimientos": 1741,
      "éramos": 1742,
      "Ley": 1743,
      "precursor": 1744,
      "guen": 1745,
      "usar": 1746,
      "importancia": 1747,
      "allí": 1748,
      "obstante": 1749,
      "bajo": 1750,
      "Pro": 1751,
      "iba": 1752,
      "rein": 1753,
      "sur": 1754,
      "cosa": 1755,
      "disfrutar": 1756,
      "alo": 1757,
      "simo": 1758,
      "lengu": 1759,
      "especial": 1760,
      "Clar": 1761,
      "Mar": 1762,
      "cielos": 1763,
      "lando": 1764,
      "propia": 1765,
      "juntos": 1766,
      "mostrar": 1767,
      "resur": 1768,
      "superinten": 1769,
      "grupo": 1770,
      "ría": 1771,
      "tros": 1772,
      "puso": 1773,
      "ándose": 1774,
      "gip": 1775,
      "cuatro": 1776,
      "cariño": 1777,
      "Claro": 1778,
      "“¡": 1779,
      "mano": 1780,
      "niños": 1781,
      "oí": 1782,
      "descu": 1783,
      "demostró": 1784,
      "Ser": 1785,
      "amble": 1786,
      "importantes": 1787,
      "templo": 1788,
      "Aun": 1789,
      "Eso": 1790,
      "junto": 1791,
      "alma": 1792,
      "pecto": 1793,
      "final": 1794,
      "acerdo": 1795,
      "pruebas": 1796,
      "dá": 1797,
      "adoración": 1798,
      "mujeres": 1799,
      "conoce": 1800,
      "fes": 1801,
      "seman": 1802,
      "siendo": 1803,
      "confiar": 1804,
      "har": 1805,
      "vuel": 1806,
      "—,": 1807,
      "sigue": 1808,
      "estable": 1809,
      "verdadera": 1810,
      "muestran": 1811,
      "maravi": 1812,
      "ES": 1813,
      "manos": 1814,
      "inclu": 1815,
      "divina": 1816,
      "indica": 1817,
      "ví": 1818,
      "tencia": 1819,
      "razon": 1820,
      "agua": 1821,
      "hacia": 1822,
      "constru": 1823,
      "María": 1824,
      "encu": 1825,
      "contribu": 1826,
      "ocasiones": 1827,
      "daba": 1828,
      "adver": 1829,
      "siente": 1830,
      "serán": 1831,
      "cuerpo": 1832,
      "000": 1833,
      "bendiciones": 1834,
      "leales": 1835,
      "libr": 1836,
      "miseri": 1837,
      "obli": 1838,
      "versí": 1839,
      "necesitamos": 1840,
      "misericor": 1841,
      "OS": 1842,
      "Yo": 1843,
      "pel": 1844,
      "zos": 1845,
      "emías": 1846,
      "comuni": 1847,
      "obras": 1848,
      "seguros": 1849,
      "resurrección": 1850,
      "conclu": 1851,
      "parej": 1852,
      "comer": 1853,
      "exam": 1854,
      "terior": 1855,
      "últimos": 1856,
      "ánto": 1857,
      "circun": 1858,
      "Nuestr": 1859,
      "viera": 1860,
      "malas": 1861,
      "preguntar": 1862,
      "Muchos": 1863,
      "circunstan": 1864,
      "zan": 1865,
      "Según": 1866,
      "agradeci": 1867,
      "opin": 1868,
      "hogar": 1869,
      "impres": 1870,
      "dará": 1871,
      "ecida": 1872,
      "Eva": 1873,
      "LA": 1874,
      "sacerdo": 1875,
      "tam": 1876,
      "ciles": 1877,
      "inas": 1878,
      "fuerza": 1879,
      "posición": 1880,
      "jui": 1881,
      "limpi": 1882,
      "Puede": 1883,
      "carne": 1884,
      "aceptar": 1885,
      "Vea": 1886,
      "enemigos": 1887,
      "ban": 1888,
      "fac": 1889,
      "malo": 1890,
      "puls": 1891,
      "ebr": 1892,
      "asamble": 1893,
      "convers": 1894,
      "mundial": 1895,
      "enseñanzas": 1896,
      "pronto": 1897,
      "atra": 1898,
      "cón": 1899,
      "dicho": 1900,
      "Mes": 1901,
      "erto": 1902,
      "conver": 1903,
      "idioma": 1904,
      "ala": 1905,
      "convenci": 1906,
      "univer": 1907,
      "aguan": 1908,
      "sistema": 1909,
      "gre": 1910,
      "usi": 1911,
      "gus": 1912,
      "manda": 1913,
      "deseos": 1914,
      "cambios": 1915,
      "Salom": 1916,
      "emocion": 1917,
      "circunstancias": 1918,
      "gió": 1919,
      "empezó": 1920,
      "aquellos": 1921,
      "idea": 1922,
      "experiencia": 1923,
      "Luego": 1924,
      "conce": 1925,
      "perder": 1926,
      "ejemplos": 1927,
      "cambiar": 1928,
      "cultades": 1929,
      "asuntos": 1930,
      "orden": 1931,
      "diendo": 1932,
      "Noé": 1933,
      "Salomón": 1934,
      "apli": 1935,
      "veremos": 1936,
      "darle": 1937,
      "celebr": 1938,
      "idos": 1939,
      "bir": 1940,
      "primeros": 1941,
      "parecer": 1942,
      "urante": 1943,
      "práctica": 1944,
      "zamos": 1945,
      "Rey": 1946,
      "cuesti": 1947,
      "casi": 1948,
      "gido": 1949,
      "natur": 1950,
      "mayores": 1951,
      "capítulo": 1952,
      "cónyu": 1953,
      "gó": 1954,
      "lagr": 1955,
      "reali": 1956,
      "tipo": 1957,
      "pregunta": 1958,
      "aquella": 1959,
      "monos": 1960,
      "camente": 1961,
      "plen": 1962,
      "taban": 1963,
      "demuestra": 1964,
      "terri": 1965,
      "felici": 1966,
      "alimento": 1967,
      "hubiera": 1968,
      "sexu": 1969,
      "maravillos": 1970,
      "24": 1971,
      "Durante": 1972,
      "sola": 1973,
      "Ella": 1974,
      "regres": 1975,
      "Timo": 1976,
      "espera": 1977,
      "llamado": 1978,
      "dentes": 1979,
      "vino": 1980,
      "milagr": 1981,
      "mani": 1982,
      "ayudarnos": 1983,
      "recordar": 1984,
      "profecía": 1985,
      "acuerdo": 1986,
      "Timoteo": 1987,
      "úti": 1988,
      "solu": 1989,
      "carta": 1990,
      "mucha": 1991,
      "congregaciones": 1992,
      "consecu": 1993,
      "pár": 1994,
      "contrario": 1995,
      "bles": 1996,
      "lon": 1997,
      "vado": 1998,
      "perman": 1999,
      "tala": 2000,
      "permite": 2001,
      "cabo": 2002,
      "sirvi": 2003,
      "compañeros": 2004,
      "instrucciones": 2005,
      "Lu": 2006,
      "guar": 2007,
      "pacto": 2008,
      "depen": 2009,
      "cido": 2010,
      "tenga": 2011,
      "pir": 2012,
      "escuchar": 2013,
      "difíciles": 2014,
      "fortalecer": 2015,
      "errores": 2016,
      "imagin": 2017,
      "nombr": 2018,
      "ete": 2019,
      "abri": 2020,
      "actividades": 2021,
      "reaccion": 2022,
      "conducta": 2023,
      "Atala": 2024,
      "analizar": 2025,
      "maestr": 2026,
      "abandon": 2027,
      "interés": 2028,
      "proteger": 2029,
      "cuidar": 2030,
      "alegría": 2031,
      "Atalaya": 2032,
      "Ex": 2033,
      "ber": 2034,
      "tifi": 2035,
      "progres": 2036,
      "cristianas": 2037,
      "nueva": 2038,
      "esforzar": 2039,
      "condi": 2040,
      "materi": 2041,
      "privi": 2042,
      "Mesías": 2043,
      "21": 2044,
      "eng": 2045,
      "Quién": 2046,
      "preocup": 2047,
      "necesidades": 2048,
      "aprov": 2049,
      "gado": 2050,
      "aria": 2051,
      "refer": 2052,
      "según": 2053,
      "obser": 2054,
      "ninguna": 2055,
      "único": 2056,
      "ridad": 2057,
      "teni": 2058,
      "tengamos": 2059,
      "fruto": 2060,
      "resultado": 2061,
      "apoyo": 2062,
      "países": 2063,
      "Pues": 2064,
      "rescate": 2065,
      "pará": 2066,
      "puestos": 2067,
      "actuar": 2068,
      "ior": 2069,
      "ori": 2070,
      "maneras": 2071,
      "Quiz": 2072,
      "formar": 2073,
      "muchí": 2074,
      "anciano": 2075,
      "verdaderos": 2076,
      "enfrent": 2077,
      "párra": 2078,
      "pide": 2079,
      "sentimos": 2080,
      "compas": 2081,
      "podrían": 2082,
      "Todo": 2083,
      "udo": 2084,
      "haga": 2085,
      "luch": 2086,
      "humano": 2087,
      "trabajar": 2088,
      "eta": 2089,
      "edu": 2090,
      "def": 2091,
      "fier": 2092,
      "físi": 2093,
      "libertad": 2094,
      "intios": 2095,
      "Hasta": 2096,
      "jimo": 2097,
      "dij": 2098,
      "via": 2099,
      "perten": 2100,
      "señal": 2101,
      "culti": 2102,
      "antigu": 2103,
      "causa": 2104,
      "prójimo": 2105,
      "Hab": 2106,
      "realizar": 2107,
      "tidad": 2108,
      "entusi": 2109,
      "desa": 2110,
      "trata": 2111,
      "ejer": 2112,
      "cierta": 2113,
      "honra": 2114,
      "comprender": 2115,
      "agrade": 2116,
      "Egip": 2117,
      "esco": 2118,
      "guerra": 2119,
      "estuvo": 2120,
      "comien": 2121,
      "debido": 2122,
      "texto": 2123,
      "Egipto": 2124,
      "cru": 2125,
      "grandes": 2126,
      "Be": 2127,
      "Gr": 2128,
      "ata": 2129,
      "cios": 2130,
      "conseguir": 2131,
      "pasó": 2132,
      "Cuál": 2133,
      "situaciones": 2134,
      "sentía": 2135,
      "LI": 2136,
      "cando": 2137,
      "pú": 2138,
      "int": 2139,
      "levan": 2140,
      "cuál": 2141,
      "tuvieron": 2142,
      "tend": 2143,
      "habló": 2144,
      "grado": 2145,
      "dores": 2146,
      "ida": 2147,
      "portar": 2148,
      "éndo": 2149,
      "vamos": 2150,
      "yó": 2151,
      "ena": 2152,
      "concen": 2153,
      "viene": 2154,
      "dero": 2155,
      "Está": 2156,
      "creto": 2157,
      "justos": 2158,
      "tribulación": 2159,
      "—.": 2160,
      "’.": 2161,
      "eno": 2162,
      "lec": 2163,
      "relacion": 2164,
      "podríamos": 2165,
      "necesitan": 2166,
      "permitir": 2167,
      "juicio": 2168,
      "mó": 2169,
      "osas": 2170,
      "viol": 2171,
      "mala": 2172,
      "Estos": 2173,
      "irse": 2174,
      "correc": 2175,
      "enseñó": 2176,
      "pareja": 2177,
      "parábo": 2178,
      "Sab": 2179,
      "Uni": 2180,
      "dest": 2181,
      "pios": 2182,
      "represent": 2183,
      "esté": 2184,
      "pidió": 2185,
      "aprendemos": 2186,
      "adul": 2187,
      "OR": 2188,
      "afec": 2189,
      "determin": 2190,
      "pudo": 2191,
      "vencer": 2192,
      "salv": 2193,
      "media": 2194,
      "artículos": 2195,
      "So": 2196,
      "arán": 2197,
      "tico": 2198,
      "bilidad": 2199,
      "quieren": 2200,
      "juz": 2201,
      "alcanzar": 2202,
      "Hebre": 2203,
      "entusias": 2204,
      "DE": 2205,
      "Rec": 2206,
      "senci": 2207,
      "demas": 2208,
      "confor": 2209,
      "siquiera": 2210,
      "tudes": 2211,
      "niño": 2212,
      "relato": 2213,
      "familiares": 2214,
      "tía": 2215,
      "real": 2216,
      "inos": 2217,
      "visión": 2218,
      "verbios": 2219,
      "ismo": 2220,
      "varias": 2221,
      "curso": 2222,
      "grande": 2223,
      "cabeza": 2224,
      "sufrimiento": 2225,
      "madu": 2226,
      "asig": 2227,
      "domin": 2228,
      "espiritualmente": 2229,
      "Desde": 2230,
      "dificultades": 2231,
      "cinco": 2232,
      "asegur": 2233,
      "encuen": 2234,
      "públi": 2235,
      "edo": 2236,
      "ábamos": 2237,
      "detal": 2238,
      "poca": 2239,
      "promesas": 2240,
      "lugares": 2241,
      "explicó": 2242,
      "Podemos": 2243,
      "Proverbios": 2244,
      "Gracias": 2245,
      "atr": 2246,
      "damente": 2247,
      "ilus": 2248,
      "vel": 2249,
      "tengo": 2250,
      "exhor": 2251,
      "dispuesto": 2252,
      "ficios": 2253,
      "meses": 2254,
      "recuerda": 2255,
      "Santi": 2256,
      "bor": 2257,
      "vea": 2258,
      "lleva": 2259,
      "explicar": 2260,
      "demostramos": 2261,
      "iste": 2262,
      "poderoso": 2263,
      "Aque": 2264,
      "ticos": 2265,
      "vimos": 2266,
      "estén": 2267,
      "luz": 2268,
      "virtió": 2269,
      "acercar": 2270,
      "prometido": 2271,
      "deberíamos": 2272,
      "demasi": 2273,
      "Ci": 2274,
      "hí": 2275,
      "tivas": 2276,
      "miedo": 2277,
      "mostr": 2278,
      "excel": 2279,
      "Estas": 2280,
      "paso": 2281,
      "perfecto": 2282,
      "Quizás": 2283,
      "destac": 2284,
      "bos": 2285,
      "tre": 2286,
      "tica": 2287,
      "inmor": 2288,
      "mision": 2289,
      "responder": 2290,
      "Antes": 2291,
      "Romanos": 2292,
      "recom": 2293,
      "tará": 2294,
      "regalo": 2295,
      "presente": 2296,
      "creación": 2297,
      "sangre": 2298,
      "llamada": 2299,
      "capacidad": 2300,
      "ai": 2301,
      "reve": 2302,
      "sienten": 2303,
      "murió": 2304,
      "ayudan": 2305,
      "hermos": 2306,
      "presenta": 2307,
      "varios": 2308,
      "recibió": 2309,
      "paciencia": 2310,
      "actualidad": 2311,
      "leyes": 2312,
      "cr": 2313,
      "ñas": 2314,
      "rech": 2315,
      "limi": 2316,
      "perse": 2317,
      "gular": 2318,
      "voz": 2319,
      "personal": 2320,
      "salvar": 2321,
      "donos": 2322,
      "inspir": 2323,
      "legio": 2324,
      "DA": 2325,
      "deres": 2326,
      "quí": 2327,
      "tiv": 2328,
      "casti": 2329,
      "honor": 2330,
      "tomó": 2331,
      "enfermedad": 2332,
      "gloria": 2333,
      "educ": 2334,
      "pueda": 2335,
      "cep": 2336,
      "reunión": 2337,
      "200": 2338,
      "gina": 2339,
      "jam": 2340,
      "mol": 2341,
      "muertos": 2342,
      "grave": 2343,
      "menudo": 2344,
      "bautizar": 2345,
      "Fi": 2346,
      "Nue": 2347,
      "Pri": 2348,
      "aprob": 2349,
      "fía": 2350,
      "arios": 2351,
      "angu": 2352,
      "abun": 2353,
      "siete": 2354,
      "impli": 2355,
      "desarro": 2356,
      "tare": 2357,
      "procla": 2358,
      "dicen": 2359,
      "ofreci": 2360,
      "págin": 2361,
      "número": 2362,
      "Recor": 2363,
      "Santiago": 2364,
      "páginas": 2365,
      "dam": 2366,
      "ton": 2367,
      "temor": 2368,
      "inte": 2369,
      "papel": 2370,
      "casos": 2371,
      "humildad": 2372,
      "Corintios": 2373,
      "lealtad": 2374,
      "aun": 2375,
      "gü": 2376,
      "tés": 2377,
      "vali": 2378,
      "asunto": 2379,
      "separ": 2380,
      "escuela": 2381,
      "bendición": 2382,
      "humilde": 2383,
      "existe": 2384,
      "abilon": 2385,
      "derecho": 2386,
      "cónyuge": 2387,
      "TA": 2388,
      "inqui": 2389,
      "respecto": 2390,
      "Ellos": 2391,
      "pone": 2392,
      "siervo": 2393,
      "comida": 2394,
      "diferencia": 2395,
      "privilegio": 2396,
      "recompens": 2397,
      "Ez": 2398,
      "fui": 2399,
      "largo": 2400,
      "laba": 2401,
      "fren": 2402,
      "responsabilidades": 2403,
      "parábola": 2404,
      "ico": 2405,
      "menti": 2406,
      "pl": 2407,
      "ona": 2408,
      "mag": 2409,
      "hacía": 2410,
      "hermanas": 2411,
      "sacrificios": 2412,
      "22": 2413,
      "Ver": 2414,
      "adelante": 2415,
      "arca": 2416,
      "vis": 2417,
      "taría": 2418,
      "habría": 2419,
      "éndose": 2420,
      "seguridad": 2421,
      "torio": 2422,
      "segundo": 2423,
      "misericordia": 2424,
      "camos": 2425,
      "arlos": 2426,
      "orgu": 2427,
      "divers": 2428,
      "ayudado": 2429,
      "presión": 2430,
      "predicando": 2431,
      "arrep": 2432,
      "Les": 2433,
      "tada": 2434,
      "tales": 2435,
      "colabor": 2436,
      "creer": 2437,
      "fron": 2438,
      "horas": 2439,
      "pudiera": 2440,
      "muchísimo": 2441,
      "angusti": 2442,
      "Dani": 2443,
      "Esa": 2444,
      "ropa": 2445,
      "pastor": 2446,
      "ecido": 2447,
      "divino": 2448,
      "tendremos": 2449,
      "entusiasmo": 2450,
      "Ar": 2451,
      "adro": 2452,
      "total": 2453,
      "suces": 2454,
      "resis": 2455,
      "quisi": 2456,
      "gozo": 2457,
      "extran": 2458,
      "adorar": 2459,
      "importar": 2460,
      "bíblica": 2461,
      "principal": 2462,
      "comenzó": 2463,
      "error": 2464,
      "Nunca": 2465,
      "bro": 2466,
      "ceso": 2467,
      "há": 2468,
      "ito": 2469,
      "“[": 2470,
      "dimos": 2471,
      "amamos": 2472,
      "rique": 2473,
      "actos": 2474,
      "adop": 2475,
      "creci": 2476,
      "salir": 2477,
      "preguntó": 2478,
      "necesita": 2479,
      "Mientras": 2480,
      "expresión": 2481,
      "religiosos": 2482,
      "imperfectos": 2483,
      "33": 2484,
      "tranqui": 2485,
      "llegado": 2486,
      "consul": 2487,
      "idiomas": 2488,
      "podían": 2489,
      "simple": 2490,
      "felicidad": 2491,
      "defen": 2492,
      "25": 2493,
      "Ha": 2494,
      "Jac": 2495,
      "Tr": 2496,
      "anali": 2497,
      "tema": 2498,
      "inmer": 2499,
      "noti": 2500,
      "soci": 2501,
      "diferentes": 2502,
      "controlar": 2503,
      "aconse": 2504,
      "has": 2505,
      "elim": 2506,
      "unas": 2507,
      "viaj": 2508,
      "miles": 2509,
      "ánimo": 2510,
      "habrá": 2511,
      "rode": 2512,
      "siguientes": 2513,
      "monio": 2514,
      "aprovech": 2515,
      "BLI": 2516,
      "direc": 2517,
      "conden": 2518,
      "inmedia": 2519,
      "sis": 2520,
      "fueran": 2521,
      "hija": 2522,
      "llama": 2523,
      "Jeremías": 2524,
      "rechaz": 2525,
      "23": 2526,
      "Pas": 2527,
      "iden": 2528,
      "dientes": 2529,
      "paraíso": 2530,
      "tengan": 2531,
      "adoles": 2532,
      "decidir": 2533,
      "adora": 2534,
      "familias": 2535,
      "malos": 2536,
      "érci": 2537,
      "piensa": 2538,
      "participar": 2539,
      "convertir": 2540,
      "aguantar": 2541,
      "extranj": 2542,
      "adolesc": 2543,
      ".)": 2544,
      "óli": 2545,
      "tieron": 2546,
      "leemos": 2547,
      "Paraíso": 2548,
      "líderes": 2549,
      "animales": 2550,
      "cultivar": 2551,
      "demasiado": 2552,
      "Daniel": 2553,
      "Pi": 2554,
      "aremos": 2555,
      "costum": 2556,
      "debía": 2557,
      "ejérci": 2558,
      "peti": 2559,
      "sincer": 2560,
      "culpa": 2561,
      "testigo": 2562,
      "honr": 2563,
      "sufrir": 2564,
      "edifi": 2565,
      "vían": 2566,
      "ordin": 2567,
      "personalidad": 2568,
      "propias": 2569,
      "estoy": 2570,
      "momentos": 2571,
      "Inter": 2572,
      "asistir": 2573,
      "ap": 2574,
      "ade": 2575,
      "además": 2576,
      "cé": 2577,
      "caba": 2578,
      "edi": 2579,
      "aman": 2580,
      "soy": 2581,
      "campo": 2582,
      "genes": 2583,
      "ctor": 2584,
      "erg": 2585,
      "acom": 2586,
      "daño": 2587,
      "maldad": 2588,
      "aprendido": 2589,
      "net": 2590,
      "recibido": 2591,
      "promete": 2592,
      "piensan": 2593,
      "inmerecida": 2594,
      "AN": 2595,
      "Sus": 2596,
      "enes": 2597,
      "vier": 2598,
      "acia": 2599,
      "comenta": 2600,
      "sabio": 2601,
      "mejorar": 2602,
      "esperar": 2603,
      "página": 2604,
      "hebre": 2605,
      "seguimos": 2606,
      "Muchas": 2607,
      "recuadro": 2608,
      "inquie": 2609,
      "éxi": 2610,
      "ído": 2611,
      "revista": 2612,
      "siguen": 2613,
      "lic": 2614,
      "entas": 2615,
      "progr": 2616,
      "hagan": 2617,
      "venir": 2618,
      "creen": 2619,
      "siguió": 2620,
      "descendencia": 2621,
      "conclusión": 2622,
      "asamblea": 2623,
      "Lucas": 2624,
      "educación": 2625,
      "30": 2626,
      "tración": 2627,
      "cuar": 2628,
      "entan": 2629,
      "soberan": 2630,
      "dentro": 2631,
      "fuego": 2632,
      "ofen": 2633,
      "seguidores": 2634,
      "envió": 2635,
      "peligro": 2636,
      "objetivo": 2637,
      "Betel": 2638,
      "Sam": 2639,
      "TE": 2640,
      "má": 2641,
      "áles": 2642,
      "demuestran": 2643,
      "cipl": 2644,
      "dios": 2645,
      "lección": 2646,
      "puestas": 2647,
      "pie": 2648,
      "sintió": 2649,
      "testimonio": 2650,
      "servirle": 2651,
      "dirigir": 2652,
      "último": 2653,
      "consecuencias": 2654,
      "RE": 2655,
      "Sara": 2656,
      "anterior": 2657,
      "titud": 2658,
      "libros": 2659,
      "compr": 2660,
      "mand": 2661,
      "mañ": 2662,
      "formas": 2663,
      "pasa": 2664,
      "señala": 2665,
      "eció": 2666,
      "resultados": 2667,
      "Jacob": 2668,
      "Man": 2669,
      "sas": 2670,
      "vay": 2671,
      "entrar": 2672,
      "cular": 2673,
      "debían": 2674,
      "Entre": 2675,
      "esfuerzos": 2676,
      "encan": 2677,
      "defin": 2678,
      "alto": 2679,
      "suel": 2680,
      "Allí": 2681,
      "Pense": 2682,
      "jun": 2683,
      "descri": 2684,
      "tantes": 2685,
      "decidió": 2686,
      "corri": 2687,
      "mista": 2688,
      "deja": 2689,
      "tendrá": 2690,
      "debería": 2691,
      "universo": 2692,
      "engañ": 2693,
      "Pensemos": 2694,
      "Babilon": 2695,
      "Ya": 2696,
      "fon": 2697,
      "pac": 2698,
      "refu": 2699,
      "vieran": 2700,
      "acciones": 2701,
      "ecen": 2702,
      "tarse": 2703,
      "eje": 2704,
      "discipl": 2705,
      "Recuer": 2706,
      "obedeci": 2707,
      "llegaron": 2708,
      "visitar": 2709,
      "ofrece": 2710,
      "Unidos": 2711,
      "soberanía": 2712,
      "Babilonia": 2713,
      "bol": 2714,
      "rob": 2715,
      "época": 2716,
      "energ": 2717,
      "elec": 2718,
      "seamos": 2719,
      "vió": 2720,
      "polí": 2721,
      "resol": 2722,
      "llegue": 2723,
      "xion": 2724,
      "precursores": 2725,
      "rebaño": 2726,
      "profecías": 2727,
      "dónde": 2728,
      "superintendente": 2729,
      "sexuales": 2730,
      "salvación": 2731,
      "acompañ": 2732,
      "apaci": 2733,
      "oh": 2734,
      "reconocer": 2735,
      "cuánto": 2736,
      "perdido": 2737,
      "caer": 2738,
      "Estados": 2739,
      "extraordin": 2740,
      "párrafo": 2741,
      "dijeron": 2742,
      "Samuel": 2743,
      "Ne": 2744,
      "aran": 2745,
      "arle": 2746,
      "migo": 2747,
      "podamos": 2748,
      "lesia": 2749,
      "here": 2750,
      "dispuestos": 2751,
      "sali": 2752,
      "pensamientos": 2753,
      "beneficios": 2754,
      "solter": 2755,
      "ocurri": 2756,
      "impresion": 2757,
      "mento": 2758,
      "zando": 2759,
      "queda": 2760,
      "obtener": 2761,
      "casados": 2762,
      "mejores": 2763,
      "anima": 2764,
      "benefi": 2765,
      "encontramos": 2766,
      "opinión": 2767,
      "Recordemos": 2768,
      "afron": 2769,
      "llor": 2770,
      "zada": 2771,
      "anunci": 2772,
      "diera": 2773,
      "vive": 2774,
      "proce": 2775,
      "saben": 2776,
      "creencias": 2777,
      "relaciones": 2778,
      "ximo": 2779,
      "consuelo": 2780,
      "ífico": 2781,
      "oblig": 2782,
      "avan": 2783,
      "llas": 2784,
      "pusi": 2785,
      "Elías": 2786,
      "salmista": 2787,
      "religiones": 2788,
      "Nosotros": 2789,
      "Ese": 2790,
      "Eli": 2791,
      "ué": 2792,
      "esis": 2793,
      "quedó": 2794,
      "regular": 2795,
      "diez": 2796,
      "creó": 2797,
      "Reve": 2798,
      "dría": 2799,
      "auto": 2800,
      "cursos": 2801,
      "quiénes": 2802,
      "Internet": 2803,
      "mañana": 2804,
      "Gran": 2805,
      "Per": 2806,
      "Sob": 2807,
      "Uste": 2808,
      "propios": 2809,
      "frente": 2810,
      "dejado": 2811,
      "verdades": 2812,
      "responde": 2813,
      "firme": 2814,
      "Josué": 2815,
      "ideas": 2816,
      "pequeño": 2817,
      "Hebreos": 2818,
      "tén": 2819,
      "supuesto": 2820,
      "perdón": 2821,
      "irá": 2822,
      "Segu": 2823,
      "reyes": 2824,
      "ofrecer": 2825,
      "),": 2826,
      "ahí": 2827,
      "econ": 2828,
      "ramente": 2829,
      "conser": 2830,
      "contar": 2831,
      "investi": 2832,
      "comentar": 2833,
      "metas": 2834,
      "pagar": 2835,
      "bur": 2836,
      "produce": 2837,
      "manif": 2838,
      "jamás": 2839,
      "resolver": 2840,
      "Revelación": 2841,
      "POR": 2842,
      "Vi": 2843,
      "jan": 2844,
      "mbre": 2845,
      "adamente": 2846,
      "cución": 2847,
      "enter": 2848,
      "ental": 2849,
      "gusta": 2850,
      "desanim": 2851,
      "monta": 2852,
      "Judá": 2853,
      "mantenernos": 2854,
      "esfuerzo": 2855,
      "rebel": 2856,
      "versículo": 2857,
      "mandato": 2858,
      "diente": 2859,
      "seis": 2860,
      "precio": 2861,
      "quiso": 2862,
      "exig": 2863,
      "darse": 2864,
      "puedo": 2865,
      "ponen": 2866,
      "funcion": 2867,
      "respetar": 2868,
      "Testigo": 2869,
      "influencia": 2870,
      "brir": 2871,
      "milagros": 2872,
      "sirviendo": 2873,
      "Ab": 2874,
      "llar": 2875,
      "devo": 2876,
      "sue": 2877,
      "tante": 2878,
      "hablando": 2879,
      "provo": 2880,
      "poni": 2881,
      "fundam": 2882,
      "parecen": 2883,
      "ocup": 2884,
      "pedirle": 2885,
      "general": 2886,
      "diciendo": 2887,
      "satisfac": 2888,
      "tampoco": 2889,
      "Primero": 2890,
      "UN": 2891,
      "smo": 2892,
      "ques": 2893,
      "quías": 2894,
      "desti": 2895,
      "hacerse": 2896,
      "pensando": 2897,
      "estará": 2898,
      "seguida": 2899,
      "hallar": 2900,
      "sorpren": 2901,
      "sucesos": 2902,
      "cero": 2903,
      "frecu": 2904,
      "tida": 2905,
      "traer": 2906,
      "pose": 2907,
      "graves": 2908,
      "meditar": 2909,
      "llamó": 2910,
      "lenguaje": 2911,
      "útil": 2912,
      "detalles": 2913,
      "arrepenti": 2914,
      "dida": 2915,
      "conf": 2916,
      "ing": 2917,
      "acos": 2918,
      "pocos": 2919,
      "usa": 2920,
      "ándonos": 2921,
      "Deb": 2922,
      "Saúl": 2923,
      "sirven": 2924,
      "empleo": 2925,
      "segunda": 2926,
      "reflexion": 2927,
      "semana": 2928,
      "cían": 2929,
      "tram": 2930,
      "viven": 2931,
      "énesis": 2932,
      "Estu": 2933,
      "llevan": 2934,
      "añadi": 2935,
      "Siempre": 2936,
      "Cuándo": 2937,
      "cree": 2938,
      "superintendentes": 2939,
      "oír": 2940,
      "excelente": 2941,
      "Gu": 2942,
      "Génesis": 2943,
      "Pre": 2944,
      "daban": 2945,
      "sé": 2946,
      "ómi": 2947,
      "recha": 2948,
      "alej": 2949,
      "amin": 2950,
      "intent": 2951,
      "muri": 2952,
      "pier": 2953,
      "herencia": 2954,
      "zaron": 2955,
      "materiales": 2956,
      "Cada": 2957,
      "aquí": 2958,
      "ora": 2959,
      "representa": 2960,
      "común": 2961,
      "descan": 2962,
      "copi": 2963,
      "lares": 2964,
      "llamar": 2965,
      "Salón": 2966,
      "Poco": 2967,
      "destrucción": 2968,
      "médic": 2969,
      "podremos": 2970,
      "versículos": 2971,
      "cluso": 2972,
      "puerta": 2973,
      "bido": 2974,
      "mandó": 2975,
      "impuls": 2976,
      "medida": 2977,
      "vangel": 2978,
      "1914": 2979,
      "vivimos": 2980,
      "protección": 2981,
      "Incluso": 2982,
      "profundo": 2983,
      "ajes": 2984,
      "asegura": 2985,
      "olvidar": 2986,
      "indicó": 2987,
      "aprobación": 2988,
      "óni": 2989,
      "libre": 2990,
      "significado": 2991,
      "etern": 2992,
      "menciona": 2993,
      "advertencia": 2994,
      "económi": 2995,
      "EL": 2996,
      "Li": 2997,
      "ki": 2998,
      "uda": 2999,
      "decía": 3000,
      "triste": 3001,
      "diver": 3002,
      "didos": 3003,
      "constante": 3004,
      "estó": 3005,
      "uso": 3006,
      "usó": 3007,
      "Escu": 3008,
      "Conmem": 3009,
      "cumplimiento": 3010,
      "elegir": 3011,
      "pena": 3012,
      "placer": 3013,
      "agradecidos": 3014,
      "aplicar": 3015,
      "Conmemoración": 3016,
      "aver": 3017,
      "zona": 3018,
      "quen": 3019,
      "lejos": 3020,
      "pital": 3021,
      "hier": 3022,
      "conoz": 3023,
      "unidos": 3024,
      "cursal": 3025,
      "monios": 3026,
      "única": 3027,
      "perdonar": 3028,
      "entren": 3029,
      "28": 3030,
      "celo": 3031,
      "orig": 3032,
      "ambos": 3033,
      "viaje": 3034,
      "midad": 3035,
      "humana": 3036,
      "muerto": 3037,
      "nega": 3038,
      "invitación": 3039,
      "inmediato": 3040,
      "ojo": 3041,
      "enor": 3042,
      "ció": 3043,
      "reun": 3044,
      "refier": 3045,
      "dicha": 3046,
      "semej": 3047,
      "nota": 3048,
      "dados": 3049,
      "gusto": 3050,
      "resto": 3051,
      "predijo": 3052,
      "expuls": 3053,
      "ensa": 3054,
      "hechos": 3055,
      "recuper": 3056,
      "Gobern": 3057,
      "arri": 3058,
      "tio": 3059,
      "cuesta": 3060,
      "pobre": 3061,
      "hijas": 3062,
      "generos": 3063,
      "ciertamente": 3064,
      "normal": 3065,
      "áramos": 3066,
      "Gobernante": 3067,
      "27": 3068,
      "Fue": 3069,
      "Otra": 3070,
      "QU": 3071,
      "Te": 3072,
      "ham": 3073,
      "yos": 3074,
      "yen": 3075,
      "ari": 3076,
      "allá": 3077,
      "conmigo": 3078,
      "hagamos": 3079,
      "tiendo": 3080,
      "muchedu": 3081,
      "drá": 3082,
      "cantidad": 3083,
      "falsos": 3084,
      "tempor": 3085,
      "rum": 3086,
      "comisión": 3087,
      "sacerdotes": 3088,
      "compasión": 3089,
      "sencilla": 3090,
      "Feli": 3091,
      "Mun": 3092,
      "San": 3093,
      "cadas": 3094,
      "red": 3095,
      "darnos": 3096,
      "fran": 3097,
      "ayudarán": 3098,
      "enseñanza": 3099,
      "grafía": 3100,
      "respondió": 3101,
      "Medi": 3102,
      "mantenerse": 3103,
      "diferente": 3104,
      "sentirse": 3105,
      "Estoy": 3106,
      "imagen": 3107,
      "comunicación": 3108,
      "lectura": 3109,
      "atrás": 3110,
      "af": 3111,
      "clas": 3112,
      "mbr": 3113,
      "erras": 3114,
      "dirección": 3115,
      "cuándo": 3116,
      "veci": 3117,
      "hubo": 3118,
      "dejaron": 3119,
      "estudios": 3120,
      "planeta": 3121,
      "persecución": 3122,
      "ejército": 3123,
      "clases": 3124,
      "lin": 3125,
      "ocho": 3126,
      "erpo": 3127,
      "ansi": 3128,
      "tron": 3129,
      "trató": 3130,
      "Cuerpo": 3131,
      "Algo": 3132,
      "siglos": 3133,
      "animar": 3134,
      "aceptó": 3135,
      "aguante": 3136,
      "esclavos": 3137,
      "atac": 3138,
      "tentación": 3139,
      "continuación": 3140,
      "acus": 3141,
      "éxito": 3142,
      "ocul": 3143,
      "pele": 3144,
      "tér": 3145,
      "vent": 3146,
      "aspec": 3147,
      "admi": 3148,
      "vigi": 3149,
      "lista": 3150,
      "gol": 3151,
      "encial": 3152,
      "duro": 3153,
      "decidido": 3154,
      "Cuánto": 3155,
      "bendecir": 3156,
      "interior": 3157,
      "superar": 3158,
      "resulta": 3159,
      "atender": 3160,
      "transmi": 3161,
      "resistir": 3162,
      "comentarios": 3163,
      "aspectos": 3164,
      "oro": 3165,
      "alerta": 3166,
      "sufici": 3167,
      "obs": 3168,
      "puedes": 3169,
      "puedan": 3170,
      "brin": 3171,
      "ablemente": 3172,
      "buscando": 3173,
      "terminar": 3174,
      "prometió": 3175,
      "tendría": 3176,
      "humildes": 3177,
      "llevó": 3178,
      "enfermedades": 3179,
      "origin": 3180,
      "Evangel": 3181,
      "dez": 3182,
      "regi": 3183,
      "semos": 3184,
      "sembr": 3185,
      "sucursal": 3186,
      "mul": 3187,
      "serían": 3188,
      "veamos": 3189,
      "posibilidad": 3190,
      "circui": 3191,
      "gobernante": 3192,
      "apoyar": 3193,
      "violencia": 3194,
      "Solo": 3195,
      "gía": 3196,
      "cial": 3197,
      "reconoci": 3198,
      "capaz": 3199,
      "hacían": 3200,
      "darles": 3201,
      "llega": 3202,
      "recibimos": 3203,
      "lograr": 3204,
      "dedicar": 3205,
      "tendrán": 3206,
      "Isaac": 3207,
      "pequeños": 3208,
      "sucedió": 3209,
      "pudieran": 3210,
      "obediencia": 3211,
      "Marcos": 3212,
      "semanas": 3213,
      "examinar": 3214,
      "esforzarnos": 3215,
      "correcto": 3216,
      "hábi": 3217,
      "Debemos": 3218,
      "CI": 3219,
      "Lle": 3220,
      "Par": 3221,
      "oper": 3222,
      "arias": 3223,
      "revis": 3224,
      "dich": 3225,
      "doc": 3226,
      "mando": 3227,
      "ayude": 3228,
      "stitu": 3229,
      "Sig": 3230,
      "pasos": 3231,
      "estemos": 3232,
      "ganse": 3233,
      "sigamos": 3234,
      "medidas": 3235,
      "interesa": 3236,
      "195": 3237,
      "Roma": 3238,
      "cruel": 3239,
      "31": 3240,
      "meros": 3241,
      "debió": 3242,
      "demonios": 3243,
      "ertamente": 3244,
      "practi": 3245,
      "partes": 3246,
      "perío": 3247,
      "impul": 3248,
      "fij": 3249,
      "ustr": 3250,
      "tarnos": 3251,
      "discurso": 3252,
      "seguido": 3253,
      "pecadores": 3254,
      "fielmente": 3255,
      "bautismo": 3256,
      "empezaron": 3257,
      "conversación": 3258,
      "luchar": 3259,
      "energías": 3260,
      "apropi": 3261,
      "asi": 3262,
      "cientos": 3263,
      "dig": 3264,
      "conven": 3265,
      "cuales": 3266,
      "pros": 3267,
      "propor": 3268,
      "pastores": 3269,
      "conocen": 3270,
      "erano": 3271,
      "confir": 3272,
      "ciertas": 3273,
      "lógi": 3274,
      "experim": 3275,
      "Quienes": 3276,
      "inicu": 3277,
      "natural": 3278,
      "concentrar": 3279,
      "diversas": 3280,
      "riquezas": 3281,
      "defender": 3282,
      "Soberano": 3283,
      "circuito": 3284,
      "Tom": 3285,
      "fra": 3286,
      "samente": 3287,
      "tera": 3288,
      "ases": 3289,
      "dign": 3290,
      "contiene": 3291,
      "amaba": 3292,
      "perci": 3293,
      "metros": 3294,
      "resi": 3295,
      "serio": 3296,
      "discreto": 3297,
      "amorosa": 3298,
      "querían": 3299,
      "divor": 3300,
      "rápi": 3301,
      "plante": 3302,
      "ezca": 3303,
      "lágri": 3304,
      "identifi": 3305,
      "rechazar": 3306,
      "ER": 3307,
      "dica": 3308,
      "lecciones": 3309,
      "prud": 3310,
      "espec": 3311,
      "ducir": 3312,
      "correg": 3313,
      "predicamos": 3314,
      "publicadores": 3315,
      "vestir": 3316,
      "obedientes": 3317,
      "BI": 3318,
      "MA": 3319,
      "Ni": 3320,
      "gén": 3321,
      "pal": 3322,
      "dele": 3323,
      "pari": 3324,
      "partir": 3325,
      "aces": 3326,
      "hablan": 3327,
      "prohi": 3328,
      "matar": 3329,
      "exten": 3330,
      "estuviera": 3331,
      "vale": 3332,
      "nuevos": 3333,
      "divinas": 3334,
      "echos": 3335,
      "llena": 3336,
      "gustaría": 3337,
      "Aquel": 3338,
      "suelen": 3339,
      "ejecu": 3340,
      "muchedumbre": 3341,
      "doctr": 3342,
      "29": 3343,
      "Tanto": 3344,
      "et": 3345,
      "sen": 3346,
      "divi": 3347,
      "conso": 3348,
      "acción": 3349,
      "chi": 3350,
      "tratado": 3351,
      "carac": 3352,
      "malvado": 3353,
      "particular": 3354,
      "lleno": 3355,
      "Tenemos": 3356,
      "Nuestra": 3357,
      "ataques": 3358,
      "implica": 3359,
      "noticias": 3360,
      "devoción": 3361,
      "satisfacción": 3362,
      "refiere": 3363,
      "Pr": 3364,
      "entien": 3365,
      "defec": 3366,
      "eres": 3367,
      "absolu": 3368,
      "acas": 3369,
      "desi": 3370,
      "lesias": 3371,
      "casarse": 3372,
      "trai": 3373,
      "cumple": 3374,
      "volvió": 3375,
      "llevaba": 3376,
      "Algunas": 3377,
      "nacion": 3378,
      "enemigo": 3379,
      "precursora": 3380,
      "sacerdote": 3381,
      "cuestión": 3382,
      "Fili": 3383,
      "vierte": 3384,
      "?,": 3385,
      "Ru": 3386,
      "yendo": 3387,
      "armon": 3388,
      "adqui": 3389,
      "vivos": 3390,
      "lici": 3391,
      "imposible": 3392,
      "pied": 3393,
      "trato": 3394,
      "amoroso": 3395,
      "centr": 3396,
      "santos": 3397,
      "millas": 3398,
      "demostrado": 3399,
      "griego": 3400,
      "prácticas": 3401,
      "útiles": 3402,
      "origen": 3403,
      "permitirá": 3404,
      "revela": 3405,
      "PORTA": 3406,
      "26": 3407,
      "Sí": 3408,
      "dían": 3409,
      "imos": 3410,
      "porno": 3411,
      "impedir": 3412,
      "respuestas": 3413,
      "ánico": 3414,
      "magn": 3415,
      "nie": 3416,
      "ceder": 3417,
      "esperan": 3418,
      "relatos": 3419,
      "estudiantes": 3420,
      "sirve": 3421,
      "íficos": 3422,
      "particip": 3423,
      "territorio": 3424,
      "maestros": 3425,
      "güedad": 3426,
      "orgullos": 3427,
      "frecuencia": 3428,
      "PORTADA": 3429,
      "Ed": 3430,
      "Hechos": 3431,
      "dante": 3432,
      "ofici": 3433,
      "vés": 3434,
      "org": 3435,
      "sigan": 3436,
      "rir": 3437,
      "aclar": 3438,
      "actú": 3439,
      "entreg": 3440,
      "desempe": 3441,
      "profes": 3442,
      "carse": 3443,
      "batal": 3444,
      "conocía": 3445,
      "ganar": 3446,
      "hayan": 3447,
      "caminos": 3448,
      "199": 3449,
      "boca": 3450,
      "árbol": 3451,
      "permanecer": 3452,
      "maestro": 3453,
      "juzgar": 3454,
      "encuentra": 3455,
      "ON": 3456,
      "fos": 3457,
      "gio": 3458,
      "hemías": 3459,
      "vidas": 3460,
      "motivo": 3461,
      "tanta": 3462,
      "pies": 3463,
      "Estamos": 3464,
      "cara": 3465,
      "forme": 3466,
      "enses": 3467,
      "mismas": 3468,
      "presencia": 3469,
      "animó": 3470,
      "honrar": 3471,
      "ándole": 3472,
      "ándoles": 3473,
      "débi": 3474,
      "ocurrió": 3475,
      "textos": 3476,
      "descendientes": 3477,
      "construir": 3478,
      "Nuestro": 3479,
      "abundan": 3480,
      "máximo": 3481,
      "disciplina": 3482,
      "Nehemías": 3483,
      "beneficia": 3484,
      "suficiente": 3485,
      "SE": 3486,
      "Tu": 3487,
      "jue": 3488,
      "odi": 3489,
      "ram": 3490,
      "sú": 3491,
      "zados": 3492,
      "ancia": 3493,
      "revel": 3494,
      "lio": 3495,
      "decimos": 3496,
      "discu": 3497,
      "sobrevivir": 3498,
      "araón": 3499,
      "clave": 3500,
      "necesitaba": 3501,
      "antigüedad": 3502,
      "equivo": 3503,
      "resucitar": 3504,
      "Pon": 3505,
      "Tras": 3506,
      "aspecto": 3507,
      "convirtió": 3508,
      "amen": 3509,
      "injusticia": 3510,
      "cuáles": 3511,
      "vivían": 3512,
      "lis": 3513,
      "estás": 3514,
      "milla": 3515,
      "motiv": 3516,
      "meta": 3517,
      "carr": 3518,
      "claramente": 3519,
      "contestar": 3520,
      "afirma": 3521,
      "examin": 3522,
      "asambleas": 3523,
      "compasi": 3524,
      "público": 3525,
      "molde": 3526,
      "añadió": 3527,
      "proporcion": 3528,
      "Ale": 3529,
      "Can": 3530,
      "IN": 3531,
      "Jo": 3532,
      "Otros": 3533,
      "Tam": 3534,
      "Uno": 3535,
      "lera": 3536,
      "advirtió": 3537,
      "mod": 3538,
      "istas": 3539,
      "gracia": 3540,
      "veje": 3541,
      "hacernos": 3542,
      "gana": 3543,
      "decirse": 3544,
      "vivió": 3545,
      "amistades": 3546,
      "cometido": 3547,
      "habitantes": 3548,
      "mostró": 3549,
      "Nuevo": 3550,
      "tareas": 3551,
      "cuarenta": 3552,
      "dignidad": 3553,
      "corregir": 3554,
      "Bar": 3555,
      "oposición": 3556,
      "émonos": 3557,
      "andar": 3558,
      "rede": 3559,
      "temas": 3560,
      "ticas": 3561,
      "fide": 3562,
      "piense": 3563,
      "terr": 3564,
      "debes": 3565,
      "presentes": 3566,
      "clara": 3567,
      "convencido": 3568,
      "Eze": 3569,
      "Ca": 3570,
      "Ig": 3571,
      "Ven": 3572,
      "il": 3573,
      "jw": 3574,
      "ler": 3575,
      "alco": 3576,
      "echa": 3577,
      "seremos": 3578,
      "goci": 3579,
      "veía": 3580,
      "través": 3581,
      "peor": 3582,
      "espiritualidad": 3583,
      "queridos": 3584,
      "sagrado": 3585,
      "recibieron": 3586,
      "claridad": 3587,
      "dín": 3588,
      "verdaderamente": 3589,
      "jardín": 3590,
      "logró": 3591,
      "egoís": 3592,
      "utilizar": 3593,
      "mental": 3594,
      "lengua": 3595,
      "fesios": 3596,
      "elimin": 3597,
      "costumbre": 3598,
      "programa": 3599,
      "mandamientos": 3600,
      "Ezequías": 3601,
      ":“": 3602,
      "Asi": 3603,
      "Ana": 3604,
      "DI": 3605,
      "Pente": 3606,
      "vac": 3607,
      "esencial": 3608,
      "reconoce": 3609,
      "amo": 3610,
      "coment": 3611,
      "hablaba": 3612,
      "ista": 3613,
      "costés": 3614,
      "cercan": 3615,
      "pasaje": 3616,
      "podrá": 3617,
      "falsa": 3618,
      "lidades": 3619,
      "paña": 3620,
      "[...].": 3621,
      "soldados": 3622,
      "actividad": 3623,
      "oído": 3624,
      "tenimiento": 3625,
      "asignación": 3626,
      "pusieron": 3627,
      "investig": 3628,
      "Estudi": 3629,
      "período": 3630,
      "Pentecostés": 3631,
      "Co": 3632,
      "Era": 3633,
      "ira": 3634,
      "enseguida": 3635,
      "cien": 3636,
      "cuán": 3637,
      "obr": 3638,
      "cria": 3639,
      "soportar": 3640,
      "Estaba": 3641,
      "crecer": 3642,
      "reciben": 3643,
      "escribir": 3644,
      "sacar": 3645,
      "busca": 3646,
      "beb": 3647,
      "especialmente": 3648,
      "hablamos": 3649,
      "satisf": 3650,
      "maravilloso": 3651,
      "agradecemos": 3652,
      "exhortación": 3653,
      "misioneros": 3654,
      "reflexionar": 3655,
      "Tampoco": 3656,
      "As": 3657,
      "Jon": 3658,
      "cán": 3659,
      "lés": 3660,
      "taciones": 3661,
      "esca": 3662,
      "recomen": 3663,
      "into": 3664,
      "suyos": 3665,
      "premi": 3666,
      "tantas": 3667,
      "casas": 3668,
      "ayudarlos": 3669,
      "cabal": 3670,
      "perfecta": 3671,
      "aquellas": 3672,
      "especiales": 3673,
      "gobiernos": 3674,
      "enseñarles": 3675,
      "gobernar": 3676,
      "halla": 3677,
      "acabar": 3678,
      "preguntarnos": 3679,
      "plenamente": 3680,
      "nombrado": 3681,
      "teniendo": 3682,
      "señaló": 3683,
      "tivamente": 3684,
      "bautizarse": 3685,
      "consulte": 3686,
      "inglés": 3687,
      "golpe": 3688,
      "BIBLI": 3689,
      "Otro": 3690,
      "tele": 3691,
      "vivía": 3692,
      "pers": 3693,
      "sabían": 3694,
      "crey": 3695,
      "pensamos": 3696,
      "pensaba": 3697,
      "culp": 3698,
      "responsab": 3699,
      "cabe": 3700,
      "Judas": 3701,
      "valora": 3702,
      "ínte": 3703,
      "aliment": 3704,
      "quizá": 3705,
      "agradable": 3706,
      "valioso": 3707,
      "ofreció": 3708,
      "recompensa": 3709,
      "Ustedes": 3710,
      "acostum": 3711,
      "pornografía": 3712,
      "aparece": 3713,
      "cera": 3714,
      "gal": 3715,
      "um": 3716,
      "vados": 3717,
      "regoci": 3718,
      "alrede": 3719,
      "parecida": 3720,
      "guno": 3721,
      "cará": 3722,
      "distribu": 3723,
      "garon": 3724,
      "garanti": 3725,
      "tienes": 3726,
      "pase": 3727,
      "presentar": 3728,
      "conocemos": 3729,
      "querido": 3730,
      "inclin": 3731,
      "perfección": 3732,
      "conocido": 3733,
      "efectu": 3734,
      "gridad": 3735,
      "tentaciones": 3736,
      "estrecha": 3737,
      "hospital": 3738,
      "material": 3739,
      "éndole": 3740,
      "integridad": 3741,
      "Verdad": 3742,
      "angustia": 3743,
      "totalmente": 3744,
      "hambre": 3745,
      "armonía": 3746,
      "carrera": 3747,
      "Aar": 3748,
      "ul": 3749,
      "empi": 3750,
      "sidad": 3751,
      "viuda": 3752,
      "rico": 3753,
      "importa": 3754,
      "Sea": 3755,
      "tóli": 3756,
      "cultura": 3757,
      "194": 3758,
      "boda": 3759,
      "superior": 3760,
      "penas": 3761,
      "cólera": 3762,
      "dedicación": 3763,
      "ínese": 3764,
      "esforzamos": 3765,
      "oportunidades": 3766,
      "antiguo": 3767,
      "tarea": 3768,
      "Piense": 3769,
      "vaya": 3770,
      "conflic": 3771,
      "vecinos": 3772,
      "ansiedad": 3773,
      "génito": 3774,
      "Efesios": 3775,
      "Mis": 3776,
      "cados": 3777,
      "ega": 3778,
      "ifi": 3779,
      "món": 3780,
      "tradi": 3781,
      "cometer": 3782,
      "moder": 3783,
      "solici": 3784,
      "exi": 3785,
      "exac": 3786,
      "volu": 3787,
      "seguramente": 3788,
      "elión": 3789,
      "crear": 3790,
      "minu": 3791,
      "trigo": 3792,
      "cumplió": 3793,
      "permitió": 3794,
      "parecía": 3795,
      "Todas": 3796,
      "beber": 3797,
      "hiciera": 3798,
      "tendrían": 3799,
      "preocupa": 3800,
      "rebelión": 3801,
      "control": 3802,
      "traducción": 3803,
      "valiosa": 3804,
      "dádi": 3805,
      "misericordi": 3806,
      "Pascua": 3807,
      "Escuela": 3808,
      "parientes": 3809,
      "Aarón": 3810,
      "60": 3811,
      "Hace": 3812,
      "blan": 3813,
      "ágenes": 3814,
      "delo": 3815,
      "sumo": 3816,
      "perdió": 3817,
      "guerras": 3818,
      "imágenes": 3819,
      "figu": 3820,
      "luvio": 3821,
      "bienes": 3822,
      "presa": 3823,
      "dejan": 3824,
      "escrito": 3825,
      "falsas": 3826,
      "aleza": 3827,
      "terminó": 3828,
      "viviendo": 3829,
      "fortalece": 3830,
      "naturaleza": 3831,
      "sexual": 3832,
      "Quiénes": 3833,
      "trono": 3834,
      "original": 3835,
      "caracter": 3836,
      "BIBLIA": 3837,
      "geli": 3838,
      "haría": 3839,
      "titu": 3840,
      "rio": 3841,
      "puro": 3842,
      "tuve": 3843,
      "piente": 3844,
      "hable": 3845,
      "trat": 3846,
      "añade": 3847,
      "ayudara": 3848,
      "recibe": 3849,
      "aprendió": 3850,
      "activa": 3851,
      "podrán": 3852,
      "confiamos": 3853,
      "pensemos": 3854,
      "completamente": 3855,
      "profetas": 3856,
      "tomado": 3857,
      "equiel": 3858,
      "agradar": 3859,
      "memor": 3860,
      "incluye": 3861,
      "físico": 3862,
      "Nueva": 3863,
      "Ezequiel": 3864,
      "kiló": 3865,
      "apropiado": 3866,
      "batalla": 3867,
      "abundancia": 3868,
      "íntegr": 3869,
      "DO": 3870,
      "Prom": 3871,
      "ite": 3872,
      "iban": 3873,
      "andando": 3874,
      "oridad": 3875,
      "timos": 3876,
      "siento": 3877,
      "vivo": 3878,
      "comprob": 3879,
      "pocas": 3880,
      "podido": 3881,
      "motivos": 3882,
      "char": 3883,
      "Quer": 3884,
      "tratan": 3885,
      "trataba": 3886,
      "cartas": 3887,
      "muchac": 3888,
      "ayudaron": 3889,
      "morales": 3890,
      "paciente": 3891,
      "Toda": 3892,
      "prioridad": 3893,
      "esclavi": 3894,
      "dirigi": 3895,
      "suceder": 3896,
      "construcción": 3897,
      "Ciertamente": 3898,
      "Iglesia": 3899,
      "kilómetros": 3900,
      "Dej": 3901,
      "Imag": 3902,
      "nacer": 3903,
      "oc": 3904,
      "table": 3905,
      "cient": 3906,
      "amado": 3907,
      "ine": 3908,
      "parecido": 3909,
      "ricos": 3910,
      "Jeh": 3911,
      "obvio": 3912,
      "tara": 3913,
      "dudas": 3914,
      "seña": 3915,
      "siguieron": 3916,
      "bautizó": 3917,
      "enfermos": 3918,
      "probablemente": 3919,
      "reinado": 3920,
      "cuestiones": 3921,
      "condiciones": 3922,
      "Signifi": 3923,
      "desierto": 3924,
      "Edén": 3925,
      "AR": 3926,
      "Ge": 3927,
      "calidad": 3928,
      "ses": 3929,
      "tab": 3930,
      "ñar": 3931,
      "lados": 3932,
      "secreto": 3933,
      "desper": 3934,
      "veras": 3935,
      "ambiente": 3936,
      "laban": 3937,
      "garan": 3938,
      "sobres": 3939,
      "venga": 3940,
      "bienestar": 3941,
      "torios": 3942,
      "vangeli": 3943,
      "teriores": 3944,
      "voluntar": 3945,
      "atán": 3946,
      "renunci": 3947,
      "equilibr": 3948,
      "destruir": 3949,
      "producir": 3950,
      "profundamente": 3951,
      "sucede": 3952,
      "olvidemos": 3953,
      "pronunci": 3954,
      "abandonar": 3955,
      "borr": 3956,
      "simplemente": 3957,
      "convertirse": 3958,
      "afrontar": 3959,
      "fundamental": 3960,
      "revistas": 3961,
      "40": 3962,
      "Son": 3963,
      "fom": 3964,
      "faraón": 3965,
      "ási": 3966,
      "éase": 3967,
      "osamente": 3968,
      "difun": 3969,
      "amas": 3970,
      "amento": 3971,
      "sufren": 3972,
      "levi": 3973,
      "simi": 3974,
      "perju": 3975,
      "pobres": 3976,
      "desas": 3977,
      "tesor": 3978,
      "esposas": 3979,
      "estaremos": 3980,
      "esperaba": 3981,
      "Segun": 3982,
      "escribi": 3983,
      "nego": 3984,
      "discípulo": 3985,
      "ungido": 3986,
      "enfermo": 3987,
      "profeti": 3988,
      "merece": 3989,
      "miembro": 3990,
      "nacimiento": 3991,
      "apareció": 3992,
      "capítulos": 3993,
      "reinta": 3994,
      "razonable": 3995,
      "convencidos": 3996,
      "progreso": 3997,
      "ataque": 3998,
      "crecimiento": 3999,
      "dioses": 4000,
      "exige": 4001,
      "descanso": 4002,
      "enorme": 4003,
      "32": 4004,
      "34": 4005,
      "Ac": 4006,
      "Bus": 4007,
      "TO": 4008,
      "base": 4009,
      "cali": 4010,
      "río": 4011,
      "treinta": 4012,
      "venta": 4013,
      "íe": 4014,
      "ísti": 4015,
      "oscu": 4016,
      "aré": 4017,
      "arreg": 4018,
      "dicia": 4019,
      "sep": 4020,
      "sección": 4021,
      "indefin": 4022,
      "suger": 4023,
      "victor": 4024,
      "procur": 4025,
      "regis": 4026,
      "estudiando": 4027,
      "primi": 4028,
      "visible": 4029,
      "historias": 4030,
      "ponerse": 4031,
      "compañero": 4032,
      "abilidad": 4033,
      "profundas": 4034,
      "crí": 4035,
      "hierba": 4036,
      "defectos": 4037,
      "vangeliz": 4038,
      "Lá": 4039,
      "aprecio": 4040,
      "cár": 4041,
      "mino": 4042,
      "ofren": 4043,
      "toma": 4044,
      "injusti": 4045,
      "suele": 4046,
      "abo": 4047,
      "viva": 4048,
      "pol": 4049,
      "movi": 4050,
      "tento": 4051,
      "estro": 4052,
      "fuente": 4053,
      "encima": 4054,
      "empec": 4055,
      "fracas": 4056,
      "dejamos": 4057,
      "dejemos": 4058,
      "unión": 4059,
      "aum": 4060,
      "publicación": 4061,
      "visita": 4062,
      "liberación": 4063,
      "debili": 4064,
      "alcance": 4065,
      "hubieran": 4066,
      "pertenece": 4067,
      "BLIC": 4068,
      "conservar": 4069,
      "Rut": 4070,
      "fidelidad": 4071,
      "alrededor": 4072,
      "Apren": 4073,
      "tremos": 4074,
      "zca": 4075,
      "íz": 4076,
      "arme": 4077,
      "consiguiente": 4078,
      "siga": 4079,
      "sitio": 4080,
      "ria": 4081,
      "tuviera": 4082,
      "modelo": 4083,
      "cauti": 4084,
      "tantos": 4085,
      "produc": 4086,
      "ponemos": 4087,
      "cans": 4088,
      "aprendiendo": 4089,
      "desean": 4090,
      "cambió": 4091,
      "perfectos": 4092,
      "escucha": 4093,
      "rup": 4094,
      "bautizado": 4095,
      "planes": 4096,
      "esfuerzan": 4097,
      "intereses": 4098,
      "esforzarse": 4099,
      "adultos": 4100,
      "sociedad": 4101,
      "aconseja": 4102,
      "extranjeros": 4103,
      "diversiones": 4104,
      "región": 4105,
      "Imagínese": 4106,
      "injusticias": 4107,
      "70": 4108,
      "Mon": 4109,
      "Na": 4110,
      "Tra": 4111,
      "bási": 4112,
      "evangeliz": 4113,
      "ita": 4114,
      "jes": 4115,
      "zaba": 4116,
      "enen": 4117,
      "digo": 4118,
      "diseñ": 4119,
      "dieran": 4120,
      "Jef": 4121,
      "comportar": 4122,
      "col": 4123,
      "carga": 4124,
      "pasando": 4125,
      "varones": 4126,
      "medios": 4127,
      "ciertos": 4128,
      "necesitaban": 4129,
      "estudiante": 4130,
      "falle": 4131,
      "edón": 4132,
      "actual": 4133,
      "vivido": 4134,
      "continú": 4135,
      "interesante": 4136,
      "nació": 4137,
      "Puesto": 4138,
      "obediente": 4139,
      "regresar": 4140,
      "párrafos": 4141,
      "enoj": 4142,
      "adulterio": 4143,
      "magedón": 4144,
      "hebreo": 4145,
      "término": 4146,
      "50": 4147,
      "Gala": 4148,
      "etida": 4149,
      "tán": 4150,
      "quemos": 4151,
      "elle": 4152,
      "suelo": 4153,
      "sienta": 4154,
      "rica": 4155,
      "desgracia": 4156,
      "exacto": 4157,
      "larga": 4158,
      "caron": 4159,
      "forni": 4160,
      "gará": 4161,
      "presion": 4162,
      "justa": 4163,
      "escritos": 4164,
      "siguiendo": 4165,
      "cumplirá": 4166,
      "alabanza": 4167,
      "cualquiera": 4168,
      "144": 4169,
      "Maestro": 4170,
      "enviado": 4171,
      "existir": 4172,
      "generación": 4173,
      "imperfección": 4174,
      "distintas": 4175,
      "ilustración": 4176,
      "orgullo": 4177,
      "Armagedón": 4178,
      "arriba": 4179,
      "Significa": 4180,
      "Jefté": 4181,
      "Ben": 4182,
      "Sim": 4183,
      "apreci": 4184,
      "caciones": 4185,
      "far": 4186,
      "gencia": 4187,
      "puntos": 4188,
      "tían": 4189,
      "dimiento": 4190,
      "diario": 4191,
      "supli": 4192,
      "gué": 4193,
      "moti": 4194,
      "adap": 4195,
      "estuvieron": 4196,
      "decirle": 4197,
      "lími": 4198,
      "Lea": 4199,
      "buscan": 4200,
      "sufrido": 4201,
      "ándolo": 4202,
      "ninguno": 4203,
      "contentos": 4204,
      "existencia": 4205,
      "autoridades": 4206,
      "religiosas": 4207,
      "consecuencia": 4208,
      "analizaremos": 4209,
      "encuentran": 4210,
      "desarrollar": 4211,
      "proclam": 4212,
      "extranjero": 4213,
      "salió": 4214,
      "Mediante": 4215,
      "lágrimas": 4216,
      "acostumbr": 4217,
      "Am": 4218,
      "Ba": 4219,
      "Tú": 4220,
      "idas": 4221,
      "tente": 4222,
      "tador": 4223,
      "ere": 4224,
      "arla": 4225,
      "repar": 4226,
      "doce": 4227,
      "ame": 4228,
      "infier": 4229,
      "vital": 4230,
      "patri": 4231,
      "forman": 4232,
      "corrup": 4233,
      "Sigan": 4234,
      "regal": 4235,
      "creado": 4236,
      "zaro": 4237,
      "poses": 4238,
      "esperando": 4239,
      "valu": 4240,
      "sufrió": 4241,
      "contacto": 4242,
      "logrado": 4243,
      "intención": 4244,
      "dirigió": 4245,
      "capaces": 4246,
      "décadas": 4247,
      "apari": 4248,
      "sexo": 4249,
      "quedarse": 4250,
      "descubrir": 4251,
      "condición": 4252,
      "conforme": 4253,
      "eliminar": 4254,
      "sinceras": 4255,
      "sueño": 4256,
      "médico": 4257,
      "Lázaro": 4258,
      "gados": 4259,
      "gentes": 4260,
      "rer": 4261,
      "dea": 4262,
      "rep": 4263,
      "tró": 4264,
      "infun": 4265,
      "parezca": 4266,
      "criti": 4267,
      "señas": 4268,
      "ponga": 4269,
      "sincero": 4270,
      "alguno": 4271,
      "moral": 4272,
      "aument": 4273,
      "neu": 4274,
      "cambiado": 4275,
      "elegido": 4276,
      "preocupar": 4277,
      "mencionó": 4278,
      "cariñ": 4279,
      "terrible": 4280,
      "maravillosa": 4281,
      "Expli": 4282,
      "aseguró": 4283,
      "Tradu": 4284,
      "refugi": 4285,
      "extraordinaria": 4286,
      "averigu": 4287,
      "obstá": 4288,
      "AL": 4289,
      "VI": 4290,
      "feso": 4291,
      "sóli": 4292,
      "udas": 4293,
      "vini": 4294,
      "Éfeso": 4295,
      "refi": 4296,
      "tiera": 4297,
      "cuyo": 4298,
      "embre": 4299,
      "vide": 4300,
      "teníamos": 4301,
      "madero": 4302,
      "codicia": 4303,
      "cargo": 4304,
      "decididos": 4305,
      "cristianismo": 4306,
      "seguía": 4307,
      "Debido": 4308,
      "necesaria": 4309,
      "necesarias": 4310,
      "fuertes": 4311,
      "promue": 4312,
      "cumplido": 4313,
      "llegará": 4314,
      "ándolos": 4315,
      "contestó": 4316,
      "expresiones": 4317,
      "deberían": 4318,
      "grupos": 4319,
      "haremos": 4320,
      "vícti": 4321,
      "contribuye": 4322,
      "conversaciones": 4323,
      "emocional": 4324,
      "honradez": 4325,
      "acercarse": 4326,
      "aprovechar": 4327,
      "apacibilidad": 4328,
      "solteros": 4329,
      "murieron": 4330,
      "ventud": 4331,
      "multitud": 4332,
      "alcoho": 4333,
      "Prometida": 4334,
      "infierno": 4335,
      "Traducción": 4336,
      "Unos": 4337,
      "iánico": 4338,
      "yn": 4339,
      "ór": 4340,
      "lament": 4341,
      "oramos": 4342,
      "repu": 4343,
      "amá": 4344,
      "tuvieran": 4345,
      "desesper": 4346,
      "pade": 4347,
      "daron": 4348,
      "cosecha": 4349,
      "ayudando": 4350,
      "tratando": 4351,
      "hacerle": 4352,
      "garse": 4353,
      "segura": 4354,
      "Cuán": 4355,
      "enseñado": 4356,
      "centrar": 4357,
      "juventud": 4358,
      "campos": 4359,
      "menor": 4360,
      "Mil": 4361,
      "aguas": 4362,
      "sufrimientos": 4363,
      "matrimonios": 4364,
      "lograrlo": 4365,
      "última": 4366,
      "judío": 4367,
      "Cordero": 4368,
      "ocurre": 4369,
      "folle": 4370,
      "factores": 4371,
      "castigo": 4372,
      "avanzada": 4373,
      "eternidad": 4374,
      "constantemente": 4375,
      "consolar": 4376,
      "Galaad": 4377,
      "neutr": 4378,
      "Ec": 4379,
      "Hu": 4380,
      "Ima": 4381,
      "Sol": 4382,
      "egip": 4383,
      "ges": 4384,
      "’,": 4385,
      "rez": 4386,
      "recur": 4387,
      "dije": 4388,
      "convi": 4389,
      "liter": 4390,
      "acor": 4391,
      "entor": 4392,
      "guíe": 4393,
      "manej": 4394,
      "usando": 4395,
      "habr": 4396,
      "cerr": 4397,
      "salón": 4398,
      "esperamos": 4399,
      "santifi": 4400,
      "considera": 4401,
      "preparar": 4402,
      "ífica": 4403,
      "establecido": 4404,
      "razonar": 4405,
      "preguntarse": 4406,
      "manifi": 4407,
      "refería": 4408,
      "ejerce": 4409,
      "asign": 4410,
      "hermoso": 4411,
      "diversos": 4412,
      "costumbres": 4413,
      "nacional": 4414,
      "memoria": 4415,
      "tesoros": 4416,
      "empecé": 4417,
      "Imagin": 4418,
      "LOS": 4419,
      "Nin": 4420,
      "Nadie": 4421,
      "gaba": 4422,
      "ic": 4423,
      "ilu": 4424,
      "sel": 4425,
      "”).": 4426,
      "lada": 4427,
      "elem": 4428,
      "adá": 4429,
      "ditos": 4430,
      "timo": 4431,
      "convencer": 4432,
      "indepen": 4433,
      "suceso": 4434,
      "peri": 4435,
      "mosai": 4436,
      "grab": 4437,
      "personales": 4438,
      "disponi": 4439,
      "sabios": 4440,
      "gidos": 4441,
      "huir": 4442,
      "guiar": 4443,
      "finalmente": 4444,
      "valores": 4445,
      "decirles": 4446,
      "interpre": 4447,
      "publicado": 4448,
      "obedecemos": 4449,
      "recordemos": 4450,
      "Podría": 4451,
      "experiencias": 4452,
      "declaró": 4453,
      "mandatos": 4454,
      "plena": 4455,
      "observ": 4456,
      "directamente": 4457,
      "adolescentes": 4458,
      "petición": 4459,
      "Recuerde": 4460,
      "Abel": 4461,
      "afli": 4462,
      "lógico": 4463,
      "lesiastés": 4464,
      "débiles": 4465,
      "característi": 4466,
      "Eclesiastés": 4467,
      "mosaica": 4468,
      "Dé": 4469,
      "Desper": 4470,
      "Em": 4471,
      "Hemos": 4472,
      "Ilus": 4473,
      "fre": 4474,
      "gon": 4475,
      "lores": 4476,
      "arr": 4477,
      "arían": 4478,
      "anu": 4479,
      "asu": 4480,
      "tin": 4481,
      "condu": 4482,
      "suyo": 4483,
      "cuentas": 4484,
      "perio": 4485,
      "noc": 4486,
      "numeros": 4487,
      "expec": 4488,
      "extre": 4489,
      "veinti": 4490,
      "casado": 4491,
      "colo": 4492,
      "lucha": 4493,
      "distan": 4494,
      "cristiandad": 4495,
      "creía": 4496,
      "tadas": 4497,
      "nueve": 4498,
      "promo": 4499,
      "hablarles": 4500,
      "acepta": 4501,
      "iglesia": 4502,
      "contamin": 4503,
      "demostraron": 4504,
      "comenzar": 4505,
      "dirige": 4506,
      "existen": 4507,
      "tismo": 4508,
      "nacido": 4509,
      "enfrentar": 4510,
      "encontrado": 4511,
      "peligroso": 4512,
      "nombres": 4513,
      "reacción": 4514,
      "descubier": 4515,
      "física": 4516,
      "adecu": 4517,
      "refugio": 4518,
      "Grande": 4519,
      "ónica": 4520,
      "Mundo": 4521,
      "dichos": 4522,
      "cárcel": 4523,
      "alcohol": 4524,
      "CU": 4525,
      "bóli": 4526,
      "selo": 4527,
      "semilla": 4528,
      "contó": 4529,
      "ónde": 4530,
      "bio": 4531,
      "impi": 4532,
      "fica": 4533,
      "voy": 4534,
      "cooper": 4535,
      "espada": 4536,
      "decidieron": 4537,
      "tienda": 4538,
      "jefe": 4539,
      "estaría": 4540,
      "vivirán": 4541,
      "efectos": 4542,
      "echar": 4543,
      "trabajan": 4544,
      "peligros": 4545,
      "satisfec": 4546,
      "establecer": 4547,
      "limpia": 4548,
      "comienzo": 4549,
      "Sabemos": 4550,
      "reconoció": 4551,
      "satisfacer": 4552,
      "100": 4553,
      "37": 4554,
      "BÍ": 4555,
      "Car": 4556,
      "Del": 4557,
      "Pens": 4558,
      "bara": 4559,
      "llu": 4560,
      "pér": 4561,
      "alta": 4562,
      "seo": 4563,
      "abra": 4564,
      "sisti": 4565,
      "vil": 4566,
      "porta": 4567,
      "entía": 4568,
      "entera": 4569,
      "comun": 4570,
      "prefer": 4571,
      "estra": 4572,
      "ches": 4573,
      "hablado": 4574,
      "proceso": 4575,
      "vean": 4576,
      "salva": 4577,
      "lante": 4578,
      "dona": 4579,
      "espíritus": 4580,
      "deseamos": 4581,
      "apósta": 4582,
      "permita": 4583,
      "empeño": 4584,
      "aquello": 4585,
      "alegra": 4586,
      "diferencias": 4587,
      "preparados": 4588,
      "invitó": 4589,
      "alimentos": 4590,
      "presentó": 4591,
      "concili": 4592,
      "pequeña": 4593,
      "influir": 4594,
      "consideración": 4595,
      "acabará": 4596,
      "encontró": 4597,
      "simbóli": 4598,
      "ENSE": 4599,
      "descubri": 4600,
      "comunicarse": 4601,
      "opiniones": 4602,
      "ordenó": 4603,
      "observar": 4604,
      "inteli": 4605,
      "conformidad": 4606,
      "acercarnos": 4607,
      "quisitos": 4608,
      "comprar": 4609,
      "fono": 4610,
      "elección": 4611,
      "montañas": 4612,
      "negativos": 4613,
      "bendecirá": 4614,
      "bebé": 4615,
      "sugerencias": 4616,
      "Despertad": 4617,
      "Tes": 4618,
      "fras": 4619,
      "ici": 4620,
      "odio": 4621,
      "anse": 4622,
      "ciendo": 4623,
      "advierte": 4624,
      "diga": 4625,
      "amable": 4626,
      "sul": 4627,
      "novia": 4628,
      "pudieron": 4629,
      "comba": 4630,
      "católi": 4631,
      "reser": 4632,
      "dura": 4633,
      "marido": 4634,
      "títu": 4635,
      "tísimo": 4636,
      "entretenimiento": 4637,
      "entendimiento": 4638,
      "cumpliendo": 4639,
      "frica": 4640,
      "Diluvio": 4641,
      "norte": 4642,
      "Anali": 4643,
      "protege": 4644,
      "comenzaron": 4645,
      "compañía": 4646,
      "precisamente": 4647,
      "serie": 4648,
      "indican": 4649,
      "memente": 4650,
      "afirm": 4651,
      "progresar": 4652,
      "preocupaciones": 4653,
      "antiguos": 4654,
      "Hebreas": 4655,
      "destaca": 4656,
      "proclamar": 4657,
      "mentiras": 4658,
      "ANZ": 4659,
      "fondo": 4660,
      "prudente": 4661,
      "traicion": 4662,
      "vejez": 4663,
      "Ob": 4664,
      "Or": 4665,
      "TR": 4666,
      "Val": 4667,
      "nal": 4668,
      "odia": 4669,
      "th": 4670,
      "uc": 4671,
      "vín": 4672,
      "yeron": 4673,
      "ícu": 4674,
      "decep": 4675,
      "aná": 4676,
      "quebr": 4677,
      "requisitos": 4678,
      "sientan": 4679,
      "vidu": 4680,
      "mantuvo": 4681,
      "veinte": 4682,
      "voto": 4683,
      "pasará": 4684,
      "pasajes": 4685,
      "crea": 4686,
      "march": 4687,
      "cena": 4688,
      "ofrec": 4689,
      "ministeri": 4690,
      "formación": 4691,
      "servimos": 4692,
      "comprende": 4693,
      "leyendo": 4694,
      "rostro": 4695,
      "expertos": 4696,
      "llevamos": 4697,
      "calma": 4698,
      "individu": 4699,
      "limpio": 4700,
      "utilizó": 4701,
      "resucitó": 4702,
      "cónyuges": 4703,
      "maravillosas": 4704,
      "colaborar": 4705,
      "adoptar": 4706,
      "adolescente": 4707,
      "inquietudes": 4708,
      "TEMA": 4709,
      "mandamiento": 4710,
      "trampa": 4711,
      "generosidad": 4712,
      "impulsa": 4713,
      "terrestre": 4714,
      "Caín": 4715,
      "criaturas": 4716,
      "conflictos": 4717,
      "muchacho": 4718,
      "levitas": 4719,
      "BÍBLIC": 4720,
      "Yor": 4721,
      "apenas": 4722,
      "gando": 4723,
      "vada": 4724,
      "trás": 4725,
      "tec": 4726,
      "conjunto": 4727,
      "amó": 4728,
      "sufr": 4729,
      "sima": 4730,
      "vivan": 4731,
      "verá": 4732,
      "pagan": 4733,
      "irán": 4734,
      "correspon": 4735,
      "llegan": 4736,
      "pasados": 4737,
      "pasaron": 4738,
      "vengan": 4739,
      "vendrá": 4740,
      "Cuáles": 4741,
      "Deu": 4742,
      "necesarios": 4743,
      "unigénito": 4744,
      "penses": 4745,
      "pensado": 4746,
      "resuel": 4747,
      "querer": 4748,
      "deseaba": 4749,
      "trito": 4750,
      "actitudes": 4751,
      "conocerlo": 4752,
      "obedecen": 4753,
      "llegamos": 4754,
      "recordó": 4755,
      "hicieran": 4756,
      "mirar": 4757,
      "únicamente": 4758,
      "agrada": 4759,
      "Tenía": 4760,
      "comparación": 4761,
      "parejas": 4762,
      "depende": 4763,
      "inmortal": 4764,
      "noticia": 4765,
      "apacible": 4766,
      "ténganse": 4767,
      "inicuo": 4768,
      "divorci": 4769,
      "adquirir": 4770,
      "Jonatán": 4771,
      "esclavitud": 4772,
      "garantía": 4773,
      "York": 4774,
      "GUN": 4775,
      "bús": 4776,
      "iores": 4777,
      "onom": 4778,
      "quedan": 4779,
      "ascen": 4780,
      "recursos": 4781,
      "diaria": 4782,
      "tier": 4783,
      "contr": 4784,
      "contamos": 4785,
      "conviene": 4786,
      "constitu": 4787,
      "inado": 4788,
      "cuan": 4789,
      "noches": 4790,
      "misión": 4791,
      "tencias": 4792,
      "tarán": 4793,
      "teronom": 4794,
      "trate": 4795,
      "tratamos": 4796,
      "pensó": 4797,
      "bendice": 4798,
      "Cono": 4799,
      "camin": 4800,
      "escritor": 4801,
      "poderosa": 4802,
      "explicación": 4803,
      "cabras": 4804,
      "bebi": 4805,
      "llegada": 4806,
      "dedicado": 4807,
      "evidente": 4808,
      "firmes": 4809,
      "ciudades": 4810,
      "equipo": 4811,
      "empleó": 4812,
      "traduce": 4813,
      "trabajando": 4814,
      "entró": 4815,
      "pelícu": 4816,
      "aire": 4817,
      "persever": 4818,
      "llorar": 4819,
      "Evangelio": 4820,
      "amenaz": 4821,
      "listos": 4822,
      "televisión": 4823,
      "polvo": 4824,
      "averiguar": 4825,
      "ENSEÑ": 4826,
      "Deuteronom": 4827,
      "Deuteronomio": 4828,
      "Igu": 4829,
      "dro": 4830,
      "evolu": 4831,
      "odo": 4832,
      "vamente": 4833,
      "wer": 4834,
      "xodo": 4835,
      "ertas": 4836,
      "laciones": 4837,
      "asom": 4838,
      "cic": 4839,
      "cubrir": 4840,
      "prestar": 4841,
      "sil": 4842,
      "viento": 4843,
      "despi": 4844,
      "excla": 4845,
      "derram": 4846,
      "corre": 4847,
      "pasan": 4848,
      "postura": 4849,
      "salu": 4850,
      "estuvieran": 4851,
      "dejará": 4852,
      "mío": 4853,
      "completa": 4854,
      "contesta": 4855,
      "Podr": 4856,
      "sentí": 4857,
      "calle": 4858,
      "Corinto": 4859,
      "limpios": 4860,
      "compartir": 4861,
      "romanos": 4862,
      "emociones": 4863,
      "telé": 4864,
      "valiosas": 4865,
      "glorifi": 4866,
      "precursorado": 4867,
      "manifestar": 4868,
      "montaña": 4869,
      "rápido": 4870,
      "piedra": 4871,
      "Monte": 4872,
      "Tesal": 4873,
      "35": 4874,
      "Enoc": 4875,
      "Fin": 4876,
      "],": 4877,
      "bec": 4878,
      "gla": 4879,
      "mú": 4880,
      "mentos": 4881,
      "escon": 4882,
      "detrás": 4883,
      "anteriores": 4884,
      "remo": 4885,
      "reconcili": 4886,
      "dito": 4887,
      "digan": 4888,
      "dible": 4889,
      "ampli": 4890,
      "informe": 4891,
      "logía": 4892,
      "cueste": 4893,
      "rie": 4894,
      "novi": 4895,
      "entero": 4896,
      "poli": 4897,
      "mania": 4898,
      "iso": 4899,
      "deba": 4900,
      "pedimos": 4901,
      "biendo": 4902,
      "sintamos": 4903,
      "recién": 4904,
      "alivi": 4905,
      "malvados": 4906,
      "decirlo": 4907,
      "campaña": 4908,
      "auxi": 4909,
      "198": 4910,
      "Salones": 4911,
      "sufriendo": 4912,
      "divinos": 4913,
      "bastante": 4914,
      "formado": 4915,
      "expresar": 4916,
      "atch": 4917,
      "dormir": 4918,
      "inicia": 4919,
      "preciso": 4920,
      "utiliza": 4921,
      "provech": 4922,
      "resucitado": 4923,
      "Sermón": 4924,
      "harán": 4925,
      "vuelto": 4926,
      "estableció": 4927,
      "gustaba": 4928,
      "emocionante": 4929,
      "solución": 4930,
      "solucion": 4931,
      "educar": 4932,
      "escogido": 4933,
      "madurez": 4934,
      "pastore": 4935,
      "trampas": 4936,
      "reunir": 4937,
      "pobreza": 4938,
      "Evangelios": 4939,
      "experiment": 4940,
      "absoluta": 4941,
      "súb": 4942,
      "sobresali": 4943,
      "indefinido": 4944,
      "victoria": 4945,
      "fornicación": 4946,
      "Años": 4947,
      "Bu": 4948,
      "Haz": 4949,
      "Rob": 4950,
      "basta": 4951,
      "faci": 4952,
      "gor": 4953,
      "ner": 4954,
      "rse": 4955,
      "rue": 4956,
      "enso": 4957,
      "oró": 4958,
      "reco": 4959,
      "recomien": 4960,
      "almas": 4961,
      "confun": 4962,
      "confes": 4963,
      "inidad": 4964,
      "invisible": 4965,
      "suje": 4966,
      "ach": 4967,
      "acio": 4968,
      "mue": 4969,
      "rese": 4970,
      "sole": 4971,
      "exp": 4972,
      "excu": 4973,
      "nivel": 4974,
      "due": 4975,
      "labores": 4976,
      "fecha": 4977,
      "estábamos": 4978,
      "hayamos": 4979,
      "grano": 4980,
      "valentía": 4981,
      "corazones": 4982,
      "seguirá": 4983,
      "alabar": 4984,
      "escuchó": 4985,
      "tempr": 4986,
      "fortaleza": 4987,
      "sentían": 4988,
      "prepararse": 4989,
      "rendir": 4990,
      "comete": 4991,
      "teriormente": 4992,
      "celebrar": 4993,
      "Examin": 4994,
      "lectores": 4995,
      "maduros": 4996,
      "excelentes": 4997,
      "fuimos": 4998,
      "rechazó": 4999,
      "hebreos": 5000,
      "QUE": 5001,
      "Mundial": 5002,
      "oficial": 5003,
      "compasivo": 5004,
      "creyentes": 5005,
      "responsable": 5006,
      "regalos": 5007,
      "folleto": 5008,
      "descubierto": 5009,
      "ANZAS": 5010,
      "vínculo": 5011,
      "BÍBLICAS": 5012,
      "ENSEÑANZAS": 5013,
      "músi": 5014,
      "!,": 5015,
      "Austr": 5016,
      "OB": 5017,
      "Pa": 5018,
      "Véase": 5019,
      "acon": 5020,
      "bía": 5021,
      "eos": 5022,
      "rgenes": 5023,
      "depor": 5024,
      "tima": 5025,
      "litar": 5026,
      "acar": 5027,
      "modesti": 5028,
      "descar": 5029,
      "desobedecer": 5030,
      "despreci": 5031,
      "despier": 5032,
      "pregún": 5033,
      "terren": 5034,
      "hice": 5035,
      "decide": 5036,
      "distrito": 5037,
      "venido": 5038,
      "talentos": 5039,
      "sentiremos": 5040,
      "trope": 5041,
      "aprendí": 5042,
      "barro": 5043,
      "pueblos": 5044,
      "permiten": 5045,
      "escuchan": 5046,
      "principales": 5047,
      "expresó": 5048,
      "invita": 5049,
      "romano": 5050,
      "consideraba": 5051,
      "religiosa": 5052,
      "témonos": 5053,
      "acudir": 5054,
      "atraves": 5055,
      "reaccionó": 5056,
      "reaccionar": 5057,
      "desafí": 5058,
      "relacionados": 5059,
      "hermosa": 5060,
      "güen": 5061,
      "recuperar": 5062,
      "QUÉ": 5063,
      "Colos": 5064,
      "Explique": 5065,
      "teléfono": 5066,
      "aconte": 5067,
      "modestia": 5068,
      "Cab": 5069,
      "Famili": 5070,
      "IS": 5071,
      "Min": 5072,
      "Ro": 5073,
      "Sé": 5074,
      "bun": 5075,
      "cob": 5076,
      "cante": 5077,
      "caban": 5078,
      "ejo": 5079,
      "mac": 5080,
      "ura": 5081,
      "yan": 5082,
      "reza": 5083,
      "contento": 5084,
      "lepr": 5085,
      "emente": 5086,
      "entemente": 5087,
      "cala": 5088,
      "usan": 5089,
      "tese": 5090,
      "esposos": 5091,
      "niña": 5092,
      "vari": 5093,
      "pecar": 5094,
      "hablaremos": 5095,
      "comprensi": 5096,
      "preparado": 5097,
      "alimentar": 5098,
      "afirmó": 5099,
      "vírgenes": 5100,
      "imprescin": 5101,
      "tamento": 5102,
      "cuestion": 5103,
      "viajar": 5104,
      "antigua": 5105,
      "inmoralidad": 5106,
      "mentira": 5107,
      "creciendo": 5108,
      "editado": 5109,
      "Usted": 5110,
      "Seguramente": 5111,
      "copiar": 5112,
      "semejante": 5113,
      "Parece": 5114,
      "conveni": 5115,
      "concentrarse": 5116,
      "Estudiantes": 5117,
      "dádiva": 5118,
      "expecta": 5119,
      "pérdida": 5120,
      "súbditos": 5121,
      "Dos": 5122,
      "Eu": 5123,
      "Fran": 5124,
      "Im": 5125,
      "The": 5126,
      "Watch": 5127,
      "aparecen": 5128,
      "otor": 5129,
      "pí": 5130,
      "pese": 5131,
      "rami": 5132,
      "tenta": 5133,
      "devolver": 5134,
      "decían": 5135,
      "arru": 5136,
      "quedado": 5137,
      "orando": 5138,
      "reinar": 5139,
      "tren": 5140,
      "tista": 5141,
      "doy": 5142,
      "domé": 5143,
      "intro": 5144,
      "empren": 5145,
      "rios": 5146,
      "rido": 5147,
      "riendo": 5148,
      "raza": 5149,
      "muestre": 5150,
      "impar": 5151,
      "piados": 5152,
      "tercera": 5153,
      "inoc": 5154,
      "corrom": 5155,
      "lleguen": 5156,
      "discursos": 5157,
      "gia": 5158,
      "reglas": 5159,
      "gosto": 5160,
      "ayudarlo": 5161,
      "estima": 5162,
      "centro": 5163,
      "positiva": 5164,
      "197": 5165,
      "función": 5166,
      "someter": 5167,
      "llevaron": 5168,
      "Mala": 5169,
      "plata": 5170,
      "griega": 5171,
      "cuida": 5172,
      "ponernos": 5173,
      "métodos": 5174,
      "recuerde": 5175,
      "arrepi": 5176,
      "contribuir": 5177,
      "advertencias": 5178,
      "universal": 5179,
      "representan": 5180,
      "desarrollo": 5181,
      "políticos": 5182,
      "heredado": 5183,
      "obligaciones": 5184,
      "Eliseo": 5185,
      "médicos": 5186,
      "brinda": 5187,
      "magnífico": 5188,
      "premio": 5189,
      "blanco": 5190,
      "Segundo": 5191,
      "imprescindible": 5192,
      "domésti": 5193,
      "39": 5194,
      "Bau": 5195,
      "Ch": 5196,
      "Ra": 5197,
      "Vay": 5198,
      "Zacar": 5199,
      "gada": 5200,
      "sar": 5201,
      "tadora": 5202,
      "ódic": 5203,
      "onde": 5204,
      "redu": 5205,
      "repasar": 5206,
      "dili": 5207,
      "ampar": 5208,
      "viendo": 5209,
      "estando": 5210,
      "tengas": 5211,
      "cayó": 5212,
      "verlo": 5213,
      "solas": 5214,
      "deros": 5215,
      "pedí": 5216,
      "adorarlo": 5217,
      "ponía": 5218,
      "drán": 5219,
      "cesi": 5220,
      "clamor": 5221,
      "Conti": 5222,
      "gratitud": 5223,
      "196": 5224,
      "valorar": 5225,
      "primo": 5226,
      "prisión": 5227,
      "Adoración": 5228,
      "sentirnos": 5229,
      "tomamos": 5230,
      "mirando": 5231,
      "mencionado": 5232,
      "legal": 5233,
      "provec": 5234,
      "distinta": 5235,
      "quedaron": 5236,
      "razonables": 5237,
      "inspiración": 5238,
      "edición": 5239,
      "extraordinario": 5240,
      "ariamente": 5241,
      "hábitos": 5242,
      "comentario": 5243,
      "recomend": 5244,
      "exactamente": 5245,
      "tratamiento": 5246,
      "Zacarías": 5247,
      "?.": 5248,
      "Dem": 5249,
      "agres": 5250,
      "cter": 5251,
      "ea": 5252,
      "iendo": 5253,
      "izar": 5254,
      "ral": 5255,
      "cida": 5256,
      "requiere": 5257,
      "altar": 5258,
      "constan": 5259,
      "subir": 5260,
      "lisis": 5261,
      "taran": 5262,
      "prot": 5263,
      "isla": 5264,
      "gradu": 5265,
      "mismí": 5266,
      "señora": 5267,
      "ayudarle": 5268,
      "sinago": 5269,
      "quieres": 5270,
      "aulo": 5271,
      "razos": 5272,
      "aceite": 5273,
      "animal": 5274,
      "personajes": 5275,
      "resultó": 5276,
      "lograron": 5277,
      "demostraremos": 5278,
      "vivieron": 5279,
      "disfrutamos": 5280,
      "llevaban": 5281,
      "gastos": 5282,
      "mesiánico": 5283,
      "profundi": 5284,
      "traducir": 5285,
      "habitación": 5286,
      "derecha": 5287,
      "lenguas": 5288,
      "vuelve": 5289,
      "referirse": 5290,
      "enfrentarse": 5291,
      "agradecer": 5292,
      "valientes": 5293,
      "mentir": 5294,
      "condena": 5295,
      "transmitir": 5296,
      "identificar": 5297,
      "doctrinas": 5298,
      "actúa": 5299,
      "reveló": 5300,
      "modestos": 5301,
      "egoístas": 5302,
      "íntegros": 5303,
      "límites": 5304,
      "patriarca": 5305,
      "periódic": 5306,
      "características": 5307,
      "apóstatas": 5308,
      "Analicemos": 5309,
      "silenci": 5310,
      "iniciativa": 5311,
      "música": 5312,
      "Familia": 5313,
      "Dis": 5314,
      "HA": 5315,
      "LO": 5316,
      "PRE": 5317,
      "ahor": 5318,
      "agosto": 5319,
      "mado": 5320,
      "nis": 5321,
      "peso": 5322,
      "África": 5323,
      "Éxodo": 5324,
      "arte": 5325,
      "ciento": 5326,
      "sec": 5327,
      "invo": 5328,
      "lev": 5329,
      "estan": 5330,
      "pular": 5331,
      "comprom": 5332,
      "serpiente": 5333,
      "habíamos": 5334,
      "socor": 5335,
      "daría": 5336,
      "herrami": 5337,
      "haz": 5338,
      "corresponde": 5339,
      "sobrellevar": 5340,
      "horario": 5341,
      "predicho": 5342,
      "probar": 5343,
      "preguntan": 5344,
      "osafa": 5345,
      "culturas": 5346,
      "caminar": 5347,
      "autén": 5348,
      "aceptaron": 5349,
      "llevarnos": 5350,
      "facultades": 5351,
      "liberalmente": 5352,
      "demostrarle": 5353,
      "dedican": 5354,
      "cometió": 5355,
      "pudiéramos": 5356,
      "íficas": 5357,
      "estrellas": 5358,
      "consci": 5359,
      "uestro": 5360,
      "objetivos": 5361,
      "declara": 5362,
      "vuelta": 5363,
      "fortalecerá": 5364,
      "privile": 5365,
      "éndolo": 5366,
      "Cierto": 5367,
      "misionero": 5368,
      "valiente": 5369,
      "tranquili": 5370,
      "aconsejó": 5371,
      "ocurrido": 5372,
      "poseer": 5373,
      "Pregun": 5374,
      "desempeñ": 5375,
      "Alemania": 5376,
      "culpable": 5377,
      "carácter": 5378,
      "Jehosafa": 5379,
      "ilumin": 5380,
      "quebran": 5381,
      "aconteci": 5382,
      "piadosa": 5383,
      "Jehosafat": 5384,
      "CE": 5385,
      "II": 5386,
      "Jam": 5387,
      "Oh": 5388,
      "Otras": 5389,
      "apos": 5390,
      "brazos": 5391,
      "clic": 5392,
      "tun": 5393,
      "vemente": 5394,
      "ert": 5395,
      "ladr": 5396,
      "tipos": 5397,
      "conmo": 5398,
      "conqui": 5399,
      "convir": 5400,
      "institu": 5401,
      "supi": 5402,
      "sufre": 5403,
      "puertas": 5404,
      "tuvimos": 5405,
      "fiesta": 5406,
      "pido": 5407,
      "piden": 5408,
      "disposición": 5409,
      "pasaba": 5410,
      "pongamos": 5411,
      "tiembre": 5412,
      "Noche": 5413,
      "baj": 5414,
      "lantes": 5415,
      "Confi": 5416,
      "trabajos": 5417,
      "cumpla": 5418,
      "genio": 5419,
      "automó": 5420,
      "líder": 5421,
      "claras": 5422,
      "estudiamos": 5423,
      "Salv": 5424,
      "pacientes": 5425,
      "Mira": 5426,
      "sabias": 5427,
      "respetu": 5428,
      "superfici": 5429,
      "bet": 5430,
      "eterno": 5431,
      "mensajes": 5432,
      "oyentes": 5433,
      "seguiremos": 5434,
      "esforz": 5435,
      "únicos": 5436,
      "compañías": 5437,
      "cincuenta": 5438,
      "habilidades": 5439,
      "entrada": 5440,
      "animan": 5441,
      "valiosos": 5442,
      "glorios": 5443,
      "realizó": 5444,
      "milagro": 5445,
      "correcta": 5446,
      "limitaciones": 5447,
      "peticiones": 5448,
      "beneficio": 5449,
      "poniendo": 5450,
      "semejantes": 5451,
      "rápidamente": 5452,
      "doctrina": 5453,
      "entiende": 5454,
      "Filipenses": 5455,
      "Asá": 5456,
      "científicos": 5457,
      "similar": 5458,
      "oscuridad": 5459,
      "motivar": 5460,
      "video": 5461,
      "reputación": 5462,
      "promover": 5463,
      "análisis": 5464,
      "Finalmente": 5465,
      "recomienda": 5466,
      "Apo": 5467,
      "Fu": 5468,
      "Grie": 5469,
      "aves": 5470,
      "dones": 5471,
      "madres": 5472,
      "rí": 5473,
      "yas": 5474,
      "deli": 5475,
      "cidad": 5476,
      "contras": 5477,
      "contemp": 5478,
      "docum": 5479,
      "incul": 5480,
      "abor": 5481,
      "vicio": 5482,
      "ries": 5483,
      "mira": 5484,
      "complacer": 5485,
      "rato": 5486,
      "seria": 5487,
      "chas": 5488,
      "proviene": 5489,
      "patr": 5490,
      "tercer": 5491,
      "ternal": 5492,
      "solos": 5493,
      "excep": 5494,
      "ayuden": 5495,
      "ayudamos": 5496,
      "breve": 5497,
      "ejemplar": 5498,
      "predican": 5499,
      "pecador": 5500,
      "estilo": 5501,
      "Tienes": 5502,
      "posibles": 5503,
      "justas": 5504,
      "librio": 5505,
      "entregar": 5506,
      "confiable": 5507,
      "barco": 5508,
      "permitido": 5509,
      "Judea": 5510,
      "aceptado": 5511,
      "ign": 5512,
      "resultar": 5513,
      "enviar": 5514,
      "preparación": 5515,
      "invitar": 5516,
      "consuela": 5517,
      "presentan": 5518,
      "distintos": 5519,
      "juicios": 5520,
      "abril": 5521,
      "luchando": 5522,
      "determinar": 5523,
      "determinación": 5524,
      "detalle": 5525,
      "quisiera": 5526,
      "rodean": 5527,
      "identidad": 5528,
      "ejércitos": 5529,
      "sinceramente": 5530,
      "aplas": 5531,
      "programas": 5532,
      "política": 5533,
      "Seguro": 5534,
      "Guerra": 5535,
      "piedras": 5536,
      "garantiza": 5537,
      "negocios": 5538,
      "críticos": 5539,
      "apariencia": 5540,
      "lluvia": 5541,
      "evolución": 5542,
      "beca": 5543,
      "Acab": 5544,
      "Jor": 5545,
      "Lí": 5546,
      "Lam": 5547,
      "Nor": 5548,
      "Neces": 5549,
      "Obe": 5550,
      "TAS": 5551,
      "ape": 5552,
      "cacia": 5553,
      "fas": 5554,
      "famos": 5555,
      "itos": 5556,
      "ok": 5557,
      "resta": 5558,
      "vó": 5559,
      "ólo": 5560,
      "enda": 5561,
      "entra": 5562,
      "arra": 5563,
      "anhe": 5564,
      "rever": 5565,
      "reconocen": 5566,
      "adminis": 5567,
      "admir": 5568,
      "allar": 5569,
      "setenta": 5570,
      "incu": 5571,
      "instante": 5572,
      "suya": 5573,
      "vienen": 5574,
      "pareci": 5575,
      "compla": 5576,
      "ficar": 5577,
      "quiero": 5578,
      "quieran": 5579,
      "éndonos": 5580,
      "costa": 5581,
      "hermandad": 5582,
      "pasamos": 5583,
      "presiones": 5584,
      "adoras": 5585,
      "creemos": 5586,
      "dejen": 5587,
      "sentirá": 5588,
      "Tiene": 5589,
      "esperaban": 5590,
      "muere": 5591,
      "cuerpos": 5592,
      "recibiremos": 5593,
      "cambia": 5594,
      "Mich": 5595,
      "aceptamos": 5596,
      "visitas": 5597,
      "dedicamos": 5598,
      "firmemente": 5599,
      "intenciones": 5600,
      "beneficiarnos": 5601,
      "equilibrio": 5602,
      "pequeñas": 5603,
      "religioso": 5604,
      "próximo": 5605,
      "trabajaba": 5606,
      "refleja": 5607,
      "limpiará": 5608,
      "limpieza": 5609,
      "concedió": 5610,
      "naturales": 5611,
      "pertenec": 5612,
      "Había": 5613,
      "desaparecer": 5614,
      "comienza": 5615,
      "asegurarse": 5616,
      "sociales": 5617,
      "engañar": 5618,
      "ocupado": 5619,
      "Predic": 5620,
      "arries": 5621,
      "orgullosos": 5622,
      "minutos": 5623,
      "misericordioso": 5624,
      "septiembre": 5625,
      "ofrenda": 5626,
      "repente": 5627,
      "manejar": 5628,
      "películas": 5629,
      "Minis": 5630,
      "Griegas": 5631,
      "36": 5632,
      "Cana": 5633,
      "CON": 5634,
      "Den": 5635,
      "Go": 5636,
      "Gali": 5637,
      "Mir": 5638,
      "Saulo": 5639,
      "dale": 5640,
      "fé": 5641,
      "fari": 5642,
      "jese": 5643,
      "ples": 5644,
      "ógi": 5645,
      "armas": 5646,
      "reina": 5647,
      "advers": 5648,
      "alter": 5649,
      "abrió": 5650,
      "lee": 5651,
      "simas": 5652,
      "pob": 5653,
      "guel": 5654,
      "tendencia": 5655,
      "desobedeci": 5656,
      "fija": 5657,
      "pidiendo": 5658,
      "tario": 5659,
      "chos": 5660,
      "habido": 5661,
      "casó": 5662,
      "casada": 5663,
      "hago": 5664,
      "deciden": 5665,
      "seguían": 5666,
      "antepasados": 5667,
      "pedido": 5668,
      "vender": 5669,
      "Cuanto": 5670,
      "sale": 5671,
      "enseñaba": 5672,
      "aprende": 5673,
      "aprenden": 5674,
      "humanas": 5675,
      "relata": 5676,
      "triun": 5677,
      "tribus": 5678,
      "léanse": 5679,
      "ándome": 5680,
      "israelita": 5681,
      "servido": 5682,
      "plane": 5683,
      "recorda": 5684,
      "dirigen": 5685,
      "haberse": 5686,
      "sentencia": 5687,
      "2011": 5688,
      "dificultad": 5689,
      "perdona": 5690,
      "trataron": 5691,
      "inici": 5692,
      "piensen": 5693,
      "bril": 5694,
      "sordos": 5695,
      "Sería": 5696,
      "concep": 5697,
      "condicion": 5698,
      "engaños": 5699,
      "dijera": 5700,
      "ilustra": 5701,
      "inspirada": 5702,
      "obligación": 5703,
      "rebeldes": 5704,
      "destino": 5705,
      "orgulloso": 5706,
      "egoísmo": 5707,
      "perspi": 5708,
      "escribieron": 5709,
      "proclamadores": 5710,
      "obstáculos": 5711,
      "güenza": 5712,
      "Colosenses": 5713,
      "Canaán": 5714,
      "45": 5715,
      "Han": 5716,
      "Mencion": 5717,
      "cales": 5718,
      "egos": 5719,
      "mamá": 5720,
      "tón": 5721,
      "tacto": 5722,
      "zcan": 5723,
      "anh": 5724,
      "anas": 5725,
      "aste": 5726,
      "tible": 5727,
      "conv": 5728,
      "amena": 5729,
      "insul": 5730,
      "supo": 5731,
      "listo": 5732,
      "ris": 5733,
      "acci": 5734,
      "pura": 5735,
      "comunidad": 5736,
      "guir": 5737,
      "criar": 5738,
      "tero": 5739,
      "exactitud": 5740,
      "derro": 5741,
      "lum": 5742,
      "todopoderoso": 5743,
      "presu": 5744,
      "ganas": 5745,
      "singular": 5746,
      "cantes": 5747,
      "alivio": 5748,
      "valen": 5749,
      "valle": 5750,
      "tribun": 5751,
      "escritores": 5752,
      "hablarle": 5753,
      "Leví": 5754,
      "Miguel": 5755,
      "encontraba": 5756,
      "ocupar": 5757,
      "prision": 5758,
      "principalmente": 5759,
      "comprensión": 5760,
      "histó": 5761,
      "disfrutan": 5762,
      "hicimos": 5763,
      "prepararnos": 5764,
      "merec": 5765,
      "dora": 5766,
      "destruido": 5767,
      "producen": 5768,
      "método": 5769,
      "resucitados": 5770,
      "afirman": 5771,
      "declaración": 5772,
      "agradecido": 5773,
      "guardia": 5774,
      "imaginar": 5775,
      "preocupación": 5776,
      "aprovec": 5777,
      "ejerci": 5778,
      "sencillo": 5779,
      "social": 5780,
      "encanta": 5781,
      "defini": 5782,
      "describe": 5783,
      "traerá": 5784,
      "expulsado": 5785,
      "juez": 5786,
      "señalado": 5787,
      "arreglar": 5788,
      "promueve": 5789,
      "simbólico": 5790,
      "policía": 5791,
      "Galilea": 5792,
      "80": 5793,
      "ACI": 5794,
      "Bo": 5795,
      "Pos": 5796,
      "TI": 5797,
      "bras": 5798,
      "evalu": 5799,
      "hú": 5800,
      "itas": 5801,
      "juego": 5802,
      "males": 5803,
      "mamente": 5804,
      "nas": 5805,
      "pad": 5806,
      "zara": 5807,
      "enrique": 5808,
      "lazos": 5809,
      "onas": 5810,
      "queza": 5811,
      "asus": 5812,
      "repi": 5813,
      "retir": 5814,
      "alent": 5815,
      "toman": 5816,
      "confía": 5817,
      "conducir": 5818,
      "amando": 5819,
      "insisti": 5820,
      "cuentan": 5821,
      "vivamos": 5822,
      "mandado": 5823,
      "cau": 5824,
      "nura": 5825,
      "uscri": 5826,
      "vergüenza": 5827,
      "tarje": 5828,
      "crianza": 5829,
      "darán": 5830,
      "hipo": 5831,
      "torno": 5832,
      "Rebeca": 5833,
      "salen": 5834,
      "ayudaría": 5835,
      "Altísimo": 5836,
      "sintieron": 5837,
      "enseñando": 5838,
      "marzo": 5839,
      "deje": 5840,
      "donaciones": 5841,
      "preguntaron": 5842,
      "libres": 5843,
      "Compren": 5844,
      "cama": 5845,
      "cumplen": 5846,
      "confiaba": 5847,
      "some": 5848,
      "Lot": 5849,
      "consiste": 5850,
      "sentado": 5851,
      "llevado": 5852,
      "amari": 5853,
      "tomemos": 5854,
      "gobernantes": 5855,
      "ofrecen": 5856,
      "transformar": 5857,
      "afirmar": 5858,
      "sorpresa": 5859,
      "declarar": 5860,
      "encargó": 5861,
      "conversar": 5862,
      "emocionales": 5863,
      "sirvió": 5864,
      "Todopoderoso": 5865,
      "escoger": 5866,
      "pública": 5867,
      "inmoral": 5868,
      "Esaú": 5869,
      "tranquila": 5870,
      "Haga": 5871,
      "Trinidad": 5872,
      "eternamente": 5873,
      "entrenar": 5874,
      "Felices": 5875,
      "franqueza": 5876,
      "juegos": 5877,
      "Quería": 5878,
      "Nazar": 5879,
      "refugiados": 5880,
      "combatir": 5881,
      "decepcion": 5882,
      "Robert": 5883,
      "Bautista": 5884,
      "nisán": 5885,
      "conquis": 5886,
      "automóvil": 5887,
      "Salvador": 5888,
      "Dónde": 5889,
      "GIN": 5890,
      "Méxi": 5891,
      "Padres": 5892,
      "Res": 5893,
      "bal": 5894,
      "face": 5895,
      "gase": 5896,
      "naz": 5897,
      "ísta": 5898,
      "quin": 5899,
      "quía": 5900,
      "latas": 5901,
      "anda": 5902,
      "quej": 5903,
      "reales": 5904,
      "reún": 5905,
      "sever": 5906,
      "secre": 5907,
      "tome": 5908,
      "león": 5909,
      "liar": 5910,
      "rito": 5911,
      "estación": 5912,
      "estamento": 5913,
      "notar": 5914,
      "militar": 5915,
      "dañ": 5916,
      "comport": 5917,
      "manuscri": 5918,
      "versión": 5919,
      "tarlo": 5920,
      "hablaban": 5921,
      "paga": 5922,
      "darme": 5923,
      "iría": 5924,
      "decidí": 5925,
      "llegué": 5926,
      "Cual": 5927,
      "conocían": 5928,
      "salvo": 5929,
      "minos": 5930,
      "varón": 5931,
      "unido": 5932,
      "pensaban": 5933,
      "”,“": 5934,
      "estarán": 5935,
      "acercó": 5936,
      "funer": 5937,
      "dirán": 5938,
      "ofía": 5939,
      "boli": 5940,
      "superiores": 5941,
      "[...],": 5942,
      "sufrimos": 5943,
      "escuche": 5944,
      "Dijo": 5945,
      "liberar": 5946,
      "oportuno": 5947,
      "benefician": 5948,
      "Quien": 5949,
      "esfuerza": 5950,
      "comparable": 5951,
      "instrucción": 5952,
      "consideran": 5953,
      "diciembre": 5954,
      "preguntarle": 5955,
      "convertido": 5956,
      "nombró": 5957,
      "referencia": 5958,
      "enfrentó": 5959,
      "inmediatamente": 5960,
      "adolescencia": 5961,
      "inquietud": 5962,
      "vayan": 5963,
      "anunció": 5964,
      "milagrosamente": 5965,
      "generosos": 5966,
      "términos": 5967,
      "divorcio": 5968,
      "Canadá": 5969,
      "perspec": 5970,
      "prioridades": 5971,
      "voluntarios": 5972,
      "aumentar": 5973,
      "básicas": 5974,
      "neutrales": 5975,
      "egipcios": 5976,
      "disponible": 5977,
      "asumir": 5978,
      "título": 5979,
      "asombr": 5980,
      "Examinemos": 5981,
      "Continú": 5982,
      "provecho": 5983,
      "silencio": 5984,
      "México": 5985,
      "Ay": 5986,
      "Bel": 5987,
      "Bro": 5988,
      "HO": 5989,
      "Imi": 5990,
      "Jap": 5991,
      "Joh": 5992,
      "Preg": 5993,
      "Rus": 5994,
      "SI": 5995,
      "apres": 5996,
      "cú": 5997,
      "cres": 5998,
      "dra": 5999,
      "elas": 6000,
      "gá": 6001,
      "mali": 6002,
      "pun": 6003,
      "uelo": 6004,
      "vadas": 6005,
      "argu": 6006,
      "lamos": 6007,
      "onic": 6008,
      "quedaba": 6009,
      "oremos": 6010,
      "alia": 6011,
      "tría": 6012,
      "didas": 6013,
      "tea": 6014,
      "titudes": 6015,
      "toler": 6016,
      "contaba": 6017,
      "cura": 6018,
      "embra": 6019,
      "viéramos": 6020,
      "acemos": 6021,
      "entales": 6022,
      "raíz": 6023,
      "desapar": 6024,
      "resenti": 6025,
      "usado": 6026,
      "pidieron": 6027,
      "veían": 6028,
      "color": 6029,
      "ayudante": 6030,
      "giera": 6031,
      "Sier": 6032,
      "señor": 6033,
      "pondrá": 6034,
      "zará": 6035,
      "predicaba": 6036,
      "azo": 6037,
      "espiri": 6038,
      "pregunte": 6039,
      "judía": 6040,
      "julio": 6041,
      "seguirán": 6042,
      "idola": 6043,
      "entendía": 6044,
      "líne": 6045,
      "boles": 6046,
      "érqu": 6047,
      "respeta": 6048,
      "respetamos": 6049,
      "actuó": 6050,
      "conocidos": 6051,
      "insensa": 6052,
      "erná": 6053,
      "lograremos": 6054,
      "facultad": 6055,
      "visite": 6056,
      "dedicarse": 6057,
      "egoísta": 6058,
      "experto": 6059,
      "invitaron": 6060,
      "Quiere": 6061,
      "renuestro": 6062,
      "sacrificar": 6063,
      "profunda": 6064,
      "sucedido": 6065,
      "Tener": 6066,
      "Tengo": 6067,
      "apoyan": 6068,
      "yugo": 6069,
      "encargado": 6070,
      "Será": 6071,
      "obligar": 6072,
      "agradecimiento": 6073,
      "abrir": 6074,
      "preocupaba": 6075,
      "etapa": 6076,
      "Habrá": 6077,
      "Sabía": 6078,
      "exhortó": 6079,
      "castigar": 6080,
      "abundante": 6081,
      "colaboradores": 6082,
      "Traba": 6083,
      "honrados": 6084,
      "encantaba": 6085,
      "energía": 6086,
      "tristeza": 6087,
      "conozcan": 6088,
      "Felipe": 6089,
      "dichas": 6090,
      "inicuos": 6091,
      "entregó": 6092,
      "súpli": 6093,
      "taberná": 6094,
      "posesión": 6095,
      "conduce": 6096,
      "exclamó": 6097,
      "dueño": 6098,
      "temprano": 6099,
      "despiertos": 6100,
      "Europa": 6101,
      "compromiso": 6102,
      "Michelle": 6103,
      "hipocres": 6104,
      "Japón": 6105,
      "John": 6106,
      "Pregún": 6107,
      "onicenses": 6108,
      "hipocresía": 6109,
      "Ayu": 6110,
      "SOB": 6111,
      "ajus": 6112,
      "adelan": 6113,
      "dri": 6114,
      "gaban": 6115,
      "ial": 6116,
      "mía": 6117,
      "ny": 6118,
      "pin": 6119,
      "selec": 6120,
      "tás": 6121,
      "zco": 6122,
      "zonas": 6123,
      "ÓN": 6124,
      "enero": 6125,
      "encomen": 6126,
      "dec": 6127,
      "depresión": 6128,
      "quete": 6129,
      "ciencia": 6130,
      "alem": 6131,
      "alqui": 6132,
      "teor": 6133,
      "seos": 6134,
      "tocar": 6135,
      "amabilidad": 6136,
      "inmen": 6137,
      "sub": 6138,
      "cuya": 6139,
      "empo": 6140,
      "sitos": 6141,
      "persegui": 6142,
      "ván": 6143,
      "entamente": 6144,
      "mular": 6145,
      "fili": 6146,
      "servía": 6147,
      "vecin": 6148,
      "espal": 6149,
      "discer": 6150,
      "sabes": 6151,
      "tiende": 6152,
      "pedía": 6153,
      "baja": 6154,
      "frustr": 6155,
      "bendeci": 6156,
      "esperado": 6157,
      "finales": 6158,
      "santu": 6159,
      "tín": 6160,
      "tío": 6161,
      "morada": 6162,
      "negar": 6163,
      "adura": 6164,
      "llamados": 6165,
      "llegara": 6166,
      "conoció": 6167,
      "comencé": 6168,
      "fortaleció": 6169,
      "propósitos": 6170,
      "árboles": 6171,
      "infancia": 6172,
      "fácilmente": 6173,
      "mencionar": 6174,
      "recibirán": 6175,
      "contigo": 6176,
      "comparó": 6177,
      "acababa": 6178,
      "arroj": 6179,
      "distinto": 6180,
      "reinos": 6181,
      "surgen": 6182,
      "permanente": 6183,
      "Hablando": 6184,
      "ejercer": 6185,
      "asegurarnos": 6186,
      "destacó": 6187,
      "Recuerda": 6188,
      "soltería": 6189,
      "ocurrir": 6190,
      "regularmente": 6191,
      "firmeza": 6192,
      "confían": 6193,
      "económicos": 6194,
      "redentor": 6195,
      "desempeña": 6196,
      "Asimismo": 6197,
      "escapar": 6198,
      "Acérqu": 6199,
      "ventajas": 6200,
      "comportarnos": 6201,
      "cariñoso": 6202,
      "elementos": 6203,
      "comunes": 6204,
      "beteli": 6205,
      "Lament": 6206,
      "padrenuestro": 6207,
      "Siervo": 6208,
      "SOBRE": 6209,
      "):": 6210,
      "Abi": 6211,
      "Bras": 6212,
      "Dese": 6213,
      "Gá": 6214,
      "Hable": 6215,
      "JE": 6216,
      "Jan": 6217,
      "PU": 6218,
      "Ri": 6219,
      "Ste": 6220,
      "Ter": 6221,
      "ais": 6222,
      "atribu": 6223,
      "flu": 6224,
      "ko": 6225,
      "lyn": 6226,
      "sá": 6227,
      "zcamos": 6228,
      "”:": 6229,
      "escena": 6230,
      "enos": 6231,
      "dedica": 6232,
      "lamento": 6233,
      "onto": 6234,
      "repe": 6235,
      "traciones": 6236,
      "amables": 6237,
      "suminis": 6238,
      "abel": 6239,
      "leído": 6240,
      "emper": 6241,
      "siva": 6242,
      "aco": 6243,
      "mido": 6244,
      "váli": 6245,
      "bibli": 6246,
      "mosle": 6247,
      "impre": 6248,
      "respal": 6249,
      "usamos": 6250,
      "verse": 6251,
      "profé": 6252,
      "isa": 6253,
      "Enseguida": 6254,
      "votos": 6255,
      "España": 6256,
      "personalmente": 6257,
      "espacio": 6258,
      "discul": 6259,
      "huesos": 6260,
      "venía": 6261,
      "venida": 6262,
      "Deci": 6263,
      "dejé": 6264,
      "dejara": 6265,
      "unida": 6266,
      "Tiempo": 6267,
      "sano": 6268,
      "1919": 6269,
      "necesite": 6270,
      "cumplieron": 6271,
      "escuchando": 6272,
      "valoramos": 6273,
      "bautizados": 6274,
      "liberados": 6275,
      "dedicó": 6276,
      "Josías": 6277,
      "bondadosos": 6278,
      "fortaleci": 6279,
      "preparó": 6280,
      "imitamos": 6281,
      "merecen": 6282,
      "calles": 6283,
      "uelos": 6284,
      "2013": 6285,
      "rencor": 6286,
      "perdonó": 6287,
      "perdonado": 6288,
      "causado": 6289,
      "enfrente": 6290,
      "trabajadores": 6291,
      "simboli": 6292,
      "generoso": 6293,
      "distinguir": 6294,
      "objeto": 6295,
      "examen": 6296,
      "Nuestros": 6297,
      "hogares": 6298,
      "intenta": 6299,
      "madura": 6300,
      "Aquellos": 6301,
      "edificar": 6302,
      "vierten": 6303,
      "Manténganse": 6304,
      "salieron": 6305,
      "procedió": 6306,
      "muriera": 6307,
      "económica": 6308,
      "placeres": 6309,
      "admite": 6310,
      "practicar": 6311,
      "efectuar": 6312,
      "figur": 6313,
      "víctimas": 6314,
      "Ilustración": 6315,
      "tropezar": 6316,
      "conveniente": 6317,
      "expectativas": 6318,
      "PREGUN": 6319,
      "privilegios": 6320,
      "Jamás": 6321,
      "Necesi": 6322,
      "restaur": 6323,
      "Ministerio": 6324,
      "Mencione": 6325,
      "idolatría": 6326,
      "tabernáculo": 6327,
      "Gálatas": 6328,
      ",“": 6329,
      "38": 6330,
      "42": 6331,
      "CA": 6332,
      "Día": 6333,
      "Dado": 6334,
      "bes": 6335,
      "crá": 6336,
      "genti": 6337,
      "jeron": 6338,
      "oci": 6339,
      "oto": 6340,
      "rama": 6341,
      "xima": 6342,
      "yec": 6343,
      "zaban": 6344,
      "éli": 6345,
      "eri": 6346,
      "redi": 6347,
      "reemp": 6348,
      "altura": 6349,
      "diestra": 6350,
      "tomando": 6351,
      "consola": 6352,
      "dolores": 6353,
      "inmun": 6354,
      "inmens": 6355,
      "subra": 6356,
      "local": 6357,
      "lealmente": 6358,
      "mica": 6359,
      "motiva": 6360,
      "mantengamos": 6361,
      "caí": 6362,
      "desánimo": 6363,
      "nutri": 6364,
      "verlos": 6365,
      "crimin": 6366,
      "derá": 6367,
      "hipó": 6368,
      "cocin": 6369,
      "emplea": 6370,
      "corintios": 6371,
      "labios": 6372,
      "Sigamos": 6373,
      "vendría": 6374,
      "presi": 6375,
      "bajar": 6376,
      "ganado": 6377,
      "dejaba": 6378,
      "pensamiento": 6379,
      "bendijo": 6380,
      "Tito": 6381,
      "positivos": 6382,
      "meditación": 6383,
      "audi": 6384,
      "activo": 6385,
      "escribe": 6386,
      "negó": 6387,
      "poderosos": 6388,
      "propiedad": 6389,
      "edor": 6390,
      "aceptan": 6391,
      "ignor": 6392,
      "recto": 6393,
      "plantas": 6394,
      "2010": 6395,
      "primeras": 6396,
      "abierto": 6397,
      "debilidades": 6398,
      "flexi": 6399,
      "oveja": 6400,
      "hallado": 6401,
      "influye": 6402,
      "extrañar": 6403,
      "sostiene": 6404,
      "surgir": 6405,
      "Marta": 6406,
      "incluir": 6407,
      "obliga": 6408,
      "impresión": 6409,
      "factor": 6410,
      "convenció": 6411,
      "Fij": 6412,
      "ofrecieron": 6413,
      "cémonos": 6414,
      "impresionante": 6415,
      "regularidad": 6416,
      "intentó": 6417,
      "digno": 6418,
      "dignos": 6419,
      "fraternal": 6420,
      "lágrima": 6421,
      "prohibido": 6422,
      "profesor": 6423,
      "compasivos": 6424,
      "Cantar": 6425,
      "eliminará": 6426,
      "producto": 6427,
      "refirió": 6428,
      "drogas": 6429,
      "levadura": 6430,
      "herramientas": 6431,
      "poseerán": 6432,
      "Líder": 6433,
      "Nazaret": 6434,
      "inmenso": 6435,
      "Brasil": 6436,
      "Amo": 6437,
      "Bern": 6438,
      "Demos": 6439,
      "Fí": 6440,
      "Jue": 6441,
      "Knor": 6442,
      "Nabo": 6443,
      "Testamento": 6444,
      "agar": 6445,
      "clo": 6446,
      "ctores": 6447,
      "dental": 6448,
      "gían": 6449,
      "mera": 6450,
      "pinas": 6451,
      "tadores": 6452,
      "íni": 6453,
      "enveje": 6454,
      "det": 6455,
      "deón": 6456,
      "arma": 6457,
      "anzas": 6458,
      "tieran": 6459,
      "sepan": 6460,
      "consiguió": 6461,
      "sucurs": 6462,
      "logran": 6463,
      "empu": 6464,
      "riéndose": 6465,
      "estí": 6466,
      "mitad": 6467,
      "compara": 6468,
      "compli": 6469,
      "tubre": 6470,
      "poten": 6471,
      "obrar": 6472,
      "mansos": 6473,
      "capital": 6474,
      "prefi": 6475,
      "piel": 6476,
      "maíz": 6477,
      "papa": 6478,
      "padeci": 6479,
      "haces": 6480,
      "grá": 6481,
      "daré": 6482,
      "Están": 6483,
      "tesoro": 6484,
      "traten": 6485,
      "toria": 6486,
      "tormento": 6487,
      "Deber": 6488,
      "salmo": 6489,
      "minio": 6490,
      "predicó": 6491,
      "maron": 6492,
      "curó": 6493,
      "sagr": 6494,
      "interro": 6495,
      "ológi": 6496,
      "activos": 6497,
      "escuelas": 6498,
      "dirá": 6499,
      "llamaba": 6500,
      "publicó": 6501,
      "conocida": 6502,
      "formó": 6503,
      "logramos": 6504,
      "logrará": 6505,
      "bauticé": 6506,
      "comprendía": 6507,
      "protegió": 6508,
      "bondadoso": 6509,
      "ínci": 6510,
      "sentirán": 6511,
      "amarlo": 6512,
      "2012": 6513,
      "obedecerle": 6514,
      "solía": 6515,
      "ezcan": 6516,
      "olvide": 6517,
      "participan": 6518,
      "tábamos": 6519,
      "tumba": 6520,
      "continuó": 6521,
      "continuar": 6522,
      "circunci": 6523,
      "oídos": 6524,
      "descubr": 6525,
      "enfrentan": 6526,
      "enfrentamos": 6527,
      "levantar": 6528,
      "hermosas": 6529,
      "rechazado": 6530,
      "ídolos": 6531,
      "ofendido": 6532,
      "corriendo": 6533,
      "paces": 6534,
      "político": 6535,
      "Absalón": 6536,
      "arrepentido": 6537,
      "sép": 6538,
      "ónicas": 6539,
      "reunirse": 6540,
      "pelear": 6541,
      "vigilantes": 6542,
      "prosper": 6543,
      "Tomemos": 6544,
      "Pronto": 6545,
      "Joel": 6546,
      "responsables": 6547,
      "Todavía": 6548,
      "Gedeón": 6549,
      "pronunció": 6550,
      "vinieron": 6551,
      "convicción": 6552,
      "Imaginemos": 6553,
      "Ningún": 6554,
      "sell": 6555,
      "donativos": 6556,
      "Obser": 6557,
      "contris": 6558,
      "mueve": 6559,
      "amaritan": 6560,
      "Brook": 6561,
      "Russell": 6562,
      "Lamentablemente": 6563,
      "PREGUNTAS": 6564,
      "reempla": 6565,
      "hipócri": 6566,
      "Knorr": 6567,
      "Nabot": 6568,
      "sucursales": 6569,
      "44": 6570,
      "Há": 6571,
      "Tan": 6572,
      "agri": 6573,
      "cél": 6574,
      "eo": 6575,
      "fres": 6576,
      "gale": 6577,
      "iza": 6578,
      "iga": 6579,
      "mada": 6580,
      "mesa": 6581,
      "mbo": 6582,
      "samaritan": 6583,
      "yera": 6584,
      "españ": 6585,
      "deudas": 6586,
      "erte": 6587,
      "queas": 6588,
      "reconfor": 6589,
      "alu": 6590,
      "tray": 6591,
      "dibu": 6592,
      "contexto": 6593,
      "abé": 6594,
      "cubier": 6595,
      "emí": 6596,
      "partamento": 6597,
      "miendo": 6598,
      "pureza": 6599,
      "dada": 6600,
      "coman": 6601,
      "compu": 6602,
      "mantiene": 6603,
      "mantenemos": 6604,
      "filos": 6605,
      "servían": 6606,
      "vernos": 6607,
      "verio": 6608,
      "pienso": 6609,
      "terra": 6610,
      "colum": 6611,
      "ayud": 6612,
      "ayudaba": 6613,
      "niñ": 6614,
      "duele": 6615,
      "pasemos": 6616,
      "pasaría": 6617,
      "adoran": 6618,
      "símbo": 6619,
      "crean": 6620,
      "creencia": 6621,
      "zarse": 6622,
      "Noemí": 6623,
      "virtud": 6624,
      "virtudes": 6625,
      "aliento": 6626,
      "sentimiento": 6627,
      "cenas": 6628,
      "santa": 6629,
      "positivo": 6630,
      "quierda": 6631,
      "jueces": 6632,
      "Comi": 6633,
      "Cristian": 6634,
      "monte": 6635,
      "falso": 6636,
      "explican": 6637,
      "izquierda": 6638,
      "frutos": 6639,
      "Miqueas": 6640,
      "respetan": 6641,
      "supervi": 6642,
      "iglesias": 6643,
      "párese": 6644,
      "visitó": 6645,
      "Ante": 6646,
      "Anton": 6647,
      "fortalecen": 6648,
      "urgente": 6649,
      "leerla": 6650,
      "emplear": 6651,
      "capacitados": 6652,
      "habilidad": 6653,
      "imitarlo": 6654,
      "continuo": 6655,
      "encarce": 6656,
      "comerci": 6657,
      "limpiar": 6658,
      "territorios": 6659,
      "pertenecen": 6660,
      "violento": 6661,
      "adulto": 6662,
      "inmorales": 6663,
      "viajes": 6664,
      "ANDO": 6665,
      "juntas": 6666,
      "pacíficos": 6667,
      "provocado": 6668,
      "fundamento": 6669,
      "hallarán": 6670,
      "Feliz": 6671,
      "obses": 6672,
      "sembrar": 6673,
      "experimentar": 6674,
      "matarlo": 6675,
      "absoluto": 6676,
      "cuántas": 6677,
      "hallamos": 6678,
      "empieza": 6679,
      "dádivas": 6680,
      "octubre": 6681,
      "Jehú": 6682,
      "ARA": 6683,
      "sesenta": 6684,
      "perjudic": 6685,
      "registr": 6686,
      "continúa": 6687,
      "distancia": 6688,
      "ministerial": 6689,
      "sobresaliente": 6690,
      "Australia": 6691,
      "desafío": 6692,
      "contraste": 6693,
      "fariseos": 6694,
      "recordatorios": 6695,
      "perspicacia": 6696,
      "accidente": 6697,
      "línea": 6698,
      "emperador": 6699,
      "célu": 6700,
      "español": 6701,
      "41": 6702,
      "Acaso": 6703,
      "Jus": 6704,
      "LE": 6705,
      "MI": 6706,
      "Rojo": 6707,
      "SU": 6708,
      "TEN": 6709,
      "brió": 6710,
      "cés": 6711,
      "fero": 6712,
      "lento": 6713,
      "ramos": 6714,
      "sens": 6715,
      "decer": 6716,
      "detener": 6717,
      "deprimi": 6718,
      "ardón": 6719,
      "representar": 6720,
      "dias": 6721,
      "ingen": 6722,
      "injusto": 6723,
      "sumamente": 6724,
      "oma": 6725,
      "embara": 6726,
      "simos": 6727,
      "sidades": 6728,
      "estad": 6729,
      "persu": 6730,
      "percep": 6731,
      "pude": 6732,
      "entab": 6733,
      "popular": 6734,
      "mudarse": 6735,
      "tate": 6736,
      "impide": 6737,
      "design": 6738,
      "proyec": 6739,
      "mater": 6740,
      "ternura": 6741,
      "exceso": 6742,
      "coinci": 6743,
      "cosech": 6744,
      "rollos": 6745,
      "Bien": 6746,
      "heridas": 6747,
      "nimo": 6748,
      "decidimos": 6749,
      "tasía": 6750,
      "lleven": 6751,
      "todominio": 6752,
      "pensé": 6753,
      "pensable": 6754,
      "nave": 6755,
      "preguntaba": 6756,
      "sanos": 6757,
      "mueren": 6758,
      "internacional": 6759,
      "relativamente": 6760,
      "autodominio": 6761,
      "cambian": 6762,
      "permiso": 6763,
      "ministro": 6764,
      "ministros": 6765,
      "escuchamos": 6766,
      "valoran": 6767,
      "justifi": 6768,
      "basa": 6769,
      "contaban": 6770,
      "recal": 6771,
      "demostrando": 6772,
      "comprendemos": 6773,
      "comprendió": 6774,
      "atentamente": 6775,
      "llevando": 6776,
      "beneficiarse": 6777,
      "opción": 6778,
      "producti": 6779,
      "recuerdo": 6780,
      "transgres": 6781,
      "hosti": 6782,
      "objetos": 6783,
      "surge": 6784,
      "surgió": 6785,
      "vuelva": 6786,
      "terribles": 6787,
      "regreso": 6788,
      "intentar": 6789,
      "concentr": 6790,
      "exhorta": 6791,
      "consultar": 6792,
      "edificio": 6793,
      "disciplinar": 6794,
      "posee": 6795,
      "prohibi": 6796,
      "sendas": 6797,
      "Filipinas": 6798,
      "débil": 6799,
      "cercano": 6800,
      "investigación": 6801,
      "cáncer": 6802,
      "galardón": 6803,
      "distribuye": 6804,
      "tradiciones": 6805,
      "profetizó": 6806,
      "cautiverio": 6807,
      "farero": 6808,
      "posesiones": 6809,
      "víctima": 6810,
      "Millones": 6811,
      "numerosas": 6812,
      "CUANDO": 6813,
      "satisfecho": 6814,
      "venganza": 6815,
      "cuantas": 6816,
      "Cabeza": 6817,
      "Francia": 6818,
      "acontecimientos": 6819,
      "Miren": 6820,
      "brillante": 6821,
      "perspectiva": 6822,
      "perseguidos": 6823,
      "sáb": 6824,
      "Bernabé": 6825,
      "Fíjese": 6826,
      "trayec": 6827,
      "Cristianas": 6828,
      "Antonio": 6829,
      "Aquí": 6830,
      "ME": 6831,
      "Raquel": 6832,
      "apre": 6833,
      "aparte": 6834,
      "babilon": 6835,
      "gnos": 6836,
      "rin": 6837,
      "stas": 6838,
      "tamiento": 6839,
      "ww": 6840,
      "deuda": 6841,
      "arran": 6842,
      "lam": 6843,
      "tidos": 6844,
      "ticamente": 6845,
      "sed": 6846,
      "conmem": 6847,
      "inv": 6848,
      "indí": 6849,
      "incondicion": 6850,
      "siembra": 6851,
      "viudas": 6852,
      "viejo": 6853,
      "compor": 6854,
      "compárese": 6855,
      "mantienen": 6856,
      "desobediencia": 6857,
      "predi": 6858,
      "prepara": 6859,
      "sustitu": 6860,
      "pida": 6861,
      "gros": 6862,
      "exclu": 6863,
      "derrum": 6864,
      "irnos": 6865,
      "hacerme": 6866,
      "corta": 6867,
      "ensas": 6868,
      "giendo": 6869,
      "tienden": 6870,
      "Siendo": 6871,
      "cedió": 6872,
      "humilla": 6873,
      "venían": 6874,
      "ponían": 6875,
      "crees": 6876,
      "conocí": 6877,
      "sincera": 6878,
      "dejarse": 6879,
      "dejarnos": 6880,
      "preguntemos": 6881,
      "culto": 6882,
      "gratu": 6883,
      "escrita": 6884,
      "vano": 6885,
      "entendemos": 6886,
      "celos": 6887,
      "parecían": 6888,
      "mayordo": 6889,
      "acepto": 6890,
      "resulte": 6891,
      "sombra": 6892,
      "teocrá": 6893,
      "planta": 6894,
      "prometida": 6895,
      "organizar": 6896,
      "dirigía": 6897,
      "envidia": 6898,
      "Ingla": 6899,
      "preocupan": 6900,
      "mencionan": 6901,
      "mencionada": 6902,
      "influencias": 6903,
      "ocurra": 6904,
      "encontrará": 6905,
      "encontraron": 6906,
      "encontré": 6907,
      "agradan": 6908,
      "agradables": 6909,
      "mostraron": 6910,
      "realizan": 6911,
      "guardar": 6912,
      "protegernos": 6913,
      "progresando": 6914,
      "relaciona": 6915,
      "Univer": 6916,
      "dominio": 6917,
      "acercará": 6918,
      "revelan": 6919,
      "recompensas": 6920,
      "tranquilidad": 6921,
      "analicemos": 6922,
      "viajantes": 6923,
      "honrado": 6924,
      "cuarto": 6925,
      "ofender": 6926,
      "Recuerdo": 6927,
      "obedeció": 6928,
      "enteró": 6929,
      "ocupados": 6930,
      "sorprende": 6931,
      "Guar": 6932,
      "conozcamos": 6933,
      "normalmente": 6934,
      "posibilidades": 6935,
      "concentrarnos": 6936,
      "percibir": 6937,
      "delei": 6938,
      "Pongamos": 6939,
      "proporciona": 6940,
      "Baruc": 6941,
      "exacta": 6942,
      "desastre": 6943,
      "ofrendas": 6944,
      "evangelizador": 6945,
      "existirá": 6946,
      "manifiesto": 6947,
      "Empec": 6948,
      "numerosos": 6949,
      "Igual": 6950,
      "auxiliar": 6951,
      "facilidad": 6952,
      "calamidad": 6953,
      "introdu": 6954,
      "agresi": 6955,
      "inculcar": 6956,
      "prisioneros": 6957,
      "quince": 6958,
      "apresur": 6959,
      "seleccion": 6960,
      "Brooklyn": 6961,
      "indígen": 6962,
      "Inglaterra": 6963,
      "Acu": 6964,
      "Hallar": 6965,
      "Ir": 6966,
      "Ja": 6967,
      "JES": 6968,
      "May": 6969,
      "PÁ": 6970,
      "Pau": 6971,
      "PARA": 6972,
      "Resp": 6973,
      "Soy": 6974,
      "glo": 6975,
      "melo": 6976,
      "rab": 6977,
      "raci": 6978,
      "vin": 6979,
      "ñado": 6980,
      "escondi": 6981,
      "enas": 6982,
      "enca": 6983,
      "demuestre": 6984,
      "ertos": 6985,
      "ore": 6986,
      "cidos": 6987,
      "cina": 6988,
      "repeti": 6989,
      "une": 6990,
      "dieci": 6991,
      "teza": 6992,
      "tidi": 6993,
      "tierras": 6994,
      "seas": 6995,
      "contienen": 6996,
      "doble": 6997,
      "amon": 6998,
      "insta": 6999,
      "insis": 7000,
      "incomparable": 7001,
      "absor": 7002,
      "logra": 7003,
      "ónico": 7004,
      "visiones": 7005,
      "midos": 7006,
      "datos": 7007,
      "imperio": 7008,
      "delincu": 7009,
      "fiestas": 7010,
      "fijar": 7011,
      "comodi": 7012,
      "terremo": 7013,
      "Esper": 7014,
      "cotidi": 7015,
      "larse": 7016,
      "distr": 7017,
      "certeza": 7018,
      "cedentes": 7019,
      "pedia": 7020,
      "presti": 7021,
      "presenci": 7022,
      "pongan": 7023,
      "enseñaron": 7024,
      "estuve": 7025,
      "dejando": 7026,
      "cano": 7027,
      "cantó": 7028,
      "aprendan": 7029,
      "desear": 7030,
      "necesitar": 7031,
      "funciones": 7032,
      "líci": 7033,
      "cambiaron": 7034,
      "significan": 7035,
      "respetaba": 7036,
      "aguar": 7037,
      "actuando": 7038,
      "pendiente": 7039,
      "inscri": 7040,
      "primir": 7041,
      "ocasion": 7042,
      "apoya": 7043,
      "termine": 7044,
      "terminado": 7045,
      "comprenden": 7046,
      "vivieran": 7047,
      "tendrás": 7048,
      "enviaron": 7049,
      "llevados": 7050,
      "calmar": 7051,
      "beneficiado": 7052,
      "beneficiará": 7053,
      "debieron": 7054,
      "inicio": 7055,
      "vencido": 7056,
      "suceda": 7057,
      "foto": 7058,
      "traducciones": 7059,
      "habitada": 7060,
      "simples": 7061,
      "raro": 7062,
      "acuerdos": 7063,
      "librarnos": 7064,
      "concluir": 7065,
      "atrae": 7066,
      "atraer": 7067,
      "universidad": 7068,
      "realizado": 7069,
      "guarda": 7070,
      "Quizá": 7071,
      "representaba": 7072,
      "Aquella": 7073,
      "2007": 7074,
      "2008": 7075,
      "2009": 7076,
      "valiéndose": 7077,
      "electr": 7078,
      "pusiera": 7079,
      "autoestima": 7080,
      "arrepentimiento": 7081,
      "Estudio": 7082,
      "avergon": 7083,
      "Santas": 7084,
      "residentes": 7085,
      "entienden": 7086,
      "motivó": 7087,
      "Venga": 7088,
      "comentó": 7089,
      "cuánta": 7090,
      "criatura": 7091,
      "cánticos": 7092,
      "caballo": 7093,
      "umni": 7094,
      "Dejen": 7095,
      "despertar": 7096,
      "fomenta": 7097,
      "desastres": 7098,
      "Simón": 7099,
      "preocuparse": 7100,
      "extremo": 7101,
      "afirmación": 7102,
      "tecno": 7103,
      "bebida": 7104,
      "Podríamos": 7105,
      "Tesalónica": 7106,
      "arrepienten": 7107,
      "anhelo": 7108,
      "Belén": 7109,
      "Fijémonos": 7110,
      "Juez": 7111,
      "babilonios": 7112,
      "PÁGIN": 7113,
      "55": 7114,
      "65": 7115,
      "Cr": 7116,
      "Cam": 7117,
      "Cale": 7118,
      "DES": 7119,
      "Efec": 7120,
      "Eran": 7121,
      "Voy": 7122,
      "bom": 7123,
      "belle": 7124,
      "cli": 7125,
      "efica": 7126,
      "fem": 7127,
      "flor": 7128,
      "hun": 7129,
      "pción": 7130,
      "ré": 7131,
      "ruego": 7132,
      "ualidad": 7133,
      "vando": 7134,
      "ático": 7135,
      "”!": 7136,
      "endas": 7137,
      "demuestr": 7138,
      "devor": 7139,
      "diales": 7140,
      "seba": 7141,
      "semillas": 7142,
      "contempor": 7143,
      "infin": 7144,
      "inju": 7145,
      "inútil": 7146,
      "suerte": 7147,
      "abur": 7148,
      "prínci": 7149,
      "siega": 7150,
      "vidad": 7151,
      "viamente": 7152,
      "ritos": 7153,
      "novio": 7154,
      "puse": 7155,
      "Jez": 7156,
      "gustan": 7157,
      "mulo": 7158,
      "tensión": 7159,
      "respi": 7160,
      "prejuicios": 7161,
      "quisito": 7162,
      "piso": 7163,
      "sonri": 7164,
      "abajo": 7165,
      "pala": 7166,
      "soport": 7167,
      "exhi": 7168,
      "Esas": 7169,
      "irri": 7170,
      "fortun": 7171,
      "hacerles": 7172,
      "corto": 7173,
      "gieron": 7174,
      "tiendas": 7175,
      "Siria": 7176,
      "hur": 7177,
      "eligió": 7178,
      "creían": 7179,
      "creados": 7180,
      "crece": 7181,
      "talia": 7182,
      "frus": 7183,
      "frío": 7184,
      "brero": 7185,
      "canciones": 7186,
      "curar": 7187,
      "fervor": 7188,
      "jugar": 7189,
      "cionario": 7190,
      "gravemente": 7191,
      "meditamos": 7192,
      "trabaja": 7193,
      "intervenci": 7194,
      "morimos": 7195,
      "trascen": 7196,
      "neg": 7197,
      "recibirá": 7198,
      "celoso": 7199,
      "animamos": 7200,
      "mone": 7201,
      "alabarlo": 7202,
      "empezamos": 7203,
      "busque": 7204,
      "perfectamente": 7205,
      "escuchado": 7206,
      "tomaron": 7207,
      "verdaderas": 7208,
      "norma": 7209,
      "consigo": 7210,
      "consigue": 7211,
      "echó": 7212,
      "violar": 7213,
      "sentiría": 7214,
      "urgencia": 7215,
      "invitamos": 7216,
      "dejaran": 7217,
      "ideal": 7218,
      "enseñarle": 7219,
      "causas": 7220,
      "Coré": 7221,
      "cometemos": 7222,
      "cometieron": 7223,
      "panes": 7224,
      "controla": 7225,
      "utilizando": 7226,
      "capacitación": 7227,
      "considerado": 7228,
      "diciales": 7229,
      "sistemas": 7230,
      "harían": 7231,
      "vuelvan": 7232,
      "contribuyen": 7233,
      "solamente": 7234,
      "referencias": 7235,
      "orient": 7236,
      "pertenecer": 7237,
      "tendencias": 7238,
      "salvó": 7239,
      "bautizaron": 7240,
      "separado": 7241,
      "analiza": 7242,
      "ofende": 7243,
      "piezo": 7244,
      "burlas": 7245,
      "enterarse": 7246,
      "funciona": 7247,
      "pierde": 7248,
      "expulsados": 7249,
      "rumbo": 7250,
      "fijado": 7251,
      "asesin": 7252,
      "asesina": 7253,
      "prudentes": 7254,
      "actúan": 7255,
      "moldear": 7256,
      "Alex": 7257,
      "Asia": 7258,
      "investigadores": 7259,
      "modernos": 7260,
      "Geor": 7261,
      "equilibrado": 7262,
      "borrac": 7263,
      "negocio": 7264,
      "fracaso": 7265,
      "Baal": 7266,
      "tierno": 7267,
      "debajo": 7268,
      "solucionar": 7269,
      "Bueno": 7270,
      "terreno": 7271,
      "Malaquías": 7272,
      "socorro": 7273,
      "evaluar": 7274,
      "Continúen": 7275,
      "discerni": 7276,
      "Comité": 7277,
      "Mayor": 7278,
      "Caleb": 7279,
      "eficaz": 7280,
      "contemporán": 7281,
      "Drama": 7282,
      "Edu": 7283,
      "LAS": 7284,
      "MU": 7285,
      "OTR": 7286,
      "Pese": 7287,
      "agreg": 7288,
      "afer": 7289,
      "bin": 7290,
      "blas": 7291,
      "besti": 7292,
      "cni": 7293,
      "cable": 7294,
      "fan": 7295,
      "flores": 7296,
      "jera": 7297,
      "ph": 7298,
      "pelo": 7299,
      "sensa": 7300,
      "tentes": 7301,
      "ética": 7302,
      "espar": 7303,
      "ende": 7304,
      "dedi": 7305,
      "defi": 7306,
      "ary": 7307,
      "arras": 7308,
      "lavar": 7309,
      "and": 7310,
      "asoci": 7311,
      "orra": 7312,
      "adonde": 7313,
      "albor": 7314,
      "tiern": 7315,
      "tower": 7316,
      "conlleva": 7317,
      "convierte": 7318,
      "amaban": 7319,
      "incre": 7320,
      "abarca": 7321,
      "abuelos": 7322,
      "estantes": 7323,
      "ací": 7324,
      "acaba": 7325,
      "perdieron": 7326,
      "tual": 7327,
      "modifi": 7328,
      "mutu": 7329,
      "mantuvieron": 7330,
      "desampar": 7331,
      "áni": 7332,
      "prove": 7333,
      "criado": 7334,
      "islas": 7335,
      "fumar": 7336,
      "teros": 7337,
      "tercero": 7338,
      "veo": 7339,
      "rogó": 7340,
      "largas": 7341,
      "esplen": 7342,
      "amigas": 7343,
      "correr": 7344,
      "distante": 7345,
      "seguí": 7346,
      "sobr": 7347,
      "denes": 7348,
      "dense": 7349,
      "adoraban": 7350,
      "Reci": 7351,
      "guió": 7352,
      "mundiales": 7353,
      "cómoda": 7354,
      "predicadores": 7355,
      "uela": 7356,
      "llaman": 7357,
      "Sean": 7358,
      "desee": 7359,
      "volvieron": 7360,
      "escritas": 7361,
      "negaron": 7362,
      "mayo": 7363,
      "estudiado": 7364,
      "explicaciones": 7365,
      "dólares": 7366,
      "Milen": 7367,
      "sabiendo": 7368,
      "Tower": 7369,
      "llegaría": 7370,
      "llegarán": 7371,
      "ándola": 7372,
      "basándose": 7373,
      "mínimo": 7374,
      "efectú": 7375,
      "visibles": 7376,
      "liberado": 7377,
      "Andr": 7378,
      "intento": 7379,
      "partido": 7380,
      "árselo": 7381,
      "cumplirse": 7382,
      "cumpliría": 7383,
      "mencionados": 7384,
      "abierta": 7385,
      "abiertamente": 7386,
      "destruida": 7387,
      "causar": 7388,
      "ezan": 7389,
      "cometen": 7390,
      "interesan": 7391,
      "aseguran": 7392,
      "hallan": 7393,
      "alegrías": 7394,
      "utilizado": 7395,
      "técni": 7396,
      "indicar": 7397,
      "reflej": 7398,
      "arreba": 7399,
      "incluidos": 7400,
      "razonamientos": 7401,
      "librarse": 7402,
      "conclusiones": 7403,
      "concede": 7404,
      "realiza": 7405,
      "sirviéndole": 7406,
      "protegerá": 7407,
      "engaño": 7408,
      "muchísimas": 7409,
      "afectu": 7410,
      "dominar": 7411,
      "explicarles": 7412,
      "mostrado": 7413,
      "inspiradas": 7414,
      "desarrolla": 7415,
      "integr": 7416,
      "tranquilo": 7417,
      "viajante": 7418,
      "Pastor": 7419,
      "llorando": 7420,
      "responderemos": 7421,
      "investigar": 7422,
      "desanimados": 7423,
      "arrepentirse": 7424,
      "alejado": 7425,
      "Liber": 7426,
      "temporalmente": 7427,
      "hábito": 7428,
      "CIA": 7429,
      "confirma": 7430,
      "deleite": 7431,
      "ejecutado": 7432,
      "profesion": 7433,
      "cercana": 7434,
      "cabezas": 7435,
      "empiece": 7436,
      "comprobar": 7437,
      "renunciar": 7438,
      "Segunda": 7439,
      "calip": 7440,
      "órdenes": 7441,
      "literal": 7442,
      "inteligentes": 7443,
      "católica": 7444,
      "búsqueda": 7445,
      "experimentado": 7446,
      "soledad": 7447,
      "excusas": 7448,
      "someterse": 7449,
      "domésticos": 7450,
      "Chri": 7451,
      "Vaya": 7452,
      "consciente": 7453,
      "apostasía": 7454,
      "patrón": 7455,
      "amenaza": 7456,
      "comportamiento": 7457,
      "manuscritos": 7458,
      "santuario": 7459,
      "betelitas": 7460,
      "potencial": 7461,
      "fortunadamente": 7462,
      "discernimiento": 7463,
      "46": 7464,
      "Au": 7465,
      "Amigo": 7466,
      "Cena": 7467,
      "Italia": 7468,
      "Ken": 7469,
      "Nada": 7470,
      "Sem": 7471,
      "Ur": 7472,
      "cad": 7473,
      "dán": 7474,
      "dándoles": 7475,
      "tt": 7476,
      "tácti": 7477,
      "ui": 7478,
      "velo": 7479,
      "osex": 7480,
      "demo": 7481,
      "ardo": 7482,
      "quini": 7483,
      "oraba": 7484,
      "citar": 7485,
      "cimiento": 7486,
      "adir": 7487,
      "undar": 7488,
      "diéramos": 7489,
      "techo": 7490,
      "tino": 7491,
      "tina": 7492,
      "contenido": 7493,
      "amados": 7494,
      "indis": 7495,
      "infec": 7496,
      "infer": 7497,
      "infieles": 7498,
      "injusta": 7499,
      "lej": 7500,
      "leo": 7501,
      "leta": 7502,
      "parar": 7503,
      "pertur": 7504,
      "modos": 7505,
      "muro": 7506,
      "mudado": 7507,
      "mudaron": 7508,
      "obo": 7509,
      "obtuvo": 7510,
      "obtendremos": 7511,
      "tense": 7512,
      "caído": 7513,
      "desgracias": 7514,
      "serlo": 7515,
      "verbo": 7516,
      "versiones": 7517,
      "quitar": 7518,
      "pidamos": 7519,
      "goz": 7520,
      "furi": 7521,
      "fuér": 7522,
      "hiri": 7523,
      "Bil": 7524,
      "demostremos": 7525,
      "carn": 7526,
      "decida": 7527,
      "cortes": 7528,
      "ensal": 7529,
      "aña": 7530,
      "sabia": 7531,
      "sabido": 7532,
      "señales": 7533,
      "preso": 7534,
      "ejemplares": 7535,
      "creo": 7536,
      "Realmente": 7537,
      "gantes": 7538,
      "ayudarlas": 7539,
      "canan": 7540,
      "cesar": 7541,
      "tropiezo": 7542,
      "interrum": 7543,
      "volviera": 7544,
      "cír": 7545,
      "faltas": 7546,
      "diría": 7547,
      "permitía": 7548,
      "homosex": 7549,
      "léalo": 7550,
      "resultará": 7551,
      "pendientes": 7552,
      "basada": 7553,
      "obedece": 7554,
      "temer": 7555,
      "Dice": 7556,
      "haciéndolo": 7557,
      "oye": 7558,
      "leyó": 7559,
      "Magn": 7560,
      "Muy": 7561,
      "plazo": 7562,
      "organizado": 7563,
      "calcu": 7564,
      "calumni": 7565,
      "2014": 7566,
      "consumir": 7567,
      "mirada": 7568,
      "compañera": 7569,
      "opciones": 7570,
      "delantera": 7571,
      "interesado": 7572,
      "volverá": 7573,
      "apoyamos": 7574,
      "orarle": 7575,
      "acabó": 7576,
      "simpli": 7577,
      "arrepiente": 7578,
      "opinan": 7579,
      "conceder": 7580,
      "celebración": 7581,
      "realizando": 7582,
      "Luis": 7583,
      "preocupado": 7584,
      "observa": 7585,
      "físicas": 7586,
      "cruzar": 7587,
      "levantado": 7588,
      "parábolas": 7589,
      "Sabe": 7590,
      "Saber": 7591,
      "afecta": 7592,
      "públicamente": 7593,
      "mostramos": 7594,
      "limitado": 7595,
      "salvará": 7596,
      "inspirados": 7597,
      "humildemente": 7598,
      "quisieron": 7599,
      "analizado": 7600,
      "corrigió": 7601,
      "obedecieron": 7602,
      "obedeciendo": 7603,
      "herederos": 7604,
      "obligados": 7605,
      "exigía": 7606,
      "conozca": 7607,
      "atacar": 7608,
      "admitir": 7609,
      "Siglos": 7610,
      "digna": 7611,
      "lógica": 7612,
      "senda": 7613,
      "Princi": 7614,
      "central": 7615,
      "DICE": 7616,
      "culpables": 7617,
      "regocijo": 7618,
      "inclinación": 7619,
      "conflicto": 7620,
      "tradición": 7621,
      "sucederá": 7622,
      "difundir": 7623,
      "aumenta": 7624,
      "Benjam": 7625,
      "preocuparnos": 7626,
      "obstáculo": 7627,
      "padece": 7628,
      "Cuánta": 7629,
      "donativo": 7630,
      "frase": 7631,
      "ministeriales": 7632,
      "individuos": 7633,
      "saludar": 7634,
      "Tesalonicenses": 7635,
      "nervi": 7636,
      "sinagoga": 7637,
      "contemplar": 7638,
      "adversarios": 7639,
      "Posteriormente": 7640,
      "funeral": 7641,
      "súplicas": 7642,
      "repetir": 7643,
      "inmensa": 7644,
      "estímulo": 7645,
      "séptimo": 7646,
      "obsesion": 7647,
      "Justo": 7648,
      "sábado": 7649,
      "Hallará": 7650,
      "tecnología": 7651,
      "belleza": 7652,
      "contemporáneos": 7653,
      "Magnífico": 7654,
      "66": 7655,
      "600": 7656,
      "Agra": 7657,
      "Hacer": 7658,
      "Prob": 7659,
      "TOS": 7660,
      "US": 7661,
      "aus": 7662,
      "apro": 7663,
      "ck": 7664,
      "cobr": 7665,
      "etío": 7666,
      "gante": 7667,
      "ke": 7668,
      "mec": 7669,
      "oli": 7670,
      "sella": 7671,
      "tentar": 7672,
      "íces": 7673,
      "enfu": 7674,
      "reducir": 7675,
      "altos": 7676,
      "trá": 7677,
      "tomen": 7678,
      "conseguido": 7679,
      "dol": 7680,
      "doma": 7681,
      "injustos": 7682,
      "suici": 7683,
      "abar": 7684,
      "localidad": 7685,
      "letra": 7686,
      "leche": 7687,
      "aca": 7688,
      "porte": 7689,
      "puros": 7690,
      "raíces": 7691,
      "mudó": 7692,
      "mural": 7693,
      "manu": 7694,
      "mantenga": 7695,
      "impuestos": 7696,
      "cae": 7697,
      "desacuerdos": 7698,
      "mez": 7699,
      "resplan": 7700,
      "serle": 7701,
      "tarlos": 7702,
      "istes": 7703,
      "expul": 7704,
      "dara": 7705,
      "casarnos": 7706,
      "Estar": 7707,
      "codici": 7708,
      "costó": 7709,
      "costaba": 7710,
      "ayudas": 7711,
      "personaje": 7712,
      "nio": 7713,
      "carre": 7714,
      "coron": 7715,
      "lleve": 7716,
      "distraer": 7717,
      "rasgos": 7718,
      "Notemos": 7719,
      "salida": 7720,
      "necesariamente": 7721,
      "enseñarnos": 7722,
      "dejes": 7723,
      "Tienen": 7724,
      "Seamos": 7725,
      "fines": 7726,
      "preguntado": 7727,
      "pregunté": 7728,
      "sana": 7729,
      "ecieron": 7730,
      "camp": 7731,
      "confió": 7732,
      "confiado": 7733,
      "necesitados": 7734,
      "animador": 7735,
      "menores": 7736,
      "Salmos": 7737,
      "empezado": 7738,
      "reunió": 7739,
      "sufrieron": 7740,
      "escucharon": 7741,
      "escucharlo": 7742,
      "publicador": 7743,
      "Logr": 7744,
      "mensaj": 7745,
      "logros": 7746,
      "Jerobo": 7747,
      "demostrará": 7748,
      "Mucha": 7749,
      "disfrutando": 7750,
      "intenso": 7751,
      "intensamente": 7752,
      "expresarse": 7753,
      "atre": 7754,
      "imitan": 7755,
      "invitado": 7756,
      "alimenta": 7757,
      "perdone": 7758,
      "debilidad": 7759,
      "informes": 7760,
      "prácticos": 7761,
      "llenos": 7762,
      "produjo": 7763,
      "médica": 7764,
      "evitaremos": 7765,
      "legado": 7766,
      "recuerdos": 7767,
      "agobi": 7768,
      "números": 7769,
      "resuciten": 7770,
      "reflejan": 7771,
      "dicial": 7772,
      "disfrutaremos": 7773,
      "disfrutarán": 7774,
      "aloj": 7775,
      "mostrarles": 7776,
      "descubrió": 7777,
      "advertir": 7778,
      "usia": 7779,
      "celebró": 7780,
      "imaginarnos": 7781,
      "nombrados": 7782,
      "enfrentarnos": 7783,
      "relacionada": 7784,
      "representante": 7785,
      "representantes": 7786,
      "Sodoma": 7787,
      "maduro": 7788,
      "cré": 7789,
      "castigó": 7790,
      "Primera": 7791,
      "aconsej": 7792,
      "junio": 7793,
      "robar": 7794,
      "provoca": 7795,
      "hierro": 7796,
      "negativas": 7797,
      "temporales": 7798,
      "sembrador": 7799,
      "confirmó": 7800,
      "magnífica": 7801,
      "modales": 7802,
      "vacaciones": 7803,
      "recomendó": 7804,
      "figura": 7805,
      "comprobado": 7806,
      "similares": 7807,
      "sepamos": 7808,
      "corrupción": 7809,
      "Cuántas": 7810,
      "recurrir": 7811,
      "habrán": 7812,
      "disponibles": 7813,
      "cooperar": 7814,
      "Igualmente": 7815,
      "noviembre": 7816,
      "arruin": 7817,
      "imparci": 7818,
      "primogénito": 7819,
      "mentiroso": 7820,
      "periódico": 7821,
      "ladrones": 7822,
      "superficie": 7823,
      "glorioso": 7824,
      "riesgo": 7825,
      "Jordán": 7826,
      "arraig": 7827,
      "complace": 7828,
      "argumentos": 7829,
      "teoría": 7830,
      "espalda": 7831,
      "entablar": 7832,
      "Paul": 7833,
      "injuri": 7834,
      "sonrisa": 7835,
      "esplendor": 7836,
      "calipsis": 7837,
      "indispensable": 7838,
      "500": 7839,
      "83": 7840,
      "AD": 7841,
      "Acep": 7842,
      "Bri": 7843,
      "Bat": 7844,
      "CR": 7845,
      "Cla": 7846,
      "For": 7847,
      "Mos": 7848,
      "NOS": 7849,
      "Níni": 7850,
      "Oro": 7851,
      "PR": 7852,
      "VÁ": 7853,
      "dre": 7854,
      "efi": 7855,
      "fama": 7856,
      "icó": 7857,
      "luna": 7858,
      "mamos": 7859,
      "nel": 7860,
      "pado": 7861,
      "peces": 7862,
      "sello": 7863,
      "ts": 7864,
      "víamos": 7865,
      "zadas": 7866,
      "érica": 7867,
      "’?": 7868,
      "escal": 7869,
      "deterior": 7870,
      "detec": 7871,
      "arena": 7872,
      "quedaban": 7873,
      "reto": 7874,
      "alar": 7875,
      "unirse": 7876,
      "trom": 7877,
      "teme": 7878,
      "til": 7879,
      "concre": 7880,
      "doli": 7881,
      "ingres": 7882,
      "abre": 7883,
      "estal": 7884,
      "perseguir": 7885,
      "perdiendo": 7886,
      "enterr": 7887,
      "echan": 7888,
      "guemos": 7889,
      "mantengan": 7890,
      "nube": 7891,
      "numer": 7892,
      "usaron": 7893,
      "verán": 7894,
      "quise": 7895,
      "quita": 7896,
      "pidi": 7897,
      "chu": 7898,
      "matri": 7899,
      "papá": 7900,
      "tería": 7901,
      "Enseñ": 7902,
      "excesi": 7903,
      "casamos": 7904,
      "copa": 7905,
      "encierra": 7906,
      "rollo": 7907,
      "herido": 7908,
      "tratados": 7909,
      "tratemos": 7910,
      "duras": 7911,
      "dumbre": 7912,
      "lujos": 7913,
      "amiga": 7914,
      "corte": 7915,
      "distor": 7916,
      "ensan": 7917,
      "sabr": 7918,
      "pasaban": 7919,
      "peores": 7920,
      "vener": 7921,
      "sín": 7922,
      "salmos": 7923,
      "salido": 7924,
      "cómodo": 7925,
      "marcha": 7926,
      "cantar": 7927,
      "canción": 7928,
      "reciban": 7929,
      "estarían": 7930,
      "justamente": 7931,
      "Comen": 7932,
      "intervenir": 7933,
      "relaj": 7934,
      "volví": 7935,
      "acercado": 7936,
      "cambiando": 7937,
      "significaba": 7938,
      "acepte": 7939,
      "posiblemente": 7940,
      "supervis": 7941,
      "servicios": 7942,
      "matrimonial": 7943,
      "Jericó": 7944,
      "viviremos": 7945,
      "sirvieron": 7946,
      "dirigían": 7947,
      "expresa": 7948,
      "íntimo": 7949,
      "existía": 7950,
      "histori": 7951,
      "organizaciones": 7952,
      "destruidos": 7953,
      "cuidadosamente": 7954,
      "volverán": 7955,
      "olvidado": 7956,
      "comparar": 7957,
      "romper": 7958,
      "capacitar": 7959,
      "asistieron": 7960,
      "considerar": 7961,
      "recuerdan": 7962,
      "intimi": 7963,
      "reflejar": 7964,
      "imperfecciones": 7965,
      "derechos": 7966,
      "surjan": 7967,
      "haré": 7968,
      "vueltas": 7969,
      "razonamiento": 7970,
      "adversidades": 7971,
      "librar": 7972,
      "comunicar": 7973,
      "concedido": 7974,
      "regresó": 7975,
      "abandonó": 7976,
      "protegerse": 7977,
      "pidemi": 7978,
      "señalar": 7979,
      "concentración": 7980,
      "relacionadas": 7981,
      "mós": 7982,
      "asignaciones": 7983,
      "encuentro": 7984,
      "valió": 7985,
      "separación": 7986,
      "separados": 7987,
      "arrepin": 7988,
      "sinceridad": 7989,
      "aptitudes": 7990,
      "dirigirse": 7991,
      "robo": 7992,
      "Sobre": 7993,
      "Seguir": 7994,
      "rebelde": 7995,
      "impulsará": 7996,
      "golpes": 7997,
      "transmite": 7998,
      "regocij": 7999,
      "hospitalidad": 8000,
      "tratamientos": 8001,
      "movido": 8002,
      "diseño": 8003,
      "comportarse": 8004,
      "Ambos": 8005,
      "Bajo": 8006,
      "viniera": 8007,
      "centrarnos": 8008,
      "habrían": 8009,
      "independencia": 8010,
      "independiente": 8011,
      "abrazar": 8012,
      "preferencias": 8013,
      "ofrecía": 8014,
      "cuantos": 8015,
      "perseverancia": 8016,
      "pastorear": 8017,
      "ruegos": 8018,
      "pregúntese": 8019,
      "constantes": 8020,
      "constancia": 8021,
      "Preguntémonos": 8022,
      "Apocalipsis": 8023,
      "documentos": 8024,
      "población": 8025,
      "iniciar": 8026,
      "ejercicio": 8027,
      "resentimiento": 8028,
      "bendecido": 8029,
      "clopedia": 8030,
      "agricul": 8031,
      "símbolo": 8032,
      "células": 8033,
      "comodidades": 8034,
      "distracciones": 8035,
      "Probablemente": 8036,
      "campamento": 8037,
      "Jeroboán": 8038,
      "crédito": 8039,
      "Nínive": 8040,
      "distorsion": 8041,
      "Afortunadamente": 8042,
      "Hon": 8043,
      "Hero": 8044,
      "NI": 8045,
      "PER": 8046,
      "ator": 8047,
      "cá": 8048,
      "fabri": 8049,
      "gadas": 8050,
      "hin": 8051,
      "ka": 8052,
      "leran": 8053,
      "menta": 8054,
      "mbres": 8055,
      "pados": 8056,
      "rad": 8057,
      "tables": 8058,
      "véase": 8059,
      "yl": 8060,
      "“‘": 8061,
      "escar": 8062,
      "encen": 8063,
      "envía": 8064,
      "enny": 8065,
      "ardiente": 8066,
      "onal": 8067,
      "astu": 8068,
      "oren": 8069,
      "orado": 8070,
      "regu": 8071,
      "reconocemos": 8072,
      "almac": 8073,
      "diluvio": 8074,
      "tela": 8075,
      "temen": 8076,
      "seg": 8077,
      "contem": 8078,
      "amemos": 8079,
      "ambas": 8080,
      "informar": 8081,
      "invent": 8082,
      "abuela": 8083,
      "locales": 8084,
      "leen": 8085,
      "vigor": 8086,
      "acaban": 8087,
      "porción": 8088,
      "dador": 8089,
      "gues": 8090,
      "catás": 8091,
      "deso": 8092,
      "desvi": 8093,
      "preten": 8094,
      "estrés": 8095,
      "propuso": 8096,
      "prolon": 8097,
      "Encontrar": 8098,
      "Enseña": 8099,
      "derr": 8100,
      "Esfor": 8101,
      "herir": 8102,
      "hagas": 8103,
      "niñas": 8104,
      "trae": 8105,
      "duelo": 8106,
      "eja": 8107,
      "ejos": 8108,
      "llevá": 8109,
      "gida": 8110,
      "entidad": 8111,
      "salía": 8112,
      "marca": 8113,
      "llame": 8114,
      "preguntémonos": 8115,
      "resumen": 8116,
      "aprendieron": 8117,
      "mortal": 8118,
      "autom": 8119,
      "duró": 8120,
      "confiemos": 8121,
      "siguieran": 8122,
      "barr": 8123,
      "entendido": 8124,
      "animarnos": 8125,
      "cumpliera": 8126,
      "hablaron": 8127,
      "izado": 8128,
      "avis": 8129,
      "buscamos": 8130,
      "perfectas": 8131,
      "significar": 8132,
      "alegre": 8133,
      "llamaban": 8134,
      "actuado": 8135,
      "tomará": 8136,
      "obedecían": 8137,
      "obedezcamos": 8138,
      "temb": 8139,
      "Dicen": 8140,
      "rectos": 8141,
      "brazo": 8142,
      "llevarse": 8143,
      "liberó": 8144,
      "liberarnos": 8145,
      "protegido": 8146,
      "disfrutaba": 8147,
      "futura": 8148,
      "aprenderán": 8149,
      "tratara": 8150,
      "tentados": 8151,
      "destruya": 8152,
      "práctico": 8153,
      "llenar": 8154,
      "Cornel": 8155,
      "interesantes": 8156,
      "interesarnos": 8157,
      "Tengamos": 8158,
      "Teniendo": 8159,
      "apartado": 8160,
      "seriedad": 8161,
      "alegró": 8162,
      "legales": 8163,
      "estrech": 8164,
      "asistencia": 8165,
      "extraño": 8166,
      "próxima": 8167,
      "gnó": 8168,
      "contribuciones": 8169,
      "contribuyó": 8170,
      "agradecida": 8171,
      "gustos": 8172,
      "regresaron": 8173,
      "milagrosa": 8174,
      "abandonado": 8175,
      "Existe": 8176,
      "desafi": 8177,
      "levantó": 8178,
      "demasiada": 8179,
      "destacar": 8180,
      "edificantes": 8181,
      "apun": 8182,
      "impresionó": 8183,
      "Elihú": 8184,
      "autobús": 8185,
      "desanimarnos": 8186,
      "sueños": 8187,
      "provocar": 8188,
      "impulsó": 8189,
      "conozco": 8190,
      "Teoc": 8191,
      "regiones": 8192,
      "hábil": 8193,
      "impulso": 8194,
      "residirán": 8195,
      "particularmente": 8196,
      "participación": 8197,
      "ONES": 8198,
      "motivación": 8199,
      "vacío": 8200,
      "Asamble": 8201,
      "Jonás": 8202,
      "misericordiosos": 8203,
      "hablemos": 8204,
      "sesiones": 8205,
      "equilibrada": 8206,
      "fomentar": 8207,
      "Actu": 8208,
      "Aprendí": 8209,
      "cautivos": 8210,
      "evangelizadores": 8211,
      "Sime": 8212,
      "adaptarse": 8213,
      "límite": 8214,
      "repenti": 8215,
      "sólido": 8216,
      "sólida": 8217,
      "literalmente": 8218,
      "satisfechos": 8219,
      "Watchtower": 8220,
      "corromper": 8221,
      "Rahab": 8222,
      "secundar": 8223,
      "delito": 8224,
      "excepción": 8225,
      "administrar": 8226,
      "parecidas": 8227,
      "Dentro": 8228,
      "Gog": 8229,
      "tribunal": 8230,
      "secretario": 8231,
      "HOVÁ": 8232,
      "gámonos": 8233,
      "espiritismo": 8234,
      "alemán": 8235,
      "JEHOVÁ": 8236,
      "contristar": 8237,
      "computadora": 8238,
      "columna": 8239,
      "perceptivas": 8240,
      "bestia": 8241,
      "quinientos": 8242,
      "trompe": 8243,
      "Herodes": 8244,
      "catástro": 8245,
      "automá": 8246,
      "Cornelio": 8247,
      "Teocrá": 8248,
      "Casi": 8249,
      "Eri": 8250,
      "Foto": 8251,
      "Gre": 8252,
      "Hacemos": 8253,
      "Kar": 8254,
      "MO": 8255,
      "NO": 8256,
      "Nico": 8257,
      "Pe": 8258,
      "RES": 8259,
      "Som": 8260,
      "Sofía": 8261,
      "TES": 8262,
      "].": 8263,
      "ate": 8264,
      "aho": 8265,
      "ave": 8266,
      "agi": 8267,
      "ager": 8268,
      "ebro": 8269,
      "ital": 8270,
      "itud": 8271,
      "iremos": 8272,
      "idor": 8273,
      "lina": 8274,
      "opresión": 8275,
      "radi": 8276,
      "vara": 8277,
      "ÚS": 8278,
      "demor": 8279,
      "decenas": 8280,
      "eru": 8281,
      "once": 8282,
      "asés": 8283,
      "die": 8284,
      "digamos": 8285,
      "concuer": 8286,
      "infiel": 8287,
      "sugi": 8288,
      "leía": 8289,
      "sivo": 8290,
      "sientes": 8291,
      "rieron": 8292,
      "estamente": 8293,
      "accesi": 8294,
      "lasti": 8295,
      "pera": 8296,
      "notas": 8297,
      "mió": 8298,
      "daños": 8299,
      "dañar": 8300,
      "componen": 8301,
      "tua": 8302,
      "taza": 8303,
      "mantenido": 8304,
      "moslo": 8305,
      "”.)": 8306,
      "desen": 8307,
      "nubes": 8308,
      "predica": 8309,
      "usaban": 8310,
      "sustento": 8311,
      "sonido": 8312,
      "gozar": 8313,
      "matan": 8314,
      "fuéramos": 8315,
      "pago": 8316,
      "pagado": 8317,
      "terios": 8318,
      "exterior": 8319,
      "casé": 8320,
      "Bible": 8321,
      "heridos": 8322,
      "trajo": 8323,
      "dudar": 8324,
      "carros": 8325,
      "ford": 8326,
      "dispuestas": 8327,
      "disminu": 8328,
      "huér": 8329,
      "crecido": 8330,
      "prendas": 8331,
      "febrero": 8332,
      "Red": 8333,
      "Refle": 8334,
      "tenerle": 8335,
      "posteriormente": 8336,
      "importaba": 8337,
      "predicaron": 8338,
      "amorosos": 8339,
      "reciba": 8340,
      "recibí": 8341,
      "malvada": 8342,
      "cendencia": 8343,
      "Seol": 8344,
      "aprenda": 8345,
      "deseando": 8346,
      "cionales": 8347,
      "cumplan": 8348,
      "confiesa": 8349,
      "confiables": 8350,
      "acedon": 8351,
      "animado": 8352,
      "explicaba": 8353,
      "dirse": 8354,
      "ofensas": 8355,
      "buscó": 8356,
      "Juli": 8357,
      "acepté": 8358,
      "honran": 8359,
      "supera": 8360,
      "ísmo": 8361,
      "pág": 8362,
      "pájar": 8363,
      "tribulaciones": 8364,
      "formada": 8365,
      "Descendencia": 8366,
      "fati": 8367,
      "viviente": 8368,
      "Antio": 8369,
      "oyen": 8370,
      "recordamos": 8371,
      "disfruta": 8372,
      "plano": 8373,
      "fortalec": 8374,
      "atento": 8375,
      "dirigido": 8376,
      "cuidan": 8377,
      "cuidando": 8378,
      "preparando": 8379,
      "llevara": 8380,
      "calor": 8381,
      "miró": 8382,
      "esforzó": 8383,
      "soltera": 8384,
      "producido": 8385,
      "cuidados": 8386,
      "interesaba": 8387,
      "hallaba": 8388,
      "legí": 8389,
      "mentalidad": 8390,
      "podíamos": 8391,
      "trabajaban": 8392,
      "sordo": 8393,
      "quedará": 8394,
      "quedarnos": 8395,
      "lám": 8396,
      "encarga": 8397,
      "Servir": 8398,
      "encuentre": 8399,
      "obligado": 8400,
      "atraí": 8401,
      "emocionalmente": 8402,
      "Reyes": 8403,
      "plenitud": 8404,
      "físicos": 8405,
      "Hablar": 8406,
      "correctamente": 8407,
      "afectar": 8408,
      "revelado": 8409,
      "gravedad": 8410,
      "recompensó": 8411,
      "rodea": 8412,
      "condenados": 8413,
      "Pila": 8414,
      "sinceros": 8415,
      "edificación": 8416,
      "hebrea": 8417,
      "Manasés": 8418,
      "describir": 8419,
      "New": 8420,
      "anunciar": 8421,
      "ofrecerle": 8422,
      "rebelaron": 8423,
      "destin": 8424,
      "sencillamente": 8425,
      "francés": 8426,
      "acusación": 8427,
      "acusaciones": 8428,
      "pelea": 8429,
      "divisiones": 8430,
      "Filipos": 8431,
      "niegan": 8432,
      "odiar": 8433,
      "discusiones": 8434,
      "DIOS": 8435,
      "inclinaciones": 8436,
      "materialismo": 8437,
      "solicitud": 8438,
      "borrach": 8439,
      "escribiera": 8440,
      "productos": 8441,
      "criticar": 8442,
      "aumentando": 8443,
      "videos": 8444,
      "anual": 8445,
      "distanci": 8446,
      "adecuado": 8447,
      "Carol": 8448,
      "inteligente": 8449,
      "suframos": 8450,
      "novios": 8451,
      "aliviar": 8452,
      "explor": 8453,
      "Demuestr": 8454,
      "mismísimo": 8455,
      "sinagogas": 8456,
      "concepto": 8457,
      "convinc": 8458,
      "ACIÓN": 8459,
      "facetas": 8460,
      "Cualquiera": 8461,
      "filiste": 8462,
      "imprevisto": 8463,
      "gentiles": 8464,
      "prosperidad": 8465,
      "Empecé": 8466,
      "Crónicas": 8467,
      "Andrés": 8468,
      "cortesía": 8469,
      "Benjamín": 8470,
      "Teocrático": 8471,
      "huérf": 8472,
      "Antioquía": 8473,
      "43": 8474,
      "Cés": 8475,
      "Char": 8476,
      "Carlos": 8477,
      "Pla": 8478,
      "Santo": 8479,
      "VEN": 8480,
      "Wil": 8481,
      "bían": 8482,
      "cy": 8483,
      "cadá": 8484,
      "dándole": 8485,
      "epidemi": 8486,
      "ly": 8487,
      "maba": 8488,
      "ofer": 8489,
      "pón": 8490,
      "plu": 8491,
      "ró": 8492,
      "tándose": 8493,
      "enar": 8494,
      "encerr": 8495,
      "onia": 8496,
      "queja": 8497,
      "cima": 8498,
      "reta": 8499,
      "rece": 8500,
      "repren": 8501,
      "refres": 8502,
      "altru": 8503,
      "tristes": 8504,
      "tidas": 8505,
      "sepul": 8506,
      "confí": 8507,
      "doctor": 8508,
      "incont": 8509,
      "inevi": 8510,
      "abraz": 8511,
      "abismo": 8512,
      "leí": 8513,
      "ome": 8514,
      "cuello": 8515,
      "curios": 8516,
      "empresa": 8517,
      "sible": 8518,
      "paral": 8519,
      "parcial": 8520,
      "acen": 8521,
      "acam": 8522,
      "acha": 8523,
      "portu": 8524,
      "perver": 8525,
      "acidad": 8526,
      "entí": 8527,
      "compuesta": 8528,
      "tacular": 8529,
      "mantuvieran": 8530,
      "impac": 8531,
      "cate": 8532,
      "fil": 8533,
      "prefier": 8534,
      "usos": 8535,
      "usará": 8536,
      "verla": 8537,
      "sustent": 8538,
      "pia": 8539,
      "tardó": 8540,
      "hablen": 8541,
      "madera": 8542,
      "joyas": 8543,
      "exager": 8544,
      "derri": 8545,
      "debo": 8546,
      "debamos": 8547,
      "herida": 8548,
      "trage": 8549,
      "duer": 8550,
      "decidan": 8551,
      "decidida": 8552,
      "Elí": 8553,
      "corpor": 8554,
      "cortar": 8555,
      "corrección": 8556,
      "corona": 8557,
      "dispuesta": 8558,
      "cerebro": 8559,
      "pasara": 8560,
      "ped": 8561,
      "peda": 8562,
      "tori": 8563,
      "adoramos": 8564,
      "Reinado": 8565,
      "guiarnos": 8566,
      "drás": 8567,
      "Debe": 8568,
      "Departamento": 8569,
      "ganarse": 8570,
      "hormi": 8571,
      "Alguien": 8572,
      "Alfarero": 8573,
      "landa": 8574,
      "lanza": 8575,
      "enseñaban": 8576,
      "unieron": 8577,
      "pecó": 8578,
      "recibiendo": 8579,
      "probado": 8580,
      "santidad": 8581,
      "posiciones": 8582,
      "queri": 8583,
      "gratis": 8584,
      "escribas": 8585,
      "1918": 8586,
      "entendían": 8587,
      "necesitó": 8588,
      "animarlos": 8589,
      "poderosas": 8590,
      "estudian": 8591,
      "monarca": 8592,
      "formato": 8593,
      "érgi": 8594,
      "adicción": 8595,
      "conocerán": 8596,
      "escuchaban": 8597,
      "actuales": 8598,
      "pruebe": 8599,
      "temores": 8600,
      "Dicho": 8601,
      "iguales": 8602,
      "120": 8603,
      "termina": 8604,
      "terminan": 8605,
      "Mag": 8606,
      "echado": 8607,
      "intensa": 8608,
      "últimas": 8609,
      "enviados": 8610,
      "pescado": 8611,
      "2015": 8612,
      "Quiero": 8613,
      "captar": 8614,
      "reno": 8615,
      "perdonará": 8616,
      "trataran": 8617,
      "abiertos": 8618,
      "debida": 8619,
      "tistas": 8620,
      "soldado": 8621,
      "causan": 8622,
      "opti": 8623,
      "llenó": 8624,
      "pudimos": 8625,
      "volvería": 8626,
      "gobernarán": 8627,
      "influyen": 8628,
      "celestiales": 8629,
      "apoyó": 8630,
      "capacitado": 8631,
      "consideró": 8632,
      "mentales": 8633,
      "extraña": 8634,
      "acabe": 8635,
      "trabajado": 8636,
      "peligrosa": 8637,
      "tumbas": 8638,
      "Pueden": 8639,
      "acumular": 8640,
      "dolorosa": 8641,
      "mostrará": 8642,
      "harina": 8643,
      "librará": 8644,
      "Nuestras": 8645,
      "emocionantes": 8646,
      "soluciones": 8647,
      "imaginarse": 8648,
      "físicamente": 8649,
      "escogidos": 8650,
      "éndoles": 8651,
      "enojó": 8652,
      "violentos": 8653,
      "sencillas": 8654,
      "públicos": 8655,
      "ilustrar": 8656,
      "destacan": 8657,
      "misional": 8658,
      "misionera": 8659,
      "limita": 8660,
      "limitó": 8661,
      "salvarse": 8662,
      "aprobado": 8663,
      "desarrol": 8664,
      "Verda": 8665,
      "rodeados": 8666,
      "condenó": 8667,
      "entraron": 8668,
      "juntamente": 8669,
      "pacífico": 8670,
      "acompañan": 8671,
      "soltero": 8672,
      "Permi": 8673,
      "Vivimos": 8674,
      "funcionario": 8675,
      "impulsado": 8676,
      "económicas": 8677,
      "semejanza": 8678,
      "temporada": 8679,
      "Meditar": 8680,
      "sembrando": 8681,
      "reconocieron": 8682,
      "fijarnos": 8683,
      "espectacular": 8684,
      "extendió": 8685,
      "chicos": 8686,
      "oficina": 8687,
      "aclara": 8688,
      "discutir": 8689,
      "resucitarán": 8690,
      "cuántos": 8691,
      "tólica": 8692,
      "moderna": 8693,
      "607": 8694,
      "ventaja": 8695,
      "falleció": 8696,
      "cariñosa": 8697,
      "promueven": 8698,
      "órgan": 8699,
      "desesperación": 8700,
      "Hubo": 8701,
      "santificado": 8702,
      "asignado": 8703,
      "salvaje": 8704,
      "títulos": 8705,
      "resuelto": 8706,
      "resueltos": 8707,
      "reunirnos": 8708,
      "sobresalientes": 8709,
      "terrenal": 8710,
      "lepra": 8711,
      "emprender": 8712,
      "recomendaciones": 8713,
      "famoso": 8714,
      "desaparecerá": 8715,
      "alterna": 8716,
      "tarjeta": 8717,
      "reúnen": 8718,
      "vecinas": 8719,
      "caída": 8720,
      "hipócritas": 8721,
      "Háganse": 8722,
      "mayordomo": 8723,
      "JESÚS": 8724,
      "Efectú": 8725,
      "Jezabel": 8726,
      "OTROS": 8727,
      "arrepintió": 8728,
      "radio": 8729,
      "acedonia": 8730,
      "Pilato": 8731,
      "César": 8732,
      "cadáver": 8733,
      "curiosidad": 8734,
      "47": 8735,
      "49": 8736,
      "Anu": 8737,
      "Agar": 8738,
      "Dor": 8739,
      "Donde": 8740,
      "Haba": 8741,
      "Jenny": 8742,
      "Oidor": 8743,
      "Sir": 8744,
      "Samar": 8745,
      "Tar": 8746,
      "Vol": 8747,
      "azar": 8748,
      "aprueba": 8749,
      "bañ": 8750,
      "cle": 8751,
      "cadores": 8752,
      "fera": 8753,
      "hones": 8754,
      "icio": 8755,
      "oposi": 8756,
      "psi": 8757,
      "xim": 8758,
      "engen": 8759,
      "ería": 8760,
      "are": 8761,
      "arque": 8762,
      "arcas": 8763,
      "ladas": 8764,
      "quedé": 8765,
      "citó": 8766,
      "ciegos": 8767,
      "reí": 8768,
      "redes": 8769,
      "remedio": 8770,
      "eles": 8771,
      "diariamente": 8772,
      "tiéndose": 8773,
      "sede": 8774,
      "tomas": 8775,
      "convierten": 8776,
      "inesper": 8777,
      "incapaz": 8778,
      "abs": 8779,
      "abuso": 8780,
      "abrum": 8781,
      "cuc": 8782,
      "cuyos": 8783,
      "prestado": 8784,
      "viles": 8785,
      "vientos": 8786,
      "rit": 8787,
      "riam": 8788,
      "estabilidad": 8789,
      "notado": 8790,
      "compa": 8791,
      "compe": 8792,
      "compuesto": 8793,
      "guerr": 8794,
      "obtenemos": 8795,
      "mostaza": 8796,
      "impidió": 8797,
      "filó": 8798,
      "ficado": 8799,
      "premo": 8800,
      "pidan": 8801,
      "prover": 8802,
      "mató": 8803,
      "criterio": 8804,
      "ismos": 8805,
      "fusión": 8806,
      "patía": 8807,
      "patio": 8808,
      "teras": 8809,
      "expan": 8810,
      "deras": 8811,
      "daremos": 8812,
      "voces": 8813,
      "cole": 8814,
      "ención": 8815,
      "ayudaban": 8816,
      "irme": 8817,
      "espías": 8818,
      "tratos": 8819,
      "dure": 8820,
      "hacerla": 8821,
      "garras": 8822,
      "zapa": 8823,
      "hueso": 8824,
      "preser": 8825,
      "crecen": 8826,
      "prenda": 8827,
      "Refi": 8828,
      "horno": 8829,
      "salones": 8830,
      "cómodos": 8831,
      "ayudarte": 8832,
      "ayudarme": 8833,
      "masa": 8834,
      "pecho": 8835,
      "alidades": 8836,
      "alizada": 8837,
      "curaciones": 8838,
      "valer": 8839,
      "sala": 8840,
      "deseaban": 8841,
      "culmin": 8842,
      "entrevis": 8843,
      "moralidad": 8844,
      "milen": 8845,
      "duración": 8846,
      "podrías": 8847,
      "confiando": 8848,
      "responda": 8849,
      "necesiten": 8850,
      "faltaba": 8851,
      "cambie": 8852,
      "ofensa": 8853,
      "permitan": 8854,
      "predicarles": 8855,
      "buscaba": 8856,
      "ungió": 8857,
      "llegaran": 8858,
      "Dicha": 8859,
      "contestará": 8860,
      "privado": 8861,
      "ruinas": 8862,
      "terminaron": 8863,
      "dedicados": 8864,
      "dedicarle": 8865,
      "vivienda": 8866,
      "Anti": 8867,
      "evidencia": 8868,
      "protegen": 8869,
      "Moab": 8870,
      "Jose": 8871,
      "recordaba": 8872,
      "disfrutemos": 8873,
      "plato": 8874,
      "fortalecido": 8875,
      "gritar": 8876,
      "griegos": 8877,
      "hiciéramos": 8878,
      "bendiciendo": 8879,
      "fáciles": 8880,
      "consumo": 8881,
      "esforzaba": 8882,
      "árse": 8883,
      "perdonándose": 8884,
      "imag": 8885,
      "informó": 8886,
      "prácticamente": 8887,
      "inició": 8888,
      "asegurar": 8889,
      "mérito": 8890,
      "gobernador": 8891,
      "ENTE": 8892,
      "aniqui": 8893,
      "descendiente": 8894,
      "quedara": 8895,
      "quedaría": 8896,
      "Servicio": 8897,
      "vuelven": 8898,
      "incluido": 8899,
      "advertido": 8900,
      "libró": 8901,
      "sacerdocio": 8902,
      "limpias": 8903,
      "aguantado": 8904,
      "concebi": 8905,
      "ordenado": 8906,
      "pleno": 8907,
      "permanece": 8908,
      "tificar": 8909,
      "agradecen": 8910,
      "intente": 8911,
      "concentró": 8912,
      "afecto": 8913,
      "afectan": 8914,
      "Soci": 8915,
      "realista": 8916,
      "salvarnos": 8917,
      "inspirado": 8918,
      "bautizarnos": 8919,
      "analizamos": 8920,
      "analizando": 8921,
      "director": 8922,
      "convertirá": 8923,
      "inquieten": 8924,
      "describió": 8925,
      "corrige": 8926,
      "ejecución": 8927,
      "procede": 8928,
      "contarle": 8929,
      "rebelarse": 8930,
      "arrepentidos": 8931,
      "muriendo": 8932,
      "pierden": 8933,
      "descansar": 8934,
      "llamaron": 8935,
      "económico": 8936,
      "Lili": 8937,
      "recuperarse": 8938,
      "vigilar": 8939,
      "asesinado": 8940,
      "perciben": 8941,
      "delegar": 8942,
      "pariente": 8943,
      "defecto": 8944,
      "adquiriendo": 8945,
      "centró": 8946,
      "equivocada": 8947,
      "equivocado": 8948,
      "Ponga": 8949,
      "empiezan": 8950,
      "íntegro": 8951,
      "procurando": 8952,
      "movimiento": 8953,
      "suplicó": 8954,
      "ALGUN": 8955,
      "repugn": 8956,
      "adecuada": 8957,
      "Obviamente": 8958,
      "correspondía": 8959,
      "inmortalidad": 8960,
      "ascendió": 8961,
      "caminando": 8962,
      "perseverar": 8963,
      "cicleta": 8964,
      "recoger": 8965,
      "desafíos": 8966,
      "Imperio": 8967,
      "inocente": 8968,
      "inocentes": 8969,
      "Malaui": 8970,
      "profundizar": 8971,
      "ladrón": 8972,
      "fascin": 8973,
      "aprenderemos": 8974,
      "Levítico": 8975,
      "tarjetas": 8976,
      "Acérquese": 8977,
      "Tercero": 8978,
      "Observemos": 8979,
      "dibujo": 8980,
      "sensación": 8981,
      "Universidad": 8982,
      "Irlanda": 8983,
      "demuestren": 8984,
      "palacio": 8985,
      "blasfem": 8986,
      "tiernamente": 8987,
      "increí": 8988,
      "enfureci": 8989,
      "murallas": 8990,
      "itali": 8991,
      "incontables": 8992,
      "Habacuc": 8993,
      "Samaria": 8994,
      "300": 8995,
      "400": 8996,
      "56": 8997,
      "700": 8998,
      "Ber": 8999,
      "CH": 9000,
      "Da": 9001,
      "Evi": 9002,
      "Evel": 9003,
      "Faraón": 9004,
      "Ger": 9005,
      "Gabri": 9006,
      "Has": 9007,
      "IMA": 9008,
      "Lis": 9009,
      "Mí": 9010,
      "Nú": 9011,
      "Nab": 9012,
      "On": 9013,
      "Sacerdo": 9014,
      "Tro": 9015,
      "alas": 9016,
      "atro": 9017,
      "atur": 9018,
      "aparecer": 9019,
      "cami": 9020,
      "dres": 9021,
      "eve": 9022,
      "eva": 9023,
      "gem": 9024,
      "hóli": 9025,
      "iáni": 9026,
      "lino": 9027,
      "ola": 9028,
      "olo": 9029,
      "olu": 9030,
      "pali": 9031,
      "plí": 9032,
      "rara": 9033,
      "táramos": 9034,
      "use": 9035,
      "usemos": 9036,
      "vencia": 9037,
      "vul": 9038,
      "éc": 9039,
      "ñaba": 9040,
      "enre": 9041,
      "envían": 9042,
      "decre": 9043,
      "detuvo": 9044,
      "arc": 9045,
      "arco": 9046,
      "armadura": 9047,
      "lai": 9048,
      "cilio": 9049,
      "cidental": 9050,
      "retos": 9051,
      "adónde": 9052,
      "división": 9053,
      "teólo": 9054,
      "tios": 9055,
      "tifar": 9056,
      "secu": 9057,
      "sepa": 9058,
      "tocó": 9059,
      "contado": 9060,
      "ind": 9061,
      "inver": 9062,
      "infor": 9063,
      "infidelidad": 9064,
      "lemos": 9065,
      "leña": 9066,
      "vientre": 9067,
      "lig": 9068,
      "pare": 9069,
      "parse": 9070,
      "persiguen": 9071,
      "perseguido": 9072,
      "miras": 9073,
      "nosotras": 9074,
      "dadas": 9075,
      "date": 9076,
      "bis": 9077,
      "gura": 9078,
      "obtienen": 9079,
      "obtenido": 9080,
      "mantendremos": 9081,
      "imp": 9082,
      "caz": 9083,
      "desp": 9084,
      "destro": 9085,
      "resolu": 9086,
      "estruc": 9087,
      "habl": 9088,
      "procu": 9089,
      "prohí": 9090,
      "propone": 9091,
      "propagan": 9092,
      "mapa": 9093,
      "pagó": 9094,
      "sopor": 9095,
      "iré": 9096,
      "cargas": 9097,
      "cordero": 9098,
      "discre": 9099,
      "Sigui": 9100,
      "cerem": 9101,
      "pasé": 9102,
      "denunci": 9103,
      "plica": 9104,
      "vengarse": 9105,
      "torias": 9106,
      "adoraba": 9107,
      "creaciones": 9108,
      "feccion": 9109,
      "Regla": 9110,
      "Deben": 9111,
      "saldrán": 9112,
      "sintiera": 9113,
      "predicador": 9114,
      "llamas": 9115,
      "pecaron": 9116,
      "reciente": 9117,
      "centra": 9118,
      "censur": 9119,
      "hecha": 9120,
      "aprendía": 9121,
      "querida": 9122,
      "meditemos": 9123,
      "consej": 9124,
      "cío": 9125,
      "podré": 9126,
      "trasla": 9127,
      "recibiera": 9128,
      "barca": 9129,
      "entendió": 9130,
      "celosos": 9131,
      "vivirá": 9132,
      "vasi": 9133,
      "hablara": 9134,
      "permitamos": 9135,
      "permitieron": 9136,
      "sacó": 9137,
      "escuchaba": 9138,
      "actuamos": 9139,
      "basan": 9140,
      "contenta": 9141,
      "ernas": 9142,
      "Hizo": 9143,
[...]
