{
  "version": "1.0",
  "truncation": null,
  "padding": null,
  "added_tokens": [
    {
      "id": 0,
      "content": "[UNK]",
      "single_word": false,
      "lstrip": false,
      "rstrip": false,
      "normalized": false,
      "special": true
    },
    {
      "id": 1,
      "content": "[PAD]",
      "single_word": false,
      "lstrip": false,
      "rstrip": false,
      "normalized": false,
      "special": true
    },
    {
      "id": 2,
      "content": "[SOS]",
      "single_word": false,
      "lstrip": false,
      "rstrip": false,
      "normalized": false,
      "special": true
    },
    {
      "id": 3,
      "content": "[EOS]",
      "single_word": false,
      "lstrip": false,
      "rstrip": false,
      "normalized": false,
      "special": true
    }
  ],
  "normalizer": null,
  "pre_tokenizer": {
    "type": "Whitespace"
  },
  "post_processor": null,
  "decoder": null,
  "model": {
    "type": "BPE",
    "dropout": null,
    "unk_token": "[UNK]",
    "continuing_subword_prefix": null,
    "end_of_word_suffix": null,
    "fuse_unk": false,
    "byte_fallback": false,
    "ignore_merges": false,
    "vocab": {
      "[UNK]": 0,
      "[PAD]": 1,
      "[SOS]": 2,
      "[EOS]": 3,
      "!": 4,
      "\"": 5,
      "#": 6,
      "$": 7,
      "%": 8,
      "&": 9,
      "'": 10,
      "(": 11,
      ")": 12,
      "*": 13,
      "+": 14,
      ",": 15,
      "-": 16,
      ".": 17,
      "/": 18,
      "0": 19,
      "1": 20,
      "2": 21,
      "3": 22,
      "4": 23,
      "5": 24,
      "6": 25,
      "7": 26,
      "8": 27,
      "9": 28,
      ":": 29,
      ";": 30,
      "<": 31,
      "=": 32,
      ">": 33,
      "?": 34,
      "@": 35,
      "A": 36,
      "B": 37,
      "C": 38,
      "D": 39,
      "E": 40,
      "F": 41,
      "G": 42,
      "H": 43,
      "I": 44,
      "J": 45,
      "K": 46,
      "L": 47,
      "M": 48,
      "N": 49,
      "O": 50,
      "P": 51,
      "Q": 52,
      "R": 53,
      "S": 54,
      "T": 55,
      "U": 56,
      "V": 57,
      "W": 58,
      "X": 59,
      "Y": 60,
      "Z": 61,
      "[": 62,
      "]": 63,
      "^": 64,
      "_": 65,
      "a": 66,
      "b": 67,
      "c": 68,
      "d": 69,
      "e": 70,
      "f": 71,
      "g": 72,
      "h": 73,
      "i": 74,
      "j": 75,
      "k": 76,
      "l": 77,
      "m": 78,
      "n": 79,
      "o": 80,
      "p": 81,
      "q": 82,
      "r": 83,
      "s": 84,
      "t": 85,
      "u": 86,
      "v": 87,
      "w": 88,
      "x": 89,
      "y": 90,
      "z": 91,
      "{": 92,
      "}": 93,
      "~": 94,
      "¡": 95,
      "£": 96,
      "¥": 97,
      "§": 98,
      "¬": 99,
      "°": 100,
      "±": 101,
      "¶": 102,
      "·": 103,
      "¿": 104,
      "À": 105,
      "Á": 106,
      "Â": 107,
      "Ã": 108,
      "Ä": 109,
      "Å": 110,
      "Æ": 111,
      "Ç": 112,
      "È": 113,
      "É": 114,
      "Ê": 115,
      "Ë": 116,
      "Ì": 117,
      "Í": 118,
      "Î": 119,
      "Ï": 120,
      "Ñ": 121,
      "Ò": 122,
      "Ó": 123,
      "Ô": 124,
      "Ö": 125,
      "×": 126,
      "Ø": 127,
      "Ú": 128,
      "Û": 129,
      "Ü": 130,
      "Þ": 131,
      "ß": 132,
      "à": 133,
      "á": 134,
      "â": 135,
      "ã": 136,
      "ä": 137,
      "å": 138,
      "æ": 139,
      "ç": 140,
      "è": 141,
      "é": 142,
      "ê": 143,
      "ë": 144,
      "ì": 145,
      "í": 146,
      "î": 147,
      "ï": 148,
      "ð": 149,
      "ñ": 150,
      "ò": 151,
      "ó": 152,
      "ô": 153,
      "õ": 154,
      "ö": 155,
      "ø": 156,
      "ù": 157,
      "ú": 158,
      "û": 159,
      "ü": 160,
      "ý": 161,
      "ÿ": 162,
      "Ā": 163,
      "ā": 164,
      "Ă": 165,
      "ă": 166,
      "Ą": 167,
      "ć": 168,
      "Č": 169,
      "č": 170,
      "Ď": 171,
      "đ": 172,
      "ē": 173,
      "ę": 174,
      "ğ": 175,
      "ħ": 176,
      "ĩ": 177,
      "Ī": 178,
      "ī": 179,
      "ĭ": 180,
      "İ": 181,
      "ı": 182,
      "ĺ": 183,
      "Ł": 184,
      "ł": 185,
      "Ń": 186,
      "ń": 187,
      "ņ": 188,
      "ň": 189,
      "ŋ": 190,
      "Ō": 191,
      "ō": 192,
      "ő": 193,
      "œ": 194,
      "ŕ": 195,
      "Ś": 196,
      "ś": 197,
      "ş": 198,
      "Š": 199,
      "š": 200,
      "ũ": 201,
      "ū": 202,
      "ů": 203,
      "Ÿ": 204,
      "ź": 205,
      "ż": 206,
      "Ž": 207,
      "ž": 208,
      "Ɵ": 209,
      "ơ": 210,
      "ư": 211,
      "ǒ": 212,
      "ǧ": 213,
      "ț": 214,
      "ɕ": 215,
      "ə": 216,
      "ɤ": 217,
      "ʃ": 218,
      "ʒ": 219,
      "ʔ": 220,
      "ʻ": 221,
      "ʿ": 222,
      "ˁ": 223,
      "ː": 224,
      "́": 225,
      "̃": 226,
      "̄": 227,
      "̅": 228,
      "̇": 229,
      "̈": 230,
      "̋": 231,
      "̮": 232,
      "̶": 233,
      "ͣ": 234,
      "Ά": 235,
      "Έ": 236,
      "Ί": 237,
      "Α": 238,
      "Γ": 239,
      "Δ": 240,
      "Ε": 241,
      "Η": 242,
      "Ι": 243,
      "Κ": 244,
      "Λ": 245,
      "Μ": 246,
      "Ξ": 247,
      "Ο": 248,
      "Π": 249,
      "Ρ": 250,
      "Σ": 251,
      "Τ": 252,
      "Ψ": 253,
      "Ω": 254,
      "ά": 255,
      "έ": 256,
      "ή": 257,
      "ί": 258,
      "α": 259,
      "β": 260,
      "γ": 261,
      "δ": 262,
      "ε": 263,
      "ζ": 264,
      "η": 265,
      "θ": 266,
      "ι": 267,
      "κ": 268,
      "λ": 269,
      "μ": 270,
      "ν": 271,
      "ξ": 272,
      "ο": 273,
      "π": 274,
      "ρ": 275,
      "ς": 276,
      "σ": 277,
      "τ": 278,
      "υ": 279,
      "φ": 280,
      "χ": 281,
      "ψ": 282,
      "ω": 283,
      "ϊ": 284,
      "ό": 285,
      "ώ": 286,
      "Ў": 287,
      "А": 288,
      "Б": 289,
      "Г": 290,
      "Д": 291,
      "Е": 292,
      "И": 293,
      "К": 294,
      "М": 295,
      "Н": 296,
      "О": 297,
      "П": 298,
      "Р": 299,
      "С": 300,
      "Т": 301,
      "Ф": 302,
      "Я": 303,
      "а": 304,
      "б": 305,
      "в": 306,
      "г": 307,
      "д": 308,
      "е": 309,
      "ж": 310,
      "з": 311,
      "и": 312,
      "й": 313,
      "к": 314,
      "л": 315,
      "м": 316,
      "н": 317,
      "о": 318,
      "п": 319,
      "р": 320,
      "с": 321,
      "т": 322,
      "у": 323,
      "ф": 324,
      "х": 325,
      "ц": 326,
      "ч": 327,
      "ш": 328,
      "ы": 329,
      "ь": 330,
      "э": 331,
      "ю": 332,
      "я": 333,
      "і": 334,
      "ї": 335,
      "Ҳ": 336,
      "Ө": 337,
      "ե": 338,
      "մ": 339,
      "ն": 340,
      "ք": 341,
      "֑": 342,
      "֔": 343,
      "֗": 344,
      "֣": 345,
      "ְ": 346,
      "ֱ": 347,
      "ֳ": 348,
      "ִ": 349,
      "ֵ": 350,
      "ֶ": 351,
      "ַ": 352,
      "ָ": 353,
      "ֹ": 354,
      "ּ": 355,
      "ׁ": 356,
      "א": 357,
      "ב": 358,
      "ג": 359,
      "ד": 360,
      "ה": 361,
      "ו": 362,
      "ז": 363,
      "ח": 364,
      "ט": 365,
      "י": 366,
      "כ": 367,
      "ל": 368,
      "ם": 369,
      "מ": 370,
      "ן": 371,
      "נ": 372,
      "ס": 373,
      "ע": 374,
      "פ": 375,
      "ץ": 376,
      "ק": 377,
      "ר": 378,
      "ש": 379,
      "ת": 380,
      "،": 381,
      "ؙ": 382,
      "؟": 383,
      "آ": 384,
      "أ": 385,
      "ا": 386,
      "ب": 387,
      "ة": 388,
      "ت": 389,
      "ج": 390,
      "ح": 391,
      "د": 392,
      "ذ": 393,
      "ر": 394,
      "س": 395,
      "ش": 396,
      "ص": 397,
      "ض": 398,
      "ط": 399,
      "ع": 400,
      "ف": 401,
      "ق": 402,
      "ك": 403,
      "ل": 404,
      "م": 405,
      "ن": 406,
      "ه": 407,
      "و": 408,
      "ى": 409,
      "ي": 410,
      "َ": 411,
      "ُ": 412,
      "ِ": 413,
      "ّ": 414,
      "ْ": 415,
      "ٕ": 416,
      "ٰ": 417,
      "چ": 418,
      "ی": 419,
      "द": 420,
      "व": 421,
      "ा": 422,
      "১": 423,
      "৪": 424,
      "৭": 425,
      "৮": 426,
      "৯": 427,
      "இ": 428,
      "ง": 429,
      "ช": 430,
      "ด": 431,
      "น": 432,
      "ป": 433,
      "ผ": 434,
      "ม": 435,
      "ร": 436,
      "อ": 437,
      "ั": 438,
      "า": 439,
      "ี": 440,
      "ึ": 441,
      "ู": 442,
      "่": 443,
      "้": 444,
      "ᐅ": 445,
      "ḍ": 446,
      "ḏ": 447,
      "Ḥ": 448,
      "ḥ": 449,
      "ṁ": 450,
      "ṇ": 451,
      "ṛ": 452,
      "ṣ": 453,
      "ṭ": 454,
      "ẽ": 455,
      "ệ": 456,
      "ọ": 457,
      "ἀ": 458,
      "ἄ": 459,
      "Ἀ": 460,
      "ἐ": 461,
      "ἔ": 462,
      "ἱ": 463,
      "Ὀ": 464,
      "ὐ": 465,
      "ὰ": 466,
      "ὲ": 467,
      "ὺ": 468,
      "ῆ": 469,
      "ῖ": 470,
      "ῳ": 471,
      "‐": 472,
      "―": 473,
      "†": 474,
      "•": 475,
      "‣": 476,
      "′": 477,
      "‹": 478,
      "›": 479,
      "⁄": 480,
      "€": 481,
      "←": 482,
      "↑": 483,
      "→": 484,
      "↠": 485,
      "↳": 486,
      "↵": 487,
      "⇒": 488,
      "−": 489,
      "∗": 490,
      "∙": 491,
      "√": 492,
      "∞": 493,
      "∴": 494,
      "≠": 495,
      "≥": 496,
      "⋄": 497,
      "⋅": 498,
      "⎯": 499,
      "─": 500,
      "■": 501,
      "□": 502,
      "▲": 503,
      "▷": 504,
      "►": 505,
      "▼": 506,
      "◄": 507,
      "◆": 508,
      "◊": 509,
      "◌": 510,
      "●": 511,
      "◘": 512,
      "★": 513,
      "☆": 514,
      "☞": 515,
      "☾": 516,
      "♕": 517,
      "♡": 518,
      "♪": 519,
      "♫": 520,
      "♭": 521,
      "✞": 522,
      "❖": 523,
      "❚": 524,
      "❥": 525,
      "⠀": 526,
      "。": 527,
      "《": 528,
      "》": 529,
      "「": 530,
      "」": 531,
      "【": 532,
      "】": 533,
      "き": 534,
      "し": 535,
      "じ": 536,
      "な": 537,
      "ね": 538,
      "の": 539,
      "は": 540,
      "ぶ": 541,
      "ま": 542,
      "ゃ": 543,
      "ら": 544,
      "る": 545,
      "ん": 546,
      "ア": 547,
      "ィ": 548,
      "イ": 549,
      "ウ": 550,
      "エ": 551,
      "オ": 552,
      "カ": 553,
      "ク": 554,
      "グ": 555,
      "コ": 556,
      "シ": 557,
      "ジ": 558,
      "ス": 559,
      "ズ": 560,
      "セ": 561,
      "ダ": 562,
      "チ": 563,
      "ッ": 564,
      "デ": 565,
      "ト": 566,
      "ニ": 567,
      "ノ": 568,
      "ハ": 569,
      "バ": 570,
      "パ": 571,
      "ピ": 572,
      "ブ": 573,
      "プ": 574,
      "ヘ": 575,
      "ホ": 576,
      "ム": 577,
      "ョ": 578,
      "ラ": 579,
      "リ": 580,
      "ル": 581,
      "ロ": 582,
      "ヲ": 583,
      "ン": 584,
      "・": 585,
      "ー": 586,
      "一": 587,
      "上": 588,
      "下": 589,
      "丑": 590,
      "二": 591,
      "井": 592,
      "人": 593,
      "仲": 594,
      "党": 595,
      "前": 596,
      "华": 597,
      "夏": 598,
      "天": 599,
      "嫡": 600,
      "子": 601,
      "平": 602,
      "愛": 603,
      "承": 604,
      "文": 605,
      "死": 606,
      "洛": 607,
      "活": 608,
      "理": 609,
      "生": 610,
      "神": 611,
      "義": 612,
      "腕": 613,
      "覧": 614,
      "该": 615,
      "豪": 616,
      "鏡": 617,
      "阳": 618,
      "餅": 619,
      "駄": 620,
      "鳥": 621,
      "과": 622,
      "교": 623,
      "기": 624,
      "날": 625,
      "느": 626,
      "부": 627,
      "설": 628,
      "술": 629,
      "육": 630,
      "폰": 631,
      "학": 632,
      "해": 633,
      "de": 634,
      "os": 635,
      "en": 636,
      "es": 637,
      "er": 638,
      "la": 639,
      "ue": 640,
      "ar": 641,
      "on": 642,
      "as": 643,
      "an": 644,
      "que": 645,
      "el": 646,
      "or": 647,
      "ci": 648,
      "ad": 649,
      "re": 650,
      "un": 651,
      "al": 652,
      "se": 653,
      "los": 654,
      "to": 655,
      "te": 656,
      "do": 657,
      "tr": 658,
      "ti": 659,
      "no": 660,
      "di": 661,
      "con": 662,
      "lo": 663,
      "ta": 664,
      "ha": 665,
      "mi": 666,
      "su": 667,
      "in": 668,
      "ón": 669,
      "om": 670,
      "le": 671,
      "vi": 672,
      "cu": 673,
      "si": 674,
      "par": 675,
      "las": 676,
      "ía": 677,
      "qu": 678,
      "ra": 679,
      "ca": 680,
      "da": 681,
      "por": 682,
      "ri": 683,
      "bi": 684,
      "El": 685,
      "est": 686,
      "ción": 687,
      "..": 688,
      "ado": 689,
      "mos": 690,
      "ch": 691,
      "pr": 692,
      "li": 693,
      "per": 694,
      "para": 695,
      "des": 696,
      "mu": 697,
      "tu": 698,
      "com": 699,
      "me": 700,
      "ent": 701,
      "ma": 702,
      "del": 703,
      ".\"": 704,
      "co": 705,
      "po": 706,
      "ab": 707,
      "una": 708,
      "go": 709,
      "dos": 710,
      "ios": 711,
      "is": 712,
      "gu": 713,
      "res": 714,
      "ás": 715,
      "dad": 716,
      "mo": 717,
      "ce": 718,
      "án": 719,
      "ente": 720,
      "so": 721,
      "pa": 722,
      "bre": 723,
      "jo": 724,
      "qui": 725,
      "ten": 726,
      "ser": 727,
      "La": 728,
      "Es": 729,
      "Dios": 730,
      "én": 731,
      "cer": 732,
      "man": 733,
      "pu": 734,
      "em": 735,
      "sus": 736,
      "son": 737,
      "vo": 738,
      "tra": 739,
      "nos": 740,
      "pe": 741,
      "pi": 742,
      "hi": 743,
      "fi": 744,
      "ver": 745,
      "ando": 746,
      "ero": 747,
      "hab": 748,
      "No": 749,
      "En": 750,
      "Se": 751,
      "ro": 752,
      "cas": 753,
      "ada": 754,
      "ve": 755,
      "ni": 756,
      "más": 757,
      "otr": 758,
      "us": 759,
      "les": 760,
      "era": 761,
      "pro": 762,
      "Qu": 763,
      "ba": 764,
      "pue": 765,
      "am": 766,
      "ados": 767,
      "esta": 768,
      "cia": 769,
      "pre": 770,
      "ones": 771,
      "añ": 772,
      "ces": 773,
      "tos": 774,
      "ter": 775,
      "él": 776,
      "és": 777,
      "tar": 778,
      "eron": 779,
      "...": 780,
      "sa": 781,
      "va": 782,
      "tan": 783,
      "hom": 784,
      "yo": 785,
      "Por": 786,
      "ran": 787,
      "lu": 788,
      "ora": 789,
      "tien": 790,
      "du": 791,
      "na": 792,
      "como": 793,
      "mbi": 794,
      "car": 795,
      "cho": 796,
      "mis": 797,
      "ento": 798,
      "den": 799,
      "he": 800,
      "cre": 801,
      "ex": 802,
      "lle": 803,
      "tas": 804,
      "za": 805,
      "qué": 806,
      "Los": 807,
      "tes": 808,
      "ven": 809,
      "gun": 810,
      "ñor": 811,
      "todo": 812,
      "otros": 813,
      "ús": 814,
      "das": 815,
      "ir": 816,
      "Jes": 817,
      "ues": 818,
      "tro": 819,
      "dar": 820,
      "Yo": 821,
      "jos": 822,
      "be": 823,
      "gar": 824,
      "mente": 825,
      "cos": 826,
      "adre": 827,
      "fu": 828,
      "ras": 829,
      "está": 830,
      "ali": 831,
      "todos": 832,
      "lla": 833,
      "ga": 834,
      "Jesús": 835,
      "gi": 836,
      "día": 837,
      "hacer": 838,
      "der": 839,
      "cri": 840,
      "tambi": 841,
      "Cu": 842,
      "pas": 843,
      "je": 844,
      "erra": 845,
      "Si": 846,
      "hay": 847,
      "también": 848,
      "Señor": 849,
      "endo": 850,
      "ellos": 851,
      "ían": 852,
      "dijo": 853,
      "tor": 854,
      "cen": 855,
      "ay": 856,
      "20": 857,
      "pon": 858,
      "años": 859,
      "ho": 860,
      "can": 861,
      "cor": 862,
      "vida": 863,
      "ías": 864,
      "lan": 865,
      "ciones": 866,
      "im": 867,
      "ño": 868,
      "De": 869,
      "pos": 870,
      "bu": 871,
      "Qué": 872,
      "mar": 873,
      "fe": 874,
      "bo": 875,
      "Al": 876,
      "fue": 877,
      "io": 878,
      "ia": 879,
      "jer": 880,
      "esto": 881,
      "gui": 882,
      "sin": 883,
      ").": 884,
      "Pero": 885,
      "pero": 886,
      "deci": 887,
      "había": 888,
      "ob": 889,
      "están": 890,
      "sab": 891,
      "fa": 892,
      "cción": 893,
      "person": 894,
      "hombre": 895,
      "ru": 896,
      "lab": 897,
      "sí": 898,
      "ya": 899,
      "ja": 900,
      "entes": 901,
      "aba": 902,
      "eso": 903,
      "Qui": 904,
      "ún": 905,
      "ores": 906,
      "nues": 907,
      "Él": 908,
      "hu": 909,
      "dis": 910,
      "men": 911,
      "bres": 912,
      "ne": 913,
      "pres": 914,
      "for": 915,
      "vos": 916,
      "señ": 917,
      "ara": 918,
      "sobre": 919,
      "ales": 920,
      "cono": 921,
      "gen": 922,
      "cuen": 923,
      "dr": 924,
      "has": 925,
      "mas": 926,
      "lar": 927,
      "muer": 928,
      "her": 929,
      "gran": 930,
      "gan": 931,
      "mbre": 932,
      "este": 933,
      "lí": 934,
      "uno": 935,
      "tiene": 936,
      "quien": 937,
      "ju": 938,
      "mujer": 939,
      "tierra": 940,
      "quier": 941,
      "Con": 942,
      "emos": 943,
      "tiem": 944,
      "ac": 945,
      "mun": 946,
      "19": 947,
      "To": 948,
      "ómo": 949,
      "hijos": 950,
      "ie": 951,
      "sal": 952,
      "lia": 953,
      "Las": 954,
      "entre": 955,
      "sto": 956,
      "mismo": 957,
      "Re": 958,
      "bien": 959,
      "quí": 960,
      "pri": 961,
      "pen": 962,
      "zo": 963,
      "pec": 964,
      "ble": 965,
      "eli": 966,
      "cha": 967,
      "tros": 968,
      "much": 969,
      "aron": 970,
      "mundo": 971,
      "mon": 972,
      "mí": 973,
      "han": 974,
      "cio": 975,
      "dice": 976,
      "ños": 977,
      "mp": 978,
      "muy": 979,
      "hace": 980,
      "nombre": 981,
      "bar": 982,
      "manos": 983,
      "hora": 984,
      "cuer": 985,
      "miento": 986,
      "casa": 987,
      "mer": 988,
      "don": 989,
      "Me": 990,
      "len": 991,
      "ing": 992,
      "Mi": 993,
      "buen": 994,
      "vol": 995,
      "ella": 996,
      "tiempo": 997,
      "10": 998,
      "tal": 999,
      "hecho": 1000,
      "gr": 1001,
      "puede": 1002,
      "tó": 1003,
      "personas": 1004,
      "cuando": 1005,
      "gra": 1006,
      "pueb": 1007,
      "hombres": 1008,
      "ban": 1009,
      "Su": 1010,
      "ido": 1011,
      "pare": 1012,
      "tras": 1013,
      "decir": 1014,
      "ber": 1015,
      "var": 1016,
      "palab": 1017,
      "ayu": 1018,
      "Lo": 1019,
      "br": 1020,
      "demás": 1021,
      "ciu": 1022,
      "dej": 1023,
      "nada": 1024,
      "uel": 1025,
      "mal": 1026,
      "uni": 1027,
      "ciel": 1028,
      "enseñ": 1029,
      "hijo": 1030,
      "Cuando": 1031,
      "adas": 1032,
      "traba": 1033,
      "gos": 1034,
      "?\"": 1035,
      "gua": 1036,
      "éis": 1037,
      "Le": 1038,
      "pués": 1039,
      "nue": 1040,
      "van": 1041,
      "mano": 1042,
      "dio": 1043,
      "entos": 1044,
      "sión": 1045,
      "dió": 1046,
      "pren": 1047,
      "padre": 1048,
      "estar": 1049,
      "dado": 1050,
      "Je": 1051,
      "pañ": 1052,
      "amor": 1053,
      "encia": 1054,
      "min": 1055,
      "onces": 1056,
      "vez": 1057,
      "cla": 1058,
      "cion": 1059,
      "pregun": 1060,
      "gente": 1061,
      "pí": 1062,
      "vir": 1063,
      "Ti": 1064,
      "cada": 1065,
      "aquí": 1066,
      "pueblo": 1067,
      "adie": 1068,
      "tir": 1069,
      "Des": 1070,
      "Un": 1071,
      "nosotros": 1072,
      "vá": 1073,
      "tado": 1074,
      "año": 1075,
      "sti": 1076,
      "mor": 1077,
      "ale": 1078,
      "ol": 1079,
      "Jeho": 1080,
      "cias": 1081,
      "soy": 1082,
      "fin": 1083,
      "trar": 1084,
      "ur": 1085,
      "ante": 1086,
      "todas": 1087,
      "ciudad": 1088,
      "sen": 1089,
      "tener": 1090,
      "será": 1091,
      "hasta": 1092,
      "cosas": 1093,
      "ib": 1094,
      "porque": 1095,
      "madre": 1096,
      "Cómo": 1097,
      "Que": 1098,
      "Quién": 1099,
      "lado": 1100,
      "ene": 1101,
      "lugar": 1102,
      "\"¿": 1103,
      "15": 1104,
      "Jehová": 1105,
      "au": 1106,
      "fer": 1107,
      "Is": 1108,
      "fami": 1109,
      "san": 1110,
      "verdad": 1111,
      "Ju": 1112,
      "cora": 1113,
      "che": 1114,
      "escri": 1115,
      "ele": 1116,
      "uste": 1117,
      "dios": 1118,
      "Sin": 1119,
      "zar": 1120,
      "tres": 1121,
      "caso": 1122,
      "In": 1123,
      "días": 1124,
      "Para": 1125,
      "sig": 1126,
      "toda": 1127,
      "Mo": 1128,
      "12": 1129,
      "respon": 1130,
      "unto": 1131,
      "dades": 1132,
      "dan": 1133,
      "uego": 1134,
      "compañ": 1135,
      "00": 1136,
      "Te": 1137,
      "sido": 1138,
      "segu": 1139,
      "parte": 1140,
      "encon": 1141,
      "nadie": 1142,
      "18": 1143,
      "Ma": 1144,
      "sea": 1145,
      "fuer": 1146,
      "Com": 1147,
      "coraz": 1148,
      "Ent": 1149,
      "forma": 1150,
      "mej": 1151,
      "quer": 1152,
      "reci": 1153,
      "vas": 1154,
      "antes": 1155,
      "Mar": 1156,
      "gas": 1157,
      "ina": 1158,
      "14": 1159,
      "cuenta": 1160,
      "así": 1161,
      "Una": 1162,
      "empre": 1163,
      "bra": 1164,
      "dí": 1165,
      "pie": 1166,
      "11": 1167,
      "fr": 1168,
      "sue": 1169,
      "ana": 1170,
      "tú": 1171,
      "avi": 1172,
      "inter": 1173,
      "embar": 1174,
      "cump": 1175,
      "estaba": 1176,
      "tí": 1177,
      "tru": 1178,
      "ador": 1179,
      "estas": 1180,
      "rael": 1181,
      "rey": 1182,
      "....": 1183,
      "guien": 1184,
      "idad": 1185,
      "ritu": 1186,
      "estos": 1187,
      "Di": 1188,
      "debe": 1189,
      "dia": 1190,
      "oy": 1191,
      "17": 1192,
      "estu": 1193,
      "cual": 1194,
      "sta": 1195,
      "ciendo": 1196,
      "tran": 1197,
      "algun": 1198,
      "embargo": 1199,
      "San": 1200,
      "muerte": 1201,
      "lor": 1202,
      "ocu": 1203,
      "ben": 1204,
      "ese": 1205,
      "ami": 1206,
      "posi": 1207,
      "escu": 1208,
      "adres": 1209,
      "Israel": 1210,
      "otras": 1211,
      "quel": 1212,
      "contra": 1213,
      "ste": 1214,
      ",\"": 1215,
      "nuestros": 1216,
      "otro": 1217,
      "ning": 1218,
      "ión": 1219,
      "nu": 1220,
      "ña": 1221,
      "cía": 1222,
      "poder": 1223,
      "Bib": 1224,
      "Esto": 1225,
      "cal": 1226,
      "reg": 1227,
      "ría": 1228,
      "pues": 1229,
      "esper": 1230,
      "esti": 1231,
      "Mois": 1232,
      "tura": 1233,
      "An": 1234,
      "ino": 1235,
      "Biblia": 1236,
      "16": 1237,
      "rante": 1238,
      "zas": 1239,
      "tienen": 1240,
      "lleg": 1241,
      "pueden": 1242,
      "siempre": 1243,
      "palabras": 1244,
      "Nos": 1245,
      "cado": 1246,
      "acer": 1247,
      "cami": 1248,
      "Moisés": 1249,
      "píritu": 1250,
      "cielo": 1251,
      "encuen": 1252,
      "niños": 1253,
      "culo": 1254,
      "sabi": 1255,
      "tad": 1256,
      "algo": 1257,
      "conoci": 1258,
      "quienes": 1259,
      "padres": 1260,
      "alguien": 1261,
      "dor": 1262,
      "agua": 1263,
      "13": 1264,
      "jar": 1265,
      "Pa": 1266,
      "eran": 1267,
      "ár": 1268,
      "tri": 1269,
      "comi": 1270,
      "rá": 1271,
      "sino": 1272,
      "mes": 1273,
      "Sa": 1274,
      "gún": 1275,
      "cto": 1276,
      "pla": 1277,
      "bus": 1278,
      "ís": 1279,
      "anos": 1280,
      "bli": 1281,
      "aquel": 1282,
      "vuel": 1283,
      "después": 1284,
      "lti": 1285,
      "mero": 1286,
      "có": 1287,
      "Mu": 1288,
      "eres": 1289,
      "Entonces": 1290,
      "gel": 1291,
      "muchas": 1292,
      "Ha": 1293,
      "tido": 1294,
      "muchos": 1295,
      "Así": 1296,
      "mucho": 1297,
      "sier": 1298,
      "peque": 1299,
      "ío": 1300,
      "voy": 1301,
      "ación": 1302,
      "He": 1303,
      "quién": 1304,
      "chos": 1305,
      "pli": 1306,
      "ará": 1307,
      "familia": 1308,
      "ah": 1309,
      "allí": 1310,
      "Hi": 1311,
      "imo": 1312,
      "fueron": 1313,
      "dó": 1314,
      "Hay": 1315,
      "fal": 1316,
      "enta": 1317,
      "lá": 1318,
      "hizo": 1319,
      "Vi": 1320,
      "dón": 1321,
      "Sal": 1322,
      "enten": 1323,
      "dido": 1324,
      "zó": 1325,
      "tados": 1326,
      "vió": 1327,
      "bas": 1328,
      "rección": 1329,
      "som": 1330,
      "pó": 1331,
      "val": 1332,
      "jas": 1333,
      "demos": 1334,
      "trás": 1335,
      "il": 1336,
      "sigui": 1337,
      "mom": 1338,
      "poco": 1339,
      "rió": 1340,
      "ig": 1341,
      "bro": 1342,
      "ído": 1343,
      "paz": 1344,
      "mujeres": 1345,
      "ahora": 1346,
      "cómo": 1347,
      "Cri": 1348,
      "tanto": 1349,
      "noche": 1350,
      "cul": 1351,
      "cambi": 1352,
      "mil": 1353,
      "podr": 1354,
      "arse": 1355,
      "corazón": 1356,
      "nuevo": 1357,
      "quiere": 1358,
      "ció": 1359,
      "Esta": 1360,
      "fici": 1361,
      "otra": 1362,
      "camino": 1363,
      "cep": 1364,
      "pes": 1365,
      "ayudar": 1366,
      "cación": 1367,
      "desde": 1368,
      "ul": 1369,
      "confi": 1370,
      "persona": 1371,
      "primer": 1372,
      "ellas": 1373,
      "trabajo": 1374,
      "anza": 1375,
      "alidad": 1376,
      "amente": 1377,
      "mejor": 1378,
      "amos": 1379,
      "jus": 1380,
      "at": 1381,
      "hacia": 1382,
      "ustedes": 1383,
      "ambi": 1384,
      "propi": 1385,
      "almente": 1386,
      "Todos": 1387,
      "habi": 1388,
      "señor": 1389,
      "aban": 1390,
      "clu": 1391,
      "tienes": 1392,
      "nuestro": 1393,
      "mó": 1394,
      "cons": 1395,
      "tico": 1396,
      "tus": 1397,
      "donde": 1398,
      "durante": 1399,
      "erta": 1400,
      "ojos": 1401,
      "vosotros": 1402,
      "vor": 1403,
      "ej": 1404,
      "desa": 1405,
      "tención": 1406,
      "Padre": 1407,
      "ál": 1408,
      "lidad": 1409,
      "llegar": 1410,
      "momento": 1411,
      "ley": 1412,
      "lación": 1413,
      "tante": 1414,
      "escuch": 1415,
      "of": 1416,
      "cin": 1417,
      "neces": 1418,
      "cumpli": 1419,
      "mie": 1420,
      "hermanos": 1421,
      "adores": 1422,
      "tación": 1423,
      "chi": 1424,
      "puesto": 1425,
      "Juan": 1426,
      "ér": 1427,
      "fun": 1428,
      "Jos": 1429,
      "cti": 1430,
      "ñas": 1431,
      "cido": 1432,
      "pel": 1433,
      "comer": 1434,
      "solo": 1435,
      "nú": 1436,
      "quiera": 1437,
      "erto": 1438,
      "hoy": 1439,
      "dese": 1440,
      "ge": 1441,
      "Todo": 1442,
      "Jer": 1443,
      "Pro": 1444,
      "cua": 1445,
      "ros": 1446,
      "prom": 1447,
      "vía": 1448,
      "estamos": 1449,
      "luz": 1450,
      "cí": 1451,
      "unos": 1452,
      "emp": 1453,
      "Ar": 1454,
      "tenía": 1455,
      "via": 1456,
      "urrección": 1457,
      "200": 1458,
      "ningún": 1459,
      "Lu": 1460,
      "ello": 1461,
      "comen": 1462,
      "eros": 1463,
      "apren": 1464,
      "Cristo": 1465,
      "!!": 1466,
      "só": 1467,
      "país": 1468,
      "palabra": 1469,
      "dieron": 1470,
      "quiero": 1471,
      "Ya": 1472,
      "miedo": 1473,
      "Davi": 1474,
      "esa": 1475,
      "Ten": 1476,
      "fru": 1477,
      "icor": 1478,
      "Después": 1479,
      "his": 1480,
      "estoy": 1481,
      "llev": 1482,
      "David": 1483,
      "ano": 1484,
      "Pe": 1485,
      "Co": 1486,
      "Este": 1487,
      "manera": 1488,
      "may": 1489,
      "tur": 1490,
      "tá": 1491,
      "seguir": 1492,
      "mir": 1493,
      "Como": 1494,
      "gre": 1495,
      "volver": 1496,
      "22": 1497,
      "acuer": 1498,
      "toria": 1499,
      "estado": 1500,
      "cielos": 1501,
      "má": 1502,
      "mientos": 1503,
      "ena": 1504,
      "Cor": 1505,
      "pan": 1506,
      "junto": 1507,
      "ini": 1508,
      "habían": 1509,
      "tró": 1510,
      "),": 1511,
      "unca": 1512,
      "din": 1513,
      "gri": 1514,
      "Tambi": 1515,
      "También": 1516,
      "Ci": 1517,
      "cabe": 1518,
      "últi": 1519,
      "pá": 1520,
      "ye": 1521,
      "cur": 1522,
      "vivir": 1523,
      "judí": 1524,
      "dere": 1525,
      "Ahora": 1526,
      "bri": 1527,
      "oo": 1528,
      "crey": 1529,
      "miser": 1530,
      "24": 1531,
      "recibi": 1532,
      "vieron": 1533,
      "ablo": 1534,
      "bajo": 1535,
      "cios": 1536,
      "21": 1537,
      "Ca": 1538,
      "profe": 1539,
      "tió": 1540,
      "exis": 1541,
      "nifi": 1542,
      "dición": 1543,
      "entonces": 1544,
      "mado": 1545,
      "Tú": 1546,
      "ario": 1547,
      "tulo": 1548,
      "cil": 1549,
      "cían": 1550,
      "acompañ": 1551,
      "serán": 1552,
      "duría": 1553,
      "oración": 1554,
      "jó": 1555,
      "sos": 1556,
      "cuatro": 1557,
      "dij": 1558,
      "ete": 1559,
      "hor": 1560,
      "impor": 1561,
      "har": 1562,
      "quieres": 1563,
      "lante": 1564,
      "orden": 1565,
      "conti": 1566,
      "Porque": 1567,
      "unque": 1568,
      "misericor": 1569,
      "ias": 1570,
      "dose": 1571,
      "eno": 1572,
      "deber": 1573,
      "So": 1574,
      "tengo": 1575,
      "favor": 1576,
      "sali": 1577,
      "entras": 1578,
      "medio": 1579,
      "hermano": 1580,
      "ángel": 1581,
      "obe": 1582,
      "Hijo": 1583,
      "diciendo": 1584,
      "llevar": 1585,
      "ahí": 1586,
      "libro": 1587,
      "sé": 1588,
      "cab": 1589,
      "fes": 1590,
      "visto": 1591,
      "algunos": 1592,
      "dera": 1593,
      "bol": 1594,
      "Acaso": 1595,
      "ple": 1596,
      "parti": 1597,
      "atención": 1598,
      "hacen": 1599,
      "dicho": 1600,
      "bros": 1601,
      "misma": 1602,
      "dir": 1603,
      "fuera": 1604,
      "mento": 1605,
      "cuerpo": 1606,
      "ama": 1607,
      "vés": 1608,
      "fí": 1609,
      "Per": 1610,
      "sol": 1611,
      "resurrección": 1612,
      "tán": 1613,
      "servi": 1614,
      "ase": 1615,
      "xi": 1616,
      "signifi": 1617,
      "Ser": 1618,
      "ins": 1619,
      "llama": 1620,
      "\"¡": 1621,
      "adi": 1622,
      "30": 1623,
      "cristi": 1624,
      "hablar": 1625,
      "veces": 1626,
      "Tierra": 1627,
      "ham": 1628,
      "Hab": 1629,
      "Po": 1630,
      "conocer": 1631,
      "inci": 1632,
      "dé": 1633,
      "migo": 1634,
      "feli": 1635,
      "queda": 1636,
      "tin": 1637,
      "pecados": 1638,
      "estaban": 1639,
      "judíos": 1640,
      "sabiduría": 1641,
      "vio": 1642,
      "teo": 1643,
      "gru": 1644,
      "siervos": 1645,
      "turas": 1646,
      "segun": 1647,
      "ez": 1648,
      "tamente": 1649,
      "adu": 1650,
      "acuerdo": 1651,
      "anim": 1652,
      "trata": 1653,
      "edad": 1654,
      "usal": 1655,
      "mañ": 1656,
      "digo": 1657,
      "Luego": 1658,
      "tendr": 1659,
      "Jerusal": 1660,
      "lesia": 1661,
      "testi": 1662,
      "medi": 1663,
      "Espíritu": 1664,
      "espe": 1665,
      "invi": 1666,
      "cr": 1667,
      "sent": 1668,
      "jes": 1669,
      "consi": 1670,
      "conse": 1671,
      "Jerusalén": 1672,
      "envi": 1673,
      "ló": 1674,
      "pró": 1675,
      "ton": 1676,
      "obras": 1677,
      "enes": 1678,
      "grande": 1679,
      "puedo": 1680,
      "dejar": 1681,
      "23": 1682,
      "uti": 1683,
      "plan": 1684,
      "usted": 1685,
      "Sus": 1686,
      "llen": 1687,
      "mayor": 1688,
      "zado": 1689,
      "nuestra": 1690,
      "arre": 1691,
      "respe": 1692,
      "mañana": 1693,
      "olvi": 1694,
      "pulos": 1695,
      "elo": 1696,
      "mera": 1697,
      "espos": 1698,
      "pens": 1699,
      "ándo": 1700,
      "nunca": 1701,
      "ayuda": 1702,
      "25": 1703,
      "tivo": 1704,
      "mana": 1705,
      "tica": 1706,
      "tipo": 1707,
      "bes": 1708,
      "ior": 1709,
      "Aquí": 1710,
      "ctor": 1711,
      "buena": 1712,
      "comuni": 1713,
      "dijeron": 1714,
      "ín": 1715,
      "través": 1716,
      "delante": 1717,
      "haber": 1718,
      "cam": 1719,
      "taron": 1720,
      "quedar": 1721,
      "cabeza": 1722,
      "gado": 1723,
      "bueno": 1724,
      "Ja": 1725,
      "discí": 1726,
      "espíritu": 1727,
      "Abra": 1728,
      "fir": 1729,
      "permi": 1730,
      "apare": 1731,
      "monta": 1732,
      "Tu": 1733,
      "arro": 1734,
      "?,": 1735,
      "Cre": 1736,
      "erno": 1737,
      "poner": 1738,
      "entar": 1739,
      "pal": 1740,
      "muertos": 1741,
      "acerca": 1742,
      "úni": 1743,
      "vino": 1744,
      "debemos": 1745,
      "detrás": 1746,
      "demon": 1747,
      "gip": 1748,
      "extra": 1749,
      "ves": 1750,
      "pecado": 1751,
      "cui": 1752,
      "emplo": 1753,
      "Ver": 1754,
      "hici": 1755,
      "encontrar": 1756,
      "somos": 1757,
      "Escri": 1758,
      "habla": 1759,
      "ck": 1760,
      "tuvo": 1761,
      "Ni": 1762,
      "raz": 1763,
      "puedes": 1764,
      "esos": 1765,
      "ona": 1766,
      "morir": 1767,
      "ere": 1768,
      "historia": 1769,
      "Has": 1770,
      "cel": 1771,
      "reali": 1772,
      "op": 1773,
      "número": 1774,
      "mismos": 1775,
      "equi": 1776,
      "entan": 1777,
      "anti": 1778,
      "alegr": 1779,
      "sabemos": 1780,
      "Son": 1781,
      "perdon": 1782,
      "acep": 1783,
      "Ex": 1784,
      "viene": 1785,
      "llegó": 1786,
      "Na": 1787,
      "punto": 1788,
      "venes": 1789,
      "inas": 1790,
      "Algun": 1791,
      "anto": 1792,
      "Eso": 1793,
      "igu": 1794,
      "paci": 1795,
      "entr": 1796,
      "tidad": 1797,
      "sabe": 1798,
      "amigos": 1799,
      "sólo": 1800,
      "llo": 1801,
      "sir": 1802,
      "tando": 1803,
      "llah": 1804,
      "voz": 1805,
      "tene": 1806,
      "regres": 1807,
      "Sab": 1808,
      "Uni": 1809,
      "chas": 1810,
      "trans": 1811,
      "tomar": 1812,
      "diri": 1813,
      "suce": 1814,
      "fo": 1815,
      "ren": 1816,
      "produ": 1817,
      "Uste": 1818,
      "dro": 1819,
      "hon": 1820,
      "Allah": 1821,
      "dores": 1822,
      "Bu": 1823,
      "encuentra": 1824,
      "unas": 1825,
      "bos": 1826,
      "tre": 1827,
      "menos": 1828,
      "ví": 1829,
      "gó": 1830,
      "José": 1831,
      "dinero": 1832,
      "jun": 1833,
      "fía": 1834,
      "famili": 1835,
      "?.\"": 1836,
      "zos": 1837,
      "segui": 1838,
      "fuego": 1839,
      "Cuál": 1840,
      "estás": 1841,
      "ita": 1842,
      "hemos": 1843,
      "autor": 1844,
      "conocimiento": 1845,
      "Jo": 1846,
      "creyentes": 1847,
      "discípulos": 1848,
      "cinco": 1849,
      "difer": 1850,
      "saber": 1851,
      "corre": 1852,
      "aquellos": 1853,
      "able": 1854,
      "ono": 1855,
      "iz": 1856,
      "pasado": 1857,
      "28": 1858,
      "pul": 1859,
      "cambio": 1860,
      "mé": 1861,
      "quería": 1862,
      "ima": 1863,
      "tenemos": 1864,
      "podemos": 1865,
      "vues": 1866,
      "apo": 1867,
      "estr": 1868,
      "err": 1869,
      "tud": 1870,
      "tribu": 1871,
      "empe": 1872,
      "lengua": 1873,
      "algunas": 1874,
      "constru": 1875,
      "vista": 1876,
      "tanás": 1877,
      "escribi": 1878,
      "tis": 1879,
      "int": 1880,
      "!\"": 1881,
      "vamos": 1882,
      "agu": 1883,
      "jóvenes": 1884,
      "idos": 1885,
      "genes": 1886,
      "pasar": 1887,
      "reli": 1888,
      "Ella": 1889,
      "prome": 1890,
      "según": 1891,
      "vivi": 1892,
      "pequeño": 1893,
      "puesta": 1894,
      "ida": 1895,
      "fec": 1896,
      "conver": 1897,
      "luego": 1898,
      "primera": 1899,
      "volun": 1900,
      "ori": 1901,
      "verda": 1902,
      "lando": 1903,
      "respondió": 1904,
      "ai": 1905,
      "hija": 1906,
      "formación": 1907,
      "especi": 1908,
      "Abraham": 1909,
      "Ad": 1910,
      "Isa": 1911,
      "vin": 1912,
      "ide": 1913,
      "char": 1914,
      "Gu": 1915,
      "levan": 1916,
      "ocur": 1917,
      "alcan": 1918,
      "princi": 1919,
      "ejemplo": 1920,
      "pone": 1921,
      "guar": 1922,
      "abri": 1923,
      "pesar": 1924,
      "oí": 1925,
      "cerca": 1926,
      "enseñar": 1927,
      "reino": 1928,
      "eng": 1929,
      "alegría": 1930,
      "gía": 1931,
      "proble": 1932,
      "ombre": 1933,
      "tel": 1934,
      "Res": 1935,
      "haciendo": 1936,
      "pasa": 1937,
      "rom": 1938,
      "erte": 1939,
      "niño": 1940,
      "acu": 1941,
      "tantes": 1942,
      "Satanás": 1943,
      "oro": 1944,
      "posible": 1945,
      "fri": 1946,
      "cierto": 1947,
      "29": 1948,
      "podría": 1949,
      "prue": 1950,
      "26": 1951,
      "oso": 1952,
      "nie": 1953,
      "enci": 1954,
      "Nosotros": 1955,
      "actu": 1956,
      "siete": 1957,
      "pósto": 1958,
      "rela": 1959,
      "mues": 1960,
      "verg": 1961,
      "siones": 1962,
      "conmigo": 1963,
      "obra": 1964,
      "María": 1965,
      "dicen": 1966,
      "entas": 1967,
      "ración": 1968,
      "nación": 1969,
      "dedi": 1970,
      "Pue": 1971,
      "pertene": 1972,
      "salva": 1973,
      "Nue": 1974,
      "iden": 1975,
      "tem": 1976,
      "Pablo": 1977,
      "gus": 1978,
      "ki": 1979,
      "sangre": 1980,
      "Mateo": 1981,
      "abi": 1982,
      "trabaj": 1983,
      "Nues": 1984,
      "grandes": 1985,
      "Estoy": 1986,
      "siguiente": 1987,
      "recor": 1988,
      "27": 1989,
      "encias": 1990,
      "iste": 1991,
      "50": 1992,
      "cando": 1993,
      "creo": 1994,
      "úbli": 1995,
      "difí": 1996,
      "Egip": 1997,
      "grupo": 1998,
      "?.": 1999,
      "gue": 2000,
      "sor": 2001,
      "ángeles": 2002,
      "pido": 2003,
      "amar": 2004,
      "Car": 2005,
      "sabes": 2006,
      "alma": 2007,
      "et": 2008,
      "mane": 2009,
      "Ellos": 2010,
      "paso": 2011,
      "mensa": 2012,
      "dónde": 2013,
      "pun": 2014,
      "puso": 2015,
      "aún": 2016,
      "cue": 2017,
      "ticia": 2018,
      "OR": 2019,
      "SE": 2020,
      "Palab": 2021,
      "todavía": 2022,
      "puerta": 2023,
      "casti": 2024,
      "Par": 2025,
      "pien": 2026,
      "Egipto": 2027,
      "resul": 2028,
      "ertas": 2029,
      "quedó": 2030,
      "eter": 2031,
      "cados": 2032,
      "gión": 2033,
      "expli": 2034,
      "ónde": 2035,
      "siento": 2036,
      "super": 2037,
      "cuanto": 2038,
      "rede": 2039,
      "preocu": 2040,
      "cru": 2041,
      "té": 2042,
      "inclu": 2043,
      "volvió": 2044,
      "ger": 2045,
      "capaz": 2046,
      "dientes": 2047,
      "voluntad": 2048,
      "Además": 2049,
      "fiel": 2050,
      "mbres": 2051,
      "largo": 2052,
      "muerto": 2053,
      "obli": 2054,
      "cciones": 2055,
      "nor": 2056,
      "áis": 2057,
      "murió": 2058,
      "sueños": 2059,
      "Ay": 2060,
      "col": 2061,
      "inti": 2062,
      "óni": 2063,
      "reve": 2064,
      "Rey": 2065,
      "cristianos": 2066,
      "visi": 2067,
      "comple": 2068,
      "ninguna": 2069,
      "Dónde": 2070,
      "casi": 2071,
      "posición": 2072,
      "guna": 2073,
      "gados": 2074,
      "ani": 2075,
      "sueño": 2076,
      "Her": 2077,
      "enfer": 2078,
      "dero": 2079,
      "caus": 2080,
      "araón": 2081,
      "pregunta": 2082,
      "modo": 2083,
      "sur": 2084,
      "due": 2085,
      "raeli": 2086,
      "ito": 2087,
      "cir": 2088,
      "Vamos": 2089,
      "ícu": 2090,
      "guerra": 2091,
      "meses": 2092,
      "Sí": 2093,
      "dentro": 2094,
      "cimiento": 2095,
      "amigo": 2096,
      "significa": 2097,
      "Reino": 2098,
      "sis": 2099,
      "tenían": 2100,
      "aunque": 2101,
      "ses": 2102,
      "públi": 2103,
      "glor": 2104,
      "gamos": 2105,
      "apar": 2106,
      "cosa": 2107,
      "habéis": 2108,
      "enseña": 2109,
      "Pre": 2110,
      "tenido": 2111,
      "esposa": 2112,
      "ridad": 2113,
      "pis": 2114,
      "descen": 2115,
      "expres": 2116,
      "liber": 2117,
      "mani": 2118,
      "mientras": 2119,
      "senti": 2120,
      "fuerte": 2121,
      "obje": 2122,
      "temp": 2123,
      "indi": 2124,
      "corazones": 2125,
      "Hoy": 2126,
      "Mis": 2127,
      "puestos": 2128,
      "preguntó": 2129,
      "pítulo": 2130,
      "gro": 2131,
      "Li": 2132,
      "termin": 2133,
      "bles": 2134,
      "juz": 2135,
      "raelitas": 2136,
      "Pedro": 2137,
      "Soy": 2138,
      "lejos": 2139,
      "Ne": 2140,
      "zación": 2141,
      "canción": 2142,
      "recuer": 2143,
      "destru": 2144,
      "oma": 2145,
      "cabo": 2146,
      "continu": 2147,
      "simo": 2148,
      "zan": 2149,
      "Palabra": 2150,
      "Du": 2151,
      "pio": 2152,
      "ea": 2153,
      "ingun": 2154,
      "apósto": 2155,
      "decía": 2156,
      "Cas": 2157,
      "primero": 2158,
      "fuerza": 2159,
      "Santo": 2160,
      "cerdo": 2161,
      "sentido": 2162,
      "Pi": 2163,
      "deben": 2164,
      "conoce": 2165,
      "gracias": 2166,
      "compren": 2167,
      "rededor": 2168,
      "prote": 2169,
      "40": 2170,
      "Fue": 2171,
      "diendo": 2172,
      "partir": 2173,
      "Ig": 2174,
      "yos": 2175,
      "hacerlo": 2176,
      "importante": 2177,
      "alo": 2178,
      "perdón": 2179,
      "espa": 2180,
      "misericordia": 2181,
      "propio": 2182,
      "evi": 2183,
      "algún": 2184,
      "gracia": 2185,
      "oído": 2186,
      "haces": 2187,
      "total": 2188,
      "escuchar": 2189,
      "lin": 2190,
      "tón": 2191,
      "fra": 2192,
      "bilidad": 2193,
      "pron": 2194,
      "árbol": 2195,
      "contrar": 2196,
      "present": 2197,
      "igual": 2198,
      "dará": 2199,
      "líne": 2200,
      "Pues": 2201,
      "lleva": 2202,
      "Lucas": 2203,
      "servicio": 2204,
      "sufici": 2205,
      "gió": 2206,
      "apro": 2207,
      "mucha": 2208,
      "dra": 2209,
      "convi": 2210,
      "llegado": 2211,
      "decían": 2212,
      "lio": 2213,
      "embre": 2214,
      "000": 2215,
      "Man": 2216,
      "debería": 2217,
      "Cada": 2218,
      "33": 2219,
      "eras": 2220,
      "cuales": 2221,
      "ganas": 2222,
      "ofre": 2223,
      "til": 2224,
      "cont": 2225,
      "mayo": 2226,
      "tercer": 2227,
      "prepar": 2228,
      "atrás": 2229,
      "fen": 2230,
      "pensa": 2231,
      "situ": 2232,
      "venido": 2233,
      "bor": 2234,
      "servir": 2235,
      "presenta": 2236,
      "nueva": 2237,
      "cara": 2238,
      "final": 2239,
      "sacerdo": 2240,
      "frente": 2241,
      "preguntas": 2242,
      "sas": 2243,
      "dejó": 2244,
      "israelitas": 2245,
      "Fu": 2246,
      "encar": 2247,
      "meros": 2248,
      "pier": 2249,
      "siquiera": 2250,
      "áles": 2251,
      "duda": 2252,
      "entrar": 2253,
      "resu": 2254,
      "Quien": 2255,
      "llamado": 2256,
      "encontr": 2257,
      "Hu": 2258,
      "buenas": 2259,
      "rar": 2260,
      "parece": 2261,
      "Hasta": 2262,
      "Ba": 2263,
      "tarde": 2264,
      "31": 2265,
      "allá": 2266,
      "ximo": 2267,
      "reuni": 2268,
      "dije": 2269,
      "tencia": 2270,
      "Ro": 2271,
      "unci": 2272,
      "ándose": 2273,
      "ciudades": 2274,
      "ciencia": 2275,
      "versí": 2276,
      "Desde": 2277,
      "demonios": 2278,
      "atra": 2279,
      "cis": 2280,
      "puestas": 2281,
      "tio": 2282,
      "fico": 2283,
      "tivos": 2284,
      "dencia": 2285,
      "exper": 2286,
      "culos": 2287,
      "cree": 2288,
      "quis": 2289,
      "come": 2290,
      "inguno": 2291,
      "bios": 2292,
      "animales": 2293,
      "port": 2294,
      "gres": 2295,
      "aprender": 2296,
      "ade": 2297,
      "milla": 2298,
      "llamar": 2299,
      "misión": 2300,
      "difícil": 2301,
      "enda": 2302,
      "tamos": 2303,
      "Alá": 2304,
      "mío": 2305,
      "esp": 2306,
      "propia": 2307,
      "):": 2308,
      "II": 2309,
      "difi": 2310,
      "humanos": 2311,
      "feliz": 2312,
      "Adán": 2313,
      "esas": 2314,
      "Uno": 2315,
      "cional": 2316,
      "familias": 2317,
      "lados": 2318,
      "estudi": 2319,
      "lares": 2320,
      "pág": 2321,
      "ísti": 2322,
      "Todas": 2323,
      "segundo": 2324,
      "seres": 2325,
      "derecho": 2326,
      "Lle": 2327,
      "maes": 2328,
      "cumplir": 2329,
      "fle": 2330,
      "damos": 2331,
      "nosotras": 2332,
      "Nadie": 2333,
      "blan": 2334,
      "encan": 2335,
      "alrededor": 2336,
      "cob": 2337,
      "tía": 2338,
      "boca": 2339,
      "miem": 2340,
      "matar": 2341,
      "pecto": 2342,
      "razón": 2343,
      "conven": 2344,
      "hacemos": 2345,
      "comenzó": 2346,
      "refi": 2347,
      "siendo": 2348,
      "Más": 2349,
      "inten": 2350,
      "pósi": 2351,
      "mentos": 2352,
      "podía": 2353,
      "cuar": 2354,
      "eta": 2355,
      "enza": 2356,
      "camente": 2357,
      "...\"": 2358,
      "seis": 2359,
      "\"?": 2360,
      "sean": 2361,
      "damente": 2362,
      "misericordios": 2363,
      "bel": 2364,
      "partici": 2365,
      "Entre": 2366,
      "llevó": 2367,
      "bido": 2368,
      "único": 2369,
      "Está": 2370,
      "arios": 2371,
      "Iglesia": 2372,
      "ment": 2373,
      "cabal": 2374,
      "stitu": 2375,
      "valor": 2376,
      "contrario": 2377,
      "tiva": 2378,
      "pies": 2379,
      "As": 2380,
      "buscar": 2381,
      "dioses": 2382,
      "Gran": 2383,
      "tex": 2384,
      "creer": 2385,
      "hue": 2386,
      "salvación": 2387,
      "Pas": 2388,
      ".-": 2389,
      "información": 2390,
      "publi": 2391,
      "taría": 2392,
      "pod": 2393,
      "salvar": 2394,
      "sico": 2395,
      "zco": 2396,
      "compañeros": 2397,
      "tifi": 2398,
      "joven": 2399,
      "yas": 2400,
      "??": 2401,
      "deja": 2402,
      "estable": 2403,
      "cualquier": 2404,
      "Tra": 2405,
      "iglesia": 2406,
      "cali": 2407,
      "diez": 2408,
      "Bo": 2409,
      "cta": 2410,
      "oscu": 2411,
      "suelo": 2412,
      "mensaje": 2413,
      "ES": 2414,
      "trim": 2415,
      "ceso": 2416,
      "sigue": 2417,
      "hicieron": 2418,
      "Som": 2419,
      "um": 2420,
      "esca": 2421,
      "descu": 2422,
      "Tengo": 2423,
      "Usted": 2424,
      "Aunque": 2425,
      "cantidad": 2426,
      "humano": 2427,
      "genti": 2428,
      "iba": 2429,
      "anzas": 2430,
      "hubi": 2431,
      "ctos": 2432,
      "zaron": 2433,
      "obede": 2434,
      "Chi": 2435,
      "bene": 2436,
      "dici": 2437,
      "hogar": 2438,
      "drá": 2439,
      "Algunos": 2440,
      "engañ": 2441,
      "permane": 2442,
      "hago": 2443,
      "esté": 2444,
      "éste": 2445,
      "Ve": 2446,
      "OS": 2447,
      "gido": 2448,
      "entender": 2449,
      "logía": 2450,
      "vuelta": 2451,
      "falta": 2452,
      "escla": 2453,
      "incre": 2454,
      "Ho": 2455,
      "cele": 2456,
      "comida": 2457,
      "trimon": 2458,
      "predi": 2459,
      "prueba": 2460,
      "llos": 2461,
      "montañas": 2462,
      "it": 2463,
      "boles": 2464,
      "disfru": 2465,
      "mere": 2466,
      "34": 2467,
      "quedado": 2468,
      "Jacob": 2469,
      "pelícu": 2470,
      "sufri": 2471,
      "suficiente": 2472,
      "espec": 2473,
      "vemos": 2474,
      "unidad": 2475,
      "capi": 2476,
      "Estamos": 2477,
      "cole": 2478,
      "estó": 2479,
      "poca": 2480,
      "gol": 2481,
      "Cuán": 2482,
      "Isaías": 2483,
      "tancia": 2484,
      "último": 2485,
      "jue": 2486,
      "horas": 2487,
      "estan": 2488,
      "versi": 2489,
      "gación": 2490,
      "salir": 2491,
      "respeto": 2492,
      "haya": 2493,
      "SEÑ": 2494,
      "pensar": 2495,
      "nombres": 2496,
      "naciones": 2497,
      "realidad": 2498,
      "contar": 2499,
      "Pu": 2500,
      "SEÑOR": 2501,
      "cristo": 2502,
      "muestra": 2503,
      "Mientras": 2504,
      "íso": 2505,
      "profeta": 2506,
      "tiempos": 2507,
      "habrá": 2508,
      "pueblos": 2509,
      "bendi": 2510,
      "encima": 2511,
      "32": 2512,
      "Sam": 2513,
      "fan": 2514,
      "LA": 2515,
      "bur": 2516,
      "tendrá": 2517,
      "envió": 2518,
      "yó": 2519,
      "rin": 2520,
      "ór": 2521,
      "Tienes": 2522,
      "escrito": 2523,
      "pidió": 2524,
      "propósi": 2525,
      "fá": 2526,
      "oír": 2527,
      "Be": 2528,
      "mada": 2529,
      "causa": 2530,
      "cito": 2531,
      "caciones": 2532,
      "éndose": 2533,
      "profetas": 2534,
      "éndo": 2535,
      "humilla": 2536,
      "artí": 2537,
      "profes": 2538,
      "capa": 2539,
      "turo": 2540,
      "jui": 2541,
      "hal": 2542,
      "enfr": 2543,
      "dig": 2544,
      "conce": 2545,
      "entien": 2546,
      "cidad": 2547,
      "edu": 2548,
      "ases": 2549,
      "desapare": 2550,
      "alguna": 2551,
      "Salom": 2552,
      "Ven": 2553,
      "ninguno": 2554,
      "manda": 2555,
      "Jesu": 2556,
      "llas": 2557,
      "carac": 2558,
      "siguió": 2559,
      "Cuáles": 2560,
      "Escrituras": 2561,
      "th": 2562,
      "pasos": 2563,
      "caracter": 2564,
      "zás": 2565,
      "obs": 2566,
      "asegu": 2567,
      "árboles": 2568,
      "Noé": 2569,
      "pusi": 2570,
      "natur": 2571,
      "interes": 2572,
      "colo": 2573,
      "encontró": 2574,
      "ata": 2575,
      "leer": 2576,
      "polí": 2577,
      "remos": 2578,
      "Vida": 2579,
      "nuevas": 2580,
      "vesti": 2581,
      "depen": 2582,
      "dados": 2583,
      "veo": 2584,
      "creen": 2585,
      "mejores": 2586,
      "Gén": 2587,
      "migos": 2588,
      "demas": 2589,
      "esis": 2590,
      "justos": 2591,
      "cón": 2592,
      "ud": 2593,
      "ine": 2594,
      "justicia": 2595,
      "Salomón": 2596,
      "36": 2597,
      "Bi": 2598,
      "afir": 2599,
      "realmente": 2600,
      "secre": 2601,
      "Gra": 2602,
      "subi": 2603,
      "nas": 2604,
      "vel": 2605,
      "inos": 2606,
      "salió": 2607,
      "ónimo": 2608,
      "haga": 2609,
      "Fi": 2610,
      "caer": 2611,
      "imá": 2612,
      "tirse": 2613,
      "contro": 2614,
      "recibir": 2615,
      "Os": 2616,
      "cuidado": 2617,
      "35": 2618,
      "gobi": 2619,
      "pequeña": 2620,
      "problemas": 2621,
      "Jesucristo": 2622,
      "Go": 2623,
      "cli": 2624,
      "pose": 2625,
      "ll": 2626,
      "viento": 2627,
      "pena": 2628,
      "titu": 2629,
      "sola": 2630,
      "dul": 2631,
      "Allí": 2632,
      "queremos": 2633,
      "enviado": 2634,
      "esfuer": 2635,
      "ró": 2636,
      "cidos": 2637,
      "dida": 2638,
      "solu": 2639,
      "asis": 2640,
      "encuentran": 2641,
      "terior": 2642,
      "sacri": 2643,
      "claro": 2644,
      "escribió": 2645,
      "caí": 2646,
      "pios": 2647,
      "gener": 2648,
      "bí": 2649,
      "ilu": 2650,
      "abandon": 2651,
      "soci": 2652,
      "hablando": 2653,
      "resuci": 2654,
      "guen": 2655,
      "existe": 2656,
      "campo": 2657,
      "imágenes": 2658,
      "Ale": 2659,
      "confianza": 2660,
      "puertas": 2661,
      "jan": 2662,
      "sica": 2663,
      "partes": 2664,
      "cuela": 2665,
      "libre": 2666,
      "proye": 2667,
      "tada": 2668,
      "templo": 2669,
      "además": 2670,
      "az": 2671,
      "defen": 2672,
      "tás": 2673,
      "Mon": 2674,
      "Quiero": 2675,
      "trimonio": 2676,
      "caron": 2677,
      "gio": 2678,
      "Faraón": 2679,
      "Según": 2680,
      "199": 2681,
      "países": 2682,
      "versículo": 2683,
      "convir": 2684,
      "Quiénes": 2685,
      "intios": 2686,
      "temor": 2687,
      "respuesta": 2688,
      "Estos": 2689,
      "siervo": 2690,
      "ismo": 2691,
      "gusta": 2692,
      "198": 2693,
      "testigos": 2694,
      "imos": 2695,
      "nuestras": 2696,
      "Ch": 2697,
      "cari": 2698,
      "fras": 2699,
      "sul": 2700,
      "desarro": 2701,
      "paña": 2702,
      "Ah": 2703,
      "Mun": 2704,
      "gios": 2705,
      "ticos": 2706,
      "tarse": 2707,
      "futuro": 2708,
      "casas": 2709,
      "trabajar": 2710,
      "terr": 2711,
      "hará": 2712,
      "busca": 2713,
      "Vol": 2714,
      "libros": 2715,
      "quieren": 2716,
      "alto": 2717,
      "doy": 2718,
      "ris": 2719,
      "preci": 2720,
      "ctu": 2721,
      "hambre": 2722,
      "ista": 2723,
      "gentes": 2724,
      "oport": 2725,
      "taba": 2726,
      "nar": 2727,
      "asi": 2728,
      "teni": 2729,
      "tema": 2730,
      "mio": 2731,
      "pob": 2732,
      "Hombre": 2733,
      "gros": 2734,
      "Ben": 2735,
      "línea": 2736,
      "Corintios": 2737,
      "Fe": 2738,
      "Tom": 2739,
      "Génesis": 2740,
      "relación": 2741,
      "mando": 2742,
      "ion": 2743,
      "tam": 2744,
      "agra": 2745,
      "movi": 2746,
      "necesi": 2747,
      "AN": 2748,
      "pecadores": 2749,
      "refer": 2750,
      "llega": 2751,
      "pueda": 2752,
      "dando": 2753,
      "ocho": 2754,
      "aducción": 2755,
      "zados": 2756,
      "bauti": 2757,
      "Quieres": 2758,
      "testimon": 2759,
      "hechos": 2760,
      "conocido": 2761,
      "tará": 2762,
      "Salmo": 2763,
      "vuestros": 2764,
      "mue": 2765,
      "grado": 2766,
      "bal": 2767,
      "fecto": 2768,
      "misericordioso": 2769,
      "minis": 2770,
      "juicio": 2771,
      "Feli": 2772,
      "xo": 2773,
      "aguas": 2774,
      "buenos": 2775,
      "Les": 2776,
      "cualquiera": 2777,
      "ka": 2778,
      "hn": 2779,
      "presencia": 2780,
      "saben": 2781,
      "calle": 2782,
      "__": 2783,
      "vuelve": 2784,
      "tales": 2785,
      "uso": 2786,
      "vergon": 2787,
      "dices": 2788,
      "Can": 2789,
      "estuvo": 2790,
      "miembros": 2791,
      "éxi": 2792,
      "rio": 2793,
      "deros": 2794,
      "comunidad": 2795,
      "gal": 2796,
      "reco": 2797,
      "condu": 2798,
      "enemigos": 2799,
      "mira": 2800,
      "Or": 2801,
      "ove": 2802,
      "esperanza": 2803,
      "llegaron": 2804,
      "Tr": 2805,
      "manas": 2806,
      "pedir": 2807,
      "lenguaje": 2808,
      "vamente": 2809,
      "conf": 2810,
      "primeros": 2811,
      "Había": 2812,
      "utili": 2813,
      "eo": 2814,
      "apóstoles": 2815,
      "resto": 2816,
      "venta": 2817,
      "clara": 2818,
      "habitantes": 2819,
      "principio": 2820,
      "bús": 2821,
      "distin": 2822,
      "Cono": 2823,
      "aca": 2824,
      "Hace": 2825,
      "medida": 2826,
      "gustaría": 2827,
      "Ru": 2828,
      "gloria": 2829,
      "**": 2830,
      "Confía": 2831,
      "habló": 2832,
      "didos": 2833,
      "tengas": 2834,
      "ería": 2835,
      "Durante": 2836,
      "ches": 2837,
      "Toda": 2838,
      "confor": 2839,
      "Bar": 2840,
      "tramos": 2841,
      "lon": 2842,
      "vado": 2843,
      "dec": 2844,
      "ticas": 2845,
      "tino": 2846,
      "habría": 2847,
      "escritura": 2848,
      "'.": 2849,
      "esco": 2850,
      "vis": 2851,
      "respecto": 2852,
      "fiesta": 2853,
      "Pri": 2854,
      "espera": 2855,
      "Dis": 2856,
      "hh": 2857,
      "mantener": 2858,
      "propósito": 2859,
      "Am": 2860,
      "zada": 2861,
      "ficio": 2862,
      "viaje": 2863,
      "capítulo": 2864,
      "daño": 2865,
      "compr": 2866,
      "realizar": 2867,
      "toma": 2868,
      "visión": 2869,
      "piedad": 2870,
      "Será": 2871,
      "ísticas": 2872,
      "gir": 2873,
      "peso": 2874,
      "interpre": 2875,
      "organ": 2876,
      "dolor": 2877,
      "Ustedes": 2878,
      "bon": 2879,
      "manidad": 2880,
      "decisión": 2881,
      "acción": 2882,
      "llu": 2883,
      "capaces": 2884,
      "malo": 2885,
      "falle": 2886,
      "dueño": 2887,
      "ertos": 2888,
      "satis": 2889,
      "esperar": 2890,
      "puntos": 2891,
      "Eres": 2892,
      "Estas": 2893,
      "Ley": 2894,
      "atre": 2895,
      "lés": 2896,
      "yan": 2897,
      "tuvieron": 2898,
      "venir": 2899,
      "Nuestro": 2900,
      "buscando": 2901,
      "44": 2902,
      "tera": 2903,
      "conden": 2904,
      "Em": 2905,
      "pin": 2906,
      "miles": 2907,
      "ables": 2908,
      "acti": 2909,
      "iones": 2910,
      "talla": 2911,
      "público": 2912,
      "idea": 2913,
      "libertad": 2914,
      "Rom": 2915,
      "gor": 2916,
      "mbo": 2917,
      "época": 2918,
      "dá": 2919,
      "encuentro": 2920,
      "Algunas": 2921,
      "sitio": 2922,
      "consci": 2923,
      "jado": 2924,
      "sería": 2925,
      "tambien": 2926,
      "segunda": 2927,
      "río": 2928,
      "ensa": 2929,
      "inte": 2930,
      "rique": 2931,
      "tenga": 2932,
      "genera": 2933,
      "hues": 2934,
      "suyos": 2935,
      "descar": 2936,
      "enseñanza": 2937,
      "deseo": 2938,
      "últimos": 2939,
      "jimo": 2940,
      "anci": 2941,
      "sub": 2942,
      "verbios": 2943,
      "refle": 2944,
      "capaci": 2945,
      "arán": 2946,
      "Escu": 2947,
      "pasó": 2948,
      "obser": 2949,
      "Samuel": 2950,
      "!.\"": 2951,
      "ss": 2952,
      "AD": 2953,
      "vimos": 2954,
      "media": 2955,
      "presente": 2956,
      "pagar": 2957,
      "podrá": 2958,
      "uda": 2959,
      "vie": 2960,
      "érmi": 2961,
      "texto": 2962,
      "ts": 2963,
      "ura": 2964,
      "Hechos": 2965,
      "37": 2966,
      "ke": 2967,
      "rado": 2968,
      "siente": 2969,
      "gidos": 2970,
      "arrepen": 2971,
      "cé": 2972,
      "unir": 2973,
      "Estás": 2974,
      "vac": 2975,
      "beber": 2976,
      "brero": 2977,
      "Ra": 2978,
      "mados": 2979,
      "here": 2980,
      "semana": 2981,
      "gober": 2982,
      "creación": 2983,
      "vergü": 2984,
      "comiendo": 2985,
      "John": 2986,
      "Nueva": 2987,
      "suje": 2988,
      "Estados": 2989,
      "istas": 2990,
      "cuál": 2991,
      "térmi": 2992,
      "blas": 2993,
      "diente": 2994,
      "estén": 2995,
      "tores": 2996,
      "señal": 2997,
      "versidad": 2998,
      "ubi": 2999,
      "ambos": 3000,
      "45": 3001,
      "zca": 3002,
      "vivo": 3003,
      "pequeños": 3004,
      "fácil": 3005,
      "Do": 3006,
      "Don": 3007,
      "Ri": 3008,
      "terio": 3009,
      "torno": 3010,
      "alta": 3011,
      "vidad": 3012,
      "camin": 3013,
      "correspon": 3014,
      "Proverbios": 3015,
      "diablo": 3016,
      "muri": 3017,
      "imagen": 3018,
      "pusieron": 3019,
      "ovejas": 3020,
      "sar": 3021,
      "EN": 3022,
      "recu": 3023,
      "Sobre": 3024,
      "we": 3025,
      "deo": 3026,
      "ropa": 3027,
      "cargo": 3028,
      "estará": 3029,
      "Somos": 3030,
      "pasados": 3031,
      "débi": 3032,
      "úl": 3033,
      "cumple": 3034,
      "necesita": 3035,
      "sensa": 3036,
      "prójimo": 3037,
      "diferentes": 3038,
      "llor": 3039,
      "quisi": 3040,
      "oooo": 3041,
      "60": 3042,
      "cá": 3043,
      "pti": 3044,
      "religión": 3045,
      "Ta": 3046,
      "elos": 3047,
      "tempor": 3048,
      "ego": 3049,
      "cieron": 3050,
      "volu": 3051,
      "piedra": 3052,
      "fieles": 3053,
      "Era": 3054,
      "bado": 3055,
      "mbr": 3056,
      "labor": 3057,
      "experi": 3058,
      "tuyo": 3059,
      "dente": 3060,
      "cré": 3061,
      "Ab": 3062,
      "ech": 3063,
      "fon": 3064,
      "conclu": 3065,
      "inf": 3066,
      "inta": 3067,
      "tiembre": 3068,
      "deres": 3069,
      "arlo": 3070,
      "humil": 3071,
      "rápi": 3072,
      "ué": 3073,
      "varios": 3074,
      "Antes": 3075,
      "derecha": 3076,
      "real": 3077,
      "idi": 3078,
      "montaña": 3079,
      "castigo": 3080,
      "adamente": 3081,
      "Unidos": 3082,
      "ko": 3083,
      "erras": 3084,
      "separ": 3085,
      "mina": 3086,
      "matrimonio": 3087,
      "piezas": 3088,
      "Bueno": 3089,
      "ala": 3090,
      "entra": 3091,
      "rido": 3092,
      "rico": 3093,
      "perder": 3094,
      "hermana": 3095,
      "ptiembre": 3096,
      ".....": 3097,
      "pasión": 3098,
      "Mes": 3099,
      "abun": 3100,
      "abajo": 3101,
      "sorpren": 3102,
      "ctura": 3103,
      "utico": 3104,
      "cien": 3105,
      "tradi": 3106,
      "Fran": 3107,
      "adelante": 3108,
      "carne": 3109,
      "curso": 3110,
      "apoyo": 3111,
      "Voy": 3112,
      "espal": 3113,
      "hijas": 3114,
      "197": 3115,
      "Dos": 3116,
      "EL": 3117,
      "2011": 3118,
      "sabía": 3119,
      "confiar": 3120,
      "blo": 3121,
      "osos": 3122,
      "mez": 3123,
      "drán": 3124,
      "culpa": 3125,
      "grimas": 3126,
      "sois": 3127,
      "Siempre": 3128,
      "poli": 3129,
      "serie": 3130,
      "39": 3131,
      "ler": 3132,
      "land": 3133,
      "aso": 3134,
      "elección": 3135,
      "Día": 3136,
      "cará": 3137,
      "Josué": 3138,
      "Nombre": 3139,
      "Quer": 3140,
      "sirve": 3141,
      "38": 3142,
      "común": 3143,
      "testimonio": 3144,
      "viven": 3145,
      "humanidad": 3146,
      "logr": 3147,
      "gico": 3148,
      "ladr": 3149,
      "exten": 3150,
      "dín": 3151,
      "ctores": 3152,
      "bíbli": 3153,
      "Dani": 3154,
      "comien": 3155,
      "continuación": 3156,
      "gén": 3157,
      "puedan": 3158,
      "mú": 3159,
      "digas": 3160,
      "paraíso": 3161,
      "vícti": 3162,
      "contigo": 3163,
      "próximo": 3164,
      "ER": 3165,
      "vali": 3166,
      "dico": 3167,
      "familiar": 3168,
      "isla": 3169,
      "perio": 3170,
      "jeros": 3171,
      "demonio": 3172,
      "incluso": 3173,
      "bras": 3174,
      "iado": 3175,
      "anas": 3176,
      "silen": 3177,
      "pide": 3178,
      "problema": 3179,
      "mini": 3180,
      "búsqueda": 3181,
      "aten": 3182,
      "defin": 3183,
      "doce": 3184,
      "die": 3185,
      "sion": 3186,
      "teri": 3187,
      "marido": 3188,
      "arrepi": 3189,
      "quedaron": 3190,
      "seño": 3191,
      "españo": 3192,
      "avergon": 3193,
      "escon": 3194,
      "arri": 3195,
      "ques": 3196,
      "torio": 3197,
      "Muchos": 3198,
      "autoridad": 3199,
      "resultado": 3200,
      "juego": 3201,
      "hacerse": 3202,
      "Eu": 3203,
      "NO": 3204,
      "alab": 3205,
      "Da": 3206,
      "ace": 3207,
      "dejo": 3208,
      "ron": 3209,
      "tieron": 3210,
      "daré": 3211,
      "perdido": 3212,
      "enseñanzas": 3213,
      "juntos": 3214,
      "Val": 3215,
      "España": 3216,
      "Tiene": 3217,
      "costu": 3218,
      "interior": 3219,
      "éutico": 3220,
      "arón": 3221,
      "frutos": 3222,
      "enferme": 3223,
      "aciones": 3224,
      "jero": 3225,
      "luna": 3226,
      "The": 3227,
      "seguidores": 3228,
      "tampoco": 3229,
      "dispuestos": 3230,
      "responsab": 3231,
      "aire": 3232,
      "apli": 3233,
      "novi": 3234,
      "tama": 3235,
      "chu": 3236,
      "aman": 3237,
      "plen": 3238,
      "estrellas": 3239,
      "hé": 3240,
      "deje": 3241,
      "conta": 3242,
      "compar": 3243,
      "100": 3244,
      "fierno": 3245,
      "hubo": 3246,
      "fren": 3247,
      "situación": 3248,
      "mple": 3249,
      "hacía": 3250,
      "sentir": 3251,
      "pájar": 3252,
      "fica": 3253,
      "verdadera": 3254,
      "golpe": 3255,
      "Cla": 3256,
      "cierta": 3257,
      "siste": 3258,
      "auto": 3259,
      "ago": 3260,
      "ficios": 3261,
      "pra": 3262,
      "llamó": 3263,
      "inglés": 3264,
      "instru": 3265,
      "divi": 3266,
      "minu": 3267,
      "Estado": 3268,
      "Alguien": 3269,
      "menéutico": 3270,
      "prá": 3271,
      "ciona": 3272,
      "!!!": 3273,
      "cientos": 3274,
      "honor": 3275,
      "Daniel": 3276,
      "pción": 3277,
      "condición": 3278,
      "terri": 3279,
      "pronto": 3280,
      "profun": 3281,
      "monte": 3282,
      "táculo": 3283,
      "correcto": 3284,
      "Hermenéutico": 3285,
      "mila": 3286,
      "maldición": 3287,
      "cán": 3288,
      "gn": 3289,
      "ñe": 3290,
      "dito": 3291,
      "2017": 3292,
      "vangel": 3293,
      "gon": 3294,
      "rica": 3295,
      "Están": 3296,
      "idente": 3297,
      "entró": 3298,
      "propios": 3299,
      "creado": 3300,
      "sucedió": 3301,
      "Tor": 3302,
      "compañero": 3303,
      "antigu": 3304,
      "Vos": 3305,
      "af": 3306,
      "ria": 3307,
      "cumplió": 3308,
      "lido": 3309,
      "!,": 3310,
      "?...": 3311,
      "arte": 3312,
      "trabajando": 3313,
      "quiso": 3314,
      "ji": 3315,
      "conozco": 3316,
      "Resurrección": 3317,
      "Aarón": 3318,
      "osa": 3319,
      "tate": 3320,
      "Inter": 3321,
      "Pregun": 3322,
      "bara": 3323,
      "inal": 3324,
      "carse": 3325,
      "darle": 3326,
      "expresión": 3327,
      "sentimientos": 3328,
      "dras": 3329,
      "temas": 3330,
      "cuesti": 3331,
      "Escritura": 3332,
      "artículo": 3333,
      "41": 3334,
      "enen": 3335,
      "vive": 3336,
      "multi": 3337,
      "mía": 3338,
      "pado": 3339,
      "lis": 3340,
      "verso": 3341,
      "menta": 3342,
      "características": 3343,
      "ejer": 3344,
      "versión": 3345,
      "dejado": 3346,
      "gobierno": 3347,
      "vini": 3348,
      "ern": 3349,
      "cate": 3350,
      "maravi": 3351,
      "obedeci": 3352,
      "construcción": 3353,
      "desier": 3354,
      "debajo": 3355,
      "conseguir": 3356,
      "gia": 3357,
      "pertenece": 3358,
      "vergüenza": 3359,
      "Pres": 3360,
      "[...": 3361,
      "nacimiento": 3362,
      "rí": 3363,
      "Muchas": 3364,
      "%.": 3365,
      "ciento": 3366,
      "2018": 3367,
      "Nunca": 3368,
      "agr": 3369,
      "crees": 3370,
      "gica": 3371,
      "nubes": 3372,
      "vidas": 3373,
      "papel": 3374,
      "equipo": 3375,
      "errores": 3376,
      "película": 3377,
      "[...]": 3378,
      "clá": 3379,
      "pobres": 3380,
      "guía": 3381,
      "Han": 3382,
      "afec": 3383,
      "significado": 3384,
      "mostrar": 3385,
      "zando": 3386,
      "quedo": 3387,
      "orar": 3388,
      "tenéis": 3389,
      "rode": 3390,
      "cuentan": 3391,
      "respuestas": 3392,
      "secreto": 3393,
      "yendo": 3394,
      "beb": 3395,
      "recibido": 3396,
      "lim": 3397,
      "números": 3398,
      "hagas": 3399,
      "Conse": 3400,
      "antepasados": 3401,
      "caída": 3402,
      "prácti": 3403,
      "Au": 3404,
      "ofici": 3405,
      "rán": 3406,
      "regis": 3407,
      "especial": 3408,
      "nació": 3409,
      "grá": 3410,
      "aleza": 3411,
      "bendición": 3412,
      "inspi": 3413,
      "Sabes": 3414,
      "vados": 3415,
      "enos": 3416,
      "196": 3417,
      "compla": 3418,
      "ejér": 3419,
      "verdadero": 3420,
      "rea": 3421,
      "prove": 3422,
      "oportunidad": 3423,
      "aa": 3424,
      "rios": 3425,
      "2012": 3426,
      "giones": 3427,
      "cariño": 3428,
      "mismas": 3429,
      "centro": 3430,
      "Quienes": 3431,
      "haz": 3432,
      "sienten": 3433,
      "nidad": 3434,
      "escucha": 3435,
      "ico": 3436,
      "creemos": 3437,
      "ifi": 3438,
      "escuela": 3439,
      "soli": 3440,
      "refiere": 3441,
      "hubiera": 3442,
      "hermos": 3443,
      "tranqui": 3444,
      "ocul": 3445,
      "Mas": 3446,
      "aun": 3447,
      "trono": 3448,
      "baño": 3449,
      "convirtió": 3450,
      "AS": 3451,
      "Ese": 3452,
      "Oh": 3453,
      "eje": 3454,
      "vale": 3455,
      "emías": 3456,
      "cano": 3457,
      "tamaño": 3458,
      "emo": 3459,
      "tadas": 3460,
      "asus": 3461,
      "denes": 3462,
      "enseñado": 3463,
      "necesario": 3464,
      "Pon": 3465,
      "rein": 3466,
      "Mira": 3467,
      "enseñó": 3468,
      "Dijo": 3469,
      "Santa": 3470,
      "septiembre": 3471,
      "organi": 3472,
      "gobern": 3473,
      "dire": 3474,
      "extraño": 3475,
      "sacerdotes": 3476,
      "maestros": 3477,
      "Bus": 3478,
      "gü": 3479,
      "Creo": 3480,
      "origen": 3481,
      "Gracias": 3482,
      "orig": 3483,
      "lista": 3484,
      "metros": 3485,
      "canciones": 3486,
      "clamó": 3487,
      "disfrutar": 3488,
      "42": 3489,
      "sacar": 3490,
      "bebi": 3491,
      "cuentas": 3492,
      "Estu": 3493,
      "tiendo": 3494,
      "dal": 3495,
      "Án": 3496,
      "deb": 3497,
      "debes": 3498,
      "estro": 3499,
      "ticias": 3500,
      "2019": 3501,
      "bienes": 3502,
      "blanco": 3503,
      "desierto": 3504,
      "55": 3505,
      "peli": 3506,
      "taciones": 3507,
      "Capítulo": 3508,
      "dulidad": 3509,
      "llevo": 3510,
      "promesa": 3511,
      "Jor": 3512,
      "2016": 3513,
      "encontramos": 3514,
      "avidad": 3515,
      "consider": 3516,
      "izquier": 3517,
      "ólo": 3518,
      "responder": 3519,
      "alcanzar": 3520,
      "espi": 3521,
      "objetivo": 3522,
      "viendo": 3523,
      "desta": 3524,
      "justo": 3525,
      "entrada": 3526,
      "empezó": 3527,
      "religios": 3528,
      "AR": 3529,
      "DI": 3530,
      "acor": 3531,
      "uelo": 3532,
      "bamos": 3533,
      "muchí": 3534,
      "título": 3535,
      ",...": 3536,
      "Del": 3537,
      "Wi": 3538,
      "amo": 3539,
      "seguro": 3540,
      "pieza": 3541,
      "estuvi": 3542,
      "lágrimas": 3543,
      "tida": 3544,
      "dial": 3545,
      "mill": 3546,
      "Jon": 3547,
      "Madre": 3548,
      "zona": 3549,
      "empres": 3550,
      "ofreci": 3551,
      "órdenes": 3552,
      "silencio": 3553,
      "enor": 3554,
      "semej": 3555,
      "noches": 3556,
      "cursos": 3557,
      "apareció": 3558,
      "cadas": 3559,
      "tivas": 3560,
      "pará": 3561,
      "llan": 3562,
      "cár": 3563,
      "udad": 3564,
      "vé": 3565,
      "baja": 3566,
      "responsabi": 3567,
      "obstante": 3568,
      "Tras": 3569,
      "recha": 3570,
      "demasiado": 3571,
      "yu": 3572,
      "dría": 3573,
      "Bien": 3574,
      "huesos": 3575,
      "gando": 3576,
      "baj": 3577,
      "olvidar": 3578,
      "ván": 3579,
      "tidos": 3580,
      "prob": 3581,
      "lé": 3582,
      "ocasi": 3583,
      "pros": 3584,
      "consejos": 3585,
      "70": 3586,
      "Judá": 3587,
      "simi": 3588,
      "jeje": 3589,
      "volverá": 3590,
      "calidad": 3591,
      "udo": 3592,
      "sex": 3593,
      "conciencia": 3594,
      "!.": 3595,
      "itos": 3596,
      "ly": 3597,
      "región": 3598,
      "seas": 3599,
      "vil": 3600,
      "destino": 3601,
      "mur": 3602,
      "pación": 3603,
      "Recuer": 3604,
      "emple": 3605,
      "oscuridad": 3606,
      "48": 3607,
      "niña": 3608,
      "julio": 3609,
      "levantó": 3610,
      "héro": 3611,
      "Fin": 3612,
      "fre": 3613,
      "lores": 3614,
      "fecha": 3615,
      "breos": 3616,
      "gencia": 3617,
      "tén": 3618,
      "representa": 3619,
      "veci": 3620,
      "mirada": 3621,
      "diciembre": 3622,
      "ífico": 3623,
      "lidades": 3624,
      "lími": 3625,
      "manif": 3626,
      "Ángel": 3627,
      "alum": 3628,
      "clase": 3629,
      "pregunto": 3630,
      "há": 3631,
      "Marcos": 3632,
      "evitar": 3633,
      "rápidamente": 3634,
      "Mal": 3635,
      "Vir": 3636,
      "ponen": 3637,
      "cambiar": 3638,
      "derechos": 3639,
      "incredulidad": 3640,
      "Asi": 3641,
      "Pla": 3642,
      "acab": 3643,
      "faraón": 3644,
      "Mesías": 3645,
      "consecuen": 3646,
      "cerr": 3647,
      "precio": 3648,
      "acciones": 3649,
      "pareja": 3650,
      "Cal": 3651,
      "Tal": 3652,
      "venida": 3653,
      "2009": 3654,
      ".)": 3655,
      "decisiones": 3656,
      "vacío": 3657,
      "interés": 3658,
      "única": 3659,
      "ari": 3660,
      "perfec": 3661,
      "isa": 3662,
      "gará": 3663,
      "naturaleza": 3664,
      "besti": 3665,
      "señora": 3666,
      "culto": 3667,
      "mpa": 3668,
      "jamás": 3669,
      "dejes": 3670,
      "ayudará": 3671,
      "fruto": 3672,
      "Vosotros": 3673,
      "Amor": 3674,
      "consu": 3675,
      "pere": 3676,
      "pobre": 3677,
      "exac": 3678,
      "jefe": 3679,
      "tendrán": 3680,
      "norte": 3681,
      "color": 3682,
      "sale": 3683,
      "reyes": 3684,
      "equivo": 3685,
      "vuestro": 3686,
      "Pen": 3687,
      "rez": 3688,
      "suyo": 3689,
      "ésta": 3690,
      "nacido": 3691,
      "2015": 3692,
      "quiénes": 3693,
      "espacio": 3694,
      "CI": 3695,
      "bla": 3696,
      "gada": 3697,
      "llevaron": 3698,
      "Casa": 3699,
      "cárcel": 3700,
      "Mir": 3701,
      "quin": 3702,
      "formas": 3703,
      "vosotras": 3704,
      "quieras": 3705,
      "montón": 3706,
      "obedecer": 3707,
      "Cr": 3708,
      "salieron": 3709,
      "nieblas": 3710,
      "pensamientos": 3711,
      "sacerdote": 3712,
      "abo": 3713,
      "jardín": 3714,
      "plata": 3715,
      "ocurre": 3716,
      "contestó": 3717,
      "inc": 3718,
      "2010": 3719,
      "Aquel": 3720,
      "cial": 3721,
      "enter": 3722,
      "siglo": 3723,
      "dirigi": 3724,
      "educación": 3725,
      "Navidad": 3726,
      "mala": 3727,
      "presión": 3728,
      "juven": 3729,
      "general": 3730,
      "población": 3731,
      "música": 3732,
      "Hom": 3733,
      "].": 3734,
      "apoy": 3735,
      "afirma": 3736,
      "diseñ": 3737,
      "43": 3738,
      "minación": 3739,
      "lección": 3740,
      "poni": 3741,
      "obtener": 3742,
      "edifi": 3743,
      "dez": 3744,
      "hagan": 3745,
      "invo": 3746,
      "mamá": 3747,
      "ON": 3748,
      "mad": 3749,
      "compa": 3750,
      "tísimo": 3751,
      "2008": 3752,
      "apóstol": 3753,
      "espada": 3754,
      "Otros": 3755,
      "útil": 3756,
      "alte": 3757,
      "nove": 3758,
      "éstos": 3759,
      "Inclu": 3760,
      "lleno": 3761,
      "escribir": 3762,
      "Nuevo": 3763,
      "AM": 3764,
      "Pr": 3765,
      "VI": 3766,
      "idades": 3767,
      "fili": 3768,
      "Die": 3769,
      "bis": 3770,
      "sabios": 3771,
      "celebra": 3772,
      "ite": 3773,
      "tinieblas": 3774,
      "casos": 3775,
      "lesias": 3776,
      "vaya": 3777,
      "2013": 3778,
      "estarán": 3779,
      "Saúl": 3780,
      "tulos": 3781,
      "vendrá": 3782,
      "diferencia": 3783,
      "bran": 3784,
      "mica": 3785,
      "porta": 3786,
      "paración": 3787,
      "dada": 3788,
      "rostro": 3789,
      "completo": 3790,
      "páginas": 3791,
      "gentina": 3792,
      "landés": 3793,
      "amado": 3794,
      "darse": 3795,
      "experiencia": 3796,
      "cubi": 3797,
      "tum": 3798,
      "crea": 3799,
      "lugares": 3800,
      "regreso": 3801,
      "control": 3802,
      "bai": 3803,
      "piso": 3804,
      "página": 3805,
      "Cha": 3806,
      "Solo": 3807,
      "Apo": 3808,
      "tente": 3809,
      "infierno": 3810,
      "desper": 3811,
      "Mor": 3812,
      "pele": 3813,
      "vían": 3814,
      "lada": 3815,
      "refu": 3816,
      "tomó": 3817,
      "tec": 3818,
      "diga": 3819,
      "recibió": 3820,
      "Verdad": 3821,
      "lluvia": 3822,
      "murieron": 3823,
      "dimos": 3824,
      "éspe": 3825,
      "vayas": 3826,
      "elec": 3827,
      "junio": 3828,
      "ira": 3829,
      "oni": 3830,
      "conten": 3831,
      "piel": 3832,
      "pongo": 3833,
      "formar": 3834,
      "ciles": 3835,
      "vayan": 3836,
      "Quizás": 3837,
      "pelo": 3838,
      "existen": 3839,
      "Romanos": 3840,
      "avan": 3841,
      "vina": 3842,
      "domin": 3843,
      "memor": 3844,
      "Cielo": 3845,
      "aprove": 3846,
      "--": 3847,
      "tt": 3848,
      "constitu": 3849,
      "Haz": 3850,
      "Traducción": 3851,
      "esía": 3852,
      "usar": 3853,
      "vuelto": 3854,
      "oídos": 3855,
      "ocasiones": 3856,
      "ener": 3857,
      "lea": 3858,
      "........": 3859,
      "primeras": 3860,
      "adecu": 3861,
      "Sue": 3862,
      "cida": 3863,
      "admi": 3864,
      "proceso": 3865,
      "aparece": 3866,
      "relacion": 3867,
      "declar": 3868,
      "Ob": 3869,
      "trodu": 3870,
      "opin": 3871,
      "ofrece": 3872,
      "stru": 3873,
      "yy": 3874,
      "despi": 3875,
      "capacidad": 3876,
      "Tres": 3877,
      "descan": 3878,
      "alguno": 3879,
      "desem": 3880,
      "eterna": 3881,
      "Mundo": 3882,
      "enalte": 3883,
      "abrió": 3884,
      "Sur": 3885,
      "tín": 3886,
      "dias": 3887,
      "derro": 3888,
      "dispuesto": 3889,
      "considera": 3890,
      "podían": 3891,
      "enfermedad": 3892,
      "Nor": 3893,
      "trado": 3894,
      "fueran": 3895,
      "ptimo": 3896,
      "cad": 3897,
      "dían": 3898,
      "enero": 3899,
      "reconoci": 3900,
      "alimento": 3901,
      "felices": 3902,
      "descendientes": 3903,
      "convierte": 3904,
      "Cuánto": 3905,
      "Cru": 3906,
      "atro": 3907,
      "món": 3908,
      "adoración": 3909,
      "tale": 3910,
      "olvides": 3911,
      "éc": 3912,
      "Cui": 3913,
      "Cam": 3914,
      "Éxo": 3915,
      "diencia": 3916,
      "confía": 3917,
      "Esa": 3918,
      "Cual": 3919,
      "Jeremías": 3920,
      "satisfa": 3921,
      "49": 3922,
      "plo": 3923,
      "omas": 3924,
      "preten": 3925,
      "corri": 3926,
      "existencia": 3927,
      "huevos": 3928,
      "abra": 3929,
      "seguridad": 3930,
      "ponerse": 3931,
      "proyecto": 3932,
      "éxito": 3933,
      "aque": 3934,
      "diciones": 3935,
      "date": 3936,
      "quizás": 3937,
      "enemigo": 3938,
      "noviembre": 3939,
      "Dé": 3940,
      "comprome": 3941,
      "Cielos": 3942,
      "viviendo": 3943,
      "cun": 3944,
      "vó": 3945,
      "sepul": 3946,
      "preguntar": 3947,
      "esposo": 3948,
      "recuper": 3949,
      "46": 3950,
      "ds": 3951,
      "yen": 3952,
      "exclamó": 3953,
      "nuevos": 3954,
      "Timo": 3955,
      "llena": 3956,
      "Isaac": 3957,
      "AL": 3958,
      "brar": 3959,
      "Profe": 3960,
      "última": 3961,
      "política": 3962,
      "clásico": 3963,
      "eas": 3964,
      "dirección": 3965,
      "quél": 3966,
      "hier": 3967,
      "posibilidad": 3968,
      "maestro": 3969,
      "agrad": 3970,
      "triste": 3971,
      "totalmente": 3972,
      "millones": 3973,
      "ancianos": 3974,
      "tero": 3975,
      "altura": 3976,
      "felicidad": 3977,
      "treinta": 3978,
      "cruz": 3979,
      "prisión": 3980,
      "Perú": 3981,
      "minio": 3982,
      "vuelven": 3983,
      "afi": 3984,
      "aven": 3985,
      "ok": 3986,
      "deli": 3987,
      "tios": 3988,
      "diera": 3989,
      "Elías": 3990,
      "pudo": 3991,
      "hablan": 3992,
      "Ciudad": 3993,
      "RE": 3994,
      "hojas": 3995,
      "malos": 3996,
      "podrán": 3997,
      "entó": 3998,
      "2014": 3999,
      "vangelio": 4000,
      "ición": 4001,
      "sed": 4002,
      "siguen": 4003,
      "figu": 4004,
      "versos": 4005,
      "grafía": 4006,
      "habitación": 4007,
      "atribu": 4008,
      "egip": 4009,
      "2020": 4010,
      "menor": 4011,
      "net": 4012,
      "guas": 4013,
      "mol": 4014,
      "ínci": 4015,
      "foto": 4016,
      "teniendo": 4017,
      "arriba": 4018,
      "Edu": 4019,
      "anterior": 4020,
      "brazos": 4021,
      "illo": 4022,
      "Har": 4023,
      "arca": 4024,
      "ánimo": 4025,
      "...)": 4026,
      "vengan": 4027,
      "piensan": 4028,
      "ciséis": 4029,
      "recordar": 4030,
      "salud": 4031,
      "santo": 4032,
      "cuarenta": 4033,
      "hos": 4034,
      "debido": 4035,
      "compro": 4036,
      "líderes": 4037,
      "estudio": 4038,
      "Vuel": 4039,
      "conjunto": 4040,
      "dura": 4041,
      "Debe": 4042,
      "conocen": 4043,
      "sistema": 4044,
      "hacían": 4045,
      "porte": 4046,
      "ciación": 4047,
      "sombra": 4048,
      "paciencia": 4049,
      "Ir": 4050,
      "Pau": 4051,
      "leza": 4052,
      "nivel": 4053,
      "presidente": 4054,
      "culp": 4055,
      "web": 4056,
      "español": 4057,
      "izquierda": 4058,
      "Cuidado": 4059,
      "Éxodo": 4060,
      ".[": 4061,
      "detal": 4062,
      "desea": 4063,
      "madera": 4064,
      "garon": 4065,
      "fuente": 4066,
      "menti": 4067,
      "Timoteo": 4068,
      "céis": 4069,
      "fas": 4070,
      "espero": 4071,
      "daba": 4072,
      "amena": 4073,
      "exposición": 4074,
      ".:": 4075,
      "Ana": 4076,
      "cra": 4077,
      "cuad": 4078,
      "funcion": 4079,
      "permite": 4080,
      "ctubre": 4081,
      "Ban": 4082,
      "Ge": 4083,
      "Sólo": 4084,
      "Va": 4085,
      "Yah": 4086,
      "jor": 4087,
      "jados": 4088,
      "ojo": 4089,
      "rer": 4090,
      "recomen": 4091,
      "sedu": 4092,
      "limi": 4093,
      "descri": 4094,
      "bano": 4095,
      "cepción": 4096,
      "mayoría": 4097,
      "pertenecen": 4098,
      "Jue": 4099,
      "Roma": 4100,
      "gin": 4101,
      "anunci": 4102,
      "absolu": 4103,
      "humillado": 4104,
      "Cos": 4105,
      "acaso": 4106,
      "oper": 4107,
      "recom": 4108,
      "dormir": 4109,
      "temporada": 4110,
      "entro": 4111,
      "chan": 4112,
      "glorifi": 4113,
      "Ahí": 4114,
      "cro": 4115,
      "ramos": 4116,
      "estad": 4117,
      "estación": 4118,
      "muestran": 4119,
      "OO": 4120,
      "fono": 4121,
      "libres": 4122,
      "Mujer": 4123,
      "Hebreos": 4124,
      "Miser": 4125,
      "ape": 4126,
      "tudes": 4127,
      "compasión": 4128,
      "pacto": 4129,
      "Luis": 4130,
      "tercera": 4131,
      "pados": 4132,
      "sá": 4133,
      "popu": 4134,
      "cencia": 4135,
      "inación": 4136,
      "fron": 4137,
      "illas": 4138,
      "necesidad": 4139,
      "Feliz": 4140,
      "Min": 4141,
      "jal": 4142,
      "poderoso": 4143,
      "tés": 4144,
      "mico": 4145,
      "resta": 4146,
      "ñado": 4147,
      "cima": 4148,
      "cine": 4149,
      "cular": 4150,
      "endas": 4151,
      "ladas": 4152,
      "reún": 4153,
      "dibu": 4154,
      "parar": 4155,
      "cap": 4156,
      "Enseñ": 4157,
      "compañía": 4158,
      "steos": 4159,
      "espalda": 4160,
      "47": 4161,
      "echa": 4162,
      "quede": 4163,
      "mago": 4164,
      "seguía": 4165,
      "Argentina": 4166,
      "fesios": 4167,
      "80": 4168,
      "Sé": 4169,
      "ífi": 4170,
      "ascen": 4171,
      "tades": 4172,
      "taban": 4173,
      "pocos": 4174,
      "Dej": 4175,
      "acercó": 4176,
      "bastante": 4177,
      "leyes": 4178,
      "grupos": 4179,
      "For": 4180,
      "odi": 4181,
      "nueve": 4182,
      "películas": 4183,
      "ocas": 4184,
      "usu": 4185,
      "adver": 4186,
      "embara": 4187,
      "valores": 4188,
      "cepto": 4189,
      "frase": 4190,
      "consciente": 4191,
      "kin": 4192,
      "congre": 4193,
      "resis": 4194,
      "traer": 4195,
      "tración": 4196,
      "veía": 4197,
      "batalla": 4198,
      "laban": 4199,
      "base": 4200,
      "estudiar": 4201,
      "anun": 4202,
      "red": 4203,
      "miso": 4204,
      "dación": 4205,
      "veh": 4206,
      "lucha": 4207,
      "gosto": 4208,
      "exactamente": 4209,
      "01": 4210,
      "Job": 4211,
      "lán": 4212,
      "Puede": 4213,
      "ocasión": 4214,
      "DE": 4215,
      "simple": 4216,
      "carta": 4217,
      "extre": 4218,
      "195": 4219,
      "ofrecer": 4220,
      "espectáculo": 4221,
      "Lí": 4222,
      "supuesto": 4223,
      "podido": 4224,
      "descubri": 4225,
      "zcan": 4226,
      "digan": 4227,
      "descon": 4228,
      "llamada": 4229,
      "propias": 4230,
      "ordenó": 4231,
      "comprender": 4232,
      "ici": 4233,
      "represent": 4234,
      "despe": 4235,
      "pez": 4236,
      "laron": 4237,
      "entregó": 4238,
      "varias": 4239,
      "ándole": 4240,
      "comprar": 4241,
      "Misericor": 4242,
      "Jus": 4243,
      "econ": 4244,
      "gadas": 4245,
      "caído": 4246,
      "Eli": 4247,
      "entado": 4248,
      "querido": 4249,
      "90": 4250,
      "Efesios": 4251,
      "tratar": 4252,
      "cena": 4253,
      "aquellas": 4254,
      "pequeñas": 4255,
      "enaje": 4256,
      "Sabemos": 4257,
      "Éste": 4258,
      "excel": 4259,
      "estuvieron": 4260,
      "mesa": 4261,
      "ejército": 4262,
      "id": 4263,
      "expul": 4264,
      "símbo": 4265,
      "quedarse": 4266,
      "dirigió": 4267,
      "sociedad": 4268,
      "ejecu": 4269,
      "Apren": 4270,
      "madas": 4271,
      "once": 4272,
      "cita": 4273,
      "dirá": 4274,
      "motivo": 4275,
      "Tenemos": 4276,
      "firme": 4277,
      "vántate": 4278,
      "Eva": 4279,
      "ner": 4280,
      "enf": 4281,
      "raí": 4282,
      "decirle": 4283,
      "Reyes": 4284,
      "Mí": 4285,
      "Ter": 4286,
      "ork": 4287,
      "hablado": 4288,
      "crear": 4289,
      "opinión": 4290,
      "rera": 4291,
      "elem": 4292,
      "ciado": 4293,
      "conser": 4294,
      "sonido": 4295,
      "dígen": 4296,
      "personajes": 4297,
      "crí": 4298,
      "enamor": 4299,
      "eri": 4300,
      "quedan": 4301,
      "didas": 4302,
      "suerte": 4303,
      "torias": 4304,
      "convier": 4305,
      "dificul": 4306,
      "IN": 4307,
      "ty": 4308,
      "temen": 4309,
      "tario": 4310,
      "minutos": 4311,
      "cú": 4312,
      "dena": 4313,
      "vivió": 4314,
      "fui": 4315,
      "Incluso": 4316,
      "Bel": 4317,
      "ré": 4318,
      "seo": 4319,
      "líneas": 4320,
      "Virgen": 4321,
      "Ali": 4322,
      "patr": 4323,
      "marzo": 4324,
      "claramente": 4325,
      "SO": 4326,
      "pl": 4327,
      "recomiendo": 4328,
      "intención": 4329,
      "quen": 4330,
      "aquello": 4331,
      "llevado": 4332,
      "espiritu": 4333,
      "pár": 4334,
      "dele": 4335,
      "asom": 4336,
      "tiles": 4337,
      "Esper": 4338,
      "animal": 4339,
      "inteli": 4340,
      "actualidad": 4341,
      "merece": 4342,
      "filisteos": 4343,
      "Ez": 4344,
      "Lla": 4345,
      "aj": 4346,
      "laciones": 4347,
      "Puedes": 4348,
      "términos": 4349,
      "05": 4350,
      "cter": 4351,
      "fé": 4352,
      "éfono": 4353,
      "lectura": 4354,
      "cola": 4355,
      "usa": 4356,
      "lum": 4357,
      "marcha": 4358,
      "ganar": 4359,
      "judío": 4360,
      "milagros": 4361,
      "Lá": 4362,
      "......": 4363,
      "Fo": 4364,
      "Lib": 4365,
      "tina": 4366,
      "leo": 4367,
      "chado": 4368,
      "abre": 4369,
      "proce": 4370,
      "sagr": 4371,
      "Papa": 4372,
      "haría": 4373,
      "permitir": 4374,
      "deno": 4375,
      "trib": 4376,
      "quie": 4377,
      "sincer": 4378,
      "pensó": 4379,
      "lencia": 4380,
      "harán": 4381,
      "Via": 4382,
      "destin": 4383,
      "compartir": 4384,
      "peces": 4385,
      "progra": 4386,
      "alimentos": 4387,
      "quieran": 4388,
      "abundan": 4389,
      "tengan": 4390,
      "tratando": 4391,
      "personal": 4392,
      "cumplido": 4393,
      "Mensa": 4394,
      "amis": 4395,
      "cercan": 4396,
      "Alguna": 4397,
      "soldados": 4398,
      "cuidar": 4399,
      "vinidad": 4400,
      "edi": 4401,
      "jam": 4402,
      "lago": 4403,
      "estre": 4404,
      "hablo": 4405,
      "hua": 4406,
      "salvo": 4407,
      "deseos": 4408,
      "ocurrió": 4409,
      "vinieron": 4410,
      "desempe": 4411,
      "His": 4412,
      "mentar": 4413,
      "llevan": 4414,
      "llar": 4415,
      "chica": 4416,
      "abrir": 4417,
      "ónicas": 4418,
      "caballo": 4419,
      "conclusión": 4420,
      "debía": 4421,
      "¡¡": 4422,
      "uela": 4423,
      "orgu": 4424,
      "conci": 4425,
      "logo": 4426,
      "papá": 4427,
      "iré": 4428,
      "volvieron": 4429,
      "banda": 4430,
      "importancia": 4431,
      "fondo": 4432,
      "redu": 4433,
      "sección": 4434,
      "bió": 4435,
      "reser": 4436,
      "Anónimo": 4437,
      "deberíamos": 4438,
      "ilusión": 4439,
      "ladrón": 4440,
      "Tai": 4441,
      "tantos": 4442,
      "errami": 4443,
      "caminos": 4444,
      "personaje": 4445,
      "aria": 4446,
      "convo": 4447,
      "sima": 4448,
      "provin": 4449,
      "propiedad": 4450,
      "Van": 4451,
      "cías": 4452,
      "jaja": 4453,
      "humana": 4454,
      "nego": 4455,
      "iguales": 4456,
      "belleza": 4457,
      "bendiciones": 4458,
      "generación": 4459,
      "Cami": 4460,
      "Ori": 4461,
      "Tí": 4462,
      "cente": 4463,
      "mán": 4464,
      "xim": 4465,
      "cie": 4466,
      "bación": 4467,
      "jefes": 4468,
      "deberían": 4469,
      "sentado": 4470,
      "recuerda": 4471,
      "pájaros": 4472,
      "sepa": 4473,
      "leído": 4474,
      "pala": 4475,
      "hombros": 4476,
      "creó": 4477,
      "parecen": 4478,
      "tío": 4479,
      "Sara": 4480,
      "mitad": 4481,
      "libr": 4482,
      "herencia": 4483,
      "aceptar": 4484,
      "destrucción": 4485,
      "esfuerzo": 4486,
      "03": 4487,
      "Tri": 4488,
      "otor": 4489,
      "medios": 4490,
      "dudas": 4491,
      "Sabi": 4492,
      "TO": 4493,
      "bó": 4494,
      "adora": 4495,
      "vienes": 4496,
      "piente": 4497,
      "jería": 4498,
      "1000": 4499,
      "centes": 4500,
      "zón": 4501,
      "dominio": 4502,
      "tren": 4503,
      "sia": 4504,
      "gusto": 4505,
      "creencias": 4506,
      "prometido": 4507,
      "Guerra": 4508,
      "conforme": 4509,
      "infor": 4510,
      "partido": 4511,
      "malas": 4512,
      "nacional": 4513,
      "sentía": 4514,
      "seguimos": 4515,
      "proteger": 4516,
      "ditos": 4517,
      "casarse": 4518,
      "some": 4519,
      "perdonar": 4520,
      "sirven": 4521,
      "\":": 4522,
      "TA": 4523,
      "Tes": 4524,
      "psis": 4525,
      "zon": 4526,
      "semanas": 4527,
      "Deja": 4528,
      "obediencia": 4529,
      "llenos": 4530,
      "aquella": 4531,
      "Aún": 4532,
      "ag": 4533,
      "aus": 4534,
      "hin": 4535,
      "ciados": 4536,
      "tradu": 4537,
      "trai": 4538,
      "mencion": 4539,
      "éndole": 4540,
      "(...)": 4541,
      "Dar": 4542,
      "Sol": 4543,
      "vío": 4544,
      "ayudó": 4545,
      "llegada": 4546,
      "débiles": 4547,
      "antiguos": 4548,
      "Año": 4549,
      "octubre": 4550,
      "lica": 4551,
      "trajo": 4552,
      "vidades": 4553,
      "dejando": 4554,
      "código": 4555,
      "diferente": 4556,
      "ónico": 4557,
      "Cab": 4558,
      "asu": 4559,
      "cuento": 4560,
      "altar": 4561,
      "leg": 4562,
      "compe": 4563,
      "responde": 4564,
      "Nosotras": 4565,
      "siguientes": 4566,
      "servicios": 4567,
      "mediante": 4568,
      "religiones": 4569,
      "ónica": 4570,
      "bondad": 4571,
      "ku": 4572,
      "peri": 4573,
      "marca": 4574,
      "blemente": 4575,
      "razones": 4576,
      "autoridades": 4577,
      "principal": 4578,
      "irá": 4579,
      "fuertes": 4580,
      "sucede": 4581,
      "producción": 4582,
      "manifi": 4583,
      "estudiantes": 4584,
      "crédu": 4585,
      "tradición": 4586,
      "portar": 4587,
      "ganado": 4588,
      "querían": 4589,
      "comprensión": 4590,
      "suficientemente": 4591,
      "Az": 4592,
      "suel": 4593,
      "ír": 4594,
      "reconocer": 4595,
      "nota": 4596,
      "empla": 4597,
      "prohi": 4598,
      "vación": 4599,
      "mayores": 4600,
      "responsabilidad": 4601,
      "ame": 4602,
      "numeros": 4603,
      "séptimo": 4604,
      "desarrollo": 4605,
      "Jun": 4606,
      "aqui": 4607,
      "dri": 4608,
      "tierras": 4609,
      "confes": 4610,
      "añadi": 4611,
      "sín": 4612,
      "dejaron": 4613,
      "unidades": 4614,
      "cumplen": 4615,
      "importantes": 4616,
      "difíciles": 4617,
      "Nada": 4618,
      "smo": 4619,
      "yeron": 4620,
      "áli": 4621,
      "cerá": 4622,
      "peda": 4623,
      "tienda": 4624,
      "confir": 4625,
      "familiares": 4626,
      "Otra": 4627,
      "Pos": 4628,
      "adul": 4629,
      "suma": 4630,
      "bib": 4631,
      "carga": 4632,
      "bru": 4633,
      "tele": 4634,
      "traducción": 4635,
      "sabio": 4636,
      "consejo": 4637,
      "error": 4638,
      "encontré": 4639,
      "reunión": 4640,
      "asesin": 4641,
      "desapareció": 4642,
      "parábo": 4643,
      "Ej": 4644,
      "deras": 4645,
      "mili": 4646,
      "emon": 4647,
      "conocía": 4648,
      "esclavos": 4649,
      "límites": 4650,
      "York": 4651,
      "ctoria": 4652,
      "ece": 4653,
      "mato": 4654,
      "creído": 4655,
      "bosque": 4656,
      "alcance": 4657,
      "resultados": 4658,
      "visitar": 4659,
      "hábi": 4660,
      "dy": 4661,
      "ciar": 4662,
      "muere": 4663,
      "constante": 4664,
      "Nuestros": 4665,
      "09": 4666,
      "cni": 4667,
      "pocas": 4668,
      "pastor": 4669,
      "señores": 4670,
      "Donde": 4671,
      "HH": 4672,
      "agosto": 4673,
      "flores": 4674,
      "gón": 4675,
      "hem": 4676,
      "temá": 4677,
      "prínci": 4678,
      "eración": 4679,
      "mentación": 4680,
      "plantas": 4681,
      "dulce": 4682,
      "ev": 4683,
      "ñar": 4684,
      "cria": 4685,
      "poses": 4686,
      "rápido": 4687,
      "máximo": 4688,
      "convertir": 4689,
      "cumpleaños": 4690,
      "Ning": 4691,
      "ph": 4692,
      "viva": 4693,
      "sitios": 4694,
      "chando": 4695,
      "perci": 4696,
      "perfecto": 4697,
      "derá": 4698,
      "regalo": 4699,
      "opción": 4700,
      "influ": 4701,
      "Mos": 4702,
      "rodi": 4703,
      "sintió": 4704,
      "objeto": 4705,
      "Escucha": 4706,
      "probable": 4707,
      "memoria": 4708,
      "02": 4709,
      "Gar": 4710,
      "Pan": 4711,
      "aquél": 4712,
      "cina": 4713,
      "retir": 4714,
      "mostró": 4715,
      "propor": 4716,
      "oraciones": 4717,
      "convertido": 4718,
      "borra": 4719,
      "referencia": 4720,
      "aje": 4721,
      "dones": 4722,
      "rel": 4723,
      "diseño": 4724,
      "video": 4725,
      "tori": 4726,
      "santos": 4727,
      "cincuenta": 4728,
      "participar": 4729,
      "bebé": 4730,
      "tecno": 4731,
      "acos": 4732,
      "aho": 4733,
      "hun": 4734,
      "pales": 4735,
      "contenido": 4736,
      "geni": 4737,
      "demostrar": 4738,
      "verdaderos": 4739,
      "encontrado": 4740,
      "greso": 4741,
      "At": 4742,
      "Luna": 4743,
      "ry": 4744,
      "sel": 4745,
      "une": 4746,
      "cuan": 4747,
      "caba": 4748,
      "perro": 4749,
      "serás": 4750,
      "corru": 4751,
      "Vivo": 4752,
      "Colo": 4753,
      "recuerdos": 4754,
      "comienzo": 4755,
      "indígen": 4756,
      "rum": 4757,
      "consigo": 4758,
      "reas": 4759,
      "almas": 4760,
      "letras": 4761,
      "cula": 4762,
      "pol": 4763,
      "traído": 4764,
      "llego": 4765,
      "habia": 4766,
      "descendencia": 4767,
      "conscientes": 4768,
      "organización": 4769,
      "vienen": 4770,
      "vete": 4771,
      "alia": 4772,
      "lanza": 4773,
      "ignor": 4774,
      "Comi": 4775,
      "víctima": 4776,
      "Ed": 4777,
      "introdu": 4778,
      "dejará": 4779,
      "regresar": 4780,
      "idas": 4781,
      "talidad": 4782,
      "arti": 4783,
      "tivamente": 4784,
      "consiguió": 4785,
      "abor": 4786,
      "mode": 4787,
      "distancia": 4788,
      "entregar": 4789,
      "revelación": 4790,
      "?,\"": 4791,
      "UN": 4792,
      "oh": 4793,
      "mido": 4794,
      "poesía": 4795,
      "frío": 4796,
      "ofen": 4797,
      "invierno": 4798,
      "terminar": 4799,
      "presentó": 4800,
      "cuarto": 4801,
      "esfuerzos": 4802,
      "unirse": 4803,
      "Im": 4804,
      "Tan": 4805,
      "ps": 4806,
      "bio": 4807,
      "Hijos": 4808,
      "iló": 4809,
      "aprendido": 4810,
      "partidos": 4811,
      "quedamos": 4812,
      "testigo": 4813,
      "teléfono": 4814,
      "Cuántos": 4815,
      "dante": 4816,
      "enti": 4817,
      "supli": 4818,
      "quía": 4819,
      "hice": 4820,
      "dentes": 4821,
      "famos": 4822,
      "fortale": 4823,
      "jug": 4824,
      "revelado": 4825,
      "alumnos": 4826,
      "egipcios": 4827,
      "aco": 4828,
      "madres": 4829,
      "all": 4830,
      "incrédu": 4831,
      "cuán": 4832,
      "empo": 4833,
      "penas": 4834,
      "trabajos": 4835,
      "haré": 4836,
      "llevará": 4837,
      "próxi": 4838,
      "construir": 4839,
      "abril": 4840,
      "encanta": 4841,
      "riquezas": 4842,
      "Europa": 4843,
      "jalá": 4844,
      "biblia": 4845,
      "Ama": 4846,
      "Ani": 4847,
      "ec": 4848,
      "the": 4849,
      "diría": 4850,
      "cuándo": 4851,
      "bir": 4852,
      "fuerzas": 4853,
      "Paz": 4854,
      "acompañado": 4855,
      "Nuestra": 4856,
      "débil": 4857,
      "veinte": 4858,
      "entrega": 4859,
      "recibe": 4860,
      "Dice": 4861,
      "chico": 4862,
      "Chile": 4863,
      "sacrificio": 4864,
      "mezcla": 4865,
      "Finalmente": 4866,
      "Hemos": 4867,
      "fran": 4868,
      "jeron": 4869,
      "madu": 4870,
      "Nacional": 4871,
      "pruebas": 4872,
      "52": 4873,
      "magia": 4874,
      "puerto": 4875,
      "pico": 4876,
      "vengo": 4877,
      "darán": 4878,
      "acto": 4879,
      "enseñan": 4880,
      "piedras": 4881,
      "comenzaron": 4882,
      "acompañar": 4883,
      "tendría": 4884,
      "abilon": 4885,
      "viejo": 4886,
      "responsables": 4887,
      "álisis": 4888,
      "zadas": 4889,
      "demo": 4890,
      "sufren": 4891,
      "cau": 4892,
      "tería": 4893,
      "febrero": 4894,
      "llegue": 4895,
      "Muy": 4896,
      "momentos": 4897,
      "subió": 4898,
      "perros": 4899,
      "esperando": 4900,
      "recuerdo": 4901,
      "bestias": 4902,
      "?:": 4903,
      "echar": 4904,
      "xión": 4905,
      "defi": 4906,
      "tomas": 4907,
      "sientes": 4908,
      "pudieron": 4909,
      "Segu": 4910,
      "salida": 4911,
      "agradeci": 4912,
      "término": 4913,
      "99": 4914,
      "It": 4915,
      "etas": 4916,
      "diza": 4917,
      "Deu": 4918,
      "mueren": 4919,
      "acceso": 4920,
      "muchísimo": 4921,
      "Amé": 4922,
      "insta": 4923,
      "Paraíso": 4924,
      "aparecen": 4925,
      "víctimas": 4926,
      "dieciséis": 4927,
      "wa": 4928,
      "dedos": 4929,
      "ramente": 4930,
      "presentes": 4931,
      "señales": 4932,
      "encontraba": 4933,
      "ocurri": 4934,
      "técni": 4935,
      "increí": 4936,
      "aceite": 4937,
      "Cá": 4938,
      "Vé": 4939,
      "Wil": 4940,
      "rito": 4941,
      "bajar": 4942,
      "jate": 4943,
      "Quiere": 4944,
      "escuchan": 4945,
      "idiomas": 4946,
      "Cin": 4947,
      "Pel": 4948,
      "ccion": 4949,
      "escal": 4950,
      "datos": 4951,
      "serían": 4952,
      "Altísimo": 4953,
      "Cristi": 4954,
      "2007": 4955,
      "gentiles": 4956,
      "Vay": 4957,
      "emi": 4958,
      "udas": 4959,
      "áver": 4960,
      "dimiento": 4961,
      "provo": 4962,
      "ponga": 4963,
      "jugar": 4964,
      "trabajadores": 4965,
      "movimiento": 4966,
      "Paul": 4967,
      "iban": 4968,
      "sú": 4969,
      "queño": 4970,
      "tron": 4971,
      "tentación": 4972,
      "calles": 4973,
      "Habla": 4974,
      "superior": 4975,
      "clas": 4976,
      "eren": 4977,
      "tipos": 4978,
      "obligación": 4979,
      "acabar": 4980,
      "vecinos": 4981,
      "Jn": 4982,
      "fío": 4983,
      "nombr": 4984,
      "camos": 4985,
      "mag": 4986,
      "irse": 4987,
      "nube": 4988,
      "placer": 4989,
      "pública": 4990,
      "500": 4991,
      "Ka": 4992,
      "ciente": 4993,
      "rebel": 4994,
      "desobedeci": 4995,
      "probar": 4996,
      "amble": 4997,
      "sala": 4998,
      "vendrán": 4999,
      "inicio": 5000,
      "Carlos": 5001,
      "66": 5002,
      "efecto": 5003,
      "herrami": 5004,
      "culas": 5005,
      "lig": 5006,
      "ack": 5007,
      "clave": 5008,
      "ibles": 5009,
      "!!!!": 5010,
      "ándolo": 5011,
      "contacto": 5012,
      "Abi": 5013,
      "selo": 5014,
      "repu": 5015,
      "doble": 5016,
      "decidió": 5017,
      "barco": 5018,
      "enviar": 5019,
      "entarios": 5020,
      "explicar": 5021,
      "corresponde": 5022,
      "sensación": 5023,
      "Cer": 5024,
      "EE": 5025,
      "apre": 5026,
      "vando": 5027,
      "rega": 5028,
      "resca": 5029,
      "menudo": 5030,
      "universo": 5031,
      "Mat": 5032,
      "Corán": 5033,
      "acompaña": 5034,
      "comunicación": 5035,
      "idioma": 5036,
      "gráfico": 5037,
      "IS": 5038,
      "Imá": 5039,
      "Mad": 5040,
      "docu": 5041,
      "estando": 5042,
      "lib": 5043,
      "tarán": 5044,
      "presentar": 5045,
      "aves": 5046,
      "recursos": 5047,
      "novia": 5048,
      "divor": 5049,
      "estú": 5050,
      "actos": 5051,
      "Levántate": 5052,
      "médico": 5053,
      "responsable": 5054,
      "héroe": 5055,
      "ap": 5056,
      "bá": 5057,
      "cuel": 5058,
      "Cuándo": 5059,
      "ponemos": 5060,
      "generos": 5061,
      "estaría": 5062,
      "siguieron": 5063,
      "aceptó": 5064,
      "Wiki": 5065,
      "cadáver": 5066,
      "Jam": 5067,
      "armas": 5068,
      "haci": 5069,
      "fil": 5070,
      "pecador": 5071,
      "preguntaron": 5072,
      "calor": 5073,
      "estilo": 5074,
      "____": 5075,
      "Ángeles": 5076,
      "Libro": 5077,
      "Imágenes": 5078,
      "Hor": 5079,
      "hacéis": 5080,
      "vivientes": 5081,
      "relaciones": 5082,
      "Todavía": 5083,
      "inclin": 5084,
      "Ac": 5085,
      "Babilon": 5086,
      "Col": 5087,
      "Testi": 5088,
      "zá": 5089,
      "timos": 5090,
      "letra": 5091,
      "luchar": 5092,
      "correr": 5093,
      "lograr": 5094,
      "Ai": 5095,
      "YO": 5096,
      "edición": 5097,
      "ientes": 5098,
      "alu": 5099,
      "ome": 5100,
      "perío": 5101,
      "pase": 5102,
      "escribo": 5103,
      "Anti": 5104,
      "iniones": 5105,
      "Fueron": 5106,
      "éxico": 5107,
      "',": 5108,
      "08": 5109,
      "CO": 5110,
      "Cora": 5111,
      "MA": 5112,
      "far": 5113,
      "estra": 5114,
      "tuvi": 5115,
      "carrera": 5116,
      "mara": 5117,
      "gana": 5118,
      "Confi": 5119,
      "Jose": 5120,
      "rue": 5121,
      "remo": 5122,
      "Super": 5123,
      "ideas": 5124,
      "Nú": 5125,
      "TE": 5126,
      "verás": 5127,
      "niñas": 5128,
      "derra": 5129,
      "míos": 5130,
      "parecía": 5131,
      "juzgar": 5132,
      "piernas": 5133,
      "esclavo": 5134,
      "solici": 5135,
      "51": 5136,
      "ed": 5137,
      "ff": 5138,
      "kiló": 5139,
      "decen": 5140,
      "verano": 5141,
      "disco": 5142,
      "fort": 5143,
      "seña": 5144,
      "siglos": 5145,
      "comienza": 5146,
      "tono": 5147,
      "caballos": 5148,
      "engañar": 5149,
      "Mundial": 5150,
      "ésped": 5151,
      "Babilonia": 5152,
      "itas": 5153,
      "úcar": 5154,
      "ceder": 5155,
      "propie": 5156,
      "tarios": 5157,
      "larga": 5158,
      "Jehova": 5159,
      "mirar": 5160,
      "intenciones": 5161,
      "defini": 5162,
      "06": 5163,
      "Junto": 5164,
      "México": 5165,
      "sabían": 5166,
      "presa": 5167,
      "atán": 5168,
      "continú": 5169,
      "estrella": 5170,
      "III": 5171,
      "Fili": 5172,
      "Gobi": 5173,
      "vistas": 5174,
      "género": 5175,
      "Debemos": 5176,
      "dece": 5177,
      "toca": 5178,
      "tomado": 5179,
      "dieran": 5180,
      "vivos": 5181,
      "mantiene": 5182,
      "escuchado": 5183,
      "estómago": 5184,
      "volución": 5185,
      "apa": 5186,
      "cales": 5187,
      "divinidad": 5188,
      "table": 5189,
      "cura": 5190,
      "teras": 5191,
      "campe": 5192,
      "miembro": 5193,
      "multitud": 5194,
      "58": 5195,
      "Actu": 5196,
      "Pá": 5197,
      "TLA": 5198,
      "debi": 5199,
      "temer": 5200,
      "musul": 5201,
      "exi": 5202,
      "pasando": 5203,
      "identifi": 5204,
      "Deuter": 5205,
      "YY": 5206,
      "cadores": 5207,
      "angu": 5208,
      "vias": 5209,
      "vidu": 5210,
      "perse": 5211,
      "juro": 5212,
      "podrían": 5213,
      "función": 5214,
      "ordenado": 5215,
      "empezar": 5216,
      "convertirse": 5217,
      "Hola": 5218,
      "oros": 5219,
      "tiende": 5220,
      "creto": 5221,
      "onomio": 5222,
      "terminado": 5223,
      "preparados": 5224,
      "digno": 5225,
      "ciertamente": 5226,
      "Deuteronomio": 5227,
      "vent": 5228,
      "aste": 5229,
      "contamos": 5230,
      "creía": 5231,
      "daron": 5232,
      "Ing": 5233,
      "individu": 5234,
      "guel": 5235,
      "ws": 5236,
      "envía": 5237,
      "ane": 5238,
      "noticia": 5239,
      "contó": 5240,
      "conquis": 5241,
      "condiciones": 5242,
      "muñe": 5243,
      "comba": 5244,
      "Segun": 5245,
      "hicimos": 5246,
      "opiniones": 5247,
      "Gobierno": 5248,
      "Vo": 5249,
      "devo": 5250,
      "enco": 5251,
      "argu": 5252,
      "parta": 5253,
      "empa": 5254,
      "creían": 5255,
      "cír": 5256,
      "amamos": 5257,
      "Person": 5258,
      "pacientes": 5259,
      "situaciones": 5260,
      "wn": 5261,
      "noticias": 5262,
      "quías": 5263,
      "garan": 5264,
      "gida": 5265,
      "seguían": 5266,
      "Maestro": 5267,
      "pelu": 5268,
      "cristiano": 5269,
      "caball": 5270,
      "Fuego": 5271,
      "On": 5272,
      "odia": 5273,
      "seré": 5274,
      "Leví": 5275,
      "ciudadanos": 5276,
      "valle": 5277,
      "cioso": 5278,
      "produce": 5279,
      "versículos": 5280,
      "Crónicas": 5281,
      "flu": 5282,
      "enca": 5283,
      "ustr": 5284,
      "fuimos": 5285,
      "Cuatro": 5286,
      "medidas": 5287,
      "subir": 5288,
      "Ol": 5289,
      "hí": 5290,
      "mia": 5291,
      "usos": 5292,
      "llegan": 5293,
      "alidades": 5294,
      "impí": 5295,
      "cionado": 5296,
      "Comen": 5297,
      "ctivo": 5298,
      "2006": 5299,
      "histó": 5300,
      "salido": 5301,
      "planta": 5302,
      "juzgados": 5303,
      "entiende": 5304,
      "peligro": 5305,
      "CA": 5306,
      "dea": 5307,
      "cient": 5308,
      "omía": 5309,
      "ramas": 5310,
      "cae": 5311,
      "cere": 5312,
      "corazon": 5313,
      "Universidad": 5314,
      "piensa": 5315,
      "satisfacción": 5316,
      "Minis": 5317,
      "Bas": 5318,
      "Hacer": 5319,
      "ahi": 5320,
      "ende": 5321,
      "ell": 5322,
      "sexo": 5323,
      "culti": 5324,
      "chó": 5325,
      "discu": 5326,
      "parecer": 5327,
      "especie": 5328,
      "sentimos": 5329,
      "resucitado": 5330,
      "congregación": 5331,
      "DO": 5332,
      "fos": 5333,
      "alla": 5334,
      "ricos": 5335,
      "añad": 5336,
      "planeta": 5337,
      "experim": 5338,
      "beneficios": 5339,
      "teriores": 5340,
      ".,": 5341,
      "04": 5342,
      "Fun": 5343,
      "mater": 5344,
      "peor": 5345,
      "llamas": 5346,
      "ingres": 5347,
      "Isla": 5348,
      "vistazo": 5349,
      "actuar": 5350,
      "aproxim": 5351,
      "07": 5352,
      "cic": 5353,
      "inmedia": 5354,
      "perdió": 5355,
      "munici": 5356,
      "perdona": 5357,
      "entren": 5358,
      "obliga": 5359,
      "Tran": 5360,
      "nado": 5361,
      "És": 5362,
      "citos": 5363,
      "entero": 5364,
      "serpiente": 5365,
      "dur": 5366,
      "gigan": 5367,
      "dejan": 5368,
      "santidad": 5369,
      "signos": 5370,
      "adorar": 5371,
      "chicos": 5372,
      "extravi": 5373,
      "teles": 5374,
      "necesitamos": 5375,
      "símbolo": 5376,
      "lenguas": 5377,
      "original": 5378,
      "Educación": 5379,
      "Gi": 5380,
      "QU": 5381,
      "trato": 5382,
      "presentan": 5383,
      "morada": 5384,
      "zarse": 5385,
      "siguiendo": 5386,
      "ejemp": 5387,
      "podríamos": 5388,
      "contentos": 5389,
      "DHH": 5390,
      "tilla": 5391,
      "institu": 5392,
      "investi": 5393,
      "procla": 5394,
      "iedad": 5395,
      "Miguel": 5396,
      "cionales": 5397,
      "práctica": 5398,
      "tumba": 5399,
      "écdo": 5400,
      "provincia": 5401,
      "Título": 5402,
      "Hon": 5403,
      "US": 5404,
      "fues": 5405,
      "mación": 5406,
      "verán": 5407,
      "duro": 5408,
      "venga": 5409,
      "lanzó": 5410,
      "comidas": 5411,
      "Capi": 5412,
      "Francis": 5413,
      "enorme": 5414,
      "Profeta": 5415,
      "Ele": 5416,
      "Len": 5417,
      "Ojalá": 5418,
      "jón": 5419,
      "ála": 5420,
      "deos": 5421,
      "uelos": 5422,
      "consul": 5423,
      "vivía": 5424,
      "estados": 5425,
      "cristiana": 5426,
      "pensamiento": 5427,
      "calipsis": 5428,
      "juez": 5429,
      "defender": 5430,
      "Ec": 5431,
      "Glor": 5432,
      "Ki": 5433,
      "Oro": 5434,
      "TI": 5435,
      "rece": 5436,
      "contras": 5437,
      "vera": 5438,
      "amá": 5439,
      "barrio": 5440,
      "bendiga": 5441,
      "carácter": 5442,
      "Pregunta": 5443,
      "ejerci": 5444,
      "Norte": 5445,
      "dizaje": 5446,
      "período": 5447,
      "LO": 5448,
      "contribu": 5449,
      "Señ": 5450,
      "zamos": 5451,
      "Tiempo": 5452,
      "escuchó": 5453,
      "beneficio": 5454,
      "Gali": 5455,
      "Tw": 5456,
      "mm": 5457,
      "citas": 5458,
      "bia": 5459,
      "tarea": 5460,
      "Detrás": 5461,
      "....\"": 5462,
      "Luz": 5463,
      "preocupa": 5464,
      "preparado": 5465,
      "Camino": 5466,
      "Sabiduría": 5467,
      "Aqui": 5468,
      "apropi": 5469,
      "encu": 5470,
      "desgracia": 5471,
      "hermanas": 5472,
      "autén": 5473,
      "Llegó": 5474,
      "podéis": 5475,
      "Otro": 5476,
      "supone": 5477,
      "desnu": 5478,
      "sagrado": 5479,
      "alización": 5480,
      "Reve": 5481,
      "túa": 5482,
      "millas": 5483,
      "historias": 5484,
      "creyeron": 5485,
      "Neces": 5486,
      "Cruz": 5487,
      "Tam": 5488,
      "pones": 5489,
      "éramos": 5490,
      "divina": 5491,
      "mios": 5492,
      "suf": 5493,
      "camp": 5494,
      "hoja": 5495,
      "varón": 5496,
      "escribe": 5497,
      "Anton": 5498,
      "regresó": 5499,
      "benefici": 5500,
      "categor": 5501,
      "ríos": 5502,
      "consecuencias": 5503,
      "amistad": 5504,
      "Fal": 5505,
      "ivo": 5506,
      "ks": 5507,
      "arras": 5508,
      "alos": 5509,
      "hagamos": 5510,
      "cero": 5511,
      "inscri": 5512,
      "entrañas": 5513,
      "elementos": 5514,
      "Apósto": 5515,
      "Dy": 5516,
      "Gal": 5517,
      "Ira": 5518,
      "ctas": 5519,
      "traron": 5520,
      "materi": 5521,
      "mania": 5522,
      "him": 5523,
      "corona": 5524,
      "cuerpos": 5525,
      "escritos": 5526,
      "elegir": 5527,
      "sentados": 5528,
      "circun": 5529,
      "sufrir": 5530,
      "origin": 5531,
      "simplemente": 5532,
      "males": 5533,
      "área": 5534,
      "ciego": 5535,
      "cayó": 5536,
      "verse": 5537,
      "decido": 5538,
      "dólares": 5539,
      "promesas": 5540,
      "correcta": 5541,
      "Respon": 5542,
      "capital": 5543,
      "profesion": 5544,
      "halla": 5545,
      "mueve": 5546,
      "interpretación": 5547,
      "generaciones": 5548,
      "clases": 5549,
      "65": 5550,
      "dán": 5551,
      "ica": 5552,
      "ancia": 5553,
      "manes": 5554,
      "pulo": 5555,
      "adap": 5556,
      "úsculo": 5557,
      "Jesus": 5558,
      "elimin": 5559,
      "desafío": 5560,
      "costumbres": 5561,
      "ctamente": 5562,
      "tentes": 5563,
      "arias": 5564,
      "diver": 5565,
      "contemp": 5566,
      "tagon": 5567,
      "lino": 5568,
      "tancias": 5569,
      "tienden": 5570,
      "conoces": 5571,
      "líder": 5572,
      "móvil": 5573,
      "transmisión": 5574,
      "tercero": 5575,
      "oficial": 5576,
      "Apocalipsis": 5577,
      "indígenas": 5578,
      "eu": 5579,
      "terra": 5580,
      "duras": 5581,
      "decirles": 5582,
      "cambios": 5583,
      "capitán": 5584,
      "profesor": 5585,
      "Orden": 5586,
      "practi": 5587,
      "corrupción": 5588,
      "Nu": 5589,
      "tz": 5590,
      "dom": 5591,
      "log": 5592,
      "prestar": 5593,
      "garse": 5594,
      "hayan": 5595,
      "Peter": 5596,
      "completamente": 5597,
      "íficos": 5598,
      "RO": 5599,
      "gáis": 5600,
      "iga": 5601,
      "ual": 5602,
      "decla": 5603,
      "labios": 5604,
      "adoles": 5605,
      "listo": 5606,
      "expi": 5607,
      "pasan": 5608,
      "fechas": 5609,
      "juegos": 5610,
      "policía": 5611,
      "57": 5612,
      "Atención": 5613,
      "Dan": 5614,
      "Rob": 5615,
      "flor": 5616,
      "reina": 5617,
      "adop": 5618,
      "goles": 5619,
      "prefi": 5620,
      "venía": 5621,
      "cionar": 5622,
      "ídolos": 5623,
      "Artí": 5624,
      "enfermos": 5625,
      "hogares": 5626,
      "China": 5627,
      "terreno": 5628,
      "iente": 5629,
      "pago": 5630,
      "corte": 5631,
      "Invi": 5632,
      "Santi": 5633,
      "táculos": 5634,
      "fectos": 5635,
      "Publi": 5636,
      "espaldas": 5637,
      "similar": 5638,
      "dificultades": 5639,
      "Sali": 5640,
      "apel": 5641,
      "pón": 5642,
      "ensal": 5643,
      "onar": 5644,
      "asig": 5645,
      "reti": 5646,
      "pecho": 5647,
      "amas": 5648,
      "estamento": 5649,
      "premio": 5650,
      "llaman": 5651,
      "hacerte": 5652,
      "forman": 5653,
      "cumplimiento": 5654,
      "orilla": 5655,
      "merecen": 5656,
      "aseguro": 5657,
      "semejantes": 5658,
      "Ningún": 5659,
      "kilómetros": 5660,
      "are": 5661,
      "contiene": 5662,
      "suya": 5663,
      "gues": 5664,
      "tesis": 5665,
      "ruinas": 5666,
      "gase": 5667,
      "mirando": 5668,
      "transmi": 5669,
      "cónyu": 5670,
      "cinemato": 5671,
      "abundancia": 5672,
      "Tailandés": 5673,
      ".\"[": 5674,
      "torre": 5675,
      "jala": 5676,
      "monos": 5677,
      "ayudan": 5678,
      "plaza": 5679,
      "funda": 5680,
      "profecía": 5681,
      "Buenos": 5682,
      "Pueblo": 5683,
      "pronun": 5684,
      "afli": 5685,
      "palacio": 5686,
      "rodillas": 5687,
      "chab": 5688,
      "rezar": 5689,
      "tocar": 5690,
      "entemente": 5691,
      "voces": 5692,
      "Encuen": 5693,
      "ambas": 5694,
      "ill": 5695,
      "intent": 5696,
      "enfermo": 5697,
      "crédito": 5698,
      "pájaro": 5699,
      "limpi": 5700,
      "consecuencia": 5701,
      "econó": 5702,
      "Men": 5703,
      "huel": 5704,
      "envío": 5705,
      "ansi": 5706,
      "mone": 5707,
      "humildad": 5708,
      "maravillos": 5709,
      "ofreció": 5710,
      "Tesal": 5711,
      "AC": 5712,
      "by": 5713,
      "tigo": 5714,
      "quina": 5715,
      "tenta": 5716,
      "darles": 5717,
      "grave": 5718,
      "vuelvan": 5719,
      "Queremos": 5720,
      "ave": 5721,
      "rados": 5722,
      "alter": 5723,
      "conte": 5724,
      "pene": 5725,
      "brin": 5726,
      "coraje": 5727,
      "querer": 5728,
      "natural": 5729,
      "frases": 5730,
      "confli": 5731,
      "Blan": 5732,
      "Ste": 5733,
      "iza": 5734,
      "enla": 5735,
      "anécdo": 5736,
      "dicos": 5737,
      "pedido": 5738,
      "teros": 5739,
      "homenaje": 5740,
      "alegro": 5741,
      "cometido": 5742,
      "participación": 5743,
      "artículos": 5744,
      "Francisco": 5745,
      "Mer": 5746,
      "cidas": 5747,
      "Diablo": 5748,
      "rompi": 5749,
      "encantan": 5750,
      "figura": 5751,
      "Aun": 5752,
      "alas": 5753,
      "hú": 5754,
      "ms": 5755,
      "sado": 5756,
      "rese": 5757,
      "sustitu": 5758,
      "ampli": 5759,
      "book": 5760,
      "regó": 5761,
      "ahor": 5762,
      "ertamente": 5763,
      "renunci": 5764,
      "revela": 5765,
      "territorio": 5766,
      "Véase": 5767,
      "59": 5768,
      "Ber": 5769,
      "Ga": 5770,
      "ídos": 5771,
      "rid": 5772,
      "impli": 5773,
      "boda": 5774,
      "Algo": 5775,
      "elegido": 5776,
      "comió": 5777,
      "aprendizaje": 5778,
      "violencia": 5779,
      "sentó": 5780,
      "piensas": 5781,
      "preocup": 5782,
      "Pien": 5783,
      "resucitó": 5784,
      "tribus": 5785,
      "Historia": 5786,
      "herramientas": 5787,
      "apoder": 5788,
      "plante": 5789,
      "vador": 5790,
      "lecciones": 5791,
      "sientan": 5792,
      "estés": 5793,
      "llegamos": 5794,
      "malvados": 5795,
      "frad": 5796,
      "Poco": 5797,
      "invito": 5798,
      "indica": 5799,
      "mental": 5800,
      "intereses": 5801,
      "actividades": 5802,
      "peregr": 5803,
      "detalles": 5804,
      "Fami": 5805,
      "hen": 5806,
      "cimientos": 5807,
      "unes": 5808,
      "león": 5809,
      "cuáles": 5810,
      "rate": 5811,
      "cama": 5812,
      "lico": 5813,
      "muero": 5814,
      "quito": 5815,
      "2000": 5816,
      "lluvias": 5817,
      "condenado": 5818,
      "culpable": 5819,
      "enfad": 5820,
      "DA": 5821,
      "Ros": 5822,
      "repe": 5823,
      "rojo": 5824,
      "dudar": 5825,
      "deciré": 5826,
      "preguntan": 5827,
      "signo": 5828,
      "oyó": 5829,
      "estudios": 5830,
      "Bajo": 5831,
      "enfrent": 5832,
      "decer": 5833,
      "adminis": 5834,
      "chen": 5835,
      "guerras": 5836,
      "sobres": 5837,
      "extran": 5838,
      "negó": 5839,
      "Muerte": 5840,
      "Salmos": 5841,
      "relato": 5842,
      "posee": 5843,
      "embarazada": 5844,
      "modelo": 5845,
      "Pelícu": 5846,
      "útiles": 5847,
      "arco": 5848,
      "ciertas": 5849,
      "respi": 5850,
      "tana": 5851,
      "acepto": 5852,
      "mandamientos": 5853,
      "Prom": 5854,
      "Tar": 5855,
      "Tem": 5856,
      "gh": 5857,
      "anda": 5858,
      "injus": 5859,
      "comporta": 5860,
      "mató": 5861,
      "caras": 5862,
      "corpor": 5863,
      "1914": 5864,
      "demostró": 5865,
      "llamaba": 5866,
      "Exis": 5867,
      "vivido": 5868,
      "especies": 5869,
      "tillas": 5870,
      "escapar": 5871,
      "desarrolla": 5872,
      "reinado": 5873,
      "Antonio": 5874,
      "circuns": 5875,
      "69": 5876,
      "We": 5877,
      "cés": 5878,
      "glo": 5879,
      "nn": 5880,
      "udos": 5881,
      "suces": 5882,
      "mercado": 5883,
      "cionados": 5884,
      "oló": 5885,
      "Tenía": 5886,
      "Existe": 5887,
      "sirvi": 5888,
      "nietos": 5889,
      "abierto": 5890,
      "actitud": 5891,
      "Misericordia": 5892,
      "Ara": 5893,
      "Ke": 5894,
      "MI": 5895,
      "hones": 5896,
      "repi": 5897,
      "repos": 5898,
      "comentarios": 5899,
      "quita": 5900,
      "fusión": 5901,
      "maron": 5902,
      "alcanzó": 5903,
      "Primera": 5904,
      "satisfe": 5905,
      "Gru": 5906,
      "Shi": 5907,
      "Tur": 5908,
      "ático": 5909,
      "archi": 5910,
      "sumer": 5911,
      "Sigui": 5912,
      "faci": 5913,
      "Compañ": 5914,
      "jarse": 5915,
      "empezaron": 5916,
      "azúcar": 5917,
      "llorar": 5918,
      "Er": 5919,
      "agar": 5920,
      "maneras": 5921,
      "empu": 5922,
      "casado": 5923,
      "llamados": 5924,
      "gira": 5925,
      "Cuenta": 5926,
      "centr": 5927,
      "2021": 5928,
      "dioso": 5929,
      "cumplan": 5930,
      "guarda": 5931,
      "confían": 5932,
      "****": 5933,
      "acabó": 5934,
      "Cana": 5935,
      "RA": 5936,
      "vul": 5937,
      "enses": 5938,
      "rego": 5939,
      "midos": 5940,
      "sober": 5941,
      "protagon": 5942,
      "taria": 5943,
      "tesoros": 5944,
      "sabéis": 5945,
      "Recor": 5946,
      "decirte": 5947,
      "finalmente": 5948,
      "Judas": 5949,
      "vivirá": 5950,
      "consiste": 5951,
      "Guar": 5952,
      "colección": 5953,
      "instrucciones": 5954,
      "celebración": 5955,
      "convierten": 5956,
      "parábola": 5957,
      "angusti": 5958,
      "Santiago": 5959,
      "Bos": 5960,
      "vada": 5961,
      "aspecto": 5962,
      "regu": 5963,
      "mito": 5964,
      "leche": 5965,
      "legado": 5966,
      "presta": 5967,
      "piz": 5968,
      "vean": 5969,
      "alizar": 5970,
      "cantar": 5971,
      "lín": 5972,
      "Lot": 5973,
      "trabaja": 5974,
      "permiso": 5975,
      "perdonados": 5976,
      "clientes": 5977,
      "Ambos": 5978,
      ")?": 5979,
      "CH": 5980,
      "namente": 5981,
      "timo": 5982,
      "mandó": 5983,
      "zapa": 5984,
      "pongan": 5985,
      "laboración": 5986,
      "Lee": 5987,
      "sentirse": 5988,
      "escrituras": 5989,
      "volverán": 5990,
      "creyente": 5991,
      "pensando": 5992,
      "espíritus": 5993,
      "tomaron": 5994,
      "sacrifi": 5995,
      "!...": 5996,
      "//": 5997,
      "53": 5998,
      "Sha": 5999,
      "Templo": 6000,
      "Yu": 6001,
      "adio": 6002,
      "cubri": 6003,
      "gué": 6004,
      "sole": 6005,
      "trae": 6006,
      "guimos": 6007,
      "Mary": 6008,
      "poderosos": 6009,
      "harás": 6010,
      "particular": 6011,
      "dedicado": 6012,
      "obligados": 6013,
      "sufrimiento": 6014,
      "oportunidades": 6015,
      "cuestión": 6016,
      "DIOS": 6017,
      "kinson": 6018,
      "88": 6019,
      "wi": 6020,
      "one": 6021,
      "ung": 6022,
      "indepen": 6023,
      "pers": 6024,
      "distribu": 6025,
      "seguros": 6026,
      "País": 6027,
      "vuelva": 6028,
      "fruta": 6029,
      "amaba": 6030,
      "productos": 6031,
      "temb": 6032,
      "Liber": 6033,
      "éndolo": 6034,
      "sujeto": 6035,
      "restau": 6036,
      "56": 6037,
      "gras": 6038,
      "ámbi": 6039,
      "unen": 6040,
      "trá": 6041,
      "inmor": 6042,
      "despren": 6043,
      "tencias": 6044,
      "fija": 6045,
      "fiestas": 6046,
      "vers": 6047,
      "exclu": 6048,
      "pregunté": 6049,
      "fines": 6050,
      "comunidades": 6051,
      "discípulo": 6052,
      "explica": 6053,
      "colores": 6054,
      "pronunci": 6055,
      "77": 6056,
      "pér": 6057,
      "{{": 6058,
      "quedé": 6059,
      "meta": 6060,
      "habr": 6061,
      "Sino": 6062,
      "corto": 6063,
      "imposible": 6064,
      "donos": 6065,
      "virtudes": 6066,
      "estuve": 6067,
      "acuerdas": 6068,
      "cabezas": 6069,
      "fotos": 6070,
      "predicar": 6071,
      "social": 6072,
      "Sen": 6073,
      "UU": 6074,
      "midad": 6075,
      "ries": 6076,
      "pondrá": 6077,
      "textos": 6078,
      "utilizar": 6079,
      "caminar": 6080,
      "periodo": 6081,
      "empresa": 6082,
      "enaltecido": 6083,
      "Viaje": 6084,
      "Dere": 6085,
      "Evangelio": 6086,
      "SI": 6087,
      "Toma": 6088,
      "ky": 6089,
      "zu": 6090,
      "oría": 6091,
      "podamos": 6092,
      "mantuvo": 6093,
      "impuestos": 6094,
      "siglas": 6095,
      "títulos": 6096,
      "Estaba": 6097,
      "explicó": 6098,
      "estúpido": 6099,
      "54": 6100,
      "Char": 6101,
      "ciales": 6102,
      "unta": 6103,
      "lidos": 6104,
      "abu": 6105,
      "Sea": 6106,
      "irán": 6107,
      "drás": 6108,
      "pítulos": 6109,
      "falsos": 6110,
      "chicas": 6111,
      "Buen": 6112,
      "visita": 6113,
      "celebr": 6114,
      "círculo": 6115,
      "apos": 6116,
      "pp": 6117,
      "vías": 6118,
      "sienta": 6119,
      "tareas": 6120,
      "duración": 6121,
      "impres": 6122,
      "jame": 6123,
      "parecido": 6124,
      "virtud": 6125,
      "dueños": 6126,
      "edificio": 6127,
      "sábado": 6128,
      "raíz": 6129,
      "amblea": 6130,
      "Jack": 6131,
      "gesti": 6132,
      "odio": 6133,
      "ÓN": 6134,
      "dica": 6135,
      "cató": 6136,
      "moles": 6137,
      "tano": 6138,
      "hebre": 6139,
      "hechi": 6140,
      "arrep": 6141,
      "suficientes": 6142,
      "mantenerse": 6143,
      "Cinco": 6144,
      "Za": 6145,
      "gs": 6146,
      "miendo": 6147,
      "rope": 6148,
      "casco": 6149,
      "nia": 6150,
      "cris": 6151,
      "unión": 6152,
      "queréis": 6153,
      "protección": 6154,
      "entienden": 6155,
      "humildes": 6156,
      "ladrones": 6157,
      "héroes": 6158,
      "América": 6159,
      "cinematográfico": 6160,
      "dora": 6161,
      "evangelio": 6162,
      "gaba": 6163,
      "cuyo": 6164,
      "mus": 6165,
      "paisa": 6166,
      "pica": 6167,
      "precios": 6168,
      "paseo": 6169,
      "menes": 6170,
      "líqui": 6171,
      "acercarse": 6172,
      "terminó": 6173,
      "sujetos": 6174,
      "arma": 6175,
      "arran": 6176,
      "artes": 6177,
      "cifi": 6178,
      "seos": 6179,
      "tara": 6180,
      "estaré": 6181,
      "encuentras": 6182,
      "buscan": 6183,
      "cultura": 6184,
      "guardar": 6185,
      "popular": 6186,
      "programa": 6187,
      "militar": 6188,
      "increíble": 6189,
      "impíos": 6190,
      "Gloria": 6191,
      "césped": 6192,
      "eis": 6193,
      "múlti": 6194,
      "vu": 6195,
      "engen": 6196,
      "estru": 6197,
      "alco": 6198,
      "desgar": 6199,
      "colabor": 6200,
      "mandado": 6201,
      "llamo": 6202,
      "Constitu": 6203,
      "primo": 6204,
      "Ante": 6205,
      "hablaba": 6206,
      "opciones": 6207,
      "destruir": 6208,
      "refiero": 6209,
      "permanecer": 6210,
      "sacrificios": 6211,
      "arrepentir": 6212,
      "valientes": 6213,
      "Consejo": 6214,
      "sinceridad": 6215,
      "orgullos": 6216,
      "cuello": 6217,
      "Revelación": 6218,
      "Dykinson": 6219,
      "Bau": 6220,
      "brió": 6221,
      "aspi": 6222,
      "ang": 6223,
      "pera": 6224,
      "despreci": 6225,
      "nacer": 6226,
      "ponía": 6227,
      "señala": 6228,
      "grantes": 6229,
      "leyendo": 6230,
      "ística": 6231,
      "declaró": 6232,
      "venganza": 6233,
      "James": 6234,
      "\")": 6235,
      "dremos": 6236,
      "plor": 6237,
      "análisis": 6238,
      "novio": 6239,
      "precis": 6240,
      "nave": 6241,
      "dencias": 6242,
      "acumu": 6243,
      "aprobación": 6244,
      "Alemania": 6245,
      "incrédulos": 6246,
      "Éstos": 6247,
      "Eclesias": 6248,
      "lina": 6249,
      "reno": 6250,
      "zi": 6251,
      "mier": 6252,
      "cuidad": 6253,
      "sidad": 6254,
      "pidiendo": 6255,
      "duer": 6256,
      "cante": 6257,
      "bot": 6258,
      "sabor": 6259,
      "plato": 6260,
      "iglesias": 6261,
      "grie": 6262,
      "gritos": 6263,
      "explicación": 6264,
      "güedad": 6265,
      "SOY": 6266,
      "ejemplos": 6267,
      "Cali": 6268,
      "Isab": 6269,
      "nes": 6270,
      "vales": 6271,
      "reza": 6272,
      "unido": 6273,
      "divino": 6274,
      "capítulos": 6275,
      "chor": 6276,
      "Escuela": 6277,
      "pecta": 6278,
      "respondieron": 6279,
      "reciben": 6280,
      "trito": 6281,
      "lógico": 6282,
      "lógica": 6283,
      "entraron": 6284,
      "intentar": 6285,
      "incluye": 6286,
      "???": 6287,
      "permanece": 6288,
      "reflexión": 6289,
      "glorificado": 6290,
      "68": 6291,
      "Fa": 6292,
      "Plan": 6293,
      "apor": 6294,
      "ernos": 6295,
      "sigo": 6296,
      "campos": 6297,
      "apari": 6298,
      "rincón": 6299,
      "empresas": 6300,
      "síntomas": 6301,
      "Amar": 6302,
      "Sh": 6303,
      "TV": 6304,
      "],": 6305,
      "rón": 6306,
      "insensa": 6307,
      "traje": 6308,
      "casados": 6309,
      "mbia": 6310,
      "Simón": 6311,
      "Lección": 6312,
      "Sagr": 6313,
      "importa": 6314,
      "respetar": 6315,
      "penses": 6316,
      "obedecen": 6317,
      "bebidas": 6318,
      "descanso": 6319,
      "mentira": 6320,
      "Dejad": 6321,
      "Testigos": 6322,
      "Canaán": 6323,
      "regoci": 6324,
      "Juego": 6325,
      "acostu": 6326,
      "fla": 6327,
      "oli": 6328,
      "ples": 6329,
      "laba": 6330,
      "almen": 6331,
      "livia": 6332,
      "moda": 6333,
      "modos": 6334,
      "disponi": 6335,
      "vari": 6336,
      "escritas": 6337,
      "2001": 6338,
      "comenzar": 6339,
      "respetu": 6340,
      "Buena": 6341,
      "prometió": 6342,
      "prometida": 6343,
      "engaño": 6344,
      "eternamente": 6345,
      "pierde": 6346,
      "Veamos": 6347,
      "hhhh": 6348,
      "tecnología": 6349,
      "Mañ": 6350,
      "tador": 6351,
      "ética": 6352,
      "revés": 6353,
      "vitas": 6354,
      "sifi": 6355,
      "dispar": 6356,
      "ayude": 6357,
      "Servi": 6358,
      "completa": 6359,
      "reunió": 6360,
      "Primero": 6361,
      "riqueza": 6362,
      "verdaderamente": 6363,
      "Elo": 6364,
      "Ima": 6365,
      "Tus": 6366,
      "cén": 6367,
      "anteriores": 6368,
      "tia": 6369,
      "villa": 6370,
      "cuador": 6371,
      "sil": 6372,
      "iso": 6373,
      "termi": 6374,
      "Siete": 6375,
      "censes": 6376,
      "maldad": 6377,
      "Mayo": 6378,
      "justifi": 6379,
      "vuestras": 6380,
      "vinos": 6381,
      "recorrido": 6382,
      "normal": 6383,
      "manifiesta": 6384,
      "encontraron": 6385,
      "Grande": 6386,
      "predicación": 6387,
      "Internet": 6388,
      "enaltece": 6389,
      "Cualquiera": 6390,
      "declaración": 6391,
      "precisamente": 6392,
      "aconte": 6393,
      "clan": 6394,
      "escen": 6395,
      "infan": 6396,
      "victoria": 6397,
      "hecha": 6398,
      "discurso": 6399,
      "Mucha": 6400,
      "Vivir": 6401,
      "conversa": 6402,
      "principales": 6403,
      "obligado": 6404,
      "Felipe": 6405,
      "refugi": 6406,
      "mentiras": 6407,
      "Existen": 6408,
      "Eclesiastés": 6409,
      "Có": 6410,
      "tían": 6411,
      "ys": 6412,
      "arena": 6413,
      "cuya": 6414,
      "cede": 6415,
      "Esos": 6416,
      "puente": 6417,
      "bañ": 6418,
      "vacaciones": 6419,
      "dario": 6420,
      "alimentación": 6421,
      "Nazar": 6422,
      "evidencia": 6423,
      "defensa": 6424,
      "ventaja": 6425,
      "Madrid": 6426,
      "nó": 6427,
      "nis": 6428,
      "plu": 6429,
      "tora": 6430,
      "}}": 6431,
      "declara": 6432,
      "aría": 6433,
      "tion": 6434,
      "coinci": 6435,
      "quia": 6436,
      "tantas": 6437,
      "Judí": 6438,
      "permitió": 6439,
      "evidente": 6440,
      "presentación": 6441,
      "misericordiosos": 6442,
      "solución": 6443,
      "Jonatán": 6444,
      "onicenses": 6445,
      "engendr": 6446,
      "BAD": 6447,
      "Pac": 6448,
      "Ur": 6449,
      "advi": 6450,
      "trom": 6451,
      "ameri": 6452,
      "cosecha": 6453,
      "Deje": 6454,
      "disci": 6455,
      "nea": 6456,
      "pecé": 6457,
      "tadores": 6458,
      "cambiado": 6459,
      "leyenda": 6460,
      "Colos": 6461,
      "tándo": 6462,
      "Poli": 6463,
      "invitación": 6464,
      "abiertos": 6465,
      "necesitan": 6466,
      "bíblico": 6467,
      "posesión": 6468,
      "polvo": 6469,
      "garantía": 6470,
      "sufrió": 6471,
      "Mañana": 6472,
      "(\"": 6473,
      "Há": 6474,
      "May": 6475,
      "Mac": 6476,
      "animo": 6477,
      "repar": 6478,
      "semillas": 6479,
      "tría": 6480,
      "rato": 6481,
      "desesper": 6482,
      "Espa": 6483,
      "negro": 6484,
      "pensab": 6485,
      "unidos": 6486,
      "Proye": 6487,
      "ocurrido": 6488,
      "caliente": 6489,
      "abandonado": 6490,
      "Monte": 6491,
      "bebida": 6492,
      "quince": 6493,
      "reúnen": 6494,
      "espiritual": 6495,
      "Artículo": 6496,
      "Gener": 6497,
      "Ini": 6498,
      "Ko": 6499,
      "TU": 6500,
      "cador": 6501,
      "dre": 6502,
      "eos": 6503,
      "gú": 6504,
      "km": 6505,
      "vér": 6506,
      "ordin": 6507,
      "unción": 6508,
      "cedió": 6509,
      "pais": 6510,
      "Debido": 6511,
      "nega": 6512,
      "trasla": 6513,
      "León": 6514,
      "plazo": 6515,
      "2003": 6516,
      "hablamos": 6517,
      "asistir": 6518,
      "necesidades": 6519,
      "Eze": 6520,
      "Filipenses": 6521,
      "Unos": 6522,
      "cle": 6523,
      "ruego": 6524,
      "áreas": 6525,
      "reír": 6526,
      "inv": 6527,
      "into": 6528,
      "vela": 6529,
      "aña": 6530,
      "menciona": 6531,
      "estarás": 6532,
      "iniqui": 6533,
      "Podemos": 6534,
      "Niños": 6535,
      "actual": 6536,
      "cuelas": 6537,
      "eterno": 6538,
      "falleció": 6539,
      "experiencias": 6540,
      "complacer": 6541,
      "novela": 6542,
      "Tesalonicenses": 6543,
      "apun": 6544,
      "dedo": 6545,
      "desig": 6546,
      "deudas": 6547,
      "tiro": 6548,
      "cubre": 6549,
      "sicos": 6550,
      "perman": 6551,
      "gotas": 6552,
      "huér": 6553,
      "mpli": 6554,
      "parejas": 6555,
      "sensi": 6556,
      "Ciertamente": 6557,
      "realizado": 6558,
      "objetivos": 6559,
      "vestido": 6560,
      "Vuelve": 6561,
      "efe": 6562,
      "velo": 6563,
      "demuestra": 6564,
      "aran": 6565,
      "cauti": 6566,
      "tuyos": 6567,
      "entario": 6568,
      "magn": 6569,
      "cartas": 6570,
      "mari": 6571,
      "mundial": 6572,
      "zaro": 6573,
      "hormi": 6574,
      "aguan": 6575,
      "bautismo": 6576,
      "recoger": 6577,
      "arrepiente": 6578,
      "tristeza": 6579,
      "partamento": 6580,
      "Ninguno": 6581,
      "Vas": 6582,
      "ahu": 6583,
      "cier": 6584,
      "reconocimiento": 6585,
      "bilidades": 6586,
      "despa": 6587,
      "entera": 6588,
      "derri": 6589,
      "ofía": 6590,
      "volveré": 6591,
      "ezca": 6592,
      "únicamente": 6593,
      "hiciera": 6594,
      "sesión": 6595,
      "line": 6596,
      "actividad": 6597,
      "ssss": 6598,
      "listos": 6599,
      "Consejería": 6600,
      "compromiso": 6601,
      "agregó": 6602,
      "LE": 6603,
      "Lin": 6604,
      "Nación": 6605,
      "devor": 6606,
      "endu": 6607,
      "remor": 6608,
      "abe": 6609,
      "ástico": 6610,
      "ángu": 6611,
      "pida": 6612,
      "Tienen": 6613,
      "seamos": 6614,
      "conocimientos": 6615,
      "rostros": 6616,
      "britán": 6617,
      "invita": 6618,
      "estren": 6619,
      "enseñarles": 6620,
      "abierta": 6621,
      "etc": 6622,
      "mensajes": 6623,
      "superfici": 6624,
      "descubi": 6625,
      "juventud": 6626,
      "despertó": 6627,
      "Señora": 6628,
      "Grupo": 6629,
      "300": 6630,
      "ft": 6631,
      "ut": 6632,
      "ám": 6633,
      "enidad": 6634,
      "tividad": 6635,
      "legio": 6636,
      "carre": 6637,
      "tesoro": 6638,
      "landa": 6639,
      "mentir": 6640,
      "pared": 6641,
      "oyeron": 6642,
      "necesito": 6643,
      "Pueden": 6644,
      "eternidad": 6645,
      "terror": 6646,
      "avergonzado": 6647,
      "'.\"": 6648,
      "Cara": 6649,
      "apenas": 6650,
      "eval": 6651,
      "ral": 6652,
      "รอ": 6653,
      "anía": 6654,
      "quedes": 6655,
      "vid": 6656,
      "lida": 6657,
      "desli": 6658,
      "metro": 6659,
      "copa": 6660,
      "colum": 6661,
      "élu": 6662,
      "cana": 6663,
      "queridos": 6664,
      "cómodo": 6665,
      "dirás": 6666,
      "planes": 6667,
      "guardia": 6668,
      "amari": 6669,
      "conocemos": 6670,
      "salvará": 6671,
      "mandamiento": 6672,
      "reflexi": 6673,
      "milagro": 6674,
      "Recuerda": 6675,
      "apoyar": 6676,
      "Belén": 6677,
      "Corazón": 6678,
      "Isabel": 6679,
      "icas": 6680,
      "jaron": 6681,
      "zaba": 6682,
      "ciertos": 6683,
      "inun": 6684,
      "simpa": 6685,
      "coman": 6686,
      "residen": 6687,
      "cera": 6688,
      "verlo": 6689,
      "prepara": 6690,
      "premo": 6691,
      "ruta": 6692,
      "varones": 6693,
      "confiado": 6694,
      "miró": 6695,
      "olvidado": 6696,
      "seguido": 6697,
      "tistas": 6698,
      "cueva": 6699,
      "New": 6700,
      "borde": 6701,
      "engañado": 6702,
      "Bet": 6703,
      "Eran": 6704,
      "rebe": 6705,
      "local": 6706,
      "bum": 6707,
      "geo": 6708,
      "izon": 6709,
      "sentimiento": 6710,
      "colegio": 6711,
      "confío": 6712,
      "dejemos": 6713,
      "semejante": 6714,
      "continúa": 6715,
      "Bri": 6716,
      "ges": 6717,
      "mb": 6718,
      "vuelo": 6719,
      "tillo": 6720,
      "parientes": 6721,
      "riendo": 6722,
      "sera": 6723,
      "You": 6724,
      "canos": 6725,
      "nuevamente": 6726,
      "promo": 6727,
      "llevaban": 6728,
      "griego": 6729,
      "encontrarse": 6730,
      "gustado": 6731,
      "solamente": 6732,
      "dulces": 6733,
      "Valle": 6734,
      "perfectamente": 6735,
      "afición": 6736,
      "Jehovah": 6737,
      "campeón": 6738,
      "anima": 6739,
      "recto": 6740,
      "creas": 6741,
      "vención": 6742,
      "bebe": 6743,
      "dería": 6744,
      "neo": 6745,
      "2004": 6746,
      "Poder": 6747,
      "sioneros": 6748,
      "Juegos": 6749,
      "Mujeres": 6750,
      "XI": 6751,
      "ther": 6752,
      "diá": 6753,
      "desobe": 6754,
      "potente": 6755,
      "cemos": 6756,
      "darte": 6757,
      "fué": 6758,
      "decimos": 6759,
      "disposición": 6760,
      "presu": 6761,
      "entregado": 6762,
      "volvi": 6763,
      "tallas": 6764,
      "haremos": 6765,
      "espejo": 6766,
      "crú": 6767,
      "antigua": 6768,
      "reuniones": 6769,
      "esclavi": 6770,
      "propósitos": 6771,
      "Volver": 6772,
      "Gre": 6773,
      "Lima": 6774,
      "gg": 6775,
      "jen": 6776,
      "púsculo": 6777,
      "esen": 6778,
      "simas": 6779,
      "desvan": 6780,
      "enterr": 6781,
      "nica": 6782,
      "termina": 6783,
      "cortes": 6784,
      "olor": 6785,
      "habido": 6786,
      "deseas": 6787,
      "enviados": 6788,
      "secretos": 6789,
      "pisodio": 6790,
      "recompensa": 6791,
      "bando": 6792,
      "fari": 6793,
      "rele": 6794,
      "ers": 6795,
      "ares": 6796,
      "sede": 6797,
      "toño": 6798,
      "tidas": 6799,
      "Esco": 6800,
      "puedas": 6801,
      "terios": 6802,
      "gimen": 6803,
      "impul": 6804,
      "sinónimo": 6805,
      "conoció": 6806,
      "Pequeño": 6807,
      "tendrás": 6808,
      "invitados": 6809,
      "pienso": 6810,
      "sentidos": 6811,
      "concedió": 6812,
      "ilumin": 6813,
      "maravillas": 6814,
      "cuantos": 6815,
      "arrepinti": 6816,
      "huérf": 6817,
      "Hero": 6818,
      "escrú": 6819,
      "vigi": 6820,
      "simos": 6821,
      "tua": 6822,
      "pedia": 6823,
      "veinti": 6824,
      "Conti": 6825,
      "2005": 6826,
      "grito": 6827,
      "estableció": 6828,
      "gobernantes": 6829,
      "empleados": 6830,
      "Líbano": 6831,
      "aproximadamente": 6832,
      "circunstancias": 6833,
      "Colosenses": 6834,
      "bin": 6835,
      "már": 6836,
      "íos": 6837,
      "concepto": 6838,
      "miel": 6839,
      "despidió": 6840,
      "abuelo": 6841,
      "fide": 6842,
      "terren": 6843,
      "garanti": 6844,
      "ruido": 6845,
      "Información": 6846,
      "mática": 6847,
      "adura": 6848,
      "rompe": 6849,
      "depende": 6850,
      "plenamente": 6851,
      "Torre": 6852,
      "güe": 6853,
      "refugio": 6854,
      "absolutamente": 6855,
      "descubrir": 6856,
      "Jar": 6857,
      "ctr": 6858,
      "fem": 6859,
      "gina": 6860,
      "ofren": 6861,
      "rep": 6862,
      "copi": 6863,
      "cería": 6864,
      "hechas": 6865,
      "fuentes": 6866,
      "hol": 6867,
      "sinago": 6868,
      "recién": 6869,
      "Pala": 6870,
      "miedos": 6871,
      "turados": 6872,
      "Habrá": 6873,
      "Podría": 6874,
      "Verás": 6875,
      "sucedido": 6876,
      "afirmó": 6877,
      "avergonzados": 6878,
      "inteligencia": 6879,
      "criaturas": 6880,
      "próximos": 6881,
      "AA": 6882,
      "reunir": 6883,
      "tela": 6884,
      "tista": 6885,
      "serio": 6886,
      "rantes": 6887,
      "creencia": 6888,
      "vender": 6889,
      "estábamos": 6890,
      "candida": 6891,
      "fección": 6892,
      "vestidos": 6893,
      "controlar": 6894,
      "proyección": 6895,
      "Francia": 6896,
      "Prue": 6897,
      "Justicia": 6898,
      "Lázaro": 6899,
      "Ministerio": 6900,
      "::": 6901,
      "fabri": 6902,
      "icos": 6903,
      "pese": 6904,
      "osas": 6905,
      "arme": 6906,
      "tima": 6907,
      "lee": 6908,
      "levitas": 6909,
      "caja": 6910,
      "chis": 6911,
      "patas": 6912,
      "pidieron": 6913,
      "preparación": 6914,
      "crecer": 6915,
      "exter": 6916,
      "venidos": 6917,
      "Deber": 6918,
      "salón": 6919,
      "Medi": 6920,
      "oye": 6921,
      "vueltas": 6922,
      "frutas": 6923,
      "sospe": 6924,
      "producto": 6925,
      "seguida": 6926,
      "frau": 6927,
      "fantas": 6928,
      "fácilmente": 6929,
      "plena": 6930,
      "religiosos": 6931,
      "éspedes": 6932,
      "Galilea": 6933,
      "my": 6934,
      "rada": 6935,
      "ore": 6936,
      "advir": 6937,
      "seca": 6938,
      "dic": 6939,
      "descien": 6940,
      "mata": 6941,
      "potencia": 6942,
      "israel": 6943,
      "pagan": 6944,
      "lujo": 6945,
      "ext": 6946,
      "gieron": 6947,
      "giendo": 6948,
      "crisis": 6949,
      "conocían": 6950,
      "judía": 6951,
      "volvemos": 6952,
      "funciona": 6953,
      "turno": 6954,
      "trataba": 6955,
      "castillo": 6956,
      "particip": 6957,
      "profesores": 6958,
      "Barcel": 6959,
      "alabanza": 6960,
      "bebés": 6961,
      "Aquellos": 6962,
      "devoción": 6963,
      "64": 6964,
      "Mé": 6965,
      "aero": 6966,
      "cros": 6967,
      "ización": 6968,
      "ong": 6969,
      "repro": 6970,
      "totalidad": 6971,
      "domi": 6972,
      "timiento": 6973,
      "letas": 6974,
      "dame": 6975,
      "muera": 6976,
      "matan": 6977,
      "patio": 6978,
      "sacu": 6979,
      "canto": 6980,
      "Mag": 6981,
      "nura": 6982,
      "jardin": 6983,
      "entación": 6984,
      "últimas": 6985,
      "dijiste": 6986,
      "arrepin": 6987,
      "Cree": 6988,
      "crucifi": 6989,
      "Hermanos": 6990,
      "Bolivia": 6991,
      "azul": 6992,
      "mierda": 6993,
      "62": 6994,
      "Gen": 6995,
      "RI": 6996,
      "ajus": 6997,
      "flo": 6998,
      "yn": 6999,
      "chados": 7000,
      "pru": 7001,
      "descom": 7002,
      "áneo": 7003,
      "Estar": 7004,
      "amp": 7005,
      "corta": 7006,
      "obr": 7007,
      "cuencia": 7008,
      "sabiendo": 7009,
      "ayudarte": 7010,
      "método": 7011,
      "establecido": 7012,
      "poseen": 7013,
      "arrepentirse": 7014,
      "herederos": 7015,
      "Jordán": 7016,
      "Foto": 7017,
      "liberación": 7018,
      "disponible": 7019,
      "Bal": 7020,
      "Mt": 7021,
      "PS": 7022,
      "ile": 7023,
      "jando": 7024,
      "uales": 7025,
      "ñan": 7026,
      "lah": 7027,
      "adqui": 7028,
      "regiones": 7029,
      "rebaño": 7030,
      "sepan": 7031,
      "empieza": 7032,
      "hipo": 7033,
      "misterio": 7034,
      "vende": 7035,
      "venían": 7036,
      "huir": 7037,
      "ney": 7038,
      "masa": 7039,
      "Real": 7040,
      "conocidos": 7041,
      "pescado": 7042,
      "brillan": 7043,
      "olvido": 7044,
      "pierden": 7045,
      "Geor": 7046,
      "Yahveh": 7047,
      "escrúpulos": 7048,
      "Demon": 7049,
      "Ecuador": 7050,
      "gé": 7051,
      "mpara": 7052,
      "och": 7053,
      "diario": 7054,
      "charon": 7055,
      "Espero": 7056,
      "empren": 7057,
      "dumbre": 7058,
      "existir": 7059,
      "romper": 7060,
      "Puedo": 7061,
      "príncipe": 7062,
      "reputación": 7063,
      "Apóstoles": 7064,
      "arrepintió": 7065,
      "Aso": 7066,
      "cturas": 7067,
      "fías": 7068,
      "rarse": 7069,
      "encomen": 7070,
      "adue": 7071,
      "separa": 7072,
      "indul": 7073,
      "parse": 7074,
      "íamos": 7075,
      "resol": 7076,
      "Islas": 7077,
      "Julio": 7078,
      "Sina": 7079,
      ".......": 7080,
      "escuche": 7081,
      "escuchando": 7082,
      "servidores": 7083,
      "trabajan": 7084,
      "convirtieron": 7085,
      "aaaa": 7086,
      "juvene": 7087,
      "reconoció": 7088,
      "abrazo": 7089,
      "fuese": 7090,
      "cónyuge": 7091,
      "Ze": 7092,
      "crá": 7093,
      "ny": 7094,
      "Ésta": 7095,
      "ash": 7096,
      "semos": 7097,
      "tré": 7098,
      "incapaz": 7099,
      "cesis": 7100,
      "luchando": 7101,
      "míni": 7102,
      "ayudado": 7103,
      "llegará": 7104,
      "tándose": 7105,
      "objetos": 7106,
      "itter": 7107,
      "agradable": 7108,
      "Mensajero": 7109,
      "adultos": 7110,
      "ventana": 7111,
      "huellas": 7112,
      "Ezequías": 7113,
      "Vete": 7114,
      "melo": 7115,
      "ofr": 7116,
      "relo": 7117,
      "tea": 7118,
      "difun": 7119,
      "dimientos": 7120,
      "inmen": 7121,
      "ricas": 7122,
      "seri": 7123,
      "seréis": 7124,
      "serenidad": 7125,
      "pudiera": 7126,
      "tarje": 7127,
      "geno": 7128,
      "brazo": 7129,
      "posiciones": 7130,
      "estial": 7131,
      "conocida": 7132,
      "ísmo": 7133,
      "dirán": 7134,
      "Japón": 7135,
      "Sombrero": 7136,
      "conducta": 7137,
      "Obser": 7138,
      "extremo": 7139,
      "asombr": 7140,
      "-¿": 7141,
      "Abre": 7142,
      "Centro": 7143,
      "Gala": 7144,
      "Tanto": 7145,
      "bom": 7146,
      "gle": 7147,
      "ñez": 7148,
      "aré": 7149,
      "revista": 7150,
      "mió": 7151,
      "Noche": 7152,
      "cesión": 7153,
      "tanos": 7154,
      "Constru": 7155,
      "Realmente": 7156,
      "Mejor": 7157,
      "numero": 7158,
      "conoceréis": 7159,
      "entrado": 7160,
      "dedicó": 7161,
      "abiertas": 7162,
      "celebrar": 7163,
      "enfrentar": 7164,
      "proyectos": 7165,
      "azu": 7166,
      "cerrados": 7167,
      "Sueños": 7168,
      "Colombia": 7169,
      "infancia": 7170,
      "-.": 7171,
      "72": 7172,
      "AT": 7173,
      "Che": 7174,
      "ós": 7175,
      "cimo": 7176,
      "teca": 7177,
      "mienten": 7178,
      "casó": 7179,
      "creador": 7180,
      "presas": 7181,
      "formado": 7182,
      "mueran": 7183,
      "sano": 7184,
      "positivo": 7185,
      "valios": 7186,
      "ilus": 7187,
      "ctivos": 7188,
      "creyó": 7189,
      "arreba": 7190,
      "dirigir": 7191,
      "agujeros": 7192,
      "vivimos": 7193,
      "político": 7194,
      "ventajas": 7195,
      "bíblicos": 7196,
      "profundi": 7197,
      "inspiración": 7198,
      "ejércitos": 7199,
      "estuviera": 7200,
      "límite": 7201,
      "electr": 7202,
      "destinados": 7203,
      "añadió": 7204,
      "riesgo": 7205,
      "múltiples": 7206,
      "BI": 7207,
      "Cés": 7208,
      "Oración": 7209,
      "aconse": 7210,
      "ling": 7211,
      "detras": 7212,
      "unal": 7213,
      "dadas": 7214,
      "emente": 7215,
      "veje": 7216,
      "dejen": 7217,
      "virtu": 7218,
      "Dime": 7219,
      "escucho": 7220,
      "regalos": 7221,
      "Hacia": 7222,
      "profeti": 7223,
      "sirvió": 7224,
      "romanos": 7225,
      "frica": 7226,
      "Hubo": 7227,
      "adelan": 7228,
      "enfrenta": 7229,
      "mueven": 7230,
      "humilde": 7231,
      "valiente": 7232,
      "anuncio": 7233,
      "Familia": 7234,
      ".'": 7235,
      "Fern": 7236,
      "king": 7237,
      "mita": 7238,
      "cuch": 7239,
      "bibli": 7240,
      "muros": 7241,
      "poderes": 7242,
      "solos": 7243,
      "soportar": 7244,
      "quitar": 7245,
      "baños": 7246,
      "prefer": 7247,
      "torce": 7248,
      "sabr": 7249,
      "bienvenida": 7250,
      "privi": 7251,
      "variedad": 7252,
      "dejas": 7253,
      "uniden": 7254,
      "India": 7255,
      "vaso": 7256,
      "suele": 7257,
      "amiga": 7258,
      "rendir": 7259,
      "continuar": 7260,
      "condenados": 7261,
      "evento": 7262,
      "jugadores": 7263,
      "Barcelona": 7264,
      "\";": 7265,
      "Gri": 7266,
      "LI": 7267,
      "Sau": 7268,
      "aden": 7269,
      "aparte": 7270,
      "fres": 7271,
      "octa": 7272,
      "enfo": 7273,
      "anónimo": 7274,
      "concen": 7275,
      "localidad": 7276,
      "dadera": 7277,
      "Espe": 7278,
      "costa": 7279,
      "Quédate": 7280,
      "jura": 7281,
      "cuernos": 7282,
      "enseñando": 7283,
      "esperan": 7284,
      "playa": 7285,
      "busco": 7286,
      "estadouniden": 7287,
      "honra": 7288,
      "vivienda": 7289,
      "hubieran": 7290,
      "Diez": 7291,
      "culpables": 7292,
      "príncipes": 7293,
      "fortun": 7294,
      "fidelidad": 7295,
      "Sinaí": 7296,
      "2o": 7297,
      "Cro": 7298,
      "mali": 7299,
      "pé": 7300,
      "untos": 7301,
      "sector": 7302,
      "ind": 7303,
      "quinas": 7304,
      "seremos": 7305,
      "empie": 7306,
      "Sección": 7307,
      "roca": 7308,
      "amen": 7309,
      "zaciones": 7310,
      "bienestar": 7311,
      "sencil": 7312,
      "escrita": 7313,
      "vuelvas": 7314,
      "Serán": 7315,
      "dirige": 7316,
      "especialmente": 7317,
      "Fuera": 7318,
      "bíblica": 7319,
      "corriente": 7320,
      "patrón": 7321,
      "desempeño": 7322,
      "caballero": 7323,
      "añadir": 7324,
      "fariseos": 7325,
      "ofrendas": 7326,
      "Dr": 7327,
      "Sá": 7328,
      "War": 7329,
      "apres": 7330,
      "fom": 7331,
      "jada": 7332,
      "sados": 7333,
      "enseño": 7334,
      "asunto": 7335,
      "cié": 7336,
      "vivían": 7337,
      "rir": 7338,
      "compra": 7339,
      "vege": 7340,
      "llevas": 7341,
      "canti": 7342,
      "impi": 7343,
      "guido": 7344,
      "elegidos": 7345,
      "camina": 7346,
      "faltar": 7347,
      "Salud": 7348,
      "2002": 7349,
      "horizon": 7350,
      "cabello": 7351,
      "encontraban": 7352,
      "enfermedades": 7353,
      "antiguo": 7354,
      "prácticas": 7355,
      "ausencia": 7356,
      "Aires": 7357,
      "\").": 7358,
      "89": 7359,
      "?)": 7360,
      "Ap": 7361,
      "Acompañ": 7362,
      "Hal": 7363,
      "Tru": 7364,
      "ecen": 7365,
      "erro": 7366,
      "tomo": 7367,
      "techo": 7368,
      "teza": 7369,
      "misa": 7370,
      "sugi": 7371,
      "compor": 7372,
      "nace": 7373,
      "excu": 7374,
      "huéspedes": 7375,
      "larse": 7376,
      "paredes": 7377,
      "fueras": 7378,
      "illos": 7379,
      "desaprove": 7380,
      "Perdon": 7381,
      "campa": 7382,
      "Creador": 7383,
      "tismo": 7384,
      "obstáculos": 7385,
      "colocar": 7386,
      "cuestiones": 7387,
      "raíces": 7388,
      "constantemente": 7389,
      "peregrinación": 7390,
      "Nazaret": 7391,
      "Españo": 7392,
      "Bra": 7393,
      "Ku": 7394,
      "Lan": 7395,
      "Testamento": 7396,
      "use": 7397,
      "decora": 7398,
      "noble": 7399,
      "miente": 7400,
      "licos": 7401,
      "solas": 7402,
      "Cuer": 7403,
      "Sig": 7404,
      "Mil": 7405,
      "sana": 7406,
      "triun": 7407,
      "viajar": 7408,
      "Luc": 7409,
      "aprendiendo": 7410,
      "mático": 7411,
      "extraña": 7412,
      "equipos": 7413,
      "muchacho": 7414,
      "tranquilidad": 7415,
      "amenaza": 7416,
      "honestidad": 7417,
      "César": 7418,
      "Ada": 7419,
      "Mur": 7420,
      "Mamá": 7421,
      "Ram": 7422,
      "dáis": 7423,
      "lón": 7424,
      "ná": 7425,
      "deri": 7426,
      "dicha": 7427,
      "lema": 7428,
      "abuelos": 7429,
      "pidas": 7430,
      "ayuno": 7431,
      "interesa": 7432,
      "deseen": 7433,
      "vuestra": 7434,
      "publicación": 7435,
      "veló": 7436,
      "Alejan": 7437,
      "necesitas": 7438,
      "Claro": 7439,
      "hospi": 7440,
      "negocio": 7441,
      "iniquidad": 7442,
      "superficie": 7443,
      "Cm": 7444,
      "Mano": 7445,
      "Ví": 7446,
      "imi": 7447,
      "oposición": 7448,
      "océ": 7449,
      "ída": 7450,
      "arlos": 7451,
      "quez": 7452,
      "seco": 7453,
      "noc": 7454,
      "lasti": 7455,
      "risa": 7456,
      "comparti": 7457,
      "veremos": 7458,
      "Reci": 7459,
      "pendientes": 7460,
      "Micha": 7461,
      "ándolos": 7462,
      "principios": 7463,
      "dejamos": 7464,
      "diciéndole": 7465,
      "ataque": 7466,
      "Rusia": 7467,
      "director": 7468,
      "bestia": 7469,
      "Comenzó": 7470,
      "ámbito": 7471,
      ":)": 7472,
      "Pase": 7473,
      "Río": 7474,
      "Vea": 7475,
      "atras": 7476,
      "vs": 7477,
      "cilio": 7478,
      "trados": 7479,
      "confun": 7480,
      "vivieron": 7481,
      "cuentos": 7482,
      "rayo": 7483,
      "despues": 7484,
      "despis": 7485,
      "puri": 7486,
      "emas": 7487,
      "vea": 7488,
      "gicos": 7489,
      "sabrán": 7490,
      "hume": 7491,
      "vano": 7492,
      "suelen": 7493,
      "Dicho": 7494,
      "Villa": 7495,
      "basta": 7496,
      "Produ": 7497,
      "acompañan": 7498,
      "pensado": 7499,
      "ándoles": 7500,
      "Creemos": 7501,
      "pasaje": 7502,
      "nieve": 7503,
      "niega": 7504,
      "convencer": 7505,
      "caminando": 7506,
      "energía": 7507,
      "expiación": 7508,
      "'¿": 7509,
      "Ce": 7510,
      "PA": 7511,
      "Pay": 7512,
      "rente": 7513,
      "queo": 7514,
      "tej": 7515,
      "digi": 7516,
      "viles": 7517,
      "perten": 7518,
      "vame": 7519,
      "Sigue": 7520,
      "faz": 7521,
      "médicos": 7522,
      "usuario": 7523,
      "hebreo": 7524,
      "Judíos": 7525,
      "hero": 7526,
      "restos": 7527,
      "uñas": 7528,
      "onia": 7529,
      "ancho": 7530,
      "allas": 7531,
      "logra": 7532,
      "turis": 7533,
      "abraz": 7534,
      "sobr": 7535,
      "peti": 7536,
      "impu": 7537,
      "formó": 7538,
      "grafías": 7539,
      "virus": 7540,
      "túan": 7541,
      "basura": 7542,
      "podrás": 7543,
      "aprenden": 7544,
      "acompañados": 7545,
      "Habéis": 7546,
      "décima": 7547,
      "hiciste": 7548,
      "paciente": 7549,
      "pensamos": 7550,
      "encargado": 7551,
      "caídos": 7552,
      "Monta": 7553,
      "Actualmente": 7554,
      "Irak": 7555,
      "\".\"": 7556,
      "82": 7557,
      "Agua": 7558,
      "Chu": 7559,
      "Win": 7560,
      "fasis": 7561,
      "obis": 7562,
      "daban": 7563,
      "abel": 7564,
      "piro": 7565,
      "hipó": 7566,
      "...?": 7567,
      "exterior": 7568,
      "pastores": 7569,
      "fama": 7570,
      "Congreso": 7571,
      "idola": 7572,
      "pareció": 7573,
      "Comer": 7574,
      "escuchen": 7575,
      "xima": 7576,
      "consecu": 7577,
      "cliente": 7578,
      "bautizado": 7579,
      "Jorge": 7580,
      "Misericordioso": 7581,
      "Ezequi": 7582,
      "orgullo": 7583,
      "emplares": 7584,
      "cadáveres": 7585,
      "Levítico": 7586,
      "Vie": 7587,
      "mentan": 7588,
      "pto": 7589,
      "zaban": 7590,
      "ciedad": 7591,
      "incen": 7592,
      "siva": 7593,
      "bida": 7594,
      "comentario": 7595,
      "moder": 7596,
      "versiones": 7597,
      "excepción": 7598,
      "darnos": 7599,
      "hotel": 7600,
      "coron": 7601,
      "habíamos": 7602,
      "dispon": 7603,
      "eligió": 7604,
      "seno": 7605,
      "escritor": 7606,
      "estuvimos": 7607,
      "confiamos": 7608,
      "segundos": 7609,
      "campaña": 7610,
      "antigüedad": 7611,
      "seguidos": 7612,
      "intento": 7613,
      "balón": 7614,
      "régimen": 7615,
      "angustia": 7616,
      ");": 7617,
      "75": 7618,
      "Bat": 7619,
      "Cel": 7620,
      "Otras": 7621,
      "SU": 7622,
      "ára": 7623,
      "encen": 7624,
      "mate": 7625,
      "sonidos": 7626,
      "ponentes": 7627,
      "Alrededor": 7628,
      "dispu": 7629,
      "prendas": 7630,
      "Dile": 7631,
      "esperamos": 7632,
      "Murió": 7633,
      "pantalla": 7634,
      "inicia": 7635,
      "invitó": 7636,
      "morirá": 7637,
      "realiza": 7638,
      "perdonó": 7639,
      "jueces": 7640,
      "fallecido": 7641,
      "perió": 7642,
      "cuánto": 7643,
      "decenas": 7644,
      "apellido": 7645,
      "líquido": 7646,
      "israelí": 7647,
      "Ezequiel": 7648,
      "Pie": 7649,
      "Ren": 7650,
      "Sch": 7651,
      "ofer": 7652,
      "retribu": 7653,
      "requisi": 7654,
      "ritos": 7655,
      "coche": 7656,
      "gicas": 7657,
      "sobrevivir": 7658,
      "gría": 7659,
      "decirlo": 7660,
      "tenerlo": 7661,
      "bendeci": 7662,
      "perdone": 7663,
      "Parte": 7664,
      "públicos": 7665,
      "expresar": 7666,
      "juzgará": 7667,
      "Manuel": 7668,
      "Pascua": 7669,
      "oscuro": 7670,
      "echó": 7671,
      "abundante": 7672,
      "profundo": 7673,
      "contento": 7674,
      "Willi": 7675,
      "comportamiento": 7676,
      "Michael": 7677,
      "400": 7678,
      "cándose": 7679,
      "tha": 7680,
      "varon": 7681,
      "esfor": 7682,
      "retorno": 7683,
      "liter": 7684,
      "hablaban": 7685,
      "cesa": 7686,
      "lución": 7687,
      "gano": 7688,
      "bienaven": 7689,
      "dejé": 7690,
      "compañera": 7691,
      "Versí": 7692,
      "realizó": 7693,
      "produjo": 7694,
      "Palabras": 7695,
      "específico": 7696,
      "oooooooo": 7697,
      "Italia": 7698,
      "General": 7699,
      "Aaron": 7700,
      "Bro": 7701,
      "Hol": 7702,
      "agre": 7703,
      "bados": 7704,
      "nados": 7705,
      "pendo": 7706,
      "contado": 7707,
      "locali": 7708,
      "tabla": 7709,
      "hagáis": 7710,
      "supi": 7711,
      "incorpor": 7712,
      "viuda": 7713,
      "deso": 7714,
      "desen": 7715,
      "compas": 7716,
      "pasaron": 7717,
      "meno": 7718,
      "preguntado": 7719,
      "posibilidades": 7720,
      "encuentros": 7721,
      "vuelvo": 7722,
      "cambia": 7723,
      "desee": 7724,
      "Perdón": 7725,
      "imagin": 7726,
      "guardi": 7727,
      "Parece": 7728,
      "reunieron": 7729,
      "asesino": 7730,
      "políticos": 7731,
      "asociados": 7732,
      "cubierta": 7733,
      "hierro": 7734,
      "reúne": 7735,
      "famoso": 7736,
      "Policía": 7737,
      "HO": 7738,
      "Ken": 7739,
      "MO": 7740,
      "SS": 7741,
      "cci": 7742,
      "efectos": 7743,
      "debo": 7744,
      "escuelas": 7745,
      "setenta": 7746,
      "miran": 7747,
      "insul": 7748,
      "involu": 7749,
      "parado": 7750,
      "mula": 7751,
      "abru": 7752,
      "tarlo": 7753,
      "acercaron": 7754,
      "triz": 7755,
      "faltas": 7756,
      "amabilidad": 7757,
      "firma": 7758,
      "preparar": 7759,
      "Cuántas": 7760,
      "cuestion": 7761,
      "sexto": 7762,
      "poniendo": 7763,
      "recuperar": 7764,
      "contrase": 7765,
      "Av": 7766,
      "Ham": 7767,
      "Sir": 7768,
      "beso": 7769,
      "iremos": 7770,
      "tch": 7771,
      "ína": 7772,
      "quete": 7773,
      "reda": 7774,
      "reempla": 7775,
      "toque": 7776,
      "viamente": 7777,
      "nio": 7778,
      "llado": 7779,
      "gato": 7780,
      "pasará": 7781,
      "muerde": 7782,
      "clasifi": 7783,
      "Santos": 7784,
      "Salvador": 7785,
      "tural": 7786,
      "hicieran": 7787,
      "errón": 7788,
      "preocupes": 7789,
      "Fuer": 7790,
      "asesinos": 7791,
      "Empe": 7792,
      "costumbre": 7793,
      "amante": 7794,
      "registro": 7795,
      "Hombres": 7796,
      "adecuado": 7797,
      "Trans": 7798,
      "Lengua": 7799,
      "material": 7800,
      "cristal": 7801,
      "67": 7802,
      "Acu": 7803,
      "Alab": 7804,
      "Mc": 7805,
      "Star": 7806,
      "cáis": 7807,
      "Ár": 7808,
      "arreg": 7809,
      "cientes": 7810,
      "cienda": 7811,
      "unar": 7812,
      "infer": 7813,
      "mulo": 7814,
      "matemá": 7815,
      "papa": 7816,
      "usan": 7817,
      "prohí": 7818,
      "vencido": 7819,
      "alianza": 7820,
      "Sier": 7821,
      "salvos": 7822,
      "Reg": 7823,
      "ellado": 7824,
      "Sub": 7825,
      "Letra": 7826,
      "santifi": 7827,
      "estima": 7828,
      "sombrero": 7829,
      "llevaba": 7830,
      "firmes": 7831,
      "acepta": 7832,
      "Guía": 7833,
      "descendió": 7834,
      "podremos": 7835,
      "permaneció": 7836,
      "mandato": 7837,
      "bautizados": 7838,
      "arrepienten": 7839,
      "madurez": 7840,
      "ligera": 7841,
      "ochenta": 7842,
      "85": 7843,
      "Flor": 7844,
      "dres": 7845,
      "tbol": 7846,
      "asamblea": 7847,
      "eles": 7848,
      "org": 7849,
      "leal": 7850,
      "capas": 7851,
      "muro": 7852,
      "pozo": 7853,
      "verá": 7854,
      "verde": 7855,
      "proviene": 7856,
      "exp": 7857,
      "fuiste": 7858,
      "lará": 7859,
      "pectos": 7860,
      "gratu": 7861,
      "stico": 7862,
      "uros": 7863,
      "150": 7864,
      "reció": 7865,
      "cumpl": 7866,
      "basa": 7867,
      "Arri": 7868,
      "esposas": 7869,
      "pulgadas": 7870,
      "pista": 7871,
      "publicado": 7872,
      "quinto": 7873,
      "Sueño": 7874,
      "relacionados": 7875,
      "Bosque": 7876,
      "andar": 7877,
      "micas": 7878,
      "injustos": 7879,
      "perador": 7880,
      "medal": 7881,
      "cocina": 7882,
      "colaboración": 7883,
      "certi": 7884,
      "empecé": 7885,
      "saga": 7886,
      "luces": 7887,
      "negar": 7888,
      "barca": 7889,
      "unieron": 7890,
      "oyentes": 7891,
      "mejorar": 7892,
      "funciones": 7893,
      "desean": 7894,
      "seguirá": 7895,
      "menospreci": 7896,
      "identidad": 7897,
      "fenó": 7898,
      "llamaron": 7899,
      "observar": 7900,
      "arrepentimiento": 7901,
      "ubicación": 7902,
      "muriendo": 7903,
      "gráfica": 7904,
      "hermosa": 7905,
      "seducción": 7906,
      "odian": 7907,
      "patria": 7908,
      "reposo": 7909,
      "Bras": 7910,
      "Gol": 7911,
      "igo": 7912,
      "nadas": 7913,
      "zgo": 7914,
      "repren": 7915,
      "reveló": 7916,
      "altos": 7917,
      "cala": 7918,
      "tuve": 7919,
      "comentó": 7920,
      "ceos": 7921,
      "tendremos": 7922,
      "extin": 7923,
      "estáis": 7924,
      "gaciones": 7925,
      "Cul": 7926,
      "foro": 7927,
      "mundos": 7928,
      "salto": 7929,
      "monstru": 7930,
      "diosa": 7931,
      "Maria": 7932,
      "encuentren": 7933,
      "bolsi": 7934,
      "levantar": 7935,
      "dedica": 7936,
      "Ayuda": 7937,
      "aparición": 7938,
      "Casi": 7939,
      "Paso": 7940,
      "establecer": 7941,
      "Conoces": 7942,
      "profundamente": 7943,
      "Jonás": 7944,
      "domingo": 7945,
      "detalle": 7946,
      "zonas": 7947,
      "extraviado": 7948,
      "descubierto": 7949,
      "63": 7950,
      "Gabri": 7951,
      "ME": 7952,
      "apri": 7953,
      "ema": 7954,
      "festi": 7955,
      "mpi": 7956,
      "pán": 7957,
      "vemente": 7958,
      "deba": 7959,
      "contradi": 7960,
      "inse": 7961,
      "insis": 7962,
      "bili": 7963,
      "estantes": 7964,
      "chel": 7965,
      "chada": 7966,
      "abuela": 7967,
      "cercano": 7968,
      "hable": 7969,
      "amon": 7970,
      "terías": 7971,
      "aliment": 7972,
      "crimin": 7973,
      "Tito": 7974,
      "aleja": 7975,
      "falso": 7976,
      "entendió": 7977,
      "ayudarnos": 7978,
      "promete": 7979,
      "servido": 7980,
      "instante": 7981,
      "quedarán": 7982,
      "izados": 7983,
      "cuarta": 7984,
      "Puerto": 7985,
      "ministro": 7986,
      "llorando": 7987,
      "similares": 7988,
      "perfecta": 7989,
      "adecuada": 7990,
      "quieto": 7991,
      "ciegos": 7992,
      "musulmanes": 7993,
      "auténtico": 7994,
      "advierte": 7995,
      "repente": 7996,
      "61": 7997,
      "79": 7998,
      "Bru": 7999,
      "Kar": 8000,
      "Vale": 8001,
      "ht": 8002,
      "mida": 8003,
      "supo": 8004,
      "sumo": 8005,
      "..\"": 8006,
      "tuario": 8007,
      "compuesto": 8008,
      "matado": 8009,
      "coño": 8010,
      "...!": 8011,
      "marco": 8012,
      "muerta": 8013,
      "saluda": 8014,
      "urbano": 8015,
      "Infierno": 8016,
      "comienda": 8017,
      "atreve": 8018,
      "sentí": 8019,
      "Unión": 8020,
      "Ayu": 8021,
      "asegura": 8022,
      "sorprendió": 8023,
      "comparten": 8024,
      "tranquilo": 8025,
      "cubierto": 8026,
      "funcionarios": 8027,
      "Cosas": 8028,
      "próxima": 8029,
      "generosidad": 8030,
      "propiedades": 8031,
      "Segunda": 8032,
      "Encuentro": 8033,
      "ámbri": 8034,
      "Asociación": 8035,
      "purifi": 8036,
      "William": 8037,
      "Agu": 8038,
      "Gan": 8039,
      "gaban": 8040,
      "úho": 8041,
      "anismo": 8042,
      "vide": 8043,
      "desas": 8044,
      "tuvimos": 8045,
      "pion": 8046,
      "Noticias": 8047,
      "aliento": 8048,
      "Siria": 8049,
      "torios": 8050,
      "muertes": 8051,
      "mono": 8052,
      "pregunte": 8053,
      "aprende": 8054,
      "enaven": 8055,
      "extraordin": 8056,
      "honrar": 8057,
      "Resul": 8058,
      "guemos": 8059,
      "punta": 8060,
      "resulta": 8061,
      "Bienaven": 8062,
      "distintas": 8063,
      "Presidente": 8064,
      "Edén": 8065,
      "ciclo": 8066,
      "Twitter": 8067,
      "Libertad": 8068,
      "pérdida": 8069,
      "evalu": 8070,
      "Fí": 8071,
      "Pró": 8072,
      "amane": 8073,
      "lera": 8074,
      "ningun": 8075,
      "samari": 8076,
      "ulti": 8077,
      "defrau": 8078,
      "tique": 8079,
      "cone": 8080,
      "conec": 8081,
      "lito": 8082,
      "perdieron": 8083,
      "úsculas": 8084,
      "alizado": 8085,
      "cancion": 8086,
      "maras": 8087,
      "herman": 8088,
      "gancia": 8089,
      "estemos": 8090,
      "cuerda": 8091,
      "ingles": 8092,
      "compañías": 8093,
      "189": 8094,
      "profecías": 8095,
      "extraños": 8096,
      "regresaron": 8097,
      "pasaría": 8098,
      "sufriendo": 8099,
      "tenimiento": 8100,
      "cámara": 8101,
      "asustó": 8102,
      "Bienvenido": 8103,
      "describe": 8104,
      "excelente": 8105,
      "ejercicio": 8106,
      "primogén": 8107,
      "almendras": 8108,
      "Código": 8109,
      "71": 8110,
      "AB": 8111,
      "Lab": 8112,
      "Pol": 8113,
      "Up": 8114,
      "fis": 8115,
      "dela": 8116,
      "encomiendo": 8117,
      "teme": 8118,
      "sible": 8119,
      "parque": 8120,
      "catorce": 8121,
      "desmay": 8122,
      "tratado": 8123,
      "tari": 8124,
      "sacó": 8125,
      "exhor": 8126,
      "hacernos": 8127,
      "humor": 8128,
      "unió": 8129,
      "Levan": 8130,
      "cumpla": 8131,
      "ood": 8132,
      "ting": 8133,
      "sentarse": 8134,
      "encontrarte": 8135,
      "Niño": 8136,
      "imag": 8137,
      "pertenecía": 8138,
      "recuerdan": 8139,
      "precipi": 8140,
      "viejos": 8141,
      "Claramente": 8142,
      "Yahvé": 8143,
      "Necesita": 8144,
      "rompió": 8145,
      "enfrentarse": 8146,
      "Zacar": 8147,
      "\"[": 8148,
      "3D": 8149,
      "Abel": 8150,
      "Igu": 8151,
      "Ojala": 8152,
      "Ray": 8153,
      "pás": 8154,
      "charse": 8155,
      "mutu": 8156,
      "meter": 8157,
      "mael": 8158,
      "quite": 8159,
      "tengamos": 8160,
      "cerrar": 8161,
      "pus": 8162,
      "Seis": 8163,
      "amados": 8164,
      "dención": 8165,
      "lleve": 8166,
      "derse": 8167,
      "tormenta": 8168,
      "impresión": 8169,
      "feos": 8170,
      "huyó": 8171,
      "gración": 8172,
      "stió": 8173,
      "segura": 8174,
      "Mala": 8175,
      "álbum": 8176,
      "Cordero": 8177,
      "décimo": 8178,
      "sentencia": 8179,
      "palma": 8180,
      "escapó": 8181,
      "permanecen": 8182,
      "capitulo": 8183,
      "aseguró": 8184,
      "sociales": 8185,
      "asiento": 8186,
      "ernes": 8187,
      "diseñado": 8188,
      "yyyy": 8189,
      "Profetas": 8190,
      "absoluto": 8191,
      "usuarios": 8192,
      "categoría": 8193,
      "acostumbr": 8194,
      "huérfanos": 8195,
      "King": 8196,
      "Lar": 8197,
      "aé": 8198,
      "iendo": 8199,
      "cilla": 8200,
      "cifra": 8201,
      "reconoce": 8202,
      "semi": 8203,
      "siem": 8204,
      "silla": 8205,
      "cago": 8206,
      "tuya": 8207,
      "añade": 8208,
      "terremo": 8209,
      "lleven": 8210,
      "decidir": 8211,
      "jubi": 8212,
      "ayuden": 8213,
      "Lea": 8214,
      "Desarro": 8215,
      "suelos": 8216,
      "reglas": 8217,
      "habilidades": 8218,
      "aprendió": 8219,
      "contin": 8220,
      "conveniente": 8221,
      "desarrollar": 8222,
      "testimonios": 8223,
      "religiosa": 8224,
      "véase": 8225,
      "permitirá": 8226,
      "jamín": 8227,
      "fradía": 8228,
      "Herodes": 8229,
      "86": 8230,
      "MP": 8231,
      "ñó": 8232,
      "recur": 8233,
      "sembr": 8234,
      "toler": 8235,
      "inau": 8236,
      "parto": 8237,
      "lie": 8238,
      "descab": 8239,
      "Estr": 8240,
      "pudieran": 8241,
      "emán": 8242,
      "fijo": 8243,
      "vencer": 8244,
      "Sil": 8245,
      "cantes": 8246,
      "decidido": 8247,
      "salen": 8248,
      "Jez": 8249,
      "santa": 8250,
      "Marta": 8251,
      "Martín": 8252,
      "someter": 8253,
      "miradas": 8254,
      "horno": 8255,
      "comunión": 8256,
      "guardias": 8257,
      "obstáculo": 8258,
      "abandonar": 8259,
      "observa": 8260,
      "prosper": 8261,
      "recompens": 8262,
      "OOOO": 8263,
      "excelencia": 8264,
      "\"\"": 8265,
      "1o": 8266,
      "Cambi": 8267,
      "Echa": 8268,
      "She": 8269,
      "ajo": 8270,
      "otoño": 8271,
      "vín": 8272,
      "osamente": 8273,
      "aspectos": 8274,
      "separación": 8275,
      "culares": 8276,
      "sito": 8277,
      "estor": 8278,
      "gozo": 8279,
      "reso": 8280,
      "trató": 8281,
      "pefa": 8282,
      "hielo": 8283,
      "proces": 8284,
      "carp": 8285,
      "acceder": 8286,
      "Red": 8287,
      "auxi": 8288,
      "lámpara": 8289,
      "sombr": 8290,
      "atentos": 8291,
      "Archi": 8292,
      "aceptación": 8293,
      "suceder": 8294,
      "CIÓN": 8295,
      "inmediatamente": 8296,
      "profesionales": 8297,
      "ansiedad": 8298,
      "Películas": 8299,
      "trompe": 8300,
      "amplia": 8301,
      "Zacarías": 8302,
      "Ari": 8303,
      "Bai": 8304,
      "Due": 8305,
      "Evi": 8306,
      "Lon": 8307,
      "Mála": 8308,
      "Sr": 8309,
      "eria": 8310,
      "lamento": 8311,
      "reconocido": 8312,
      "riendas": 8313,
      "gota": 8314,
      "puse": 8315,
      "bajó": 8316,
      "alimenta": 8317,
      "imperio": 8318,
      "boam": 8319,
      "Unas": 8320,
      "ferencia": 8321,
      "ceptos": 8322,
      "habitu": 8323,
      "deberá": 8324,
      "renun": 8325,
      "desaparecido": 8326,
      "heredero": 8327,
      "aplicaciones": 8328,
      "afectados": 8329,
      "Asia": 8330,
      "Diego": 8331,
      "Déjame": 8332,
      "tuviera": 8333,
      "Número": 8334,
      "cerebro": 8335,
      "Islam": 8336,
      "Málaga": 8337,
      "Aca": 8338,
      "CD": 8339,
      "HD": 8340,
      "Pal": 8341,
      "apu": 8342,
      "afer": 8343,
      "cs": 8344,
      "dalo": 8345,
      "hán": 8346,
      "htt": 8347,
      "war": 8348,
      "devolvió": 8349,
      "queden": 8350,
      "ciarse": 8351,
      "ines": 8352,
      "sivo": 8353,
      "turi": 8354,
      "sobran": 8355,
      "prima": 8356,
      "cionó": 8357,
      "Mari": 8358,
      "Mario": 8359,
      "numer": 8360,
      "ctiva": 8361,
      "brio": 8362,
      "llevarse": 8363,
      "servidor": 8364,
      "rededores": 8365,
      "preocupación": 8366,
      "anime": 8367,
      "Rojo": 8368,
      "Veo": 8369,
      "corriendo": 8370,
      "sepulcro": 8371,
      "economía": 8372,
      "numerosas": 8373,
      "súpli": 8374,
      "ahuy": 8375,
      "Español": 8376,
      "83": 8377,
      "Tro": 8378,
      "fase": 8379,
      "iro": 8380,
      "jadas": 8381,
      "dete": 8382,
      "arru": 8383,
      "altas": 8384,
      "seu": 8385,
      "trando": 8386,
      "lectores": 8387,
      "perfu": 8388,
      "comparación": 8389,
      ".\"\"": 8390,
      "verte": 8391,
      "propuestas": 8392,
      "...,": 8393,
      "misos": 8394,
      "gatos": 8395,
      "internet": 8396,
      "atch": 8397,
      "amable": 8398,
      "Habían": 8399,
      "permitido": 8400,
      "transgres": 8401,
      "especiales": 8402,
      "Nuevas": 8403,
      "asesina": 8404,
      "Benjamín": 8405,
      "hierba": 8406,
      "Vayan": 8407,
      "Matías": 8408,
      "Bor": 8409,
      "Bur": 8410,
      "Cho": 8411,
      "Chan": 8412,
      "Mara": 8413,
      "Sar": 8414,
      "sores": 8415,
      "lagos": 8416,
      "cones": 8417,
      "micos": 8418,
      "sicamente": 8419,
      "mataron": 8420,
      "guay": 8421,
      "moti": 8422,
      "Quin": 8423,
      "caridad": 8424,
      "excepto": 8425,
      "hacerle": 8426,
      "Cuan": 8427,
      "gantes": 8428,
      "barra": 8429,
      "tenerse": 8430,
      "Inés": 8431,
      "calo": 8432,
      "cambió": 8433,
      "confieso": 8434,
      "habita": 8435,
      "cristianas": 8436,
      "correctamente": 8437,
      "aparta": 8438,
      "escucharlo": 8439,
      "presentaron": 8440,
      "salvarse": 8441,
      "Volvió": 8442,
      "Bendito": 8443,
      "interpretar": 8444,
      "atrevo": 8445,
      "ariamente": 8446,
      "Home": 8447,
      "aprovechar": 8448,
      "plomo": 8449,
      "representantes": 8450,
      "inteligente": 8451,
      "criatura": 8452,
      "Atlán": 8453,
      "Servicio": 8454,
      "Pacífico": 8455,
      "campamento": 8456,
      "Gabriel": 8457,
      "CE": 8458,
      "Jim": 8459,
      "Pros": 8460,
      "Vene": 8461,
      "bía": 8462,
      "pad": 8463,
      "alemán": 8464,
      "alrededores": 8465,
      "tocó": 8466,
      "doba": 8467,
      "logrado": 8468,
      "paron": 8469,
      "desti": 8470,
      "mem": 8471,
      "guí": 8472,
      "respec": 8473,
      "suspen": 8474,
      "nico": 8475,
      "añas": 8476,
      "tortu": 8477,
      "distrito": 8478,
      "muerzo": 8479,
      "Leer": 8480,
      "Introdu": 8481,
      "Magn": 8482,
      "árselo": 8483,
      "Museo": 8484,
      "cumplieron": 8485,
      "hambri": 8486,
      "ezcan": 8487,
      "encontrarás": 8488,
      "sucederá": 8489,
      "orient": 8490,
      "expresa": 8491,
      "oscuras": 8492,
      "dignidad": 8493,
      "quisiera": 8494,
      "vangelios": 8495,
      "compadece": 8496,
      "Brasil": 8497,
      "Af": 8498,
      "Búho": 8499,
      "Cir": 8500,
      "Eter": 8501,
      "ee": 8502,
      "vara": 8503,
      "ámpa": 8504,
      "det": 8505,
      "incur": 8506,
      "raza": 8507,
      "estal": 8508,
      "chino": 8509,
      "comete": 8510,
      "guerr": 8511,
      "certeza": 8512,
      "veían": 8513,
      "exig": 8514,
      "saldrán": 8515,
      "República": 8516,
      "Dici": 8517,
      "comido": 8518,
      "entendía": 8519,
      "sombras": 8520,
      "ayudarme": 8521,
      "desahu": 8522,
      "bolsa": 8523,
      "Unido": 8524,
      "correo": 8525,
      "levanta": 8526,
      "dedico": 8527,
      "asegurar": 8528,
      "lograron": 8529,
      "extendió": 8530,
      "arrepiento": 8531,
      "avergonzar": 8532,
      "inalámbri": 8533,
      "enteró": 8534,
      "apete": 8535,
      "párra": 8536,
      "lanzamiento": 8537,
      "persever": 8538,
      "conflicto": 8539,
      "gestión": 8540,
      "Constitución": 8541,
      "maripos": 8542,
      "ofrenda": 8543,
      "decoración": 8544,
      "Cuerpo": 8545,
      "Dentro": 8546,
      "Pese": 8547,
      "Públi": 8548,
      "célu": 8549,
      "reca": 8550,
      "retor": 8551,
      "reunirse": 8552,
      "condi": 8553,
      "riéndose": 8554,
      "poquito": 8555,
      "Entra": 8556,
      "rock": 8557,
      "creció": 8558,
      "Siento": 8559,
      "ponían": 8560,
      "ganó": 8561,
      "acces": 8562,
      "llegando": 8563,
      "gritar": 8564,
      "acudir": 8565,
      "salvaje": 8566,
      "Cari": 8567,
      "entrarán": 8568,
      "naturales": 8569,
      "Hacemos": 8570,
      "quisieron": 8571,
      "listas": 8572,
      "captur": 8573,
      "Línea": 8574,
      "prohibido": 8575,
      "torial": 8576,
      "cuantas": 8577,
      "fortaleza": 8578,
      "Antigu": 8579,
      "municipio": 8580,
      "sirvientes": 8581,
      "femen": 8582,
      "84": 8583,
      "Años": 8584,
      "Br": 8585,
      "Bah": 8586,
      "Den": 8587,
      "IA": 8588,
      "One": 8589,
      "Ron": 8590,
      "ker": 8591,
      "enan": 8592,
      "lavar": 8593,
      "anu": 8594,
      "siga": 8595,
      "porno": 8596,
      "Elí": 8597,
      "ceres": 8598,
      "pidi": 8599,
      "navide": 8600,
      "alimentar": 8601,
      "posibles": 8602,
      "margen": 8603,
      "decidieron": 8604,
      "olvida": 8605,
      "estupendo": 8606,
      "estupefa": 8607,
      "Jeri": 8608,
      "aparecer": 8609,
      "Sabe": 8610,
      "Joab": 8611,
      "mérito": 8612,
      "construyó": 8613,
      "alcanza": 8614,
      "salvajes": 8615,
      "apartado": 8616,
      "dignos": 8617,
      "escogió": 8618,
      "atender": 8619,
      "pleno": 8620,
      "rodean": 8621,
      "representación": 8622,
      "manifieste": 8623,
      "pedazos": 8624,
      "gigante": 8625,
      "adolescentes": 8626,
      "húme": 8627,
      "ángulo": 8628,
      "arrepintieron": 8629,
      "87": 8630,
      "?'": 8631,
      "FE": 8632,
      "Javi": 8633,
      "Lis": 8634,
      "Rá": 8635,
      "Rin": 8636,
      "mel": 8637,
      "reras": 8638,
      "determin": 8639,
      "tome": 8640,
      "diar": 8641,
      "infieles": 8642,
      "leta": 8643,
      "vios": 8644,
      "rieron": 8645,
      "musi": 8646,
      "compara": 8647,
      "servían": 8648,
      "premios": 8649,
      "gidas": 8650,
      "bul": 8651,
      "diste": 8652,
      "salvado": 8653,
      "bendice": 8654,
      "trico": 8655,
      "lápiz": 8656,
      "desafi": 8657,
      "deberán": 8658,
      "arrodi": 8659,
      "tempr": 8660,
      "destruido": 8661,
      "Rock": 8662,
      "etapa": 8663,
      "huella": 8664,
      "entiendan": 8665,
      "gobernar": 8666,
      "emoción": 8667,
      "debían": 8668,
      "Hazlo": 8669,
      "conviertan": 8670,
      "Joseph": 8671,
      "simpatía": 8672,
      "600": 8673,
      "Cór": 8674,
      "Efra": 8675,
      "Hel": 8676,
      "Punto": 8677,
      "agru": 8678,
      "bé": 8679,
      "centen": 8680,
      "kia": 8681,
      "psico": 8682,
      "tías": 8683,
      "deran": 8684,
      "espar": 8685,
      "laterra": 8686,
      "redi": 8687,
      "dijer": 8688,
      "risas": 8689,
      "peru": 8690,
      "desobedecer": 8691,
      "turan": 8692,
      "guantes": 8693,
      "quizá": 8694,
      "énfasis": 8695,
      "versal": 8696,
      "mismí": 8697,
      "guió": 8698,
      "berto": 8699,
      "varia": 8700,
      "sanos": 8701,
      "Dire": 8702,
      "pesos": 8703,
      "viajes": 8704,
      "acompañante": 8705,
      "ándola": 8706,
      "autores": 8707,
      "oriente": 8708,
      "guez": 8709,
      "colinas": 8710,
      "sesenta": 8711,
      "encarce": 8712,
      "blanca": 8713,
      "Conozco": 8714,
      "afirmación": 8715,
      "populares": 8716,
      "científicos": 8717,
      "logías": 8718,
      "enlace": 8719,
      "anécdotas": 8720,
      "satisfechos": 8721,
      "Derecho": 8722,
      "Nat": 8723,
      "Sor": 8724,
      "Tre": 8725,
      "Zi": 8726,
      "ate": 8727,
      "útbol": 8728,
      "detuvo": 8729,
      "rejuvene": 8730,
      "mide": 8731,
      "visiones": 8732,
      "perseguidos": 8733,
      "istán": 8734,
      "breve": 8735,
      "amores": 8736,
      "vacía": 8737,
      "carro": 8738,
      "canas": 8739,
      "feo": 8740,
      "salvó": 8741,
      "grados": 8742,
      "encontre": 8743,
      "escuché": 8744,
      "Peque": 8745,
      "recibieron": 8746,
      "soldad": 8747,
      "razon": 8748,
      "alegrías": 8749,
      "engaños": 8750,
      "sorpresa": 8751,
      "ofrecen": 8752,
      "entiendo": 8753,
      "atacar": 8754,
      "agradecer": 8755,
      "teratura": 8756,
      "vergüen": 8757,
      "afán": 8758,
      "Plata": 8759,
      "cracia": 8760,
      "recomenda": 8761,
      "operación": 8762,
      "numerosos": 8763,
      "encuentre": 8764,
      "remordimientos": 8765,
      "George": 8766,
      "horizonte": 8767,
      "Jericó": 8768,
      "://": 8769,
      "Edi": 8770,
      "UE": 8771,
      "apreci": 8772,
      "win": 8773,
      "determinado": 8774,
      "lamos": 8775,
      "cimos": 8776,
      "representan": 8777,
      "doctor": 8778,
      "rama": 8779,
      "preso": 8780,
      "perfección": 8781,
      "matrimon": 8782,
      "solar": 8783,
      "quilla": 8784,
      "fila": 8785,
      "ayer": 8786,
      "entrego": 8787,
      "pensé": 8788,
      "meras": 8789,
      "Let": 8790,
      "acercar": 8791,
      "ayudarán": 8792,
      "ejemplares": 8793,
      "necesarios": 8794,
      "mágico": 8795,
      "brilla": 8796,
      "década": 8797,
      "Abrahán": 8798,
      "realización": 8799,
      "Naciones": 8800,
      "superar": 8801,
      "dueña": 8802,
      "convencidos": 8803,
      "burlaban": 8804,
      "oficiales": 8805,
      "delito": 8806,
      "Justo": 8807,
      "untamiento": 8808,
      "estructura": 8809,
      "biblio": 8810,
      "involucr": 8811,
      "seudón": 8812,
      "Diciembre": 8813,
      "IV": 8814,
      "oeste": 8815,
      "oficio": 8816,
      "tones": 8817,
      "perversidad": 8818,
      "comunes": 8819,
      "guste": 8820,
      "trate": 8821,
      "trozo": 8822,
      "sabores": 8823,
      "barro": 8824,
      "ayudo": 8825,
      "Diri": 8826,
      "nutri": 8827,
      "esperanzas": 8828,
      "trigo": 8829,
      "demostrado": 8830,
      "hablaron": 8831,
      "envidia": 8832,
      "regresa": 8833,
      "ablemente": 8834,
      "servirá": 8835,
      "hueso": 8836,
      "Querido": 8837,
      "aplicación": 8838,
      "hermoso": 8839,
      "considerar": 8840,
      "considerado": 8841,
      "vecino": 8842,
      "Inglaterra": 8843,
      "Fundación": 8844,
      "cubrir": 8845,
      "escenario": 8846,
      "terrenos": 8847,
      "BA": 8848,
      "Il": 8849,
      "Má": 8850,
      "Tex": 8851,
      "Yes": 8852,
      "agi": 8853,
      "clar": 8854,
      "cunci": 8855,
      "izas": 8856,
      "samente": 8857,
      "selec": 8858,
      "cierra": 8859,
      "retro": 8860,
      "dows": 8861,
      "doctr": 8862,
      "tris": 8863,
      "simp": 8864,
      "cayeron": 8865,
      "desobede": 8866,
      "serlo": 8867,
      "volar": 8868,
      "Novi": 8869,
      "Sean": 8870,
      "Seguimos": 8871,
      "credi": 8872,
      "corro": 8873,
      "lícito": 8874,
      "alegra": 8875,
      "Israelitas": 8876,
      "Dicen": 8877,
      "Caín": 8878,
      "jesu": 8879,
      "prometo": 8880,
      "enseñarle": 8881,
      "actualmente": 8882,
      "éndoles": 8883,
      "soluciones": 8884,
      "distintos": 8885,
      "Doce": 8886,
      "terrible": 8887,
      "manifestación": 8888,
      "fotografía": 8889,
      "símbolos": 8890,
      "ustria": 8891,
      "renunciar": 8892,
      "advirtió": 8893,
      "océano": 8894,
      "contraseña": 8895,
      "76": 8896,
      "LOS": 8897,
      "Sho": 8898,
      "edades": 8899,
      "ebook": 8900,
      "pada": 8901,
      "way": 8902,
      "and": 8903,
      "tez": 8904,
      "dol": 8905,
      "insi": 8906,
      "lev": 8907,
      "estes": 8908,
      "estaron": 8909,
      "mama": 8910,
      "doscientos": 8911,
      "hables": 8912,
      "Quería": 8913,
      "vacas": 8914,
      "vendría": 8915,
      "alizó": 8916,
      "hayas": 8917,
      "ayú": 8918,
      "conozcan": 8919,
      "gencias": 8920,
      "grano": 8921,
      "parecían": 8922,
      "minas": 8923,
      "Tec": 8924,
      "fría": 8925,
      "adoras": 8926,
      "ídolo": 8927,
      "dijera": 8928,
      "tratamiento": 8929,
      "celestial": 8930,
      "conversión": 8931,
      "ideal": 8932,
      "actuación": 8933,
      "castigados": 8934,
      "publicó": 8935,
      "Trabajo": 8936,
      "sufrido": 8937,
      "1998": 8938,
      "acaba": 8939,
      "arrepientan": 8940,
      "Buscando": 8941,
      "sagrados": 8942,
      "televisión": 8943,
      "influencia": 8944,
      "wnlo": 8945,
      "álatas": 8946,
      "participantes": 8947,
      "juramento": 8948,
      "idolatría": 8949,
      "AP": 8950,
      "Ata": 8951,
      "Bre": 8952,
      "BLA": 8953,
      "Hos": 8954,
      "Jó": 8955,
      "cy": 8956,
      "ime": 8957,
      "mbra": 8958,
      "ror": 8959,
      "ículo": 8960,
      "orillas": 8961,
      "redención": 8962,
      "teoría": 8963,
      "contexto": 8964,
      "locales": 8965,
      "miras": 8966,
      "sucu": 8967,
      "sias": 8968,
      "sitúa": 8969,
      "desdibu": 8970,
      "coles": 8971,
      "piración": 8972,
      "hilo": 8973,
      "éstas": 8974,
      "llevamos": 8975,
      "toro": 8976,
      "Contra": 8977,
      "Regres": 8978,
      "desafí": 8979,
      "cillos": 8980,
      "encontrará": 8981,
      "cky": 8982,
      "Unidad": 8983,
      "vincu": 8984,
      "Carta": 8985,
      "Asunción": 8986,
      "cariños": 8987,
      "nariz": 8988,
      "ministerio": 8989,
      "rápida": 8990,
      "novedades": 8991,
      "contenidos": 8992,
      "Mensaje": 8993,
      "Ejér": 8994,
      "relámpa": 8995,
      "reloj": 8996,
      "sencillo": 8997,
      "Atlántico": 8998,
      "Ag": 8999,
      "FI": 9000,
      "Tim": 9001,
      "bella": 9002,
      "clo": 9003,
      "frecu": 9004,
      "radio": 9005,
      "deposi": 9006,
      "ensu": 9007,
      "estir": 9008,
      "lato": 9009,
      "arnos": 9010,
      "redes": 9011,
      "diab": 9012,
      "ingen": 9013,
      "inquie": 9014,
      "sientas": 9015,
      "porción": 9016,
      "ril": 9017,
      "prin": 9018,
      "desgas": 9019,
      "desconocido": 9020,
      "mul": 9021,
      "cometer": 9022,
      "mete": 9023,
      "coti": 9024,
      "manga": 9025,
      "hombro": 9026,
      "Cur": 9027,
      "disper": 9028,
      "trascen": 9029,
      "enseñaron": 9030,
      "elecciones": 9031,
      "utilidad": 9032,
      "vídeo": 9033,
      "relatos": 9034,
      "interesado": 9035,
      "ataques": 9036,
      "Volun": 9037,
      "Tomás": 9038,
      "Consejos": 9039,
      "hazlo": 9040,
      "oculto": 9041,
      "emociones": 9042,
      "prostitu": 9043,
      "murcié": 9044,
      "Mirad": 9045,
      "Campe": 9046,
      "negocios": 9047,
      "Wikipedia": 9048,
      "combate": 9049,
      "alterna": 9050,
      "central": 9051,
      "impresion": 9052,
      "paisaje": 9053,
      "aeropuerto": 9054,
      "Árbol": 9055,
      "wnload": 9056,
      "91": 9057,
      "Añ": 9058,
      "Abri": 9059,
      "Hé": 9060,
      "Ojo": 9061,
      "Sun": 9062,
      "ek": 9063,
      "iva": 9064,
      "rando": 9065,
      "sho": 9066,
      "tter": 9067,
      "vadas": 9068,
      "ens": 9069,
      "escena": 9070,
      "orá": 9071,
      "ordena": 9072,
      "ald": 9073,
      "confusión": 9074,
      "confines": 9075,
      "infin": 9076,
      "leemos": 9077,
      "cumbre": 9078,
      "cuyas": 9079,
      "mati": 9080,
      "cerró": 9081,
      "mantienen": 9082,
      "traves": 9083,
      "piden": 9084,
      "Septiembre": 9085,
      "dula": 9086,
      "nacidos": 9087,
      "galar": 9088,
      "gicamente": 9089,
      "ponés": 9090,
      "pongas": 9091,
      "dros": 9092,
      "pañas": 9093,
      "financi": 9094,
      "trarse": 9095,
      "144": 9096,
      "adoran": 9097,
      "Diseño": 9098,
      "ambiente": 9099,
      "transcur": 9100,
      "transcurso": 9101,
      "tomará": 9102,
      "levantará": 9103,
      "entrará": 9104,
      "buscarlo": 9105,
      "recibirán": 9106,
      "descarri": 9107,
      "ubicado": 9108,
      "comienzan": 9109,
      "rodea": 9110,
      "religiosas": 9111,
      "creatividad": 9112,
      "ejecución": 9113,
      "convertirá": 9114,
      "nombrado": 9115,
      "divorcio": 9116,
      "monedas": 9117,
      "anécdota": 9118,
      "alcohol": 9119,
      "esclavitud": 9120,
      "resolver": 9121,
      "95": 9122,
      "Ala": 9123,
      "Asiente": 9124,
      "Gálatas": 9125,
      "Mel": 9126,
      "Samar": 9127,
      "XV": 9128,
      "cres": 9129,
      "selección": 9130,
      "devolver": 9131,
      "entu": 9132,
      "reales": 9133,
      "dilu": 9134,
      "viol": 9135,
      "cuchar": 9136,
      "tratan": 9137,
      "pito": 9138,
      "amó": 9139,
      "estaciones": 9140,
      "navidad": 9141,
      "creciendo": 9142,
      "rasgos": 9143,
      "Allá": 9144,
      "Mej": 9145,
      "Mace": 9146,
      "cultad": 9147,
      "Arma": 9148,
      "seguiré": 9149,
      "soldado": 9150,
      "invitado": 9151,
      "aparecieron": 9152,
      "perdono": 9153,
      "transformación": 9154,
      "dedicar": 9155,
      "Pare": 9156,
      "circo": 9157,
      "tamb": 9158,
      "separados": 9159,
      "Calle": 9160,
      "Homenaje": 9161,
      "cercanos": 9162,
      "parábolas": 9163,
      "selva": 9164,
      "agradecidos": 9165,
      "Tampoco": 9166,
      "Imagen": 9167,
      "compasivo": 9168,
      "Ak": 9169,
      "Bla": 9170,
      "Boo": 9171,
      "Frente": 9172,
      "Var": 9173,
      "ator": 9174,
      "agres": 9175,
      "icio": 9176,
      "jaba": 9177,
      "yes": 9178,
      "África": 9179,
      "ígenes": 9180,
      "deuda": 9181,
      "depresión": 9182,
      "departamento": 9183,
      "titud": 9184,
      "mitos": 9185,
      "sicas": 9186,
      "rit": 9187,
      "Ellas": 9188,
      "desvi": 9189,
      "trajeron": 9190,
      "ternura": 9191,
      "creí": 9192,
      "derrum": 9193,
      "cortar": 9194,
      "decide": 9195,
      "mp3": 9196,
      "Patr": 9197,
      "comieron": 9198,
      "Habi": 9199,
      "club": 9200,
      "desapar": 9201,
      "Pertene": 9202,
      "cristianismo": 9203,
      "Creación": 9204,
      "Extra": 9205,
      "levantaron": 9206,
      "explicaciones": 9207,
      "teriormente": 9208,
      "utiliza": 9209,
      "sensaciones": 9210,
      "responsabilidades": 9211,
      "jornada": 9212,
      "Costa": 9213,
      "dificultad": 9214,
      "Dejemos": 9215,
      "Palacio": 9216,
      "tarjeta": 9217,
      "certidumbre": 9218,
      "variaciones": 9219,
      "desafíos": 9220,
      ")...": 9221,
      "2a": 9222,
      "AH": 9223,
      "Fan": 9224,
      "Tel": 9225,
      "Ubi": 9226,
      "atado": 9227,
      "atemor": 9228,
      "had": 9229,
      "deón": 9230,
      "desi": 9231,
      "delan": 9232,
      "esencia": 9233,
      "arás": 9234,
      "toman": 9235,
      "omni": 9236,
      "abs": 9237,
      "sacado": 9238,
      "tanta": 9239,
      "expuestos": 9240,
      "expecta": 9241,
      "pasiones": 9242,
      "obtiene": 9243,
      "labores": 9244,
      "neu": 9245,
      "presento": 9246,
      "iego": 9247,
      "volví": 9248,
      "audi": 9249,
      "Andr": 9250,
      "entendieron": 9251,
      "ejes": 9252,
      "escucharon": 9253,
      "tróleo": 9254,
      "recibirá": 9255,
      "físico": 9256,
      "sirviendo": 9257,
      "descendiente": 9258,
      "convencido": 9259,
      "descubrió": 9260,
      "Hotel": 9261,
      "iluminación": 9262,
      "1989": 9263,
      "Preguntas": 9264,
      "maravilla": 9265,
      "Estuvimos": 9266,
      "manifestó": 9267,
      "denomin": 9268,
      "probablemente": 9269,
      "Imperio": 9270,
      "encoge": 9271,
      "preocupaciones": 9272,
      "intentando": 9273,
      "implica": 9274,
      "Arriba": 9275,
      "inaugu": 9276,
      "Jóvenes": 9277,
      "73": 9278,
      "Ador": 9279,
      "Dem": 9280,
      "aga": 9281,
      "azo": 9282,
      "gli": 9283,
      "senten": 9284,
      "íz": 9285,
      "depor": 9286,
      "ense": 9287,
      "enden": 9288,
      "ladri": 9289,
      "armon": 9290,
      "asuntos": 9291,
      "rebaños": 9292,
      "alturas": 9293,
      "tol": 9294,
      "tiran": 9295,
      "tible": 9296,
      "consigue": 9297,
      "cución": 9298,
      "despo": 9299,
      "despre": 9300,
      "compone": 9301,
      "motivos": 9302,
      "moverse": 9303,
      "pula": 9304,
      "voto": 9305,
      "pasaba": 9306,
      "hoteles": 9307,
      "Alma": 9308,
      "dispone": 9309,
      "judi": 9310,
      "actor": 9311,
      "claridad": 9312,
      "virgen": 9313,
      "elevado": 9314,
      "Ant": 9315,
      "plazas": 9316,
      "cómoda": 9317,
      "Yavé": 9318,
      "llevados": 9319,
      "acompañada": 9320,
      "entrando": 9321,
      "pasarán": 9322,
      "surgió": 9323,
      "apartó": 9324,
      "atraves": 9325,
      "huevo": 9326,
      "Canción": 9327,
      "Dieciséis": 9328,
      "frontera": 9329,
      "convoca": 9330,
      "definitiva": 9331,
      "durmiendo": 9332,
      "categorías": 9333,
      "Publicado": 9334,
      "Noviembre": 9335,
      "120": 9336,
      "Acerca": 9337,
      "Edad": 9338,
      "Hch": 9339,
      "TS": 9340,
      "Vía": 9341,
      "Vio": 9342,
      "Zo": 9343,
      "afuera": 9344,
      "jera": 9345,
      "sello": 9346,
      "asal": 9347,
      "requiere": 9348,
      "sedi": 9349,
      "tici": 9350,
      "conde": 9351,
      "consta": 9352,
      "concreto": 9353,
      "suger": 9354,
      "deshacerse": 9355,
      "guir": 9356,
      "veamos": 9357,
      "creáis": 9358,
      "crecimiento": 9359,
      "crepúsculo": 9360,
      "Deci": 9361,
      "Debes": 9362,
      "obtuvo": 9363,
      "ingre": 9364,
      "tólica": 9365,
      "universidad": 9366,
      "mortales": 9367,
      "danos": 9368,
      "Diseñ": 9369,
      "calma": 9370,
      "culpar": 9371,
      "asegú": 9372,
      "conseguido": 9373,
      "Crees": 9374,
      "aceptado": 9375,
      "producir": 9376,
      "diferencias": 9377,
      "construido": 9378,
      "oírlo": 9379,
      "desaparecer": 9380,
      "Gracia": 9381,
      "Organ": 9382,
      "enormes": 9383,
      "pobreza": 9384,
      "Enseñar": 9385,
      "jugador": 9386,
      "gigantes": 9387,
      "ológico": 9388,
      "facilidad": 9389,
      "zapatos": 9390,
      "independiente": 9391,
      "habrían": 9392,
      "Inicio": 9393,
      "electrónico": 9394,
      "requisitos": 9395,
      "Hen": 9396,
      "Oli": 9397,
      "Tab": 9398,
      "Tele": 9399,
      "úbi": 9400,
      "esquina": 9401,
      "diz": 9402,
      "contaba": 9403,
      "sumar": 9404,
      "raciones": 9405,
      "paga": 9406,
      "ficas": 9407,
      "lleguen": 9408,
      "Sime": 9409,
      "Defen": 9410,
      "presiden": 9411,
      "conociendo": 9412,
      "judici": 9413,
      "Consi": 9414,
      "Refle": 9415,
      "ayudando": 9416,
      "seguramente": 9417,
      "escuchab": 9418,
      "Papá": 9419,
      "sostiene": 9420,
      "partida": 9421,
      "cuida": 9422,
      "Universo": 9423,
      "correctas": 9424,
      "intero": 9425,
      "Resu": 9426,
      "1984": 9427,
      "ministros": 9428,
      "conduce": 9429,
      "distinto": 9430,
      "tranquila": 9431,
      "acordó": 9432,
      "afirmaciones": 9433,
      "invocan": 9434,
      "Esaú": 9435,
      "materia": 9436,
      "estadounidense": 9437,
      "Alejandro": 9438,
      "Windows": 9439,
      "Tecno": 9440,
      "CC": 9441,
      "Dor": 9442,
      "Far": 9443,
      "Gon": 9444,
      "Pío": 9445,
      "Rosa": 9446,
      "Sob": 9447,
      "df": 9448,
      "eamente": 9449,
      "nal": 9450,
      "són": 9451,
      "ze": 9452,
      "ífica": 9453,
      "dem": 9454,
      "escán": 9455,
      "alber": 9456,
      "concre": 9457,
      "sudor": 9458,
      "infiel": 9459,
      "esten": 9460,
      "compró": 9461,
      "pot": 9462,
      "islas": 9463,
      "dispuesta": 9464,
      "salga": 9465,
      "banco": 9466,
      "antemano": 9467,
      ".........": 9468,
      "Sangre": 9469,
      "plano": 9470,
      "grima": 9471,
      "llamaban": 9472,
      "Poesía": 9473,
      "grandeza": 9474,
      "dejaré": 9475,
      "empeño": 9476,
      "ónicos": 9477,
      "Pastor": 9478,
      "establece": 9479,
      "interesante": 9480,
      "esfuerzan": 9481,
      "muevas": 9482,
      "escogido": 9483,
      "escogidos": 9484,
      "vieja": 9485,
      "blog": 9486,
      "multipli": 9487,
      "hermosura": 9488,
      "murmu": 9489,
      "vehículo": 9490,
      "enfado": 9491,
      "destinado": 9492,
      "proporcion": 9493,
      "YYYY": 9494,
      "Prome": 9495,
      "Bautista": 9496,
[...]
